{
  "version": "1.0",
  "truncation": null,
  "padding": null,
  "added_tokens": [
    {
      "id": 0,
      "content": "<UNK>",
      "single_word": false,
      "lstrip": false,
      "rstrip": false,
      "normalized": false,
      "special": true
    },
    {
      "id": 1,
      "content": "<PAD>",
      "single_word": false,
      "lstrip": false,
      "rstrip": false,
      "normalized": false,
      "special": true
    },
    {
      "id": 2,
      "content": "<BOS>",
      "single_word": false,
      "lstrip": false,
      "rstrip": false,
      "normalized": false,
      "special": true
    },
    {
      "id": 3,
      "content": "<EOS>",
      "single_word": false,
      "lstrip": false,
      "rstrip": false,
      "normalized": false,
      "special": true
    },
    {
      "id": 4,
      "content": "<NL>",
      "single_word": false,
      "lstrip": false,
      "rstrip": false,
      "normalized": false,
      "special": true
    }
  ],
  "normalizer": null,
  "pre_tokenizer": {
    "type": "Whitespace"
  },
  "post_processor": null,
  "decoder": null,
  "model": {
    "type": "BPE",
    "dropout": null,
    "unk_token": "<UNK>",
    "continuing_subword_prefix": null,
    "end_of_word_suffix": null,
    "fuse_unk": false,
    "byte_fallback": false,
    "ignore_merges": false,
    "vocab": {
      "<UNK>": 0,
      "<PAD>": 1,
      "<BOS>": 2,
      "<EOS>": 3,
      "<NL>": 4,
      "!": 5,
      "\"": 6,
      "#": 7,
      "$": 8,
      "%": 9,
      "&": 10,
      "'": 11,
      "(": 12,
      ")": 13,
      "*": 14,
      "+": 15,
      ",": 16,
      "-": 17,
      ".": 18,
      "/": 19,
      "0": 20,
      "1": 21,
      "2": 22,
      "3": 23,
      "4": 24,
      "5": 25,
      "6": 26,
      "7": 27,
      "8": 28,
      "9": 29,
      ":": 30,
      ";": 31,
      "<": 32,
      "=": 33,
      ">": 34,
      "?": 35,
      "@": 36,
      "A": 37,
      "B": 38,
      "C": 39,
      "D": 40,
      "E": 41,
      "F": 42,
      "G": 43,
      "H": 44,
      "I": 45,
      "J": 46,
      "K": 47,
      "L": 48,
      "M": 49,
      "N": 50,
      "O": 51,
      "P": 52,
      "Q": 53,
      "R": 54,
      "S": 55,
      "T": 56,
      "U": 57,
      "V": 58,
      "W": 59,
      "X": 60,
      "Y": 61,
      "Z": 62,
      "[": 63,
      "\\": 64,
      "]": 65,
      "^": 66,
      "_": 67,
      "`": 68,
      "a": 69,
      "b": 70,
      "c": 71,
      "d": 72,
      "e": 73,
      "f": 74,
      "g": 75,
      "h": 76,
      "i": 77,
      "j": 78,
      "k": 79,
      "l": 80,
      "m": 81,
      "n": 82,
      "o": 83,
      "p": 84,
      "q": 85,
      "r": 86,
      "s": 87,
      "t": 88,
      "u": 89,
      "v": 90,
      "w": 91,
      "x": 92,
      "y": 93,
      "z": 94,
      "{": 95,
      "|": 96,
      "}": 97,
      "~": 98,
      "±": 99,
      "—": 100,
      "→": 101,
      "≈": 102,
      "─": 103,
      "═": 104,
      "✓": 105,
      "r1": 106,
      "r2": 107,
      "==": 108,
      "DI": 109,
      "LDI": 110,
      "══": 111,
      "====": 112,
      "AD": 113,
      "──": 114,
      "RE": 115,
      "ST": 116,
      "in": 117,
      "STO": 118,
      "0x": 119,
      "STORE": 120,
      "r20": 121,
      "════": 122,
      "ADD": 123,
      "re": 124,
      "r3": 125,
      "r0": 126,
      "r4": 127,
      "te": 128,
      "00": 129,
      "r7": 130,
      "MP": 131,
      "========": 132,
      "────": 133,
      "on": 134,
      "le": 135,
      "or": 136,
      "st": 137,
      "en": 138,
      "--": 139,
      "er": 140,
      "ar": 141,
      "════════": 142,
      "co": 143,
      "FF": 144,
      "it": 145,
      "an": 146,
      "r10": 147,
      "r5": 148,
      "se": 149,
      "at": 150,
      "ro": 151,
      "he": 152,
      "CMP": 153,
      "r6": 154,
      "de": 155,
      "ra": 156,
      "r17": 157,
      "LO": 158,
      "al": 159,
      "r11": 160,
      "LOAD": 161,
      "to": 162,
      "================": 163,
      "────────": 164,
      "lo": 165,
      "r18": 166,
      "r9": 167,
      "r12": 168,
      "LL": 169,
      "r21": 170,
      "JMP": 171,
      "ck": 172,
      "ter": 173,
      "10": 174,
      "MO": 175,
      "me": 176,
      "_d": 177,
      "ing": 178,
      "r22": 179,
      "ine": 180,
      "un": 181,
      "CA": 182,
      "op": 183,
      "ce": 184,
      "ch": 185,
      "CALL": 186,
      "MOV": 187,
      "as": 188,
      "is": 189,
      "r15": 190,
      "t_": 191,
      "RA": 192,
      "r14": 193,
      "════════════════": 194,
      "and": 195,
      "ion": 196,
      "ri": 197,
      "la": 198,
      "ad": 199,
      "ne": 200,
      "JZ": 201,
      "ve": 202,
      "CMPI": 203,
      "r13": 204,
      "_c": 205,
      "ll": 206,
      "bu": 207,
      "JN": 208,
      "JNZ": 209,
      "one": 210,
      "sc": 211,
      "11": 212,
      "raw": 213,
      "the": 214,
      "no": 215,
      "r16": 216,
      "BU": 217,
      "col": 218,
      "heck": 219,
      "32": 220,
      "mp": 221,
      "RO": 222,
      "ur": 223,
      "SH": 224,
      "by": 225,
      "ct": 226,
      "row": 227,
      "loop": 228,
      "TE": 229,
      "BUF": 230,
      "_re": 231,
      "SE": 232,
      "0x4": 233,
      "ADDI": 234,
      "ent": 235,
      "_done": 236,
      "25": 237,
      "r25": 238,
      "0xFF": 239,
      "R_": 240,
      "ut": 241,
      "ate": 242,
      "────────────────": 243,
      "12": 244,
      "SU": 245,
      "ig": 246,
      "000": 247,
      "reen": 248,
      "SUB": 249,
      "el": 250,
      "----": 251,
      "r8": 252,
      "0x7": 253,
      "OP": 254,
      "for": 255,
      "SC": 256,
      "mo": 257,
      "d_": 258,
      "ow": 259,
      "xt": 260,
      "CO": 261,
      "r23": 262,
      "ti": 263,
      "ff": 264,
      "LT": 265,
      "def": 266,
      "r19": 267,
      "sp": 268,
      "byte": 269,
      "th": 270,
      "..": 271,
      "_loop": 272,
      "us": 273,
      "RAM": 274,
      "pi": 275,
      "line": 276,
      "ma": 277,
      "po": 278,
      "XT": 279,
      "r31": 280,
      "ND": 281,
      "fi": 282,
      "coun": 283,
      "16": 284,
      "di": 285,
      "POP": 286,
      "ab": 287,
      "0x2": 288,
      "str": 289,
      "define": 290,
      "80": 291,
      "ul": 292,
      "draw": 293,
      "ase": 294,
      "PU": 295,
      "ge": 296,
      "lay": 297,
      "CT": 298,
      "ss": 299,
      "PUSH": 300,
      "ren": 301,
      "il": 302,
      "BLT": 303,
      "TEXT": 304,
      "100": 305,
      "UL": 306,
      "MUL": 307,
      "screen": 308,
      "hi": 309,
      "bl": 310,
      "30": 311,
      "================================": 312,
      "pro": 313,
      "ver": 314,
      "up": 315,
      "all": 316,
      "TI": 317,
      "con": 318,
      "ht": 319,
      "code": 320,
      "40": 321,
      "ed": 322,
      "0x5": 323,
      "bo": 324,
      "color": 325,
      "rite": 326,
      "GE": 327,
      "do": 328,
      "RECT": 329,
      "cur": 330,
      "20": 331,
      "wit": 332,
      "========================================": 333,
      "lear": 334,
      "RECTF": 335,
      "_s": 336,
      "der": 337,
      "0x0": 338,
      "48": 339,
      "0x6": 340,
      "COL": 341,
      "STRO": 342,
      "44": 343,
      "fra": 344,
      "xel": 345,
      "ue": 346,
      "set": 347,
      "red": 348,
      "ffer": 349,
      "ry": 350,
      "=========================================": 351,
      "ip": 352,
      "play": 353,
      "RET": 354,
      "0x00": 355,
      "════════════════════════════════": 356,
      "256": 357,
      "buffer": 358,
      "BGE": 359,
      "with": 360,
      "ke": 361,
      "ap": 362,
      "frame": 363,
      "50": 364,
      "_BUF": 365,
      "star": 366,
      "IN": 367,
      "pixel": 368,
      "put": 369,
      "wor": 370,
      "FFFF": 371,
      "si": 372,
      "---": 373,
      "char": 374,
      "len": 375,
      "rom": 376,
      "li": 377,
      "from": 378,
      "ave": 379,
      "ft": 380,
      "ation": 381,
      "LE": 382,
      "pos": 383,
      "Re": 384,
      "sor": 385,
      "r26": 386,
      "ult": 387,
      "kip": 388,
      "_ret": 389,
      "count": 390,
      "ome": 391,
      "pat": 392,
      "add": 393,
      "ty": 394,
      "DE": 395,
      "CH": 396,
      "spa": 397,
      "0x1": 398,
      "ame": 399,
      "nu": 400,
      "of": 401,
      "r24": 402,
      "bar": 403,
      "if": 404,
      "tab": 405,
      "ack": 406,
      "check": 407,
      "_ne": 408,
      "--------": 409,
      "base": 410,
      "key": 411,
      "sh": 412,
      "start": 413,
      "sto": 414,
      "_check": 415,
      "ition": 416,
      "text": 417,
      "main": 418,
      "rig": 419,
      "_x": 420,
      "pe": 421,
      "Ge": 422,
      "gra": 423,
      "id": 424,
      "r28": 425,
      "try": 426,
      "PSE": 427,
      "_y": 428,
      "RI": 429,
      "res": 430,
      "ex": 431,
      "SI": 432,
      "AND": 433,
      "fo": 434,
      "ment": 435,
      "pb": 436,
      "r27": 437,
      "AN": 438,
      "min": 439,
      "ds": 440,
      "write": 441,
      "draw_": 442,
      "ent_": 443,
      "tile": 444,
      "Draw": 445,
      "iz": 446,
      "vi": 447,
      "Check": 448,
      "COLS": 449,
      "CU": 450,
      "igit": 451,
      "ction": 452,
      "TCH": 453,
      "es": 454,
      "0x3": 455,
      "88": 456,
      "ROW": 457,
      "=====": 458,
      "),": 459,
      "128": 460,
      "buf": 461,
      "py": 462,
      "counter": 463,
      "und": 464,
      "────────────────────────────────": 465,
      "render": 466,
      "_o": 467,
      "dow": 468,
      "0xF": 469,
      "right": 470,
      "qu": 471,
      "wa": 472,
      "cursor": 473,
      "sem": 474,
      "ild": 475,
      "position": 476,
      "15": 477,
      "22": 478,
      "bi": 479,
      "use": 480,
      "RATCH": 481,
      "SCRATCH": 482,
      "im": 483,
      "OS": 484,
      "bit": 485,
      "store": 486,
      "em": 487,
      "CC": 488,
      "DRA": 489,
      "114": 490,
      "be": 491,
      "move": 492,
      "AR": 493,
      "ts": 494,
      "input": 495,
      "ac": 496,
      "The": 497,
      "ive": 498,
      "assem": 499,
      "->": 500,
      "ute": 501,
      "end": 502,
      "ard": 503,
      "isplay": 504,
      "0xFFFFFF": 505,
      "In": 506,
      "per": 507,
      "CUR_": 508,
      "DRAW": 509,
      "read": 510,
      "enter": 511,
      "out": 512,
      "rent": 513,
      "0000": 514,
      "sg": 515,
      "par": 516,
      "green": 517,
      "win": 518,
      "main_loop": 519,
      "mm": 520,
      "200": 521,
      "OR": 522,
      "k_": 523,
      "skip": 524,
      "Co": 525,
      "═══": 526,
      "p_": 527,
      "ON": 528,
      "P_": 529,
      "left": 530,
      "low": 531,
      "FRAM": 532,
      "dex": 533,
      "space": 534,
      "FRAME": 535,
      "14": 536,
      "NE": 537,
      "DRAWTEXT": 538,
      "index": 539,
      "roll": 540,
      "are": 541,
      "clear": 542,
      "val": 543,
      "tern": 544,
      "c_": 545,
      "null": 546,
      "PA": 547,
      "ag": 548,
      "r_": 549,
      "mode": 550,
      "═══════": 551,
      "═══════════════": 552,
      "no_": 553,
      "copy": 554,
      "24": 555,
      "ash": 556,
      "init": 557,
      "MA": 558,
      "am": 559,
      "cre": 560,
      "biome": 561,
      "ach": 562,
      "ten": 563,
      "reg": 564,
      "PSET": 565,
      "cl": 566,
      "state": 567,
      "asm": 568,
      "0x780": 569,
      "r29": 570,
      "worl": 571,
      "cle": 572,
      "FF00": 573,
      "back": 574,
      "so": 575,
      "G_": 576,
      "bly": 577,
      "wn": 578,
      "comp": 579,
      "app": 580,
      "SI_": 581,
      "FI": 582,
      "BA": 583,
      "vis": 584,
      "ted": 585,
      "ir": 586,
      "scroll": 587,
      "poin": 588,
      "ly": 589,
      "pa": 590,
      "top": 591,
      "assembly": 592,
      "termin": 593,
      "atus": 594,
      "blue": 595,
      "Th": 596,
      "pre": 597,
      "64": 598,
      "su": 599,
      "ity": 600,
      "49": 601,
      "display": 602,
      "save": 603,
      "═══════════════════════════════": 604,
      "SHR": 605,
      "ight": 606,
      "═══════════════════════════════════════════════════════════════": 607,
      "itle": 608,
      "do_": 609,
      "ark": 610,
      "ance": 611,
      "et": 612,
      "off": 613,
      "60": 614,
      "TY": 615,
      "digit": 616,
      "hase": 617,
      "gle": 618,
      "we": 619,
      "_next": 620,
      "99": 621,
      "ber": 622,
      "file": 623,
      "TION": 624,
      "to_": 625,
      "S_": 626,
      "STA": 627,
      "string": 628,
      "AA": 629,
      "ory": 630,
      "PI": 631,
      "ble": 632,
      "andle": 633,
      "current": 634,
      "13": 635,
      "0x40": 636,
      "af": 637,
      "DESC": 638,
      "mple": 639,
      "255": 640,
      "RIP": 641,
      "world_": 642,
      "This": 643,
      "_h": 644,
      "DESCRIP": 645,
      "DESCRIPTION": 646,
      "ta": 647,
      "ator": 648,
      "player": 649,
      "pattern": 650,
      "r30": 651,
      "33": 652,
      "101": 653,
      "ALT": 654,
      "bor": 655,
      "GeOS": 656,
      "ec": 657,
      "fa": 658,
      "not_": 659,
      "value": 660,
      "70": 661,
      "lines": 662,
      "age": 663,
      "om": 664,
      "board": 665,
      "date": 666,
      "run": 667,
      "ress": 668,
      "opcode": 669,
      "table": 670,
      "68": 671,
      "atch": 672,
      "R_BUF": 673,
      "um": 674,
      "using": 675,
      "Clear": 676,
      "por": 677,
      "status": 678,
      "igh": 679,
      "----------------": 680,
      "XX": 681,
      "BASE": 682,
      "KE": 683,
      "cm": 684,
      "cess": 685,
      "0x78": 686,
      "ece": 687,
      "ic": 688,
      "offset": 689,
      "28": 690,
      "ial": 691,
      "ister": 692,
      "rows": 693,
      "):": 694,
      "ys": 695,
      "ot": 696,
      "0x30": 697,
      "cy": 698,
      "EL": 699,
      "KEY": 700,
      "55": 701,
      "after": 702,
      "D_": 703,
      "handle": 704,
      "COLO": 705,
      "HI": 706,
      "ME": 707,
      "lp": 708,
      "px": 709,
      "cell": 710,
      "pixels": 711,
      "CSI_": 712,
      "St": 713,
      "ol": 714,
      "ont": 715,
      "angle": 716,
      "FILL": 717,
      "M_": 718,
      "test": 719,
      "rot": 720,
      "76": 721,
      "own": 722,
      "try_": 723,
      "31": 724,
      "AB": 725,
      "HALT": 726,
      "can": 727,
      "blen": 728,
      "DIV": 729,
      "end_": 730,
      "address": 731,
      "new": 732,
      "promp": 733,
      "LI": 734,
      "_to_": 735,
      "EN": 736,
      "center": 737,
      "MOD": 738,
      "_reg": 739,
      "int": 740,
      "type": 741,
      "num": 742,
      "tom": 743,
      "66": 744,
      "chars": 745,
      "0x2000": 746,
      "UN": 747,
      "show": 748,
      "xt_": 749,
      "hex": 750,
      "not": 751,
      "write_": 752,
      "ay": 753,
      "each": 754,
      "ull": 755,
      "whi": 756,
      "0x8": 757,
      "120": 758,
      "sult": 759,
      "vance": 760,
      "addr": 761,
      "based": 762,
      "C_": 763,
      "PTY": 764,
      "ran": 765,
      "fir": 766,
      "0x00FF00": 767,
      "CUR_ROW": 768,
      "mmand": 769,
      "chan": 770,
      "_ok": 771,
      "rect": 772,
      "_draw": 773,
      "SEND": 774,
      "Lo": 775,
      "ses": 776,
      "piece": 777,
      "prompt": 778,
      "zer": 779,
      "0x40D": 780,
      "zero": 781,
      ">>": 782,
      "BB": 783,
      "spon": 784,
      "down": 785,
      "port": 786,
      "map": 787,
      "gram": 788,
      "result": 789,
      "cal": 790,
      "window": 791,
      "dy": 792,
      "_result": 793,
      "0x6A": 794,
      "number": 795,
      "VE": 796,
      "game": 797,
      "over": 798,
      "PARAM": 799,
      "65": 800,
      "time": 801,
      "water": 802,
      "CSI_PARAM": 803,
      "97": 804,
      "_e": 805,
      "ated": 806,
      "stru": 807,
      "ANDI": 808,
      "400": 809,
      "title": 810,
      "ata": 811,
      "_down": 812,
      "but": 813,
      "hift": 814,
      "Bu": 815,
      "pla": 816,
      "round": 817,
      "crement": 818,
      ").": 819,
      "Write": 820,
      "l_": 821,
      "ursor": 822,
      "program": 823,
      "WIN": 824,
      "_T": 825,
      "s_": 826,
      "ctive": 827,
      "0x4E": 828,
      "0x0000": 829,
      "Read": 830,
      "0xFFFFFFFF": 831,
      "compute": 832,
      "cmd_": 833,
      "SEND_BUF": 834,
      "ho": 835,
      "_check_result": 836,
      "first": 837,
      "Con": 838,
      "ault": 839,
      "command": 840,
      "next": 841,
      "blend": 842,
      "A1": 843,
      "It": 844,
      "STR_BUF": 845,
      "tep": 846,
      "build": 847,
      "default": 848,
      "CUR_COL": 849,
      "clo": 850,
      "rid": 851,
      "sponse": 852,
      "place": 853,
      "_b": 854,
      "_f": 855,
      "SUBI": 856,
      "bot": 857,
      "pb_ret": 858,
      "ROWS": 859,
      "58": 860,
      "De": 861,
      "===": 862,
      "spawn": 863,
      "via": 864,
      "register": 865,
      "ighbor": 866,
      "CE": 867,
      "dark": 868,
      "how": 869,
      "_csi": 870,
      "111": 871,
      "....": 872,
      "fill": 873,
      "ializ": 874,
      "18": 875,
      "90": 876,
      "27": 877,
      "Phase": 878,
      "ill": 879,
      "anim": 880,
      "PSETI": 881,
      "AI": 882,
      "mc": 883,
      "0xFFB": 884,
      "38": 885,
      "TU": 886,
      "ground": 887,
      "ser": 888,
      "arch": 889,
      "0x200": 890,
      "lick": 891,
      "Init": 892,
      "300": 893,
      "EX": 894,
      "cam": 895,
      "ton": 896,
      "_digit": 897,
      "neighbor": 898,
      "SHL": 899,
      "bottom": 900,
      "into": 901,
      "0x5000": 902,
      "parse": 903,
      "Build": 904,
      "110": 905,
      "imple": 906,
      "v_": 907,
      "108": 908,
      "nel": 909,
      "ext": 910,
      "advance": 911,
      "SET": 912,
      "then": 913,
      "STATU": 914,
      "IKEY": 915,
      "XEL": 916,
      "rate": 917,
      "RAND": 918,
      "_clear": 919,
      "PIXEL": 920,
      "umn": 921,
      ">=": 922,
      "column": 923,
      "ellow": 924,
      "path": 925,
      "_n": 926,
      "words": 927,
      "Load": 928,
      "42": 929,
      "A0": 930,
      "wall": 931,
      "rain": 932,
      "exec": 933,
      "pb_csi": 934,
      "append_": 935,
      "sin": 936,
      "tra": 937,
      "wave": 938,
      "stan": 939,
      "update": 940,
      "_skip": 941,
      "++": 942,
      "ew": 943,
      "mon": 944,
      "ded": 945,
      "ments": 946,
      "LIN": 947,
      "ile": 948,
      "era": 949,
      "check_": 950,
      "_hash": 951,
      "CK": 952,
      "Row": 953,
      "hist": 954,
      "If": 955,
      "load": 956,
      "max": 957,
      "0x3000": 958,
      "button": 959,
      "cor": 960,
      "ove": 961,
      "sig": 962,
      "tur": 963,
      "ze": 964,
      "indi": 965,
      "output": 966,
      "area": 967,
      "idth": 968,
      "HIT": 969,
      "_p": 970,
      "response": 971,
      "get_": 972,
      "emit": 973,
      "Comp": 974,
      "background": 975,
      "white": 976,
      "camera": 977,
      "240": 978,
      "EE": 979,
      "ust": 980,
      "width": 981,
      "mem": 982,
      "chk_": 983,
      "lag": 984,
      "bug": 985,
      "bytes": 986,
      "world_y": 987,
      "channel": 988,
      "36": 989,
      "dg": 990,
      "lock": 991,
      "lamp": 992,
      "vert": 993,
      "world_x": 994,
      "ls": 995,
      "ok": 996,
      "tem": 997,
      "73": 998,
      "AL": 999,
      "ct_": 1000,
      "cted": 1001,
      "oriz": 1002,
      "0x4000": 1003,
      "ometry": 1004,
      "0x4E0": 1005,
      "Sto": 1006,
      "XOR": 1007,
      "mpty": 1008,
      "sgr_": 1009,
      "ib": 1010,
      "k_ret": 1011,
      "ning": 1012,
      "115": 1013,
      "str_": 1014,
      "process": 1015,
      "frames": 1016,
      "bits": 1017,
      "19": 1018,
      "YS": 1019,
      "data": 1020,
      "tk_": 1021,
      "wait": 1022,
      "Pro": 1023,
      "ink": 1024,
      "LEN": 1025,
      "Geometry": 1026,
      "fail": 1027,
      "En": 1028,
      "grid": 1029,
      "entry": 1030,
      "sprite": 1031,
      "ally": 1032,
      "pointer": 1033,
      "COLOR": 1034,
      "Store": 1035,
      "83": 1036,
      "Show": 1037,
      "Up": 1038,
      "that": 1039,
      "terminate": 1040,
      "host": 1041,
      "SYS": 1042,
      "av": 1043,
      "du": 1044,
      "ug": 1045,
      "ision": 1046,
      "ates": 1047,
      "127": 1048,
      "COUN": 1049,
      "LE_": 1050,
      "ANS_": 1051,
      "tiles": 1052,
      "TXT": 1053,
      "ari": 1054,
      "core": 1055,
      "set_": 1056,
      "search": 1057,
      "mouse": 1058,
      "COUNT": 1059,
      "bel": 1060,
      "dx": 1061,
      "flag": 1062,
      "ure": 1063,
      "vas": 1064,
      "stri": 1065,
      "err": 1066,
      "tent": 1067,
      "tail": 1068,
      "_lp": 1069,
      "yellow": 1070,
      "0x9": 1071,
      "restore": 1072,
      "colo": 1073,
      "secon": 1074,
      "demo": 1075,
      "debug": 1076,
      "ass": 1077,
      "label": 1078,
      "Lay": 1079,
      "Sc": 1080,
      "cd": 1081,
      "tar": 1082,
      "opy": 1083,
      "ces": 1084,
      "bldg": 1085,
      "agent_": 1086,
      "indic": 1087,
      "ugh": 1088,
      "Title": 1089,
      "sed": 1090,
      "_cursor": 1091,
      "112": 1092,
      "116": 1093,
      "ROLL": 1094,
      "0x44": 1095,
      "0xFF0000": 1096,
      "SCROLL": 1097,
      "very": 1098,
      "keyboard": 1099,
      "clu": 1100,
      "canvas": 1101,
      "<<": 1102,
      "arrow": 1103,
      "ross": 1104,
      "oper": 1105,
      "llision": 1106,
      "entri": 1107,
      "frame_": 1108,
      "ations": 1109,
      "69": 1110,
      "600": 1111,
      "Pi": 1112,
      "_a": 1113,
      "_m": 1114,
      "0xFFFF": 1115,
      "colored": 1116,
      "72": 1117,
      "82": 1118,
      "CM": 1119,
      "mc_": 1120,
      "inclu": 1121,
      "dec": 1122,
      "sub": 1123,
      "_TAB": 1124,
      "A1A": 1125,
      "cus": 1126,
      "call": 1127,
      "ual": 1128,
      "strate": 1129,
      "andom": 1130,
      "lap": 1131,
      "last": 1132,
      "this": 1133,
      "dir": 1134,
      "acc": 1135,
      "ircle": 1136,
      "84": 1137,
      "LA": 1138,
      "SA": 1139,
      "SAR": 1140,
      "hal": 1141,
      "horiz": 1142,
      "phase": 1143,
      "ned": 1144,
      "lename": 1145,
      "lib": 1146,
      "append_byte": 1147,
      "Compute": 1148,
      "WPIXEL": 1149,
      "_up": 1150,
      "let": 1151,
      "collision": 1152,
      "head": 1153,
      "ffe": 1154,
      "edge": 1155,
      "ESC": 1156,
      "FG_": 1157,
      "cno": 1158,
      "ratch": 1159,
      "rough": 1160,
      "next_": 1161,
      "Get": 1162,
      "clear_": 1163,
      "visor": 1164,
      "FG_COLOR": 1165,
      "NO": 1166,
      "SG": 1167,
      "Set": 1168,
      "ain": 1169,
      "rc": 1170,
      "ADDR": 1171,
      "ary": 1172,
      "ask": 1173,
      "urce": 1174,
      "colors": 1175,
      "turn": 1176,
      "HITSET": 1177,
      "Copy": 1178,
      "SP": 1179,
      "_col": 1180,
      "full": 1181,
      "gu": 1182,
      "sys": 1183,
      "ree": 1184,
      "hel": 1185,
      "filename": 1186,
      "0x240": 1187,
      "STATE": 1188,
      "building": 1189,
      ":\"": 1190,
      "PRO": 1191,
      "_row": 1192,
      "_BASE": 1193,
      "light": 1194,
      "wo": 1195,
      "asc": 1196,
      "through": 1197,
      "size": 1198,
      "view": 1199,
      "PID": 1200,
      "TXT_BUF": 1201,
      "79": 1202,
      "Hel": 1203,
      "gen": 1204,
      "name": 1205,
      "pres": 1206,
      "tr": 1207,
      "ut_": 1208,
      "u32": 1209,
      "vari": 1210,
      "loc": 1211,
      "pipe": 1212,
      "able": 1213,
      "focus": 1214,
      "75": 1215,
      "cc": 1216,
      "da": 1217,
      "gth": 1218,
      "ist": 1219,
      "temp": 1220,
      "its": 1221,
      "104": 1222,
      "scan": 1223,
      "now": 1224,
      "entity": 1225,
      "ush": 1226,
      "_new": 1227,
      "ent_agent_": 1228,
      "visi": 1229,
      "WINSYS": 1230,
      "history": 1231,
      "entries": 1232,
      "D00": 1233,
      "ies": 1234,
      "match": 1235,
      "pan": 1236,
      "LLM": 1237,
      "ves": 1238,
      "0x7000": 1239,
      "get": 1240,
      "edit": 1241,
      "length": 1242,
      "ctions": 1243,
      "agent": 1244,
      "--------------------------------": 1245,
      "77": 1246,
      "Te": 1247,
      "hash": 1248,
      "non": 1249,
      "0x20": 1250,
      "strlen": 1251,
      "uld": 1252,
      "skip_": 1253,
      "Col": 1254,
      "implements": 1255,
      "stant": 1256,
      "ER": 1257,
      "ner": 1258,
      "score": 1259,
      "ender": 1260,
      "arm": 1261,
      "`,": 1262,
      "ball": 1263,
      "fd": 1264,
      "random": 1265,
      "stop": 1266,
      "art": 1267,
      "105": 1268,
      "scratch": 1269,
      "0xFFFF00": 1270,
      "form": 1271,
      "ape": 1272,
      "sho": 1273,
      "quit": 1274,
      "67": 1275,
      "C0": 1276,
      "csi": 1277,
      "rag": 1278,
      "OPEN": 1279,
      "tim": 1280,
      "0x040": 1281,
      "────────────────────────────────────────": 1282,
      "ready": 1283,
      "_to_buf": 1284,
      "SAVE": 1285,
      "Ad": 1286,
      "T_": 1287,
      "go": 1288,
      "ple": 1289,
      "coor": 1290,
      "_do": 1291,
      "lack": 1292,
      "dire": 1293,
      "0x0A0": 1294,
      "DEBU": 1295,
      "uses": 1296,
      "ibble": 1297,
      "23": 1298,
      "CP": 1299,
      "FS": 1300,
      "Uses": 1301,
      "ale": 1302,
      "click": 1303,
      "done": 1304,
      "gre": 1305,
      "just": 1306,
      "0x88": 1307,
      "des": 1308,
      "dest": 1309,
      "SEL": 1310,
      "NEG": 1311,
      "init_": 1312,
      "Test": 1313,
      "DEBUG_": 1314,
      "CLI": 1315,
      "Render": 1316,
      "VM": 1317,
      "_id": 1318,
      "black": 1319,
      "hit": 1320,
      "ix": 1321,
      "ifi": 1322,
      "shift": 1323,
      "tri": 1324,
      "increment": 1325,
      "reset": 1326,
      "region": 1327,
      "border": 1328,
      "_newline": 1329,
      "**": 1330,
      "2E": 1331,
      "Save": 1332,
      "_store": 1333,
      "fun": 1334,
      "mal": 1335,
      "tint": 1336,
      "wr": 1337,
      "READ": 1338,
      "001": 1339,
      "_dir": 1340,
      "0x1A1A": 1341,
      "imal": 1342,
      "point": 1343,
      "indicator": 1344,
      "strates": 1345,
      "Hello": 1346,
      "500": 1347,
      "ared": 1348,
      "empty": 1349,
      "0x000": 1350,
      "0x6000": 1351,
      "0x1F": 1352,
      "_check_": 1353,
      "digits": 1354,
      "Initializ": 1355,
      "DO": 1356,
      "every": 1357,
      "fe": 1358,
      "kno": 1359,
      "sn": 1360,
      "0xFF00": 1361,
      "...": 1362,
      "above": 1363,
      "draws": 1364,
      "word": 1365,
      "quen": 1366,
      "values": 1367,
      "mc_ret": 1368,
      "mc_25": 1369,
      "known": 1370,
      "BO": 1371,
      "Null": 1372,
      "active": 1373,
      "hy": 1374,
      "src": 1375,
      "0x120": 1376,
      "enem": 1377,
      "sele": 1378,
      "neg": 1379,
      "boun": 1380,
      "ANSI_": 1381,
      "rendering": 1382,
      "Color": 1383,
      "0x1A1A2E": 1384,
      "51": 1385,
      "OSC": 1386,
      "man": 1387,
      "ous": 1388,
      "sa": 1389,
      "arse": 1390,
      "here": 1391,
      "SCI": 1392,
      "ssion": 1393,
      "do_re": 1394,
      "stored": 1395,
      "sgr": 1396,
      "STATUS_": 1397,
      "frame_counter": 1398,
      "17": 1399,
      "AS": 1400,
      "ASCI": 1401,
      "circle": 1402,
      "pr": 1403,
      "sine": 1404,
      "squ": 1405,
      "DIR": 1406,
      "103": 1407,
      "child": 1408,
      "vel": 1409,
      "_cm": 1410,
      "cont": 1411,
      "0x020": 1412,
      "Reg": 1413,
      "fore": 1414,
      "pervisor": 1415,
      "displays": 1416,
      "running": 1417,
      "COLOR_BUF": 1418,
      "error": 1419,
      "NOTE": 1420,
      "ASCII": 1421,
      "_start": 1422,
      "block": 1423,
      "mul": 1424,
      "pl": 1425,
      "step": 1426,
      "restart": 1427,
      "content": 1428,
      "COL_": 1429,
      "Reset": 1430,
      "grass": 1431,
      "newline": 1432,
      "memory": 1433,
      "Update": 1434,
      "_copy": 1435,
      "b_": 1436,
      "fin": 1437,
      "pend": 1438,
      "instru": 1439,
      "R_B": 1440,
      "fix": 1441,
      "box": 1442,
      "_over": 1443,
      "assemble": 1444,
      "source": 1445,
      "system": 1446,
      "Initialize": 1447,
      "26": 1448,
      "BEE": 1449,
      "RL": 1450,
      "We": 1451,
      "vy": 1452,
      "0x80": 1453,
      "session": 1454,
      "ating": 1455,
      "hes": 1456,
      "ticle": 1457,
      "dim": 1458,
      "0x1000": 1459,
      "Layout": 1460,
      "gener": 1461,
      "34": 1462,
      "_pos": 1463,
      "cs": 1464,
      "oth": 1465,
      "pv": 1466,
      "sy": 1467,
      "int_": 1468,
      "level": 1469,
      "already": 1470,
      "TICK": 1471,
      "htt": 1472,
      "hypervisor": 1473,
      "_cmd": 1474,
      "1000": 1475,
      "150": 1476,
      "800": 1477,
      "RUN": 1478,
      "Skip": 1479,
      "WN": 1480,
      "_count": 1481,
      "rh": 1482,
      "slo": 1483,
      "s256": 1484,
      "tk_ret": 1485,
      "_di": 1486,
      "buil": 1487,
      "line_to_buf": 1488,
      "constant": 1489,
      "draw_frame": 1490,
      "particle": 1491,
      "cells": 1492,
      "write_line_to_buf": 1493,
      "LINE": 1494,
      "direction": 1495,
      "CLIP_": 1496,
      "ANSI_STATE": 1497,
      "s256_": 1498,
      "Mem": 1499,
      "Se": 1500,
      "clamp": 1501,
      "tal": 1502,
      "ub": 1503,
      "_cl": 1504,
      "spe": 1505,
      "dist": 1506,
      "appro": 1507,
      "emon": 1508,
      "cyan": 1509,
      "_esc": 1510,
      "_TABLE": 1511,
      "35": 1512,
      "HT": 1513,
      "ually": 1514,
      "stack": 1515,
      "ers": 1516,
      "ange": 1517,
      "late": 1518,
      "R_SC": 1519,
      "found": 1520,
      "reads": 1521,
      "initializ": 1522,
      "0x7800": 1523,
      "Register": 1524,
      "BEEP": 1525,
      "29": 1526,
      "Display": 1527,
      "LS": 1528,
      "msg": 1529,
      "mix": 1530,
      "vx": 1531,
      "inter": 1532,
      "remain": 1533,
      "CCCC": 1534,
      "advance_to_": 1535,
      "decimal": 1536,
      "dirty": 1537,
      "DIRTY": 1538,
      "Clo": 1539,
      "For": 1540,
      "cross": 1541,
      "home": 1542,
      "mar": 1543,
      "ring": 1544,
      "org": 1545,
      "help": 1546,
      "102": 1547,
      "chk": 1548,
      "cts": 1549,
      "tick": 1550,
      "spec": 1551,
      "do_newline": 1552,
      "acter": 1553,
      "signed": 1554,
      "seconds": 1555,
      "cdl": 1556,
      "56": 1557,
      "MM": 1558,
      "Play": 1559,
      "_type": 1560,
      "dst": 1561,
      "0xAA": 1562,
      "──────": 1563,
      "need": 1564,
      "10000": 1565,
      "side": 1566,
      "writes": 1567,
      "saved": 1568,
      "ontal": 1569,
      "camera_x": 1570,
      "hello": 1571,
      "should": 1572,
      "87": 1573,
      "din": 1574,
      "hen": 1575,
      "ite": 1576,
      "pack": 1577,
      "sx": 1578,
      "tran": 1579,
      "wal": 1580,
      "0xC": 1581,
      "orange": 1582,
      "sequen": 1583,
      "rols": 1584,
      "rap": 1585,
      "MODE": 1586,
      "body": 1587,
      "character": 1588,
      "list": 1589,
      "STATUS": 1590,
      "pb_csi_": 1591,
      "sgr_ret": 1592,
      "21": 1593,
      "45": 1594,
      "FE": 1595,
      "Main": 1596,
      "No": 1597,
      "RY": 1598,
      "Spa": 1599,
      "_input": 1600,
      "sup": 1601,
      "lete": 1602,
      "rop": 1603,
      "strc": 1604,
      "0x00FFFF": 1605,
      "_next_": 1606,
      "keys": 1607,
      "registers": 1608,
      "sign": 1609,
      "Enter": 1610,
      "stripe": 1611,
      "+=": 1612,
      "8_": 1613,
      "Ap": 1614,
      "oom": 1615,
      "inte": 1616,
      "ative": 1617,
      "total": 1618,
      "aste": 1619,
      "t_in": 1620,
      "rick": 1621,
      "scale": 1622,
      "TER": 1623,
      "0x700": 1624,
      "witch": 1625,
      "M_BASE": 1626,
      "CELL": 1627,
      "Pixel": 1628,
      "timer": 1629,
      "\")": 1630,
      "CL": 1631,
      "UT": 1632,
      "mask": 1633,
      "ins": 1634,
      "replace": 1635,
      "onal": 1636,
      "sel": 1637,
      "ract": 1638,
      "109": 1639,
      "scape": 1640,
      "0x444": 1641,
      "tip": 1642,
      "conne": 1643,
      "agonal": 1644,
      "point_in": 1645,
      "terminal": 1646,
      "prev": 1647,
      "cmd": 1648,
      "KEY_": 1649,
      "0x8000": 1650,
      "LINK": 1651,
      "trl": 1652,
      "slot": 1653,
      "advance_to_null": 1654,
      "140": 1655,
      "47": 1656,
      "91": 1657,
      "Each": 1658,
      "RS": 1659,
      "ai": 1660,
      "fine": 1661,
      "has": 1662,
      "ru": 1663,
      "where": 1664,
      "zoom": 1665,
      "ature": 1666,
      "rout": 1667,
      "TIME": 1668,
      "0x000000": 1669,
      "righ": 1670,
      "terminator": 1671,
      "struct_": 1672,
      "CMD_": 1673,
      "(\"": 1674,
      "4x": 1675,
      "53": 1676,
      "URL": 1677,
      "bber": 1678,
      "od": 1679,
      "pass": 1680,
      "same": 1681,
      "tn": 1682,
      "ures": 1683,
      "hell": 1684,
      "0x50": 1685,
      "lic": 1686,
      "Input": 1687,
      "target_": 1688,
      "SCROLL_": 1689,
      "half": 1690,
      "build_": 1691,
      "Memory": 1692,
      "Cursor": 1693,
      "Ex": 1694,
      "FG": 1695,
      "USE": 1696,
      "Wa": 1697,
      "va": 1698,
      "inu": 1699,
      "ler": 1700,
      "ormal": 1701,
      "height": 1702,
      "mess": 1703,
      "cols": 1704,
      "dot": 1705,
      "simple": 1706,
      "ize": 1707,
      "spaces": 1708,
      "paint": 1709,
      "Building": 1710,
      "okup": 1711,
      "_dirty": 1712,
      "routine": 1713,
      "message": 1714,
      "62": 1715,
      "71": 1716,
      "85": 1717,
      "ZE": 1718,
      "btn": 1719,
      "ding": 1720,
      "hu": 1721,
      "ward": 1722,
      "REEN": 1723,
      "0x11": 1724,
      "117": 1725,
      "them": 1726,
      "CON": 1727,
      "layout": 1728,
      "GET": 1729,
      "_shift": 1730,
      "tab_": 1731,
      "─────────────────────────────────": 1732,
      "render_": 1733,
      "spawn_": 1734,
      "square": 1735,
      "walk": 1736,
      "!\"": 1737,
      "BLINK": 1738,
      "CV": 1739,
      "HEX": 1740,
      "PC": 1741,
      "PE": 1742,
      "VI": 1743,
      "cu": 1744,
      "dn": 1745,
      "drag": 1746,
      "flow": 1747,
      "ggle": 1748,
      "ii": 1749,
      "mat": 1750,
      "pur": 1751,
      "ron": 1752,
      "sb": 1753,
      "was": 1754,
      "ans": 1755,
      "0x430": 1756,
      "NDE": 1757,
      "direct": 1758,
      "0x2100": 1759,
      "0x53": 1760,
      "tens": 1761,
      "opcodes": 1762,
      "MEM": 1763,
      "change": 1764,
      "close": 1765,
      "asciz": 1766,
      "visible": 1767,
      "96": 1768,
      "DD": 1769,
      "SP_": 1770,
      "au": 1771,
      "bright": 1772,
      "fl": 1773,
      "when": 1774,
      "only": 1775,
      "arg": 1776,
      "cos": 1777,
      "ith": 1778,
      "room": 1779,
      "LOOP": 1780,
      "MOUSE": 1781,
      "usage": 1782,
      "work": 1783,
      "RITE": 1784,
      "SIZE": 1785,
      "Increment": 1786,
      "append": 1787,
      "rectangle": 1788,
      "ALAR": 1789,
      "horizontal": 1790,
      "ific": 1791,
      "R_SCR": 1792,
      "130": 1793,
      "52": 1794,
      "Bl": 1795,
      "Cont": 1796,
      "FB": 1797,
      "_left": 1798,
      "db": 1799,
      "nav": 1800,
      "sing": 1801,
      "wrap": 1802,
      "x8": 1803,
      "RECV": 1804,
      "seed": 1805,
      "ROO": 1806,
      "r256": 1807,
      "ution": 1808,
      "mag": 1809,
      "dient": 1810,
      "diagonal": 1811,
      "drawing": 1812,
      "256x": 1813,
      "224": 1814,
      "ART": 1815,
      "sgr256": 1816,
      "NEM": 1817,
      "no_input": 1818,
      "Status": 1819,
      "panel": 1820,
      "mark_": 1821,
      "UTF": 1822,
      "purple": 1823,
      "Fo": 1824,
      "NU": 1825,
      "NOR": 1826,
      "Op": 1827,
      "RG": 1828,
      "SPA": 1829,
      "Ter": 1830,
      "brigh": 1831,
      "den": 1832,
      "et_": 1833,
      "font": 1834,
      "mine": 1835,
      "ph": 1836,
      "sition": 1837,
      "demon": 1838,
      "unknown": 1839,
      "SHLI": 1840,
      "ctually": 1841,
      "0x41": 1842,
      "diffe": 1843,
      "MAL": 1844,
      "visual": 1845,
      "strings": 1846,
      "range": 1847,
      "parse_": 1848,
      "iled": 1849,
      "str_hello": 1850,
      "lette": 1851,
      "enemy": 1852,
      "manage": 1853,
      "TICKS": 1854,
      "initializes": 1855,
      "DIRTY_": 1856,
      "256x256": 1857,
      "NORMAL": 1858,
      "63": 1859,
      "93": 1860,
      "ENEM": 1861,
      "ID": 1862,
      "IT": 1863,
      "MS": 1864,
      "SS": 1865,
      "UP": 1866,
      "dri": 1867,
      "pop": 1868,
      "push": 1869,
      "shi": 1870,
      "any": 1871,
      "del": 1872,
      "LOSE": 1873,
      "alarm": 1874,
      "tour": 1875,
      "open": 1876,
      "126": 1877,
      "TIT": 1878,
      "contour": 1879,
      "_neg": 1880,
      "starts": 1881,
      "store_": 1882,
      "bet": 1883,
      "copy_": 1884,
      "past": 1885,
      "after_input": 1886,
      "BBBB": 1887,
      "0x0000FF": 1888,
      "animation": 1889,
      "Screen": 1890,
      "operations": 1891,
      "CPY": 1892,
      "0x1201": 1893,
      "fine_hash": 1894,
      "different": 1895,
      "4FF": 1896,
      "Back": 1897,
      "Mo": 1898,
      "NT": 1899,
      "VFS": 1900,
      "Win": 1901,
      "fle": 1902,
      "hk_ret": 1903,
      "ld": 1904,
      "mark": 1905,
      "nibble": 1906,
      "inue": 1907,
      "FF44": 1908,
      "enti": 1909,
      "0x70": 1910,
      "ulator": 1911,
      "TILE": 1912,
      "TILE_": 1913,
      "0x170": 1914,
      "gradient": 1915,
      "no_key": 1916,
      "MAIN": 1917,
      "_regs": 1918,
      "ANS_NORMAL": 1919,
      "accent": 1920,
      "SGR": 1921,
      "writ": 1922,
      "remaining": 1923,
      "Controls": 1924,
      "180": 1925,
      "248": 1926,
      "FO": 1927,
      "LU": 1928,
      "Le": 1929,
      "Move": 1930,
      "_right": 1931,
      "cil": 1932,
      "cap": 1933,
      "ccess": 1934,
      "ches": 1935,
      "day": 1936,
      "ey": 1937,
      "two": 1938,
      "vation": 1939,
      "RESP": 1940,
      "means": 1941,
      "cho": 1942,
      "near": 1943,
      "ones": 1944,
      "utput": 1945,
      "124": 1946,
      "user": 1947,
      "like": 1948,
      "gray": 1949,
      "pb_esc": 1950,
      "ANSI": 1951,
      "MAP_": 1952,
      "ween": 1953,
      "....)": 1954,
      "nonzero": 1955,
      "0x8888": 1956,
      "function": 1957,
      "bbers": 1958,
      "\",": 1959,
      "\"/": 1960,
      "TAB": 1961,
      "W_": 1962,
      "WRITE": 1963,
      "_r": 1964,
      "_screen": 1965,
      "ast": 1966,
      "ep": 1967,
      "fig": 1968,
      "shell": 1969,
      "tree": 1970,
      "wu": 1971,
      "lookup": 1972,
      "cep": 1973,
      "no_c": 1974,
      "0x400": 1975,
      "tical": 1976,
      "16x": 1977,
      "abs": 1978,
      "0x2200": 1979,
      "screen_x": 1980,
      "hi_done": 1981,
      "ING": 1982,
      "idle": 1983,
      "create": 1984,
      "_eq": 1985,
      "sert": 1986,
      "Process": 1987,
      "Advance": 1988,
      "coordin": 1989,
      "triangle": 1990,
      "bounce": 1991,
      "_clr": 1992,
      "Player": 1993,
      "ENEMY": 1994,
      "between": 1995,
      "54": 1996,
      "END": 1997,
      "V_": 1998,
      "_color": 1999
    },
    "merges": [
      [
        "r",
        "1"
      ],
      [
        "r",
        "2"
      ],
      [
        "=",
        "="
      ],
      [
        "D",
        "I"
      ],
      [
        "L",
        "DI"
      ],
      [
        "═",
        "═"
      ],
      [
        "==",
        "=="
      ],
      [
        "A",
        "D"
      ],
      [
        "─",
        "─"
      ],
      [
        "R",
        "E"
      ],
      [
        "S",
        "T"
      ],
      [
        "i",
        "n"
      ],
      [
        "ST",
        "O"
      ],
      [
        "0",
        "x"
      ],
      [
        "STO",
        "RE"
      ],
      [
        "r2",
        "0"
      ],
      [
        "══",
        "══"
      ],
      [
        "AD",
        "D"
      ],
      [
        "r",
        "e"
      ],
      [
        "r",
        "3"
      ],
      [
        "r",
        "0"
      ],
      [
        "r",
        "4"
      ],
      [
        "t",
        "e"
      ],
      [
        "0",
        "0"
      ],
      [
        "r",
        "7"
      ],
      [
        "M",
        "P"
      ],
      [
        "====",
        "===="
      ],
      [
        "──",
        "──"
      ],
      [
        "o",
        "n"
      ],
      [
        "l",
        "e"
      ],
      [
        "o",
        "r"
      ],
      [
        "s",
        "t"
      ],
      [
        "e",
        "n"
      ],
      [
        "-",
        "-"
      ],
      [
        "e",
        "r"
      ],
      [
        "a",
        "r"
      ],
      [
        "════",
        "════"
      ],
      [
        "c",
        "o"
      ],
      [
        "F",
        "F"
      ],
      [
        "i",
        "t"
      ],
      [
        "a",
        "n"
      ],
      [
        "r1",
        "0"
      ],
      [
        "r",
        "5"
      ],
      [
        "s",
        "e"
      ],
      [
        "a",
        "t"
      ],
      [
        "r",
        "o"
      ],
      [
        "h",
        "e"
      ],
      [
        "C",
        "MP"
      ],
      [
        "r",
        "6"
      ],
      [
        "d",
        "e"
      ],
      [
        "r",
        "a"
      ],
      [
        "r1",
        "7"
      ],
      [
        "L",
        "O"
      ],
      [
        "a",
        "l"
      ],
      [
        "r1",
        "1"
      ],
      [
        "LO",
        "AD"
      ],
      [
        "t",
        "o"
      ],
      [
        "========",
        "========"
      ],
      [
        "────",
        "────"
      ],
      [
        "l",
        "o"
      ],
      [
        "r1",
        "8"
      ],
      [
        "r",
        "9"
      ],
      [
        "r1",
        "2"
      ],
      [
        "L",
        "L"
      ],
      [
        "r2",
        "1"
      ],
      [
        "J",
        "MP"
      ],
      [
        "c",
        "k"
      ],
      [
        "te",
        "r"
      ],
      [
        "1",
        "0"
      ],
      [
        "M",
        "O"
      ],
      [
        "m",
        "e"
      ],
      [
        "_",
        "d"
      ],
      [
        "in",
        "g"
      ],
      [
        "r2",
        "2"
      ],
      [
        "in",
        "e"
      ],
      [
        "u",
        "n"
      ],
      [
        "C",
        "A"
      ],
      [
        "o",
        "p"
      ],
      [
        "c",
        "e"
      ],
      [
        "c",
        "h"
      ],
      [
        "CA",
        "LL"
      ],
      [
        "MO",
        "V"
      ],
      [
        "a",
        "s"
      ],
      [
        "i",
        "s"
      ],
      [
        "r1",
        "5"
      ],
      [
        "t",
        "_"
      ],
      [
        "R",
        "A"
      ],
      [
        "r1",
        "4"
      ],
      [
        "════════",
        "════════"
      ],
      [
        "an",
        "d"
      ],
      [
        "i",
        "on"
      ],
      [
        "r",
        "i"
      ],
      [
        "l",
        "a"
      ],
      [
        "a",
        "d"
      ],
      [
        "n",
        "e"
      ],
      [
        "J",
        "Z"
      ],
      [
        "v",
        "e"
      ],
      [
        "CMP",
        "I"
      ],
      [
        "r1",
        "3"
      ],
      [
        "_",
        "c"
      ],
      [
        "l",
        "l"
      ],
      [
        "b",
        "u"
      ],
      [
        "J",
        "N"
      ],
      [
        "JN",
        "Z"
      ],
      [
        "on",
        "e"
      ],
      [
        "s",
        "c"
      ],
      [
        "1",
        "1"
      ],
      [
        "ra",
        "w"
      ],
      [
        "t",
        "he"
      ],
      [
        "n",
        "o"
      ],
      [
        "r1",
        "6"
      ],
      [
        "B",
        "U"
      ],
      [
        "co",
        "l"
      ],
      [
        "he",
        "ck"
      ],
      [
        "3",
        "2"
      ],
      [
        "m",
        "p"
      ],
      [
        "R",
        "O"
      ],
      [
        "u",
        "r"
      ],
      [
        "S",
        "H"
      ],
      [
        "b",
        "y"
      ],
      [
        "c",
        "t"
      ],
      [
        "ro",
        "w"
      ],
      [
        "lo",
        "op"
      ],
      [
        "T",
        "E"
      ],
      [
        "BU",
        "F"
      ],
      [
        "_",
        "re"
      ],
      [
        "S",
        "E"
      ],
      [
        "0x",
        "4"
      ],
      [
        "AD",
        "DI"
      ],
      [
        "en",
        "t"
      ],
      [
        "_d",
        "one"
      ],
      [
        "2",
        "5"
      ],
      [
        "r2",
        "5"
      ],
      [
        "0x",
        "FF"
      ],
      [
        "R",
        "_"
      ],
      [
        "u",
        "t"
      ],
      [
        "a",
        "te"
      ],
      [
        "────────",
        "────────"
      ],
      [
        "1",
        "2"
      ],
      [
        "S",
        "U"
      ],
      [
        "i",
        "g"
      ],
      [
        "00",
        "0"
      ],
      [
        "re",
        "en"
      ],
      [
        "SU",
        "B"
      ],
      [
        "e",
        "l"
      ],
      [
        "--",
        "--"
      ],
      [
        "r",
        "8"
      ],
      [
        "0x",
        "7"
      ],
      [
        "O",
        "P"
      ],
      [
        "f",
        "or"
      ],
      [
        "S",
        "C"
      ],
      [
        "m",
        "o"
      ],
      [
        "d",
        "_"
      ],
      [
        "o",
        "w"
      ],
      [
        "x",
        "t"
      ],
      [
        "C",
        "O"
      ],
      [
        "r2",
        "3"
      ],
      [
        "t",
        "i"
      ],
      [
        "f",
        "f"
      ],
      [
        "L",
        "T"
      ],
      [
        "de",
        "f"
      ],
      [
        "r1",
        "9"
      ],
      [
        "s",
        "p"
      ],
      [
        "by",
        "te"
      ],
      [
        "t",
        "h"
      ],
      [
        ".",
        "."
      ],
      [
        "_",
        "loop"
      ],
      [
        "u",
        "s"
      ],
      [
        "RA",
        "M"
      ],
      [
        "p",
        "i"
      ],
      [
        "l",
        "ine"
      ],
      [
        "m",
        "a"
      ],
      [
        "p",
        "o"
      ],
      [
        "X",
        "T"
      ],
      [
        "r3",
        "1"
      ],
      [
        "N",
        "D"
      ],
      [
        "f",
        "i"
      ],
      [
        "co",
        "un"
      ],
      [
        "1",
        "6"
      ],
      [
        "d",
        "i"
      ],
      [
        "P",
        "OP"
      ],
      [
        "a",
        "b"
      ],
      [
        "0x",
        "2"
      ],
      [
        "st",
        "r"
      ],
      [
        "def",
        "ine"
      ],
      [
        "8",
        "0"
      ],
      [
        "u",
        "l"
      ],
      [
        "d",
        "raw"
      ],
      [
        "a",
        "se"
      ],
      [
        "P",
        "U"
      ],
      [
        "g",
        "e"
      ],
      [
        "la",
        "y"
      ],
      [
        "C",
        "T"
      ],
      [
        "s",
        "s"
      ],
      [
        "PU",
        "SH"
      ],
      [
        "re",
        "n"
      ],
      [
        "i",
        "l"
      ],
      [
        "B",
        "LT"
      ],
      [
        "TE",
        "XT"
      ],
      [
        "1",
        "00"
      ],
      [
        "U",
        "L"
      ],
      [
        "M",
        "UL"
      ],
      [
        "sc",
        "reen"
      ],
      [
        "h",
        "i"
      ],
      [
        "b",
        "l"
      ],
      [
        "3",
        "0"
      ],
      [
        "================",
        "================"
      ],
      [
        "p",
        "ro"
      ],
      [
        "v",
        "er"
      ],
      [
        "u",
        "p"
      ],
      [
        "al",
        "l"
      ],
      [
        "T",
        "I"
      ],
      [
        "c",
        "on"
      ],
      [
        "h",
        "t"
      ],
      [
        "co",
        "de"
      ],
      [
        "4",
        "0"
      ],
      [
        "e",
        "d"
      ],
      [
        "0x",
        "5"
      ],
      [
        "b",
        "o"
      ],
      [
        "col",
        "or"
      ],
      [
        "ri",
        "te"
      ],
      [
        "G",
        "E"
      ],
      [
        "d",
        "o"
      ],
      [
        "RE",
        "CT"
      ],
      [
        "c",
        "ur"
      ],
      [
        "2",
        "0"
      ],
      [
        "w",
        "it"
      ],
      [
        "================================",
        "========"
      ],
      [
        "le",
        "ar"
      ],
      [
        "RECT",
        "F"
      ],
      [
        "_",
        "s"
      ],
      [
        "d",
        "er"
      ],
      [
        "0x",
        "0"
      ],
      [
        "4",
        "8"
      ],
      [
        "0x",
        "6"
      ],
      [
        "CO",
        "L"
      ],
      [
        "ST",
        "RO"
      ],
      [
        "4",
        "4"
      ],
      [
        "f",
        "ra"
      ],
      [
        "x",
        "el"
      ],
      [
        "u",
        "e"
      ],
      [
        "se",
        "t"
      ],
      [
        "re",
        "d"
      ],
      [
        "ff",
        "er"
      ],
      [
        "r",
        "y"
      ],
      [
        "========================================",
        "="
      ],
      [
        "i",
        "p"
      ],
      [
        "p",
        "lay"
      ],
      [
        "RE",
        "T"
      ],
      [
        "0x",
        "00"
      ],
      [
        "════════════════",
        "════════════════"
      ],
      [
        "25",
        "6"
      ],
      [
        "bu",
        "ffer"
      ],
      [
        "B",
        "GE"
      ],
      [
        "wit",
        "h"
      ],
      [
        "k",
        "e"
      ],
      [
        "a",
        "p"
      ],
      [
        "fra",
        "me"
      ],
      [
        "5",
        "0"
      ],
      [
        "_",
        "BUF"
      ],
      [
        "st",
        "ar"
      ],
      [
        "I",
        "N"
      ],
      [
        "pi",
        "xel"
      ],
      [
        "p",
        "ut"
      ],
      [
        "w",
        "or"
      ],
      [
        "FF",
        "FF"
      ],
      [
        "s",
        "i"
      ],
      [
        "--",
        "-"
      ],
      [
        "ch",
        "ar"
      ],
      [
        "le",
        "n"
      ],
      [
        "ro",
        "m"
      ],
      [
        "l",
        "i"
      ],
      [
        "f",
        "rom"
      ],
      [
        "a",
        "ve"
      ],
      [
        "f",
        "t"
      ],
      [
        "at",
        "ion"
      ],
      [
        "L",
        "E"
      ],
      [
        "po",
        "s"
      ],
      [
        "R",
        "e"
      ],
      [
        "s",
        "or"
      ],
      [
        "r2",
        "6"
      ],
      [
        "ul",
        "t"
      ],
      [
        "k",
        "ip"
      ],
      [
        "_re",
        "t"
      ],
      [
        "coun",
        "t"
      ],
      [
        "o",
        "me"
      ],
      [
        "p",
        "at"
      ],
      [
        "ad",
        "d"
      ],
      [
        "t",
        "y"
      ],
      [
        "D",
        "E"
      ],
      [
        "C",
        "H"
      ],
      [
        "sp",
        "a"
      ],
      [
        "0x",
        "1"
      ],
      [
        "a",
        "me"
      ],
      [
        "n",
        "u"
      ],
      [
        "o",
        "f"
      ],
      [
        "r2",
        "4"
      ],
      [
        "b",
        "ar"
      ],
      [
        "i",
        "f"
      ],
      [
        "t",
        "ab"
      ],
      [
        "a",
        "ck"
      ],
      [
        "c",
        "heck"
      ],
      [
        "_",
        "ne"
      ],
      [
        "----",
        "----"
      ],
      [
        "b",
        "ase"
      ],
      [
        "ke",
        "y"
      ],
      [
        "s",
        "h"
      ],
      [
        "star",
        "t"
      ],
      [
        "st",
        "o"
      ],
      [
        "_c",
        "heck"
      ],
      [
        "it",
        "ion"
      ],
      [
        "te",
        "xt"
      ],
      [
        "ma",
        "in"
      ],
      [
        "ri",
        "g"
      ],
      [
        "_",
        "x"
      ],
      [
        "p",
        "e"
      ],
      [
        "G",
        "e"
      ],
      [
        "g",
        "ra"
      ],
      [
        "i",
        "d"
      ],
      [
        "r2",
        "8"
      ],
      [
        "t",
        "ry"
      ],
      [
        "P",
        "SE"
      ],
      [
        "_",
        "y"
      ],
      [
        "R",
        "I"
      ],
      [
        "re",
        "s"
      ],
      [
        "e",
        "x"
      ],
      [
        "S",
        "I"
      ],
      [
        "A",
        "ND"
      ],
      [
        "f",
        "o"
      ],
      [
        "m",
        "ent"
      ],
      [
        "p",
        "b"
      ],
      [
        "r2",
        "7"
      ],
      [
        "A",
        "N"
      ],
      [
        "m",
        "in"
      ],
      [
        "d",
        "s"
      ],
      [
        "w",
        "rite"
      ],
      [
        "draw",
        "_"
      ],
      [
        "en",
        "t_"
      ],
      [
        "ti",
        "le"
      ],
      [
        "D",
        "raw"
      ],
      [
        "i",
        "z"
      ],
      [
        "v",
        "i"
      ],
      [
        "C",
        "heck"
      ],
      [
        "COL",
        "S"
      ],
      [
        "C",
        "U"
      ],
      [
        "ig",
        "it"
      ],
      [
        "ct",
        "ion"
      ],
      [
        "T",
        "CH"
      ],
      [
        "e",
        "s"
      ],
      [
        "0x",
        "3"
      ],
      [
        "8",
        "8"
      ],
      [
        "RO",
        "W"
      ],
      [
        "====",
        "="
      ],
      [
        ")",
        ","
      ],
      [
        "12",
        "8"
      ],
      [
        "bu",
        "f"
      ],
      [
        "p",
        "y"
      ],
      [
        "coun",
        "ter"
      ],
      [
        "un",
        "d"
      ],
      [
        "────────────────",
        "────────────────"
      ],
      [
        "ren",
        "der"
      ],
      [
        "_",
        "o"
      ],
      [
        "d",
        "ow"
      ],
      [
        "0x",
        "F"
      ],
      [
        "rig",
        "ht"
      ],
      [
        "q",
        "u"
      ],
      [
        "w",
        "a"
      ],
      [
        "cur",
        "sor"
      ],
      [
        "se",
        "m"
      ],
      [
        "il",
        "d"
      ],
      [
        "pos",
        "ition"
      ],
      [
        "1",
        "5"
      ],
      [
        "2",
        "2"
      ],
      [
        "b",
        "i"
      ],
      [
        "u",
        "se"
      ],
      [
        "RA",
        "TCH"
      ],
      [
        "SC",
        "RATCH"
      ],
      [
        "i",
        "m"
      ],
      [
        "O",
        "S"
      ],
      [
        "b",
        "it"
      ],
      [
        "sto",
        "re"
      ],
      [
        "e",
        "m"
      ],
      [
        "C",
        "C"
      ],
      [
        "D",
        "RA"
      ],
      [
        "11",
        "4"
      ],
      [
        "b",
        "e"
      ],
      [
        "mo",
        "ve"
      ],
      [
        "A",
        "R"
      ],
      [
        "t",
        "s"
      ],
      [
        "in",
        "put"
      ],
      [
        "a",
        "c"
      ],
      [
        "T",
        "he"
      ],
      [
        "i",
        "ve"
      ],
      [
        "as",
        "sem"
      ],
      [
        "-",
        ">"
      ],
      [
        "u",
        "te"
      ],
      [
        "en",
        "d"
      ],
      [
        "ar",
        "d"
      ],
      [
        "is",
        "play"
      ],
      [
        "0xFF",
        "FFFF"
      ],
      [
        "I",
        "n"
      ],
      [
        "p",
        "er"
      ],
      [
        "CU",
        "R_"
      ],
      [
        "DRA",
        "W"
      ],
      [
        "re",
        "ad"
      ],
      [
        "en",
        "ter"
      ],
      [
        "o",
        "ut"
      ],
      [
        "ren",
        "t"
      ],
      [
        "00",
        "00"
      ],
      [
        "s",
        "g"
      ],
      [
        "p",
        "ar"
      ],
      [
        "g",
        "reen"
      ],
      [
        "w",
        "in"
      ],
      [
        "main",
        "_loop"
      ],
      [
        "m",
        "m"
      ],
      [
        "2",
        "00"
      ],
      [
        "O",
        "R"
      ],
      [
        "k",
        "_"
      ],
      [
        "s",
        "kip"
      ],
      [
        "C",
        "o"
      ],
      [
        "══",
        "═"
      ],
      [
        "p",
        "_"
      ],
      [
        "O",
        "N"
      ],
      [
        "P",
        "_"
      ],
      [
        "le",
        "ft"
      ],
      [
        "lo",
        "w"
      ],
      [
        "F",
        "RAM"
      ],
      [
        "de",
        "x"
      ],
      [
        "spa",
        "ce"
      ],
      [
        "FRAM",
        "E"
      ],
      [
        "1",
        "4"
      ],
      [
        "N",
        "E"
      ],
      [
        "DRAW",
        "TEXT"
      ],
      [
        "in",
        "dex"
      ],
      [
        "ro",
        "ll"
      ],
      [
        "a",
        "re"
      ],
      [
        "c",
        "lear"
      ],
      [
        "v",
        "al"
      ],
      [
        "ter",
        "n"
      ],
      [
        "c",
        "_"
      ],
      [
        "nu",
        "ll"
      ],
      [
        "P",
        "A"
      ],
      [
        "a",
        "g"
      ],
      [
        "r",
        "_"
      ],
      [
        "mo",
        "de"
      ],
      [
        "════",
        "═══"
      ],
      [
        "════════",
        "═══════"
      ],
      [
        "no",
        "_"
      ],
      [
        "co",
        "py"
      ],
      [
        "2",
        "4"
      ],
      [
        "as",
        "h"
      ],
      [
        "in",
        "it"
      ],
      [
        "M",
        "A"
      ],
      [
        "a",
        "m"
      ],
      [
        "c",
        "re"
      ],
      [
        "bi",
        "ome"
      ],
      [
        "a",
        "ch"
      ],
      [
        "te",
        "n"
      ],
      [
        "re",
        "g"
      ],
      [
        "PSE",
        "T"
      ],
      [
        "c",
        "l"
      ],
      [
        "st",
        "ate"
      ],
      [
        "as",
        "m"
      ],
      [
        "0x7",
        "80"
      ],
      [
        "r2",
        "9"
      ],
      [
        "wor",
        "l"
      ],
      [
        "c",
        "le"
      ],
      [
        "FF",
        "00"
      ],
      [
        "b",
        "ack"
      ],
      [
        "s",
        "o"
      ],
      [
        "G",
        "_"
      ],
      [
        "bl",
        "y"
      ],
      [
        "w",
        "n"
      ],
      [
        "co",
        "mp"
      ],
      [
        "ap",
        "p"
      ],
      [
        "SI",
        "_"
      ],
      [
        "F",
        "I"
      ],
      [
        "B",
        "A"
      ],
      [
        "v",
        "is"
      ],
      [
        "te",
        "d"
      ],
      [
        "i",
        "r"
      ],
      [
        "sc",
        "roll"
      ],
      [
        "po",
        "in"
      ],
      [
        "l",
        "y"
      ],
      [
        "p",
        "a"
      ],
      [
        "to",
        "p"
      ],
      [
        "assem",
        "bly"
      ],
      [
        "ter",
        "min"
      ],
      [
        "at",
        "us"
      ],
      [
        "bl",
        "ue"
      ],
      [
        "T",
        "h"
      ],
      [
        "p",
        "re"
      ],
      [
        "6",
        "4"
      ],
      [
        "s",
        "u"
      ],
      [
        "it",
        "y"
      ],
      [
        "4",
        "9"
      ],
      [
        "d",
        "isplay"
      ],
      [
        "s",
        "ave"
      ],
      [
        "════════════════",
        "═══════════════"
      ],
      [
        "SH",
        "R"
      ],
      [
        "ig",
        "ht"
      ],
      [
        "════════════════════════════════",
        "═══════════════════════════════"
      ],
      [
        "it",
        "le"
      ],
      [
        "do",
        "_"
      ],
      [
        "ar",
        "k"
      ],
      [
        "an",
        "ce"
      ],
      [
        "e",
        "t"
      ],
      [
        "o",
        "ff"
      ],
      [
        "6",
        "0"
      ],
      [
        "T",
        "Y"
      ],
      [
        "d",
        "igit"
      ],
      [
        "h",
        "ase"
      ],
      [
        "g",
        "le"
      ],
      [
        "w",
        "e"
      ],
      [
        "_ne",
        "xt"
      ],
      [
        "9",
        "9"
      ],
      [
        "b",
        "er"
      ],
      [
        "fi",
        "le"
      ],
      [
        "TI",
        "ON"
      ],
      [
        "to",
        "_"
      ],
      [
        "S",
        "_"
      ],
      [
        "ST",
        "A"
      ],
      [
        "str",
        "ing"
      ],
      [
        "A",
        "A"
      ],
      [
        "or",
        "y"
      ],
      [
        "P",
        "I"
      ],
      [
        "b",
        "le"
      ],
      [
        "and",
        "le"
      ],
      [
        "cur",
        "rent"
      ],
      [
        "1",
        "3"
      ],
      [
        "0x4",
        "0"
      ],
      [
        "a",
        "f"
      ],
      [
        "DE",
        "SC"
      ],
      [
        "mp",
        "le"
      ],
      [
        "25",
        "5"
      ],
      [
        "RI",
        "P"
      ],
      [
        "worl",
        "d_"
      ],
      [
        "Th",
        "is"
      ],
      [
        "_",
        "h"
      ],
      [
        "DESC",
        "RIP"
      ],
      [
        "DESCRIP",
        "TION"
      ],
      [
        "t",
        "a"
      ],
      [
        "at",
        "or"
      ],
      [
        "play",
        "er"
      ],
      [
        "pat",
        "tern"
      ],
      [
        "r3",
        "0"
      ],
      [
        "3",
        "3"
      ],
      [
        "10",
        "1"
      ],
      [
        "A",
        "LT"
      ],
      [
        "b",
        "or"
      ],
      [
        "Ge",
        "OS"
      ],
      [
        "e",
        "c"
      ],
      [
        "f",
        "a"
      ],
      [
        "no",
        "t_"
      ],
      [
        "val",
        "ue"
      ],
      [
        "7",
        "0"
      ],
      [
        "line",
        "s"
      ],
      [
        "a",
        "ge"
      ],
      [
        "o",
        "m"
      ],
      [
        "bo",
        "ard"
      ],
      [
        "d",
        "ate"
      ],
      [
        "r",
        "un"
      ],
      [
        "re",
        "ss"
      ],
      [
        "op",
        "code"
      ],
      [
        "tab",
        "le"
      ],
      [
        "6",
        "8"
      ],
      [
        "at",
        "ch"
      ],
      [
        "R_",
        "BUF"
      ],
      [
        "u",
        "m"
      ],
      [
        "us",
        "ing"
      ],
      [
        "C",
        "lear"
      ],
      [
        "p",
        "or"
      ],
      [
        "st",
        "atus"
      ],
      [
        "ig",
        "h"
      ],
      [
        "--------",
        "--------"
      ],
      [
        "X",
        "X"
      ],
      [
        "BA",
        "SE"
      ],
      [
        "K",
        "E"
      ],
      [
        "c",
        "m"
      ],
      [
        "ce",
        "ss"
      ],
      [
        "0x7",
        "8"
      ],
      [
        "e",
        "ce"
      ],
      [
        "i",
        "c"
      ],
      [
        "off",
        "set"
      ],
      [
        "2",
        "8"
      ],
      [
        "i",
        "al"
      ],
      [
        "is",
        "ter"
      ],
      [
        "row",
        "s"
      ],
      [
        ")",
        ":"
      ],
      [
        "y",
        "s"
      ],
      [
        "o",
        "t"
      ],
      [
        "0x",
        "30"
      ],
      [
        "c",
        "y"
      ],
      [
        "E",
        "L"
      ],
      [
        "KE",
        "Y"
      ],
      [
        "5",
        "5"
      ],
      [
        "af",
        "ter"
      ],
      [
        "D",
        "_"
      ],
      [
        "h",
        "andle"
      ],
      [
        "CO",
        "LO"
      ],
      [
        "H",
        "I"
      ],
      [
        "M",
        "E"
      ],
      [
        "l",
        "p"
      ],
      [
        "p",
        "x"
      ],
      [
        "ce",
        "ll"
      ],
      [
        "pixel",
        "s"
      ],
      [
        "C",
        "SI_"
      ],
      [
        "S",
        "t"
      ],
      [
        "o",
        "l"
      ],
      [
        "on",
        "t"
      ],
      [
        "an",
        "gle"
      ],
      [
        "FI",
        "LL"
      ],
      [
        "M",
        "_"
      ],
      [
        "te",
        "st"
      ],
      [
        "ro",
        "t"
      ],
      [
        "7",
        "6"
      ],
      [
        "ow",
        "n"
      ],
      [
        "try",
        "_"
      ],
      [
        "3",
        "1"
      ],
      [
        "A",
        "B"
      ],
      [
        "H",
        "ALT"
      ],
      [
        "c",
        "an"
      ],
      [
        "b",
        "len"
      ],
      [
        "DI",
        "V"
      ],
      [
        "en",
        "d_"
      ],
      [
        "add",
        "ress"
      ],
      [
        "ne",
        "w"
      ],
      [
        "pro",
        "mp"
      ],
      [
        "L",
        "I"
      ],
      [
        "_",
        "to_"
      ],
      [
        "E",
        "N"
      ],
      [
        "c",
        "enter"
      ],
      [
        "MO",
        "D"
      ],
      [
        "_re",
        "g"
      ],
      [
        "in",
        "t"
      ],
      [
        "ty",
        "pe"
      ],
      [
        "nu",
        "m"
      ],
      [
        "to",
        "m"
      ],
      [
        "6",
        "6"
      ],
      [
        "char",
        "s"
      ],
      [
        "0x2",
        "000"
      ],
      [
        "U",
        "N"
      ],
      [
        "sh",
        "ow"
      ],
      [
        "x",
        "t_"
      ],
      [
        "he",
        "x"
      ],
      [
        "no",
        "t"
      ],
      [
        "write",
        "_"
      ],
      [
        "a",
        "y"
      ],
      [
        "e",
        "ach"
      ],
      [
        "u",
        "ll"
      ],
      [
        "w",
        "hi"
      ],
      [
        "0x",
        "8"
      ],
      [
        "12",
        "0"
      ],
      [
        "s",
        "ult"
      ],
      [
        "v",
        "ance"
      ],
      [
        "add",
        "r"
      ],
      [
        "base",
        "d"
      ],
      [
        "C",
        "_"
      ],
      [
        "P",
        "TY"
      ],
      [
        "r",
        "an"
      ],
      [
        "fi",
        "r"
      ],
      [
        "0x00",
        "FF00"
      ],
      [
        "CUR_",
        "ROW"
      ],
      [
        "mm",
        "and"
      ],
      [
        "ch",
        "an"
      ],
      [
        "_o",
        "k"
      ],
      [
        "re",
        "ct"
      ],
      [
        "_d",
        "raw"
      ],
      [
        "SE",
        "ND"
      ],
      [
        "L",
        "o"
      ],
      [
        "se",
        "s"
      ],
      [
        "pi",
        "ece"
      ],
      [
        "promp",
        "t"
      ],
      [
        "z",
        "er"
      ],
      [
        "0x40",
        "D"
      ],
      [
        "zer",
        "o"
      ],
      [
        ">",
        ">"
      ],
      [
        "B",
        "B"
      ],
      [
        "sp",
        "on"
      ],
      [
        "dow",
        "n"
      ],
      [
        "por",
        "t"
      ],
      [
        "ma",
        "p"
      ],
      [
        "gra",
        "m"
      ],
      [
        "res",
        "ult"
      ],
      [
        "c",
        "al"
      ],
      [
        "win",
        "dow"
      ],
      [
        "d",
        "y"
      ],
      [
        "_re",
        "sult"
      ],
      [
        "0x6",
        "A"
      ],
      [
        "num",
        "ber"
      ],
      [
        "V",
        "E"
      ],
      [
        "g",
        "ame"
      ],
      [
        "o",
        "ver"
      ],
      [
        "PA",
        "RAM"
      ],
      [
        "6",
        "5"
      ],
      [
        "ti",
        "me"
      ],
      [
        "wa",
        "ter"
      ],
      [
        "CSI_",
        "PARAM"
      ],
      [
        "9",
        "7"
      ],
      [
        "_",
        "e"
      ],
      [
        "ate",
        "d"
      ],
      [
        "str",
        "u"
      ],
      [
        "AN",
        "DI"
      ],
      [
        "4",
        "00"
      ],
      [
        "t",
        "itle"
      ],
      [
        "at",
        "a"
      ],
      [
        "_d",
        "own"
      ],
      [
        "bu",
        "t"
      ],
      [
        "hi",
        "ft"
      ],
      [
        "B",
        "u"
      ],
      [
        "p",
        "la"
      ],
      [
        "ro",
        "und"
      ],
      [
        "cre",
        "ment"
      ],
      [
        ")",
        "."
      ],
      [
        "W",
        "rite"
      ],
      [
        "l",
        "_"
      ],
      [
        "ur",
        "sor"
      ],
      [
        "pro",
        "gram"
      ],
      [
        "W",
        "IN"
      ],
      [
        "_",
        "T"
      ],
      [
        "s",
        "_"
      ],
      [
        "ct",
        "ive"
      ],
      [
        "0x4",
        "E"
      ],
      [
        "0x00",
        "00"
      ],
      [
        "Re",
        "ad"
      ],
      [
        "0xFFFFFF",
        "FF"
      ],
      [
        "comp",
        "ute"
      ],
      [
        "cm",
        "d_"
      ],
      [
        "SEND",
        "_BUF"
      ],
      [
        "h",
        "o"
      ],
      [
        "_check",
        "_result"
      ],
      [
        "fir",
        "st"
      ],
      [
        "C",
        "on"
      ],
      [
        "a",
        "ult"
      ],
      [
        "co",
        "mmand"
      ],
      [
        "ne",
        "xt"
      ],
      [
        "blen",
        "d"
      ],
      [
        "A",
        "1"
      ],
      [
        "I",
        "t"
      ],
      [
        "ST",
        "R_BUF"
      ],
      [
        "te",
        "p"
      ],
      [
        "bu",
        "ild"
      ],
      [
        "def",
        "ault"
      ],
      [
        "CUR_",
        "COL"
      ],
      [
        "c",
        "lo"
      ],
      [
        "ri",
        "d"
      ],
      [
        "spon",
        "se"
      ],
      [
        "pla",
        "ce"
      ],
      [
        "_",
        "b"
      ],
      [
        "_",
        "f"
      ],
      [
        "SUB",
        "I"
      ],
      [
        "bo",
        "t"
      ],
      [
        "pb",
        "_ret"
      ],
      [
        "ROW",
        "S"
      ],
      [
        "5",
        "8"
      ],
      [
        "D",
        "e"
      ],
      [
        "==",
        "="
      ],
      [
        "spa",
        "wn"
      ],
      [
        "vi",
        "a"
      ],
      [
        "reg",
        "ister"
      ],
      [
        "igh",
        "bor"
      ],
      [
        "C",
        "E"
      ],
      [
        "d",
        "ark"
      ],
      [
        "h",
        "ow"
      ],
      [
        "_c",
        "si"
      ],
      [
        "11",
        "1"
      ],
      [
        "..",
        ".."
      ],
      [
        "fi",
        "ll"
      ],
      [
        "ial",
        "iz"
      ],
      [
        "1",
        "8"
      ],
      [
        "9",
        "0"
      ],
      [
        "2",
        "7"
      ],
      [
        "P",
        "hase"
      ],
      [
        "i",
        "ll"
      ],
      [
        "an",
        "im"
      ],
      [
        "PSE",
        "TI"
      ],
      [
        "A",
        "I"
      ],
      [
        "m",
        "c"
      ],
      [
        "0xFF",
        "B"
      ],
      [
        "3",
        "8"
      ],
      [
        "T",
        "U"
      ],
      [
        "g",
        "round"
      ],
      [
        "s",
        "er"
      ],
      [
        "ar",
        "ch"
      ],
      [
        "0x2",
        "00"
      ],
      [
        "li",
        "ck"
      ],
      [
        "In",
        "it"
      ],
      [
        "3",
        "00"
      ],
      [
        "E",
        "X"
      ],
      [
        "c",
        "am"
      ],
      [
        "t",
        "on"
      ],
      [
        "_d",
        "igit"
      ],
      [
        "ne",
        "ighbor"
      ],
      [
        "SH",
        "L"
      ],
      [
        "bot",
        "tom"
      ],
      [
        "in",
        "to"
      ],
      [
        "0x5",
        "000"
      ],
      [
        "par",
        "se"
      ],
      [
        "Bu",
        "ild"
      ],
      [
        "1",
        "10"
      ],
      [
        "i",
        "mple"
      ],
      [
        "v",
        "_"
      ],
      [
        "10",
        "8"
      ],
      [
        "ne",
        "l"
      ],
      [
        "e",
        "xt"
      ],
      [
        "ad",
        "vance"
      ],
      [
        "SE",
        "T"
      ],
      [
        "th",
        "en"
      ],
      [
        "STA",
        "TU"
      ],
      [
        "I",
        "KEY"
      ],
      [
        "X",
        "EL"
      ],
      [
        "ra",
        "te"
      ],
      [
        "RA",
        "ND"
      ],
      [
        "_c",
        "lear"
      ],
      [
        "PI",
        "XEL"
      ],
      [
        "um",
        "n"
      ],
      [
        ">",
        "="
      ],
      [
        "col",
        "umn"
      ],
      [
        "el",
        "low"
      ],
      [
        "pat",
        "h"
      ],
      [
        "_",
        "n"
      ],
      [
        "wor",
        "ds"
      ],
      [
        "Lo",
        "ad"
      ],
      [
        "4",
        "2"
      ],
      [
        "A",
        "0"
      ],
      [
        "w",
        "all"
      ],
      [
        "ra",
        "in"
      ],
      [
        "ex",
        "ec"
      ],
      [
        "pb",
        "_csi"
      ],
      [
        "app",
        "end_"
      ],
      [
        "s",
        "in"
      ],
      [
        "t",
        "ra"
      ],
      [
        "w",
        "ave"
      ],
      [
        "st",
        "an"
      ],
      [
        "up",
        "date"
      ],
      [
        "_s",
        "kip"
      ],
      [
        "+",
        "+"
      ],
      [
        "e",
        "w"
      ],
      [
        "m",
        "on"
      ],
      [
        "de",
        "d"
      ],
      [
        "ment",
        "s"
      ],
      [
        "L",
        "IN"
      ],
      [
        "i",
        "le"
      ],
      [
        "er",
        "a"
      ],
      [
        "check",
        "_"
      ],
      [
        "_h",
        "ash"
      ],
      [
        "C",
        "K"
      ],
      [
        "R",
        "ow"
      ],
      [
        "hi",
        "st"
      ],
      [
        "I",
        "f"
      ],
      [
        "lo",
        "ad"
      ],
      [
        "ma",
        "x"
      ],
      [
        "0x3",
        "000"
      ],
      [
        "but",
        "ton"
      ],
      [
        "c",
        "or"
      ],
      [
        "o",
        "ve"
      ],
      [
        "s",
        "ig"
      ],
      [
        "t",
        "ur"
      ],
      [
        "z",
        "e"
      ],
      [
        "in",
        "di"
      ],
      [
        "out",
        "put"
      ],
      [
        "are",
        "a"
      ],
      [
        "id",
        "th"
      ],
      [
        "HI",
        "T"
      ],
      [
        "_",
        "p"
      ],
      [
        "re",
        "sponse"
      ],
      [
        "ge",
        "t_"
      ],
      [
        "em",
        "it"
      ],
      [
        "Co",
        "mp"
      ],
      [
        "back",
        "ground"
      ],
      [
        "whi",
        "te"
      ],
      [
        "cam",
        "era"
      ],
      [
        "2",
        "40"
      ],
      [
        "E",
        "E"
      ],
      [
        "u",
        "st"
      ],
      [
        "w",
        "idth"
      ],
      [
        "me",
        "m"
      ],
      [
        "ch",
        "k_"
      ],
      [
        "la",
        "g"
      ],
      [
        "bu",
        "g"
      ],
      [
        "byte",
        "s"
      ],
      [
        "world_",
        "y"
      ],
      [
        "chan",
        "nel"
      ],
      [
        "3",
        "6"
      ],
      [
        "d",
        "g"
      ],
      [
        "lo",
        "ck"
      ],
      [
        "la",
        "mp"
      ],
      [
        "ver",
        "t"
      ],
      [
        "world_",
        "x"
      ],
      [
        "l",
        "s"
      ],
      [
        "o",
        "k"
      ],
      [
        "te",
        "m"
      ],
      [
        "7",
        "3"
      ],
      [
        "A",
        "L"
      ],
      [
        "c",
        "t_"
      ],
      [
        "c",
        "ted"
      ],
      [
        "or",
        "iz"
      ],
      [
        "0x4",
        "000"
      ],
      [
        "ome",
        "try"
      ],
      [
        "0x4E",
        "0"
      ],
      [
        "S",
        "to"
      ],
      [
        "X",
        "OR"
      ],
      [
        "mp",
        "ty"
      ],
      [
        "sg",
        "r_"
      ],
      [
        "i",
        "b"
      ],
      [
        "k",
        "_ret"
      ],
      [
        "n",
        "ing"
      ],
      [
        "11",
        "5"
      ],
      [
        "str",
        "_"
      ],
      [
        "pro",
        "cess"
      ],
      [
        "frame",
        "s"
      ],
      [
        "bit",
        "s"
      ],
      [
        "1",
        "9"
      ],
      [
        "Y",
        "S"
      ],
      [
        "d",
        "ata"
      ],
      [
        "t",
        "k_"
      ],
      [
        "wa",
        "it"
      ],
      [
        "P",
        "ro"
      ],
      [
        "in",
        "k"
      ],
      [
        "LE",
        "N"
      ],
      [
        "Ge",
        "ometry"
      ],
      [
        "fa",
        "il"
      ],
      [
        "E",
        "n"
      ],
      [
        "g",
        "rid"
      ],
      [
        "ent",
        "ry"
      ],
      [
        "sp",
        "rite"
      ],
      [
        "all",
        "y"
      ],
      [
        "poin",
        "ter"
      ],
      [
        "COLO",
        "R"
      ],
      [
        "Sto",
        "re"
      ],
      [
        "8",
        "3"
      ],
      [
        "S",
        "how"
      ],
      [
        "U",
        "p"
      ],
      [
        "th",
        "at"
      ],
      [
        "termin",
        "ate"
      ],
      [
        "ho",
        "st"
      ],
      [
        "S",
        "YS"
      ],
      [
        "a",
        "v"
      ],
      [
        "d",
        "u"
      ],
      [
        "u",
        "g"
      ],
      [
        "is",
        "ion"
      ],
      [
        "ate",
        "s"
      ],
      [
        "12",
        "7"
      ],
      [
        "CO",
        "UN"
      ],
      [
        "LE",
        "_"
      ],
      [
        "AN",
        "S_"
      ],
      [
        "tile",
        "s"
      ],
      [
        "T",
        "XT"
      ],
      [
        "ar",
        "i"
      ],
      [
        "co",
        "re"
      ],
      [
        "se",
        "t_"
      ],
      [
        "se",
        "arch"
      ],
      [
        "mo",
        "use"
      ],
      [
        "COUN",
        "T"
      ],
      [
        "b",
        "el"
      ],
      [
        "d",
        "x"
      ],
      [
        "f",
        "lag"
      ],
      [
        "u",
        "re"
      ],
      [
        "v",
        "as"
      ],
      [
        "st",
        "ri"
      ],
      [
        "er",
        "r"
      ],
      [
        "ten",
        "t"
      ],
      [
        "ta",
        "il"
      ],
      [
        "_",
        "lp"
      ],
      [
        "y",
        "ellow"
      ],
      [
        "0x",
        "9"
      ],
      [
        "re",
        "store"
      ],
      [
        "co",
        "lo"
      ],
      [
        "se",
        "con"
      ],
      [
        "de",
        "mo"
      ],
      [
        "de",
        "bug"
      ],
      [
        "as",
        "s"
      ],
      [
        "la",
        "bel"
      ],
      [
        "L",
        "ay"
      ],
      [
        "S",
        "c"
      ],
      [
        "c",
        "d"
      ],
      [
        "t",
        "ar"
      ],
      [
        "op",
        "y"
      ],
      [
        "ce",
        "s"
      ],
      [
        "bl",
        "dg"
      ],
      [
        "ag",
        "ent_"
      ],
      [
        "indi",
        "c"
      ],
      [
        "ug",
        "h"
      ],
      [
        "T",
        "itle"
      ],
      [
        "se",
        "d"
      ],
      [
        "_c",
        "ursor"
      ],
      [
        "11",
        "2"
      ],
      [
        "11",
        "6"
      ],
      [
        "RO",
        "LL"
      ],
      [
        "0x4",
        "4"
      ],
      [
        "0xFF",
        "0000"
      ],
      [
        "SC",
        "ROLL"
      ],
      [
        "ver",
        "y"
      ],
      [
        "key",
        "board"
      ],
      [
        "cl",
        "u"
      ],
      [
        "can",
        "vas"
      ],
      [
        "<",
        "<"
      ],
      [
        "ar",
        "row"
      ],
      [
        "ro",
        "ss"
      ],
      [
        "op",
        "er"
      ],
      [
        "ll",
        "ision"
      ],
      [
        "ent",
        "ri"
      ],
      [
        "frame",
        "_"
      ],
      [
        "ation",
        "s"
      ],
      [
        "6",
        "9"
      ],
      [
        "6",
        "00"
      ],
      [
        "P",
        "i"
      ],
      [
        "_",
        "a"
      ],
      [
        "_",
        "m"
      ],
      [
        "0xFF",
        "FF"
      ],
      [
        "colo",
        "red"
      ],
      [
        "7",
        "2"
      ],
      [
        "8",
        "2"
      ],
      [
        "C",
        "M"
      ],
      [
        "m",
        "c_"
      ],
      [
        "in",
        "clu"
      ],
      [
        "de",
        "c"
      ],
      [
        "su",
        "b"
      ],
      [
        "_T",
        "AB"
      ],
      [
        "A1",
        "A"
      ],
      [
        "c",
        "us"
      ],
      [
        "c",
        "all"
      ],
      [
        "u",
        "al"
      ],
      [
        "st",
        "rate"
      ],
      [
        "and",
        "om"
      ],
      [
        "la",
        "p"
      ],
      [
        "la",
        "st"
      ],
      [
        "th",
        "is"
      ],
      [
        "di",
        "r"
      ],
      [
        "ac",
        "c"
      ],
      [
        "ir",
        "cle"
      ],
      [
        "8",
        "4"
      ],
      [
        "L",
        "A"
      ],
      [
        "S",
        "A"
      ],
      [
        "S",
        "AR"
      ],
      [
        "h",
        "al"
      ],
      [
        "h",
        "oriz"
      ],
      [
        "p",
        "hase"
      ],
      [
        "ne",
        "d"
      ],
      [
        "len",
        "ame"
      ],
      [
        "li",
        "b"
      ],
      [
        "append_",
        "byte"
      ],
      [
        "Comp",
        "ute"
      ],
      [
        "W",
        "PIXEL"
      ],
      [
        "_",
        "up"
      ],
      [
        "le",
        "t"
      ],
      [
        "co",
        "llision"
      ],
      [
        "he",
        "ad"
      ],
      [
        "ff",
        "e"
      ],
      [
        "ed",
        "ge"
      ],
      [
        "E",
        "SC"
      ],
      [
        "F",
        "G_"
      ],
      [
        "c",
        "no"
      ],
      [
        "r",
        "atch"
      ],
      [
        "ro",
        "ugh"
      ],
      [
        "ne",
        "xt_"
      ],
      [
        "Ge",
        "t"
      ],
      [
        "clear",
        "_"
      ],
      [
        "vis",
        "or"
      ],
      [
        "FG_",
        "COLOR"
      ],
      [
        "N",
        "O"
      ],
      [
        "S",
        "G"
      ],
      [
        "S",
        "et"
      ],
      [
        "a",
        "in"
      ],
      [
        "r",
        "c"
      ],
      [
        "ADD",
        "R"
      ],
      [
        "ar",
        "y"
      ],
      [
        "as",
        "k"
      ],
      [
        "ur",
        "ce"
      ],
      [
        "color",
        "s"
      ],
      [
        "tur",
        "n"
      ],
      [
        "HIT",
        "SET"
      ],
      [
        "C",
        "opy"
      ],
      [
        "S",
        "P"
      ],
      [
        "_",
        "col"
      ],
      [
        "f",
        "ull"
      ],
      [
        "g",
        "u"
      ],
      [
        "s",
        "ys"
      ],
      [
        "re",
        "e"
      ],
      [
        "he",
        "l"
      ],
      [
        "fi",
        "lename"
      ],
      [
        "0x2",
        "40"
      ],
      [
        "STA",
        "TE"
      ],
      [
        "build",
        "ing"
      ],
      [
        ":",
        "\""
      ],
      [
        "P",
        "RO"
      ],
      [
        "_",
        "row"
      ],
      [
        "_",
        "BASE"
      ],
      [
        "l",
        "ight"
      ],
      [
        "w",
        "o"
      ],
      [
        "as",
        "c"
      ],
      [
        "th",
        "rough"
      ],
      [
        "si",
        "ze"
      ],
      [
        "vi",
        "ew"
      ],
      [
        "PI",
        "D"
      ],
      [
        "TXT",
        "_BUF"
      ],
      [
        "7",
        "9"
      ],
      [
        "H",
        "el"
      ],
      [
        "g",
        "en"
      ],
      [
        "n",
        "ame"
      ],
      [
        "p",
        "res"
      ],
      [
        "t",
        "r"
      ],
      [
        "u",
        "t_"
      ],
      [
        "u",
        "32"
      ],
      [
        "v",
        "ari"
      ],
      [
        "lo",
        "c"
      ],
      [
        "pi",
        "pe"
      ],
      [
        "ab",
        "le"
      ],
      [
        "fo",
        "cus"
      ],
      [
        "7",
        "5"
      ],
      [
        "c",
        "c"
      ],
      [
        "d",
        "a"
      ],
      [
        "g",
        "th"
      ],
      [
        "i",
        "st"
      ],
      [
        "te",
        "mp"
      ],
      [
        "it",
        "s"
      ],
      [
        "10",
        "4"
      ],
      [
        "sc",
        "an"
      ],
      [
        "no",
        "w"
      ],
      [
        "ent",
        "ity"
      ],
      [
        "us",
        "h"
      ],
      [
        "_ne",
        "w"
      ],
      [
        "ent_",
        "agent_"
      ],
      [
        "vis",
        "i"
      ],
      [
        "WIN",
        "SYS"
      ],
      [
        "hist",
        "ory"
      ],
      [
        "entri",
        "es"
      ],
      [
        "D",
        "00"
      ],
      [
        "i",
        "es"
      ],
      [
        "m",
        "atch"
      ],
      [
        "p",
        "an"
      ],
      [
        "LL",
        "M"
      ],
      [
        "ve",
        "s"
      ],
      [
        "0x7",
        "000"
      ],
      [
        "ge",
        "t"
      ],
      [
        "ed",
        "it"
      ],
      [
        "len",
        "gth"
      ],
      [
        "ction",
        "s"
      ],
      [
        "ag",
        "ent"
      ],
      [
        "----------------",
        "----------------"
      ],
      [
        "7",
        "7"
      ],
      [
        "T",
        "e"
      ],
      [
        "h",
        "ash"
      ],
      [
        "n",
        "on"
      ],
      [
        "0x2",
        "0"
      ],
      [
        "str",
        "len"
      ],
      [
        "ul",
        "d"
      ],
      [
        "skip",
        "_"
      ],
      [
        "Co",
        "l"
      ],
      [
        "imple",
        "ments"
      ],
      [
        "stan",
        "t"
      ],
      [
        "E",
        "R"
      ],
      [
        "n",
        "er"
      ],
      [
        "s",
        "core"
      ],
      [
        "en",
        "der"
      ],
      [
        "ar",
        "m"
      ],
      [
        "`",
        ","
      ],
      [
        "b",
        "all"
      ],
      [
        "f",
        "d"
      ],
      [
        "r",
        "andom"
      ],
      [
        "st",
        "op"
      ],
      [
        "ar",
        "t"
      ],
      [
        "10",
        "5"
      ],
      [
        "sc",
        "ratch"
      ],
      [
        "0xFF",
        "FF00"
      ],
      [
        "for",
        "m"
      ],
      [
        "ap",
        "e"
      ],
      [
        "sh",
        "o"
      ],
      [
        "qu",
        "it"
      ],
      [
        "6",
        "7"
      ],
      [
        "C",
        "0"
      ],
      [
        "c",
        "si"
      ],
      [
        "ra",
        "g"
      ],
      [
        "OP",
        "EN"
      ],
      [
        "ti",
        "m"
      ],
      [
        "0x0",
        "40"
      ],
      [
        "────────────────────────────────",
        "────────"
      ],
      [
        "read",
        "y"
      ],
      [
        "_to_",
        "buf"
      ],
      [
        "SA",
        "VE"
      ],
      [
        "A",
        "d"
      ],
      [
        "T",
        "_"
      ],
      [
        "g",
        "o"
      ],
      [
        "p",
        "le"
      ],
      [
        "co",
        "or"
      ],
      [
        "_d",
        "o"
      ],
      [
        "la",
        "ck"
      ],
      [
        "di",
        "re"
      ],
      [
        "0x0",
        "A0"
      ],
      [
        "DE",
        "BU"
      ],
      [
        "use",
        "s"
      ],
      [
        "ib",
        "ble"
      ],
      [
        "2",
        "3"
      ],
      [
        "C",
        "P"
      ],
      [
        "F",
        "S"
      ],
      [
        "U",
        "ses"
      ],
      [
        "a",
        "le"
      ],
      [
        "c",
        "lick"
      ],
      [
        "d",
        "one"
      ],
      [
        "g",
        "re"
      ],
      [
        "j",
        "ust"
      ],
      [
        "0x",
        "88"
      ],
      [
        "de",
        "s"
      ],
      [
        "de",
        "st"
      ],
      [
        "SE",
        "L"
      ],
      [
        "NE",
        "G"
      ],
      [
        "init",
        "_"
      ],
      [
        "Te",
        "st"
      ],
      [
        "DEBU",
        "G_"
      ],
      [
        "C",
        "LI"
      ],
      [
        "R",
        "ender"
      ],
      [
        "V",
        "M"
      ],
      [
        "_",
        "id"
      ],
      [
        "b",
        "lack"
      ],
      [
        "h",
        "it"
      ],
      [
        "i",
        "x"
      ],
      [
        "i",
        "fi"
      ],
      [
        "s",
        "hift"
      ],
      [
        "t",
        "ri"
      ],
      [
        "in",
        "crement"
      ],
      [
        "re",
        "set"
      ],
      [
        "reg",
        "ion"
      ],
      [
        "bor",
        "der"
      ],
      [
        "_new",
        "line"
      ],
      [
        "*",
        "*"
      ],
      [
        "2",
        "E"
      ],
      [
        "S",
        "ave"
      ],
      [
        "_",
        "store"
      ],
      [
        "f",
        "un"
      ],
      [
        "m",
        "al"
      ],
      [
        "t",
        "int"
      ],
      [
        "w",
        "r"
      ],
      [
        "RE",
        "AD"
      ],
      [
        "00",
        "1"
      ],
      [
        "_d",
        "ir"
      ],
      [
        "0x1",
        "A1A"
      ],
      [
        "im",
        "al"
      ],
      [
        "poin",
        "t"
      ],
      [
        "indic",
        "ator"
      ],
      [
        "strate",
        "s"
      ],
      [
        "Hel",
        "lo"
      ],
      [
        "5",
        "00"
      ],
      [
        "a",
        "red"
      ],
      [
        "e",
        "mpty"
      ],
      [
        "0x",
        "000"
      ],
      [
        "0x6",
        "000"
      ],
      [
        "0x1",
        "F"
      ],
      [
        "_check",
        "_"
      ],
      [
        "digit",
        "s"
      ],
      [
        "Init",
        "ializ"
      ],
      [
        "D",
        "O"
      ],
      [
        "e",
        "very"
      ],
      [
        "f",
        "e"
      ],
      [
        "k",
        "no"
      ],
      [
        "s",
        "n"
      ],
      [
        "0xFF",
        "00"
      ],
      [
        "..",
        "."
      ],
      [
        "ab",
        "ove"
      ],
      [
        "draw",
        "s"
      ],
      [
        "wor",
        "d"
      ],
      [
        "qu",
        "en"
      ],
      [
        "value",
        "s"
      ],
      [
        "mc",
        "_ret"
      ],
      [
        "mc_",
        "25"
      ],
      [
        "kno",
        "wn"
      ],
      [
        "B",
        "O"
      ],
      [
        "N",
        "ull"
      ],
      [
        "a",
        "ctive"
      ],
      [
        "h",
        "y"
      ],
      [
        "s",
        "rc"
      ],
      [
        "0x",
        "120"
      ],
      [
        "en",
        "em"
      ],
      [
        "se",
        "le"
      ],
      [
        "ne",
        "g"
      ],
      [
        "bo",
        "un"
      ],
      [
        "AN",
        "SI_"
      ],
      [
        "render",
        "ing"
      ],
      [
        "Col",
        "or"
      ],
      [
        "0x1A1A",
        "2E"
      ],
      [
        "5",
        "1"
      ],
      [
        "O",
        "SC"
      ],
      [
        "m",
        "an"
      ],
      [
        "o",
        "us"
      ],
      [
        "s",
        "a"
      ],
      [
        "ar",
        "se"
      ],
      [
        "he",
        "re"
      ],
      [
        "SC",
        "I"
      ],
      [
        "ss",
        "ion"
      ],
      [
        "do",
        "_re"
      ],
      [
        "sto",
        "red"
      ],
      [
        "sg",
        "r"
      ],
      [
        "STATU",
        "S_"
      ],
      [
        "frame_",
        "counter"
      ],
      [
        "1",
        "7"
      ],
      [
        "A",
        "S"
      ],
      [
        "A",
        "SCI"
      ],
      [
        "c",
        "ircle"
      ],
      [
        "p",
        "r"
      ],
      [
        "s",
        "ine"
      ],
      [
        "s",
        "qu"
      ],
      [
        "DI",
        "R"
      ],
      [
        "10",
        "3"
      ],
      [
        "ch",
        "ild"
      ],
      [
        "ve",
        "l"
      ],
      [
        "_c",
        "m"
      ],
      [
        "con",
        "t"
      ],
      [
        "0x0",
        "20"
      ],
      [
        "Re",
        "g"
      ],
      [
        "fo",
        "re"
      ],
      [
        "per",
        "visor"
      ],
      [
        "display",
        "s"
      ],
      [
        "run",
        "ning"
      ],
      [
        "COLO",
        "R_BUF"
      ],
      [
        "err",
        "or"
      ],
      [
        "NO",
        "TE"
      ],
      [
        "ASCI",
        "I"
      ],
      [
        "_",
        "start"
      ],
      [
        "b",
        "lock"
      ],
      [
        "m",
        "ul"
      ],
      [
        "p",
        "l"
      ],
      [
        "s",
        "tep"
      ],
      [
        "re",
        "start"
      ],
      [
        "con",
        "tent"
      ],
      [
        "COL",
        "_"
      ],
      [
        "Re",
        "set"
      ],
      [
        "gra",
        "ss"
      ],
      [
        "new",
        "line"
      ],
      [
        "mem",
        "ory"
      ],
      [
        "Up",
        "date"
      ],
      [
        "_",
        "copy"
      ],
      [
        "b",
        "_"
      ],
      [
        "f",
        "in"
      ],
      [
        "p",
        "end"
      ],
      [
        "in",
        "stru"
      ],
      [
        "R_",
        "B"
      ],
      [
        "fi",
        "x"
      ],
      [
        "bo",
        "x"
      ],
      [
        "_o",
        "ver"
      ],
      [
        "assem",
        "ble"
      ],
      [
        "so",
        "urce"
      ],
      [
        "sys",
        "tem"
      ],
      [
        "Initializ",
        "e"
      ],
      [
        "2",
        "6"
      ],
      [
        "B",
        "EE"
      ],
      [
        "R",
        "L"
      ],
      [
        "W",
        "e"
      ],
      [
        "v",
        "y"
      ],
      [
        "0x",
        "80"
      ],
      [
        "se",
        "ssion"
      ],
      [
        "at",
        "ing"
      ],
      [
        "he",
        "s"
      ],
      [
        "ti",
        "cle"
      ],
      [
        "di",
        "m"
      ],
      [
        "0x1",
        "000"
      ],
      [
        "Lay",
        "out"
      ],
      [
        "gen",
        "er"
      ],
      [
        "3",
        "4"
      ],
      [
        "_",
        "pos"
      ],
      [
        "c",
        "s"
      ],
      [
        "o",
        "th"
      ],
      [
        "p",
        "v"
      ],
      [
        "s",
        "y"
      ],
      [
        "in",
        "t_"
      ],
      [
        "le",
        "vel"
      ],
      [
        "al",
        "ready"
      ],
      [
        "TI",
        "CK"
      ],
      [
        "ht",
        "t"
      ],
      [
        "hy",
        "pervisor"
      ],
      [
        "_cm",
        "d"
      ],
      [
        "1",
        "000"
      ],
      [
        "1",
        "50"
      ],
      [
        "8",
        "00"
      ],
      [
        "R",
        "UN"
      ],
      [
        "S",
        "kip"
      ],
      [
        "W",
        "N"
      ],
      [
        "_",
        "count"
      ],
      [
        "r",
        "h"
      ],
      [
        "s",
        "lo"
      ],
      [
        "s",
        "256"
      ],
      [
        "t",
        "k_ret"
      ],
      [
        "_d",
        "i"
      ],
      [
        "bu",
        "il"
      ],
      [
        "line",
        "_to_buf"
      ],
      [
        "con",
        "stant"
      ],
      [
        "draw_",
        "frame"
      ],
      [
        "par",
        "ticle"
      ],
      [
        "cell",
        "s"
      ],
      [
        "write_",
        "line_to_buf"
      ],
      [
        "LIN",
        "E"
      ],
      [
        "dire",
        "ction"
      ],
      [
        "CLI",
        "P_"
      ],
      [
        "ANSI_",
        "STATE"
      ],
      [
        "s256",
        "_"
      ],
      [
        "M",
        "em"
      ],
      [
        "S",
        "e"
      ],
      [
        "c",
        "lamp"
      ],
      [
        "t",
        "al"
      ],
      [
        "u",
        "b"
      ],
      [
        "_c",
        "l"
      ],
      [
        "sp",
        "e"
      ],
      [
        "di",
        "st"
      ],
      [
        "ap",
        "pro"
      ],
      [
        "em",
        "on"
      ],
      [
        "cy",
        "an"
      ],
      [
        "_e",
        "sc"
      ],
      [
        "_TAB",
        "LE"
      ],
      [
        "3",
        "5"
      ],
      [
        "H",
        "T"
      ],
      [
        "u",
        "ally"
      ],
      [
        "st",
        "ack"
      ],
      [
        "er",
        "s"
      ],
      [
        "an",
        "ge"
      ],
      [
        "la",
        "te"
      ],
      [
        "R_",
        "SC"
      ],
      [
        "fo",
        "und"
      ],
      [
        "read",
        "s"
      ],
      [
        "init",
        "ializ"
      ],
      [
        "0x78",
        "00"
      ],
      [
        "Reg",
        "ister"
      ],
      [
        "BEE",
        "P"
      ],
      [
        "2",
        "9"
      ],
      [
        "D",
        "isplay"
      ],
      [
        "L",
        "S"
      ],
      [
        "m",
        "sg"
      ],
      [
        "m",
        "ix"
      ],
      [
        "v",
        "x"
      ],
      [
        "in",
        "ter"
      ],
      [
        "re",
        "main"
      ],
      [
        "CC",
        "CC"
      ],
      [
        "advance",
        "_to_"
      ],
      [
        "dec",
        "imal"
      ],
      [
        "dir",
        "ty"
      ],
      [
        "DIR",
        "TY"
      ],
      [
        "C",
        "lo"
      ],
      [
        "F",
        "or"
      ],
      [
        "c",
        "ross"
      ],
      [
        "h",
        "ome"
      ],
      [
        "m",
        "ar"
      ],
      [
        "r",
        "ing"
      ],
      [
        "or",
        "g"
      ],
      [
        "he",
        "lp"
      ],
      [
        "10",
        "2"
      ],
      [
        "ch",
        "k"
      ],
      [
        "ct",
        "s"
      ],
      [
        "ti",
        "ck"
      ],
      [
        "sp",
        "ec"
      ],
      [
        "do",
        "_newline"
      ],
      [
        "ac",
        "ter"
      ],
      [
        "sig",
        "ned"
      ],
      [
        "secon",
        "ds"
      ],
      [
        "cd",
        "l"
      ],
      [
        "5",
        "6"
      ],
      [
        "M",
        "M"
      ],
      [
        "P",
        "lay"
      ],
      [
        "_",
        "type"
      ],
      [
        "d",
        "st"
      ],
      [
        "0x",
        "AA"
      ],
      [
        "────",
        "──"
      ],
      [
        "ne",
        "ed"
      ],
      [
        "100",
        "00"
      ],
      [
        "si",
        "de"
      ],
      [
        "write",
        "s"
      ],
      [
        "save",
        "d"
      ],
      [
        "ont",
        "al"
      ],
      [
        "camera",
        "_x"
      ],
      [
        "hel",
        "lo"
      ],
      [
        "sho",
        "uld"
      ],
      [
        "8",
        "7"
      ],
      [
        "d",
        "in"
      ],
      [
        "h",
        "en"
      ],
      [
        "i",
        "te"
      ],
      [
        "p",
        "ack"
      ],
      [
        "s",
        "x"
      ],
      [
        "t",
        "ran"
      ],
      [
        "w",
        "al"
      ],
      [
        "0x",
        "C"
      ],
      [
        "or",
        "ange"
      ],
      [
        "se",
        "quen"
      ],
      [
        "ro",
        "ls"
      ],
      [
        "ra",
        "p"
      ],
      [
        "MO",
        "DE"
      ],
      [
        "bo",
        "dy"
      ],
      [
        "char",
        "acter"
      ],
      [
        "li",
        "st"
      ],
      [
        "STATU",
        "S"
      ],
      [
        "pb_csi",
        "_"
      ],
      [
        "sgr",
        "_ret"
      ],
      [
        "2",
        "1"
      ],
      [
        "4",
        "5"
      ],
      [
        "F",
        "E"
      ],
      [
        "M",
        "ain"
      ],
      [
        "N",
        "o"
      ],
      [
        "R",
        "Y"
      ],
      [
        "S",
        "pa"
      ],
      [
        "_",
        "input"
      ],
      [
        "s",
        "up"
      ],
      [
        "le",
        "te"
      ],
      [
        "ro",
        "p"
      ],
      [
        "str",
        "c"
      ],
      [
        "0x00",
        "FFFF"
      ],
      [
        "_ne",
        "xt_"
      ],
      [
        "key",
        "s"
      ],
      [
        "register",
        "s"
      ],
      [
        "sig",
        "n"
      ],
      [
        "En",
        "ter"
      ],
      [
        "stri",
        "pe"
      ],
      [
        "+",
        "="
      ],
      [
        "8",
        "_"
      ],
      [
        "A",
        "p"
      ],
      [
        "o",
        "om"
      ],
      [
        "in",
        "te"
      ],
      [
        "at",
        "ive"
      ],
      [
        "to",
        "tal"
      ],
      [
        "as",
        "te"
      ],
      [
        "t_",
        "in"
      ],
      [
        "ri",
        "ck"
      ],
      [
        "sc",
        "ale"
      ],
      [
        "TE",
        "R"
      ],
      [
        "0x7",
        "00"
      ],
      [
        "wit",
        "ch"
      ],
      [
        "M_",
        "BASE"
      ],
      [
        "CE",
        "LL"
      ],
      [
        "Pi",
        "xel"
      ],
      [
        "tim",
        "er"
      ],
      [
        "\"",
        ")"
      ],
      [
        "C",
        "L"
      ],
      [
        "U",
        "T"
      ],
      [
        "m",
        "ask"
      ],
      [
        "in",
        "s"
      ],
      [
        "re",
        "place"
      ],
      [
        "on",
        "al"
      ],
      [
        "se",
        "l"
      ],
      [
        "ra",
        "ct"
      ],
      [
        "10",
        "9"
      ],
      [
        "sc",
        "ape"
      ],
      [
        "0x4",
        "44"
      ],
      [
        "ti",
        "p"
      ],
      [
        "con",
        "ne"
      ],
      [
        "ag",
        "onal"
      ],
      [
        "poin",
        "t_in"
      ],
      [
        "termin",
        "al"
      ],
      [
        "pre",
        "v"
      ],
      [
        "cm",
        "d"
      ],
      [
        "KEY",
        "_"
      ],
      [
        "0x8",
        "000"
      ],
      [
        "LIN",
        "K"
      ],
      [
        "tr",
        "l"
      ],
      [
        "slo",
        "t"
      ],
      [
        "advance_to_",
        "null"
      ],
      [
        "1",
        "40"
      ],
      [
        "4",
        "7"
      ],
      [
        "9",
        "1"
      ],
      [
        "E",
        "ach"
      ],
      [
        "R",
        "S"
      ],
      [
        "a",
        "i"
      ],
      [
        "f",
        "ine"
      ],
      [
        "h",
        "as"
      ],
      [
        "r",
        "u"
      ],
      [
        "w",
        "here"
      ],
      [
        "z",
        "oom"
      ],
      [
        "at",
        "ure"
      ],
      [
        "ro",
        "ut"
      ],
      [
        "TI",
        "ME"
      ],
      [
        "0x00",
        "0000"
      ],
      [
        "rig",
        "h"
      ],
      [
        "termin",
        "ator"
      ],
      [
        "stru",
        "ct_"
      ],
      [
        "CM",
        "D_"
      ],
      [
        "(",
        "\""
      ],
      [
        "4",
        "x"
      ],
      [
        "5",
        "3"
      ],
      [
        "U",
        "RL"
      ],
      [
        "b",
        "ber"
      ],
      [
        "o",
        "d"
      ],
      [
        "p",
        "ass"
      ],
      [
        "s",
        "ame"
      ],
      [
        "t",
        "n"
      ],
      [
        "u",
        "res"
      ],
      [
        "he",
        "ll"
      ],
      [
        "0x5",
        "0"
      ],
      [
        "li",
        "c"
      ],
      [
        "In",
        "put"
      ],
      [
        "tar",
        "get_"
      ],
      [
        "SCROLL",
        "_"
      ],
      [
        "hal",
        "f"
      ],
      [
        "buil",
        "d_"
      ],
      [
        "Mem",
        "ory"
      ],
      [
        "C",
        "ursor"
      ],
      [
        "E",
        "x"
      ],
      [
        "F",
        "G"
      ],
      [
        "U",
        "SE"
      ],
      [
        "W",
        "a"
      ],
      [
        "v",
        "a"
      ],
      [
        "in",
        "u"
      ],
      [
        "le",
        "r"
      ],
      [
        "or",
        "mal"
      ],
      [
        "he",
        "ight"
      ],
      [
        "me",
        "ss"
      ],
      [
        "col",
        "s"
      ],
      [
        "do",
        "t"
      ],
      [
        "si",
        "mple"
      ],
      [
        "iz",
        "e"
      ],
      [
        "space",
        "s"
      ],
      [
        "pa",
        "int"
      ],
      [
        "Build",
        "ing"
      ],
      [
        "ok",
        "up"
      ],
      [
        "_dir",
        "ty"
      ],
      [
        "rout",
        "ine"
      ],
      [
        "mess",
        "age"
      ],
      [
        "6",
        "2"
      ],
      [
        "7",
        "1"
      ],
      [
        "8",
        "5"
      ],
      [
        "Z",
        "E"
      ],
      [
        "b",
        "tn"
      ],
      [
        "d",
        "ing"
      ],
      [
        "h",
        "u"
      ],
      [
        "w",
        "ard"
      ],
      [
        "RE",
        "EN"
      ],
      [
        "0x",
        "11"
      ],
      [
        "11",
        "7"
      ],
      [
        "the",
        "m"
      ],
      [
        "CO",
        "N"
      ],
      [
        "lay",
        "out"
      ],
      [
        "GE",
        "T"
      ],
      [
        "_s",
        "hift"
      ],
      [
        "tab",
        "_"
      ],
      [
        "────────────────────────────────",
        "─"
      ],
      [
        "render",
        "_"
      ],
      [
        "spawn",
        "_"
      ],
      [
        "squ",
        "are"
      ],
      [
        "wal",
        "k"
      ],
      [
        "!",
        "\""
      ],
      [
        "B",
        "LINK"
      ],
      [
        "C",
        "V"
      ],
      [
        "H",
        "EX"
      ],
      [
        "P",
        "C"
      ],
      [
        "P",
        "E"
      ],
      [
        "V",
        "I"
      ],
      [
        "c",
        "u"
      ],
      [
        "d",
        "n"
      ],
      [
        "d",
        "rag"
      ],
      [
        "f",
        "low"
      ],
      [
        "g",
        "gle"
      ],
      [
        "i",
        "i"
      ],
      [
        "m",
        "at"
      ],
      [
        "p",
        "ur"
      ],
      [
        "r",
        "on"
      ],
      [
        "s",
        "b"
      ],
      [
        "w",
        "as"
      ],
      [
        "an",
        "s"
      ],
      [
        "0x4",
        "30"
      ],
      [
        "ND",
        "E"
      ],
      [
        "di",
        "rect"
      ],
      [
        "0x2",
        "100"
      ],
      [
        "0x5",
        "3"
      ],
      [
        "ten",
        "s"
      ],
      [
        "opcode",
        "s"
      ],
      [
        "ME",
        "M"
      ],
      [
        "chan",
        "ge"
      ],
      [
        "clo",
        "se"
      ],
      [
        "asc",
        "iz"
      ],
      [
        "visi",
        "ble"
      ],
      [
        "9",
        "6"
      ],
      [
        "D",
        "D"
      ],
      [
        "S",
        "P_"
      ],
      [
        "a",
        "u"
      ],
      [
        "b",
        "right"
      ],
      [
        "f",
        "l"
      ],
      [
        "w",
        "hen"
      ],
      [
        "on",
        "ly"
      ],
      [
        "ar",
        "g"
      ],
      [
        "co",
        "s"
      ],
      [
        "it",
        "h"
      ],
      [
        "ro",
        "om"
      ],
      [
        "LO",
        "OP"
      ],
      [
        "MO",
        "USE"
      ],
      [
        "us",
        "age"
      ],
      [
        "wor",
        "k"
      ],
      [
        "RI",
        "TE"
      ],
      [
        "SI",
        "ZE"
      ],
      [
        "In",
        "crement"
      ],
      [
        "app",
        "end"
      ],
      [
        "rect",
        "angle"
      ],
      [
        "AL",
        "AR"
      ],
      [
        "horiz",
        "ontal"
      ],
      [
        "ifi",
        "c"
      ],
      [
        "R_SC",
        "R"
      ],
      [
        "1",
        "30"
      ],
      [
        "5",
        "2"
      ],
      [
        "B",
        "l"
      ],
      [
        "C",
        "ont"
      ],
      [
        "F",
        "B"
      ],
      [
        "_",
        "left"
      ],
      [
        "d",
        "b"
      ],
      [
        "n",
        "av"
      ],
      [
        "s",
        "ing"
      ],
      [
        "w",
        "rap"
      ],
      [
        "x",
        "8"
      ],
      [
        "RE",
        "CV"
      ],
      [
        "se",
        "ed"
      ],
      [
        "RO",
        "O"
      ],
      [
        "r25",
        "6"
      ],
      [
        "ut",
        "ion"
      ],
      [
        "ma",
        "g"
      ],
      [
        "di",
        "ent"
      ],
      [
        "di",
        "agonal"
      ],
      [
        "draw",
        "ing"
      ],
      [
        "256",
        "x"
      ],
      [
        "22",
        "4"
      ],
      [
        "AR",
        "T"
      ],
      [
        "sg",
        "r256"
      ],
      [
        "NE",
        "M"
      ],
      [
        "no_",
        "input"
      ],
      [
        "St",
        "atus"
      ],
      [
        "pan",
        "el"
      ],
      [
        "mar",
        "k_"
      ],
      [
        "UT",
        "F"
      ],
      [
        "pur",
        "ple"
      ],
      [
        "F",
        "o"
      ],
      [
        "N",
        "U"
      ],
      [
        "N",
        "OR"
      ],
      [
        "O",
        "p"
      ],
      [
        "R",
        "G"
      ],
      [
        "S",
        "PA"
      ],
      [
        "T",
        "er"
      ],
      [
        "b",
        "righ"
      ],
      [
        "d",
        "en"
      ],
      [
        "e",
        "t_"
      ],
      [
        "f",
        "ont"
      ],
      [
        "m",
        "ine"
      ],
      [
        "p",
        "h"
      ],
      [
        "s",
        "ition"
      ],
      [
        "de",
        "mon"
      ],
      [
        "un",
        "known"
      ],
      [
        "SH",
        "LI"
      ],
      [
        "ct",
        "ually"
      ],
      [
        "0x4",
        "1"
      ],
      [
        "di",
        "ffe"
      ],
      [
        "MA",
        "L"
      ],
      [
        "vis",
        "ual"
      ],
      [
        "string",
        "s"
      ],
      [
        "ran",
        "ge"
      ],
      [
        "parse",
        "_"
      ],
      [
        "ile",
        "d"
      ],
      [
        "str_",
        "hello"
      ],
      [
        "let",
        "te"
      ],
      [
        "enem",
        "y"
      ],
      [
        "man",
        "age"
      ],
      [
        "TICK",
        "S"
      ],
      [
        "initializ",
        "es"
      ],
      [
        "DIRTY",
        "_"
      ],
      [
        "256x",
        "256"
      ],
      [
        "NOR",
        "MAL"
      ],
      [
        "6",
        "3"
      ],
      [
        "9",
        "3"
      ],
      [
        "E",
        "NEM"
      ],
      [
        "I",
        "D"
      ],
      [
        "I",
        "T"
      ],
      [
        "M",
        "S"
      ],
      [
        "S",
        "S"
      ],
      [
        "U",
        "P"
      ],
      [
        "d",
        "ri"
      ],
      [
        "p",
        "op"
      ],
      [
        "p",
        "ush"
      ],
      [
        "s",
        "hi"
      ],
      [
        "an",
        "y"
      ],
      [
        "de",
        "l"
      ],
      [
        "LO",
        "SE"
      ],
      [
        "al",
        "arm"
      ],
      [
        "to",
        "ur"
      ],
      [
        "op",
        "en"
      ],
      [
        "12",
        "6"
      ],
      [
        "TI",
        "T"
      ],
      [
        "con",
        "tour"
      ],
      [
        "_ne",
        "g"
      ],
      [
        "start",
        "s"
      ],
      [
        "store",
        "_"
      ],
      [
        "be",
        "t"
      ],
      [
        "copy",
        "_"
      ],
      [
        "pa",
        "st"
      ],
      [
        "after",
        "_input"
      ],
      [
        "BB",
        "BB"
      ],
      [
        "0x0000",
        "FF"
      ],
      [
        "anim",
        "ation"
      ],
      [
        "Sc",
        "reen"
      ],
      [
        "oper",
        "ations"
      ],
      [
        "CP",
        "Y"
      ],
      [
        "0x120",
        "1"
      ],
      [
        "fine",
        "_hash"
      ],
      [
        "diffe",
        "rent"
      ],
      [
        "4",
        "FF"
      ],
      [
        "B",
        "ack"
      ],
      [
        "M",
        "o"
      ],
      [
        "N",
        "T"
      ],
      [
        "V",
        "FS"
      ],
      [
        "W",
        "in"
      ],
      [
        "f",
        "le"
      ],
      [
        "h",
        "k_ret"
      ],
      [
        "l",
        "d"
      ],
      [
        "m",
        "ark"
      ],
      [
        "n",
        "ibble"
      ],
      [
        "in",
        "ue"
      ],
      [
        "FF",
        "44"
      ],
      [
        "ent",
        "i"
      ],
      [
        "0x7",
        "0"
      ],
      [
        "ul",
        "ator"
      ],
      [
        "TI",
        "LE"
      ],
      [
        "TI",
        "LE_"
      ],
      [
        "0x1",
        "70"
      ],
      [
        "gra",
        "dient"
      ],
      [
        "no_",
        "key"
      ],
      [
        "MA",
        "IN"
      ],
      [
        "_reg",
        "s"
      ],
      [
        "ANS_",
        "NORMAL"
      ],
      [
        "acc",
        "ent"
      ],
      [
        "SG",
        "R"
      ],
      [
        "wr",
        "it"
      ],
      [
        "remain",
        "ing"
      ],
      [
        "Cont",
        "rols"
      ],
      [
        "1",
        "80"
      ],
      [
        "2",
        "48"
      ],
      [
        "F",
        "O"
      ],
      [
        "L",
        "U"
      ],
      [
        "L",
        "e"
      ],
      [
        "M",
        "ove"
      ],
      [
        "_",
        "right"
      ],
      [
        "c",
        "il"
      ],
      [
        "c",
        "ap"
      ],
      [
        "c",
        "cess"
      ],
      [
        "c",
        "hes"
      ],
      [
        "d",
        "ay"
      ],
      [
        "e",
        "y"
      ],
      [
        "t",
        "wo"
      ],
      [
        "v",
        "ation"
      ],
      [
        "RE",
        "SP"
      ],
      [
        "me",
        "ans"
      ],
      [
        "ch",
        "o"
      ],
      [
        "ne",
        "ar"
      ],
      [
        "one",
        "s"
      ],
      [
        "ut",
        "put"
      ],
      [
        "12",
        "4"
      ],
      [
        "us",
        "er"
      ],
      [
        "li",
        "ke"
      ],
      [
        "gra",
        "y"
      ],
      [
        "pb",
        "_esc"
      ],
      [
        "AN",
        "SI"
      ],
      [
        "MA",
        "P_"
      ],
      [
        "we",
        "en"
      ],
      [
        "....",
        ")"
      ],
      [
        "non",
        "zero"
      ],
      [
        "0x88",
        "88"
      ],
      [
        "fun",
        "ction"
      ],
      [
        "bber",
        "s"
      ],
      [
        "\"",
        ","
      ],
      [
        "\"",
        "/"
      ],
      [
        "T",
        "AB"
      ],
      [
        "W",
        "_"
      ],
      [
        "W",
        "RITE"
      ],
      [
        "_",
        "r"
      ],
      [
        "_",
        "screen"
      ],
      [
        "a",
        "st"
      ],
      [
        "e",
        "p"
      ],
      [
        "f",
        "ig"
      ],
      [
        "s",
        "hell"
      ],
      [
        "t",
        "ree"
      ],
      [
        "w",
        "u"
      ],
      [
        "lo",
        "okup"
      ],
      [
        "ce",
        "p"
      ],
      [
        "no",
        "_c"
      ],
      [
        "0x4",
        "00"
      ],
      [
        "ti",
        "cal"
      ],
      [
        "16",
        "x"
      ],
      [
        "ab",
        "s"
      ],
      [
        "0x2",
        "200"
      ],
      [
        "screen",
        "_x"
      ],
      [
        "hi",
        "_done"
      ],
      [
        "IN",
        "G"
      ],
      [
        "id",
        "le"
      ],
      [
        "cre",
        "ate"
      ],
      [
        "_e",
        "q"
      ],
      [
        "ser",
        "t"
      ],
      [
        "Pro",
        "cess"
      ],
      [
        "Ad",
        "vance"
      ],
      [
        "coor",
        "din"
      ],
      [
        "tri",
        "angle"
      ],
      [
        "boun",
        "ce"
      ],
      [
        "_cl",
        "r"
      ],
      [
        "Play",
        "er"
      ],
      [
        "ENEM",
        "Y"
      ],
      [
        "bet",
        "ween"
      ],
      [
        "5",
        "4"
      ],
      [
        "E",
        "ND"
      ],
      [
        "V",
        "_"
      ],
      [
        "_",
        "color"
      ]
    ]
  }
}