{
  "version": "1.0",
  "truncation": null,
  "padding": null,
  "added_tokens": [
    {
      "id": 0,
      "content": "<UNK>",
      "single_word": false,
      "lstrip": false,
      "rstrip": false,
      "normalized": false,
      "special": true
    },
    {
      "id": 1,
      "content": "<PAD>",
      "single_word": false,
      "lstrip": false,
      "rstrip": false,
      "normalized": false,
      "special": true
    },
    {
      "id": 2,
      "content": "<BOS>",
      "single_word": false,
      "lstrip": false,
      "rstrip": false,
      "normalized": false,
      "special": true
    },
    {
      "id": 3,
      "content": "<EOS>",
      "single_word": false,
      "lstrip": false,
      "rstrip": false,
      "normalized": false,
      "special": true
    },
    {
      "id": 4,
      "content": "<NL>",
      "single_word": false,
      "lstrip": false,
      "rstrip": false,
      "normalized": false,
      "special": true
    }
  ],
  "normalizer": null,
  "pre_tokenizer": {
    "type": "Whitespace"
  },
  "post_processor": null,
  "decoder": null,
  "model": {
    "type": "BPE",
    "dropout": null,
    "unk_token": "<UNK>",
    "continuing_subword_prefix": null,
    "end_of_word_suffix": null,
    "fuse_unk": false,
    "byte_fallback": false,
    "ignore_merges": false,
    "vocab": {
      "<UNK>": 0,
      "<PAD>": 1,
      "<BOS>": 2,
      "<EOS>": 3,
      "<NL>": 4,
      "!": 5,
      "\"": 6,
      "#": 7,
      "$": 8,
      "%": 9,
      "&": 10,
      "'": 11,
      "(": 12,
      ")": 13,
      "*": 14,
      "+": 15,
      ",": 16,
      "-": 17,
      ".": 18,
      "/": 19,
      "0": 20,
      "1": 21,
      "2": 22,
      "3": 23,
      "4": 24,
      "5": 25,
      "6": 26,
      "7": 27,
      "8": 28,
      "9": 29,
      ":": 30,
      ";": 31,
      "<": 32,
      "=": 33,
      ">": 34,
      "?": 35,
      "@": 36,
      "A": 37,
      "B": 38,
      "C": 39,
      "D": 40,
      "E": 41,
      "F": 42,
      "G": 43,
      "H": 44,
      "I": 45,
      "J": 46,
      "K": 47,
      "L": 48,
      "M": 49,
      "N": 50,
      "O": 51,
      "P": 52,
      "Q": 53,
      "R": 54,
      "S": 55,
      "T": 56,
      "U": 57,
      "V": 58,
      "W": 59,
      "X": 60,
      "Y": 61,
      "Z": 62,
      "[": 63,
      "\\": 64,
      "]": 65,
      "^": 66,
      "_": 67,
      "`": 68,
      "a": 69,
      "b": 70,
      "c": 71,
      "d": 72,
      "e": 73,
      "f": 74,
      "g": 75,
      "h": 76,
      "i": 77,
      "j": 78,
      "k": 79,
      "l": 80,
      "m": 81,
      "n": 82,
      "o": 83,
      "p": 84,
      "q": 85,
      "r": 86,
      "s": 87,
      "t": 88,
      "u": 89,
      "v": 90,
      "w": 91,
      "x": 92,
      "y": 93,
      "z": 94,
      "{": 95,
      "|": 96,
      "}": 97,
      "~": 98,
      "±": 99,
      "—": 100,
      "→": 101,
      "≈": 102,
      "─": 103,
      "═": 104,
      "✓": 105,
      "r1": 106,
      "DI": 107,
      "LDI": 108,
      "r2": 109,
      "in": 110,
      "ti": 111,
      "er": 112,
      "on": 113,
      "0x": 114,
      "al": 115,
      "OR": 116,
      "es": 117,
      "AD": 118,
      "==": 119,
      "r3": 120,
      "tion": 121,
      "th": 122,
      "r4": 123,
      "r0": 124,
      "an": 125,
      "r7": 126,
      "ST": 127,
      "re": 128,
      "STOR": 129,
      "STORE": 130,
      "is": 131,
      "r5": 132,
      "r6": 133,
      "r10": 134,
      "r9": 135,
      "r11": 136,
      "r12": 137,
      "r14": 138,
      "══": 139,
      "r15": 140,
      "r13": 141,
      "se": 142,
      "r8": 143,
      "ADD": 144,
      "and": 145,
      "op": 146,
      "00": 147,
      "en": 148,
      "lo": 149,
      "co": 150,
      "ation": 151,
      "ter": 152,
      "ra": 153,
      "MP": 154,
      "SH": 155,
      "or": 156,
      "ing": 157,
      "====": 158,
      "──": 159,
      "ec": 160,
      "if": 161,
      "at": 162,
      "ini": 163,
      "iz": 164,
      "tial": 165,
      "FF": 166,
      "tializ": 167,
      "ro": 168,
      "initializ": 169,
      "de": 170,
      "LO": 171,
      "the": 172,
      "it": 173,
      "r20": 174,
      "ar": 175,
      "ic": 176,
      "ters": 177,
      "reg": 178,
      "un": 179,
      "ly": 180,
      "CMP": 181,
      "regis": 182,
      "loop": 183,
      "ith": 184,
      "LOAD": 185,
      "════": 186,
      "Th": 187,
      "st": 188,
      "me": 189,
      "_0": 190,
      "as": 191,
      "ations": 192,
      "AN": 193,
      "AL": 194,
      "for": 195,
      "registers": 196,
      "TI": 197,
      "to": 198,
      "code": 199,
      "val": 200,
      "25": 201,
      "valu": 202,
      "oper": 203,
      "ut": 204,
      "le": 205,
      "SC": 206,
      "SHL": 207,
      "operations": 208,
      "with": 209,
      "ma": 210,
      "DE": 211,
      "te": 212,
      "========": 213,
      "AND": 214,
      "SCR": 215,
      "sp": 216,
      "di": 217,
      "values": 218,
      "mb": 219,
      "raw": 220,
      "el": 221,
      "XOR": 222,
      "Ge": 223,
      "────": 224,
      "ON": 225,
      "JMP": 226,
      "10": 227,
      "OS": 228,
      "unc": 229,
      "IP": 230,
      "semb": 231,
      "SU": 232,
      "assemb": 233,
      "SUB": 234,
      "ts": 235,
      "assembly": 236,
      "TION": 237,
      "func": 238,
      "DESCR": 239,
      "IPTION": 240,
      "DESCRIPTION": 241,
      "GeOS": 242,
      "pro": 243,
      "ch": 244,
      "draw": 245,
      "initialization": 246,
      "ul": 247,
      "spec": 248,
      "specif": 249,
      "con": 250,
      "gra": 251,
      "per": 252,
      "mp": 253,
      "main": 254,
      "JN": 255,
      "JNZ": 256,
      "initializes": 257,
      "form": 258,
      "CMPI": 259,
      "us": 260,
      "specific": 261,
      "perform": 262,
      "12": 263,
      "_1": 264,
      "32": 265,
      "ad": 266,
      "SHR": 267,
      "ke": 268,
      "gram": 269,
      "program": 270,
      "16": 271,
      "RA": 272,
      "RE": 273,
      "The": 274,
      "--": 275,
      "MO": 276,
      "ex": 277,
      "This": 278,
      "ed": 279,
      "════════": 280,
      "performs": 281,
      "OP": 282,
      "44": 283,
      "r17": 284,
      "POP": 285,
      "PU": 286,
      "PUSH": 287,
      "of": 288,
      "ver": 289,
      "ALT": 290,
      "HALT": 291,
      "res": 292,
      "end": 293,
      "key": 294,
      "0x00": 295,
      "dition": 296,
      "r18": 297,
      "ALL": 298,
      "CALL": 299,
      "SE": 300,
      "cl": 301,
      "main_0": 302,
      "88": 303,
      "r21": 304,
      "bit": 305,
      "AA": 306,
      "RAM": 307,
      "ix": 308,
      "ac": 309,
      "sh": 310,
      "64": 311,
      "ine": 312,
      "veral": 313,
      "several": 314,
      "exec": 315,
      "r22": 316,
      "0xFF": 317,
      "su": 318,
      "hal": 319,
      "comp": 320,
      "TE": 321,
      "pl": 322,
      "str": 323,
      "UL": 324,
      "MUL": 325,
      "256": 326,
      "tic": 327,
      "_2": 328,
      "ction": 329,
      "================": 330,
      "ise": 331,
      "et": 332,
      "wise": 333,
      "────────": 334,
      "PSE": 335,
      "FRAM": 336,
      "FRAME": 337,
      "else": 338,
      "0x2": 339,
      "ud": 340,
      "endif": 341,
      "then": 342,
      "put": 343,
      "cal": 344,
      "condition": 345,
      "128": 346,
      "clud": 347,
      "XT": 348,
      "EL": 349,
      "ting": 350,
      "bitwise": 351,
      "AR": 352,
      "wh": 353,
      "0x7": 354,
      "255": 355,
      "ithme": 356,
      "TEXT": 357,
      "ithmetic": 358,
      "arithmetic": 359,
      "up": 360,
      "11": 361,
      "MOD": 362,
      "shif": 363,
      "It": 364,
      "sc": 365,
      "eck": 366,
      "0x4": 367,
      "DIV": 368,
      "0x5": 369,
      "JZ": 370,
      "by": 371,
      "ri": 372,
      "r16": 373,
      "input": 374,
      "drawing": 375,
      "includ": 376,
      "SAR": 377,
      "30": 378,
      "reen": 379,
      "ate": 380,
      "ADDI": 381,
      "ls": 382,
      "colo": 383,
      "ies": 384,
      "r25": 385,
      "RET": 386,
      "mo": 387,
      "ent": 388,
      "ory": 389,
      "sub": 390,
      "gic": 391,
      "color": 392,
      "SHLI": 393,
      "logic": 394,
      "enters": 395,
      "ay": 396,
      "si": 397,
      "ur": 398,
      "CT": 399,
      "stru": 400,
      "mem": 401,
      "ixel": 402,
      "ani": 403,
      "check": 404,
      "r19": 405,
      "0x6": 406,
      "ack": 407,
      "func_0": 408,
      "ution": 409,
      "MOV": 410,
      "execution": 411,
      "coun": 412,
      "pixel": 413,
      "memory": 414,
      "ates": 415,
      "ase": 416,
      "ser": 417,
      "RECT": 418,
      "KE": 419,
      "KEY": 420,
      "r23": 421,
      "0x0": 422,
      "ve": 423,
      "RECTF": 424,
      "struction": 425,
      "instruction": 426,
      "15": 427,
      "screen": 428,
      "IKEY": 429,
      "════════════════": 430,
      "conditional": 431,
      "_d": 432,
      "IN": 433,
      "r31": 434,
      "series": 435,
      "40": 436,
      "`,": 437,
      "register": 438,
      "),": 439,
      "LE": 440,
      "xt": 441,
      "gh": 442,
      "ere": 443,
      "80": 444,
      "20": 445,
      "ulti": 446,
      "il": 447,
      "where": 448,
      "text": 449,
      "fo": 450,
      "po": 451,
      "_3": 452,
      "rame": 453,
      "draws": 454,
      "0xF": 455,
      "14": 456,
      "halts": 457,
      "play": 458,
      "calls": 459,
      "17": 460,
      "ous": 461,
      "19": 462,
      "base": 463,
      "0x3": 464,
      "cont": 465,
      "no": 466,
      "0xC": 467,
      "0xD": 468,
      "24": 469,
      "def": 470,
      "including": 471,
      "0x9": 472,
      "36": 473,
      "pe": 474,
      "ir": 475,
      "be": 476,
      "using": 477,
      "one": 478,
      "pal": 479,
      "LL": 480,
      "r26": 481,
      "ette": 482,
      "palette": 483,
      "compar": 484,
      "r24": 485,
      "0xB": 486,
      "r28": 487,
      "PSET": 488,
      "37": 489,
      "0xE": 490,
      "ct": 491,
      "frame": 492,
      "18": 493,
      "35": 494,
      "r27": 495,
      "dis": 496,
      "bu": 497,
      "LIN": 498,
      "39": 499,
      "PI": 500,
      "0x8": 501,
      "38": 502,
      "loop_0": 503,
      "FI": 504,
      "22": 505,
      "BU": 506,
      "func_1": 507,
      "else_0": 508,
      "ress": 509,
      "PSETI": 510,
      "endif_1": 511,
      "LINE": 512,
      "load": 513,
      "based": 514,
      "r30": 515,
      "CLE": 516,
      "34": 517,
      "LD": 518,
      "FILL": 519,
      "IR": 520,
      "fer": 521,
      "row": 522,
      "display": 523,
      "XEL": 524,
      "PIXEL": 525,
      "CIR": 526,
      "WOR": 527,
      "SUBI": 528,
      "CIRCLE": 529,
      "WORLD": 530,
      "multi": 531,
      "BUF": 532,
      "ANDI": 533,
      "sets": 534,
      "r29": 535,
      "t_": 536,
      "WPIXEL": 537,
      "dat": 538,
      "add": 539,
      "0x00FF": 540,
      "rout": 541,
      "ixed": 542,
      "ELLO": 543,
      "HELLO": 544,
      "logical": 545,
      "DRA": 546,
      "RO": 547,
      "0xA": 548,
      "_done": 549,
      "DRAW": 550,
      "0x0000": 551,
      "vis": 552,
      "pul": 553,
      "var": 554,
      "function": 555,
      "ang": 556,
      "DRAWTEXT": 557,
      "────────────────": 558,
      "cle": 559,
      "27": 560,
      "mixed": 561,
      "ion": 562,
      "29": 563,
      "mani": 564,
      "manipul": 565,
      "28": 566,
      "----": 567,
      "vari": 568,
      "tra": 569,
      "execut": 570,
      "000": 571,
      "mod": 572,
      "shifts": 573,
      "subrout": 574,
      "do": 575,
      "line": 576,
      "ord": 577,
      "26": 578,
      "sa": 579,
      "ted": 580,
      "li": 581,
      "fore": 582,
      "ison": 583,
      "comparison": 584,
      "so": 585,
      "before": 586,
      "ta": 587,
      "0x1": 588,
      "inu": 589,
      "buf": 590,
      "rect": 591,
      "ther": 592,
      "various": 593,
      "set": 594,
      "data": 595,
      "ght": 596,
      "R_": 597,
      "checks": 598,
      "(`": 599,
      "_loop": 600,
      "continu": 601,
      "are": 602,
      "48": 603,
      "ven": 604,
      "fter": 605,
      "50": 606,
      "tr": 607,
      "qu": 608,
      "multipl": 609,
      "0xFFFF": 610,
      "ret": 611,
      "halting": 612,
      "comput": 613,
      "subtra": 614,
      "CO": 615,
      "..": 616,
      "em": 617,
      "fro": 618,
      "from": 619,
      "ated": 620,
      "addition": 621,
      "rit": 622,
      "bo": 623,
      "8800": 624,
      "repe": 625,
      "66": 626,
      "ap": 627,
      "stack": 628,
      "ach": 629,
      "dri": 630,
      "back": 631,
      "subroutine": 632,
      "driven": 633,
      "cir": 634,
      "ren": 635,
      "inite": 636,
      "CC": 637,
      "anim": 638,
      "vision": 639,
      "value": 640,
      "byte": 641,
      "division": 642,
      "multiplic": 643,
      "shift": 644,
      "art": 645,
      "ines": 646,
      "0xAA": 647,
      "33": 648,
      "after": 649,
      "77": 650,
      "loop_1": 651,
      "ce": 652,
      "that": 653,
      "ju": 654,
      "wa": 655,
      "COL": 656,
      "_c": 657,
      "key_1": 658,
      "define": 659,
      "fil": 660,
      "_n": 661,
      "upd": 662,
      "rectang": 663,
      "BL": 664,
      "ag": 665,
      "inal": 666,
      "bl": 667,
      "til": 668,
      "multiplication": 669,
      "100": 670,
      "`)": 671,
      "into": 672,
      "func_2": 673,
      "99": 674,
      "ese": 675,
      "these": 676,
      "right": 677,
      "ome": 678,
      "BLT": 679,
      "includes": 680,
      "address": 681,
      "subtraction": 682,
      "sition": 683,
      "31": 684,
      "If": 685,
      "pixels": 686,
      "stor": 687,
      "d_": 688,
      "jump": 689,
      "ft": 690,
      "like": 691,
      "44FF": 692,
      "executes": 693,
      "other": 694,
      "loading": 695,
      "coord": 696,
      "49": 697,
      "else_2": 698,
      "animation": 699,
      "endif_3": 700,
      "loc": 701,
      "================================": 702,
      "position": 703,
      "also": 704,
      "mple": 705,
      "we": 706,
      "der": 707,
      "left": 708,
      "_4": 709,
      "coordin": 710,
      "resul": 711,
      "counted": 712,
      "ip": 713,
      "tore": 714,
      "col": 715,
      "EE": 716,
      "60": 717,
      "55": 718,
      "GE": 719,
      "pa": 720,
      "68": 721,
      "ow": 722,
      "its": 723,
      "cur": 724,
      "counter": 725,
      "buffer": 726,
      "writ": 727,
      "========================================": 728,
      "mm": 729,
      "save": 730,
      "ents": 731,
      "70": 732,
      "ces": 733,
      "_BUF": 734,
      "13": 735,
      "ne": 736,
      "STRO": 737,
      "calc": 738,
      "comparisons": 739,
      "`.": 740,
      "vi": 741,
      "low": 742,
      "until": 743,
      "such": 744,
      "ty": 745,
      "0xFF00": 746,
      "start": 747,
      "=========================================": 748,
      "AT": 749,
      "════════════════════════════════": 750,
      "coordinates": 751,
      "render": 752,
      "ol": 753,
      "69": 754,
      "65": 755,
      "sy": 756,
      "BGE": 757,
      "75": 758,
      "calcul": 759,
      "im": 760,
      "0xFFFFFF": 761,
      "updates": 762,
      "90": 763,
      "b_": 764,
      "23": 765,
      "finite": 766,
      "repeated": 767,
      "zer": 768,
      "infinite": 769,
      "zero": 770,
      "ph": 771,
      "circle": 772,
      "uses": 773,
      "76": 774,
      "AB": 775,
      "dif": 776,
      "lines": 777,
      "red": 778,
      "repeatedly": 779,
      "78": 780,
      "ge": 781,
      "restore": 782,
      "sto": 783,
      "---": 784,
      "differ": 785,
      "continuous": 786,
      "jumps": 787,
      "cess": 788,
      "58": 789,
      "k_": 790,
      "all": 791,
      "79": 792,
      "4444": 793,
      "21": 794,
      "press": 795,
      "rol": 796,
      "final": 797,
      "ating": 798,
      "ext": 799,
      "term": 800,
      "continuously": 801,
      "bet": 802,
      "les": 803,
      "different": 804,
      "ard": 805,
      "check_": 806,
      "ween": 807,
      "sor": 808,
      "y_": 809,
      "between": 810,
      "kip": 811,
      "poin": 812,
      "BA": 813,
      "c_": 814,
      "out": 815,
      "stem": 816,
      "computation": 817,
      "id": 818,
      "98": 819,
      "rem": 820,
      "addresses": 821,
      "storing": 822,
      "CH": 823,
      "char": 824,
      "comple": 825,
      "comm": 826,
      "loop_2": 827,
      "bar": 828,
      "count": 829,
      "simple": 830,
      "sed": 831,
      "system": 832,
      "ied": 833,
      "ile": 834,
      "45": 835,
      "95": 836,
      "--------": 837,
      "_5": 838,
      "ull": 839,
      "73": 840,
      "instructions": 841,
      "result": 842,
      "colors": 843,
      "dec": 844,
      "wo": 845,
      "ately": 846,
      "0x8800": 847,
      "mately": 848,
      "loops": 849,
      "draw_": 850,
      "_x": 851,
      "ultimately": 852,
      "conditions": 853,
      "42": 854,
      "wn": 855,
      "command": 856,
      "In": 857,
      "97": 858,
      "ace": 859,
      "rectangle": 860,
      "pat": 861,
      "skip": 862,
      "shifting": 863,
      "urn": 864,
      "ble": 865,
      "ame": 866,
      "setting": 867,
      "tes": 868,
      "clear": 869,
      "hand": 870,
      "ich": 871,
      "manipulates": 872,
      "72": 873,
      "which": 874,
      "0x0044FF": 875,
      "0x40": 876,
      "A0": 877,
      "process": 878,
      "BB": 879,
      "ugh": 880,
      "tern": 881,
      "0x00FF00": 882,
      "Ch": 883,
      "E0": 884,
      "specified": 885,
      "two": 886,
      "ometr": 887,
      "SI": 888,
      "thro": 889,
      "math": 890,
      "46": 891,
      "graph": 892,
      "func_3": 893,
      "C0": 894,
      "through": 895,
      "47": 896,
      "vol": 897,
      "read": 898,
      "bits": 899,
      "und": 900,
      "_h": 901,
      "graphic": 902,
      "85": 903,
      "96": 904,
      "_y": 905,
      "ue": 906,
      "termin": 907,
      "Draw": 908,
      "displays": 909,
      "0x30": 910,
      "114": 911,
      "Check": 912,
      "return": 913,
      "COLS": 914,
      "pres": 915,
      "dig": 916,
      "67": 917,
      "functions": 918,
      "200": 919,
      "enter": 920,
      "des": 921,
      "write": 922,
      "ATCH": 923,
      "not": 924,
      "D0": 925,
      "CE": 926,
      "atch": 927,
      "met": 928,
      "ROW": 929,
      "=====": 930,
      "CU": 931,
      "la": 932,
      "r_": 933,
      "do_": 934,
      "store": 935,
      "calculations": 936,
      "FE": 937,
      "────────────────────────────────": 938,
      "ild": 939,
      "tain": 940,
      "finally": 941,
      "halt": 942,
      "ling": 943,
      "invol": 944,
      "l_": 945,
      "ent_": 946,
      "83": 947,
      "continues": 948,
      "another": 949,
      "operation": 950,
      "cles": 951,
      "cursor": 952,
      "94": 953,
      "reach": 954,
      "84": 955,
      "ulo": 956,
      "sequ": 957,
      "SCRATCH": 958,
      "modulo": 959,
      "71": 960,
      "them": 961,
      "waits": 962,
      "FB": 963,
      "0x88": 964,
      "modul": 965,
      "mes": 966,
      "63": 967,
      "no_": 968,
      "93": 969,
      "Re": 970,
      "loads": 971,
      "modif": 972,
      "82": 973,
      "74": 974,
      "rectangles": 975,
      "91": 976,
      "bi": 977,
      "medi": 978,
      "performing": 979,
      "62": 980,
      "sequen": 981,
      "0xFF0000": 982,
      "->": 983,
      "DD": 984,
      "compares": 985,
      "pend": 986,
      "string": 987,
      "decrem": 988,
      "0x55": 989,
      "D00": 990,
      "1A": 991,
      "54": 992,
      "sg": 993,
      "ves": 994,
      "ving": 995,
      "CUR_": 996,
      "board": 997,
      "mediate": 998,
      "CB": 999,
      "cer": 1000,
      "equ": 1001,
      "move": 1002,
      "certain": 1003,
      "59": 1004,
      "wor": 1005,
      "equal": 1006,
      "pre": 1007,
      "else_4": 1008,
      "match": 1009,
      "dex": 1010,
      "endif_5": 1011,
      "circles": 1012,
      "locations": 1013,
      "53": 1014,
      "87": 1015,
      "green": 1016,
      "win": 1017,
      "main_loop": 1018,
      "p_": 1019,
      "state": 1020,
      "FD": 1021,
      "indef": 1022,
      "initely": 1023,
      "indefinitely": 1024,
      "index": 1025,
      "56": 1026,
      "═══": 1027,
      "EC": 1028,
      "immediate": 1029,
      "conclud": 1030,
      "51": 1031,
      "ED": 1032,
      "F0": 1033,
      "F8": 1034,
      "0x0000FF": 1035,
      "pattern": 1036,
      "ush": 1037,
      "pressed": 1038,
      "concludes": 1039,
      ").": 1040,
      "0x20": 1041,
      "92": 1042,
      "fir": 1043,
      "FA": 1044,
      "conditionally": 1045,
      "reaches": 1046,
      "52": 1047,
      "Co": 1048,
      "opy": 1049,
      "key_2": 1050,
      "tive": 1051,
      "ash": 1052,
      "0xFFFF00": 1053,
      "0x000000": 1054,
      "═══════": 1055,
      "tile": 1056,
      "stan": 1057,
      "fills": 1058,
      "═══════════════": 1059,
      "br": 1060,
      "0xAAAA": 1061,
      "off": 1062,
      "57": 1063,
      "mode": 1064,
      "ok": 1065,
      "120": 1066,
      "AC": 1067,
      "0x00FFFF": 1068,
      "digit": 1069,
      "86": 1070,
      "89": 1071,
      "FC": 1072,
      "cre": 1073,
      "B0": 1074,
      "BE": 1075,
      "ple": 1076,
      "ded": 1077,
      "43": 1078,
      "first": 1079,
      "each": 1080,
      "top": 1081,
      "asm": 1082,
      "0x780": 1083,
      "AE": 1084,
      "worl": 1085,
      "EN": 1086,
      "main_2": 1087,
      "G_": 1088,
      "2E": 1089,
      "biome": 1090,
      "81": 1091,
      "push": 1092,
      "0xFF8800": 1093,
      "scrol": 1094,
      "SI_": 1095,
      "0x44FF": 1096,
      "geometr": 1097,
      "ry": 1098,
      "um": 1099,
      "0x80": 1100,
      "new": 1101,
      "0xAAAAAA": 1102,
      "use": 1103,
      "ks": 1104,
      "par": 1105,
      "curren": 1106,
      "pb_": 1107,
      "atus": 1108,
      "8888": 1109,
      "_next": 1110,
      "blue": 1111,
      "key_0": 1112,
      "point": 1113,
      "geometric": 1114,
      "PA": 1115,
      "pop": 1116,
      "0x4444": 1117,
      "101": 1118,
      "61": 1119,
      "DC": 1120,
      "41": 1121,
      "am": 1122,
      "gg": 1123,
      "pi": 1124,
      "ind": 1125,
      "═══════════════════════════════": 1126,
      "═══════════════════════════════════════════════════════════════": 1127,
      "F5": 1128,
      "0x00AA": 1129,
      "stores": 1130,
      "space": 1131,
      "0x00FFAA": 1132,
      "0x00AAFF": 1133,
      "BC": 1134,
      "len": 1135,
      "0xFFAA": 1136,
      "0x78": 1137,
      "user": 1138,
      "0x00FF44": 1139,
      "TY": 1140,
      "`),": 1141,
      "0x000066": 1142,
      "try_": 1143,
      "ark": 1144,
      "4400": 1145,
      "0xFFAA00": 1146,
      "main_1": 1147,
      "0x444444": 1148,
      "center": 1149,
      "`).": 1150,
      "modulus": 1151,
      "current": 1152,
      "F3": 1153,
      "0xDD00": 1154,
      "0x5500": 1155,
      "0xDD0044": 1156,
      "S_": 1157,
      "ual": 1158,
      "star": 1159,
      "0x880088": 1160,
      "BD": 1161,
      "cel": 1162,
      "FF00": 1163,
      "manipulation": 1164,
      "anch": 1165,
      "not_": 1166,
      "rite": 1167,
      "igh": 1168,
      "over": 1169,
      "0x008888": 1170,
      "1C": 1171,
      "F6": 1172,
      "constan": 1173,
      "0x60": 1174,
      "0x0000CC": 1175,
      "pon": 1176,
      "word": 1177,
      "0xAAFF00": 1178,
      "1E": 1179,
      "fl": 1180,
      "run": 1181,
      "parame": 1182,
      "completing": 1183,
      "world_": 1184,
      "P_": 1185,
      "else_1": 1186,
      "endif_2": 1187,
      "player": 1188,
      "0xFF00FF": 1189,
      "fra": 1190,
      "0x550077": 1191,
      "hex": 1192,
      "0x70": 1193,
      "branch": 1194,
      "F9": 1195,
      "mc_": 1196,
      "arg": 1197,
      "parameters": 1198,
      "NE": 1199,
      "_check_": 1200,
      "0x44FF00": 1201,
      "0x50": 1202,
      "F7": 1203,
      "null": 1204,
      "computations": 1205,
      "F4": 1206,
      "fol": 1207,
      "contents": 1208,
      "om": 1209,
      "lear": 1210,
      "update": 1211,
      "likely": 1212,
      "D4": 1213,
      "but": 1214,
      "ig": 1215,
      "ping": 1216,
      "0xFF4400": 1217,
      "0xAA00": 1218,
      "follow": 1219,
      "ain": 1220,
      "cor": 1221,
      "EE00": 1222,
      "output": 1223,
      "commands": 1224,
      "inter": 1225,
      "tical": 1226,
      "0xAA00AA": 1227,
      "0xFFEE00": 1228,
      "ew": 1229,
      "ten": 1230,
      "ator": 1231,
      "0x8800FF": 1232,
      "man": 1233,
      "mber": 1234,
      "3E": 1235,
      "Clear": 1236,
      "status": 1237,
      "show": 1238,
      "table": 1239,
      "----------------": 1240,
      "XX": 1241,
      "BASE": 1242,
      "_to": 1243,
      "v_": 1244,
      "cond": 1245,
      "indic": 1246,
      "control": 1247,
      "rendering": 1248,
      "followed": 1249,
      "300": 1250,
      "ND": 1251,
      "file": 1252,
      "ot": 1253,
      "results": 1254,
      "110": 1255,
      "pos": 1256,
      "offset": 1257,
      "3D": 1258,
      "keyboard": 1259,
      "updat": 1260,
      "):": 1261,
      "A5": 1262,
      "ined": 1263,
      "rest": 1264,
      "ment": 1265,
      "por": 1266,
      "within": 1267,
      "2C": 1268,
      "cm": 1269,
      "manipulate": 1270,
      "A7": 1271,
      "second": 1272,
      "dow": 1273,
      "fa": 1274,
      "ece": 1275,
      "matches": 1276,
      "A8": 1277,
      "can": 1278,
      "lay": 1279,
      "COLOR": 1280,
      "writes": 1281,
      "HI": 1282,
      "px": 1283,
      "ance": 1284,
      "they": 1285,
      "ick": 1286,
      "involving": 1287,
      "manag": 1288,
      "2D": 1289,
      "Con": 1290,
      "CSI_": 1291,
      "he": 1292,
      "main_3": 1293,
      "graphics": 1294,
      "M_": 1295,
      "urther": 1296,
      "defined": 1297,
      "tab": 1298,
      "A6": 1299,
      "tk_": 1300,
      "umber": 1301,
      "rot": 1302,
      "area": 1303,
      "0x888800": 1304,
      "led": 1305,
      "240": 1306,
      "B6": 1307,
      "B9": 1308,
      "own": 1309,
      "A4": 1310,
      "tially": 1311,
      "promp": 1312,
      "subroutines": 1313,
      "decrements": 1314,
      "further": 1315,
      "repeating": 1316,
      "write_": 1317,
      "B7": 1318,
      "call": 1319,
      "graphical": 1320,
      "E4": 1321,
      "est": 1322,
      "rows": 1323,
      "via": 1324,
      "cy": 1325,
      "ree": 1326,
      "sequence": 1327,
      "resh": 1328,
      "multiple": 1329,
      "tle": 1330,
      "0x44": 1331,
      "executing": 1332,
      "blend": 1333,
      "chars": 1334,
      "terminate": 1335,
      "returns": 1336,
      "modifies": 1337,
      "frames": 1338,
      "CD": 1339,
      "Each": 1340,
      "ist": 1341,
      "0x2000": 1342,
      "updating": 1343,
      "112": 1344,
      "UN": 1345,
      "ME": 1346,
      "SCI": 1347,
      "1D": 1348,
      "116": 1349,
      "ASCI": 1350,
      "ect": 1351,
      "path": 1352,
      "ASCII": 1353,
      "C4": 1354,
      "ss": 1355,
      "round": 1356,
      "tom": 1357,
      "ult": 1358,
      "append": 1359,
      "pushing": 1360,
      "_l": 1361,
      "_buf": 1362,
      "imple": 1363,
      "sion": 1364,
      "tas": 1365,
      "150": 1366,
      "additional": 1367,
      "B4": 1368,
      "C_": 1369,
      "PTY": 1370,
      "ses": 1371,
      "dir": 1372,
      "108": 1373,
      "type": 1374,
      "CUR_ROW": 1375,
      "popping": 1376,
      "int": 1377,
      "ected": 1378,
      "ste": 1379,
      "A9": 1380,
      "B8": 1381,
      "Lo": 1382,
      "ize": 1383,
      "SEND": 1384,
      "111": 1385,
      "opcode": 1386,
      "matical": 1387,
      "prompt": 1388,
      "ends": 1389,
      "down": 1390,
      "returning": 1391,
      ">>": 1392,
      "B5": 1393,
      "St": 1394,
      "ments": 1395,
      "400": 1396,
      "execute": 1397,
      "complex": 1398,
      "handle": 1399,
      "awn": 1400,
      "addr": 1401,
      "D6": 1402,
      "mon": 1403,
      "map": 1404,
      "wait": 1405,
      "window": 1406,
      "D9": 1407,
      "fresh": 1408,
      "3C": 1409,
      "bloc": 1410,
      "number": 1411,
      "thematical": 1412,
      "mathematical": 1413,
      "respon": 1414,
      "BF": 1415,
      "iter": 1416,
      "PARAM": 1417,
      "cmd_": 1418,
      "D5": 1419,
      "game": 1420,
      "STR_": 1421,
      "ity": 1422,
      "pear": 1423,
      "appear": 1424,
      "water": 1425,
      "CSI_PARAM": 1426,
      "B2": 1427,
      "D8": 1428,
      "Sh": 1429,
      "refresh": 1430,
      "pr": 1431,
      "time": 1432,
      "inputs": 1433,
      "si_": 1434,
      "sgr_": 1435,
      "piece": 1436,
      "F2": 1437,
      "MA": 1438,
      "this": 1439,
      "sel": 1440,
      "adv": 1441,
      "ursor": 1442,
      "_down": 1443,
      "imal": 1444,
      "A2": 1445,
      "Bu": 1446,
      "C7": 1447,
      "E5": 1448,
      "_T": 1449,
      "keys": 1450,
      "WIN": 1451,
      "ff": 1452,
      "pb": 1453,
      "170": 1454,
      "port": 1455,
      "stra": 1456,
      "160": 1457,
      "build": 1458,
      "repeat": 1459,
      "modify": 1460,
      "scroll": 1461,
      "C9": 1462,
      "title": 1463,
      "ext_": 1464,
      "ight": 1465,
      "manipulations": 1466,
      "0xFFFFFFFF": 1467,
      "Read": 1468,
      "Final": 1469,
      "dy": 1470,
      "tri": 1471,
      "et_": 1472,
      "SEND_BUF": 1473,
      "ers": 1474,
      "0x200": 1475,
      "_check_result": 1476,
      "After": 1477,
      "De": 1478,
      "size": 1479,
      "enti": 1480,
      "lev": 1481,
      "rid": 1482,
      "A3": 1483,
      "B3": 1484,
      "115": 1485,
      "defa": 1486,
      "bot": 1487,
      "CUR_COL": 1488,
      "STR_BUF": 1489,
      "next": 1490,
      "Geometr": 1491,
      "angle": 1492,
      "subtrac": 1493,
      "Geometry": 1494,
      "D7": 1495,
      "_ok": 1496,
      "bor": 1497,
      "bel": 1498,
      "127": 1499,
      "ROWS": 1500,
      "pb_ret": 1501,
      "Finally": 1502,
      "default": 1503,
      "A1": 1504,
      "ved": 1505,
      "vir": 1506,
      "===": 1507,
      "spawn": 1508,
      "ighbor": 1509,
      "C6": 1510,
      "CL": 1511,
      "F1": 1512,
      "crem": 1513,
      "dark": 1514,
      "arch": 1515,
      "0xFFB": 1516,
      "while": 1517,
      "compute": 1518,
      "....": 1519,
      "B1": 1520,
      "Ph": 1521,
      "Write": 1522,
      "ann": 1523,
      "C8": 1524,
      "sin": 1525,
      "ite": 1526,
      "key_3": 1527,
      "ange": 1528,
      "skip_": 1529,
      "Phase": 1530,
      "ds": 1531,
      "ground": 1532,
      "ello": 1533,
      "positions": 1534,
      "test": 1535,
      "bottom": 1536,
      "D_": 1537,
      "E8": 1538,
      "ton": 1539,
      "STAT": 1540,
      "SET": 1541,
      "fill": 1542,
      "idth": 1543,
      "appears": 1544,
      "ab": 1545,
      "cam": 1546,
      "0000": 1547,
      "250": 1548,
      "shap": 1549,
      "neighbor": 1550,
      "label": 1551,
      "Build": 1552,
      "ding": 1553,
      "width": 1554,
      "region": 1555,
      "0x5000": 1556,
      "otherwise": 1557,
      "0x10": 1558,
      "shapes": 1559,
      "130": 1560,
      "E9": 1561,
      "RI": 1562,
      "g_": 1563,
      "divi": 1564,
      "chk_": 1565,
      "STATU": 1566,
      "RAND": 1567,
      "flow": 1568,
      "provi": 1569,
      "umn": 1570,
      "tasks": 1571,
      "response": 1572,
      "140": 1573,
      ">=": 1574,
      "ATE": 1575,
      "eff": 1576,
      "lis": 1577,
      "0x14": 1578,
      "codes": 1579,
      "ellow": 1580,
      "active": 1581,
      "column": 1582,
      "Load": 1583,
      "viron": 1584,
      "gn": 1585,
      "ost": 1586,
      "environ": 1587,
      "ell": 1588,
      "words": 1589,
      "C2": 1590,
      "D2": 1591,
      "rain": 1592,
      "0x1A": 1593,
      "pb_c": 1594,
      "C5": 1595,
      "E6": 1596,
      "ont": 1597,
      "0x24": 1598,
      "0x6A": 1599,
      "constant": 1600,
      "environment": 1601,
      "++": 1602,
      "Res": 1603,
      "ward": 1604,
      "det": 1605,
      "location": 1606,
      "presses": 1607,
      "C3": 1608,
      "era": 1609,
      "three": 1610,
      "ass": 1611,
      "repeats": 1612,
      "CA": 1613,
      "Row": 1614,
      "sw": 1615,
      "104": 1616,
      "jumping": 1617,
      "flag": 1618,
      "D3": 1619,
      "ave": 1620,
      "max": 1621,
      "sign": 1622,
      "0x3000": 1623,
      "button": 1624,
      "En": 1625,
      "_byte": 1626,
      "ans": 1627,
      "wave": 1628,
      "stored": 1629,
      "RG": 1630,
      "ither": 1631,
      "processing": 1632,
      "ure": 1633,
      "main_4": 1634,
      "place": 1635,
      "bytes": 1636,
      "background": 1637,
      "filling": 1638,
      "pointer": 1639,
      "parse": 1640,
      "HIT": 1641,
      "implements": 1642,
      "annel": 1643,
      "EX": 1644,
      "ning": 1645,
      "ply": 1646,
      "rat": 1647,
      "ute": 1648,
      "0x4E0": 1649,
      "emit": 1650,
      "Comp": 1651,
      "camera": 1652,
      "clo": 1653,
      "radi": 1654,
      "105": 1655,
      "channel": 1656,
      "cla": 1657,
      "world_y": 1658,
      "AI": 1659,
      "name": 1660,
      "stop": 1661,
      "world_x": 1662,
      "dirty": 1663,
      "advance": 1664,
      "144": 1665,
      "E7": 1666,
      "vert": 1667,
      "calculates": 1668,
      "136": 1669,
      "EB": 1670,
      "emp": 1671,
      "0x11": 1672,
      "dim": 1673,
      "white": 1674,
      "0x4000": 1675,
      "struct": 1676,
      "crement": 1677,
      "provided": 1678,
      "oriz": 1679,
      "RGB": 1680,
      "SM": 1681,
      "poten": 1682,
      "handling": 1683,
      "cell": 1684,
      "step": 1685,
      "05": 1686,
      "grid": 1687,
      "hash": 1688,
      "ler": 1689,
      "adds": 1690,
      "230": 1691,
      "AF": 1692,
      "Store": 1693,
      "when": 1694,
      "LEN": 1695,
      "manipulating": 1696,
      "handles": 1697,
      "constants": 1698,
      "level": 1699,
      "DB": 1700,
      "Pro": 1701,
      "_b": 1702,
      "action": 1703,
      "entry": 1704,
      "branches": 1705,
      "D1": 1706,
      "Up": 1707,
      "hi": 1708,
      "search": 1709,
      "enting": 1710,
      "103": 1711,
      "reset": 1712,
      "routine": 1713,
      "multiplies": 1714,
      "phase": 1715,
      "_hash": 1716,
      "last": 1717,
      "Show": 1718,
      "CK": 1719,
      "DF": 1720,
      "SY": 1721,
      "either": 1722,
      "vas": 1723,
      "err": 1724,
      "0x32": 1725,
      "ANS_": 1726,
      "0x240": 1727,
      "0x76": 1728,
      "COUN": 1729,
      "tiles": 1730,
      "224": 1731,
      "TXT": 1732,
      "yellow": 1733,
      "0x15": 1734,
      "core": 1735,
      "temp": 1736,
      "colored": 1737,
      "mouse": 1738,
      "ill": 1739,
      "_lp": 1740,
      "COUNT": 1741,
      "180": 1742,
      "EA": 1743,
      "VE": 1744,
      "dx": 1745,
      "sen": 1746,
      "0x22": 1747,
      "age": 1748,
      "fail": 1749,
      "radius": 1750,
      "9A": 1751,
      "ESC": 1752,
      "init_": 1753,
      "demo": 1754,
      "debu": 1755,
      "0x75": 1756,
      "order": 1757,
      "tail": 1758,
      "_cursor": 1759,
      "agent": 1760,
      "digits": 1761,
      "modular": 1762,
      "restor": 1763,
      "canvas": 1764,
      "empty": 1765,
      "DA": 1766,
      "Lay": 1767,
      "0x64": 1768,
      "uld": 1769,
      "eds": 1770,
      "0xC0": 1771,
      "visual": 1772,
      "bld": 1773,
      "pending": 1774,
      "pb_csi_": 1775,
      "OLL": 1776,
      "Tit": 1777,
      "0x17": 1778,
      "0x19": 1779,
      "SCROLL": 1780,
      "very": 1781,
      "ries": 1782,
      "foc": 1783,
      "Title": 1784,
      "<<": 1785,
      "NO": 1786,
      "cd": 1787,
      "rc": 1788,
      "wal": 1789,
      "ink": 1790,
      "lot": 1791,
      "arrow": 1792,
      "sugg": 1793,
      "side": 1794,
      "LE_": 1795,
      "additions": 1796,
      "reads": 1797,
      "lision": 1798,
      "139": 1799,
      "E2": 1800,
      "ner": 1801,
      "102": 1802,
      "filled": 1803,
      "again": 1804,
      "prin": 1805,
      "CM": 1806,
      "andom": 1807,
      "ross": 1808,
      "frame_": 1809,
      "A0A": 1810,
      "_TAB": 1811,
      "strates": 1812,
      "216": 1813,
      "_reg": 1814,
      "gen": 1815,
      "ib": 1816,
      "sn": 1817,
      "acc": 1818,
      "entries": 1819,
      "just": 1820,
      "manages": 1821,
      "istory": 1822,
      "Ad": 1823,
      "Sc": 1824,
      "With": 1825,
      "horiz": 1826,
      "0x18": 1827,
      "any": 1828,
      "109": 1829,
      "proce": 1830,
      "sho": 1831,
      "_copy": 1832,
      "subtractions": 1833,
      "append_byte": 1834,
      "EF": 1835,
      "score": 1836,
      "0x25": 1837,
      "demon": 1838,
      "exit": 1839,
      "urce": 1840,
      "visor": 1841,
      "some": 1842,
      "collision": 1843,
      "Compute": 1844,
      "Within": 1845,
      "1F": 1846,
      "FG_": 1847,
      "cno": 1848,
      "gth": 1849,
      "part": 1850,
      "opy_": 1851,
      "001": 1852,
      "Get": 1853,
      "117": 1854,
      "counters": 1855,
      "0x90": 1856,
      "sequentially": 1857,
      "modifying": 1858,
      "ratch": 1859,
      "FG_COLOR": 1860,
      "SG": 1861,
      "SP": 1862,
      "Set": 1863,
      "_check": 1864,
      "ADDR": 1865,
      "190": 1866,
      "content": 1867,
      "length": 1868,
      "HITSET": 1869,
      "clamp": 1870,
      "220": 1871,
      "CF": 1872,
      "Copy": 1873,
      "_6": 1874,
      "copy": 1875,
      "full": 1876,
      "STATE": 1877,
      "init": 1878,
      "four": 1879,
      "filen": 1880,
      "_new": 1881,
      "involves": 1882,
      "predefined": 1883,
      "building": 1884,
      "focus": 1885,
      "239": 1886,
      ":\"": 1887,
      "Mo": 1888,
      "PRO": 1889,
      "_BASE": 1890,
      "nes": 1891,
      "targ": 1892,
      "0xAD": 1893,
      "asc": 1894,
      "118": 1895,
      "PID": 1896,
      "view": 1897,
      "decrementing": 1898,
      "subtracts": 1899,
      "TXT_BUF": 1900,
      "244": 1901,
      "next_": 1902,
      "u32": 1903,
      "wall": 1904,
      "0x16": 1905,
      "without": 1906,
      "0x06": 1907,
      "render_": 1908,
      "potentially": 1909,
      "SYS": 1910,
      "Dis": 1911,
      "E3": 1912,
      "able": 1913,
      "date": 1914,
      "mal": 1915,
      "ecimal": 1916,
      "now": 1917,
      "light": 1918,
      "refreshes": 1919,
      "WINSYS": 1920,
      "entity": 1921,
      "proceeds": 1922,
      "188": 1923,
      "137": 1924,
      "232": 1925,
      "ape": 1926,
      "pan": 1927,
      "edit": 1928,
      "0x7000": 1929,
      "0xF0": 1930,
      "LLM": 1931,
      "--------------------------------": 1932,
      "237": 1933,
      "SA": 1934,
      "du": 1935,
      "go": 1936,
      "tim": 1937,
      "tho": 1938,
      "ection": 1939,
      "loop_3": 1940,
      "strlen": 1941,
      "360": 1942,
      "0xE0": 1943,
      "lib": 1944,
      "clear_": 1945,
      "block": 1946,
      "fig": 1947,
      "hel": 1948,
      "msg": 1949,
      "arm": 1950,
      "sprite": 1951,
      "124": 1952,
      "0x74": 1953,
      "0x040": 1954,
      "0x85": 1955,
      "scroll_": 1956,
      "filename": 1957,
      "ball": 1958,
      "fd": 1959,
      "py": 1960,
      "pur": 1961,
      "random": 1962,
      "0x000": 1963,
      "0x79": 1964,
      "scratch": 1965,
      "displaying": 1966,
      "quit": 1967,
      "ready": 1968,
      "starting": 1969,
      "330": 1970,
      "abo": 1971,
      "gre": 1972,
      "src": 1973,
      "lor": 1974,
      "pervisor": 1975,
      "OPEN": 1976,
      "0xB0": 1977,
      "buf_": 1978,
      "multiplications": 1979,
      "agent_": 1980,
      "coordinate": 1981,
      "Ini": 1982,
      "────────────────────────────────────────": 1983,
      "creates": 1984,
      "pipe": 1985,
      "_to_buf": 1986,
      "1B": 1987,
      "2F": 1988,
      "214": 1989,
      "T_": 1990,
      "_digit": 1991,
      "md": 1992,
      "mar": 1993,
      "non": 1994,
      "DEBU": 1995,
      "drawn": 1996,
      "adecimal": 1997,
      "119": 1998,
      "_do": 1999,
      "0xA0": 2000,
      "black": 2001,
      "ually": 2002,
      "hexadecimal": 2003,
      "head": 2004,
      "iteration": 2005,
      "134": 2006,
      "218": 2007,
      "8E": 2008,
      "CP": 2009,
      "Rend": 2010,
      "Uses": 2011,
      "cc": 2012,
      "done": 2013,
      "lap": 2014,
      "pass": 2015,
      "ures": 2016,
      "XORs": 2017,
      "IP_": 2018,
      "config": 2019,
      "126": 2020,
      "320": 2021,
      "SEL": 2022,
      "scan": 2023,
      "_ne": 2024,
      "NEG": 2025,
      "DEBUG_": 2026,
      "138": 2027,
      "LA": 2028,
      "VM": 2029,
      "bb": 2030,
      "ive": 2031,
      "squ": 2032,
      "0x120": 2033,
      "key_4": 2034,
      "click": 2035,
      "aces": 2036,
      "continue": 2037,
      "ared": 2038,
      "_newline": 2039,
      "**": 2040,
      "215": 2041,
      "234": 2042,
      "BEE": 2043,
      "Hello": 2044,
      "history": 2045,
      "min": 2046,
      "s_": 2047,
      "tint": 2048,
      "vy": 2049,
      "remain": 2050,
      "ask": 2051,
      "READ": 2052,
      "0x700": 2053,
      "0x6000": 2054,
      "0x020": 2055,
      "indicator": 2056,
      "0x1A1A": 2057,
      "',": 2058,
      "135": 2059,
      "335": 2060,
      "DO": 2061,
      "FS": 2062,
      "Save": 2063,
      "hit": 2064,
      "host": 2065,
      "create": 2066,
      "bldg": 2067,
      "gener": 2068,
      "ibble": 2069,
      "target": 2070,
      "Initializ": 2071,
      "every": 2072,
      "kno": 2073,
      "0xDE": 2074,
      "ally": 2075,
      "looping": 2076,
      "cha": 2077,
      "ked": 2078,
      "...": 2079,
      "emon": 2080,
      "_cmd": 2081,
      "branching": 2082,
      "mc_ret": 2083,
      "above": 2084,
      "known": 2085,
      "344": 2086,
      "380": 2087,
      "334": 2088,
      "8D": 2089,
      "BO": 2090,
      "Null": 2091,
      "sine": 2092,
      "used": 2093,
      "enem": 2094,
      "asic": 2095,
      "ANSI_": 2096,
      "edge": 2097,
      "source": 2098,
      "_null": 2099,
      "Color": 2100,
      "cording": 2101,
      "trigg": 2102,
      "error": 2103,
      "0x1A1A2E": 2104,
      "132": 2105,
      "236": 2106,
      "3B": 2107,
      "7E": 2108,
      "OSC": 2109,
      "ative": 2110,
      "gi": 2111,
      "gor": 2112,
      "tt": 2113,
      "va": 2114,
      "ects": 2115,
      "arse": 2116,
      "ice": 2117,
      "comparing": 2118,
      "multiply": 2119,
      "dest": 2120,
      "Reg": 2121,
      "STATUS_": 2122,
      "frame_counter": 2123,
      "364": 2124,
      "7A": 2125,
      "_id": 2126,
      "_over": 2127,
      "border": 2128,
      "due": 2129,
      "pv_": 2130,
      "sing": 2131,
      "ypervisor": 2132,
      "DIR": 2133,
      "itch": 2134,
      "dire": 2135,
      "child": 2136,
      "neg": 2137,
      "newline": 2138,
      "running": 2139,
      "COLOR_BUF": 2140,
      "NOTE": 2141,
      "sugges": 2142,
      "Render": 2143,
      "\",": 2144,
      "125": 2145,
      "219": 2146,
      "314": 2147,
      "0x12": 2148,
      "esc": 2149,
      "ithm": 2150,
      "grass": 2151,
      "290": 2152,
      "COL_": 2153,
      "involve": 2154,
      "Reset": 2155,
      "gorithm": 2156,
      "288": 2157,
      "in_": 2158,
      "direct": 2159,
      "0x65": 2160,
      "0xF9": 2161,
      "trans": 2162,
      "box": 2163,
      "restart": 2164,
      "effect": 2165,
      "those": 2166,
      "Initialize": 2167,
      "(\"": 2168,
      "238": 2169,
      "316": 2170,
      "388": 2171,
      "6E": 2172,
      "NDE": 2173,
      "basic": 2174,
      "rh": 2175,
      "rop": 2176,
      "0x0C": 2177,
      "0x0A0A": 2178,
      "370": 2179,
      "0x1000": 2180,
      "ement": 2181,
      "ign": 2182,
      "session": 2183,
      "Layout": 2184,
      "direction": 2185,
      "\")": 2186,
      "7F": 2187,
      "8A": 2188,
      "Test": 2189,
      "We": 2190,
      "_EN": 2191,
      "fe": 2192,
      "htt": 2193,
      "TICK": 2194,
      "121": 2195,
      "calling": 2196,
      "rie": 2197,
      "0x05": 2198,
      "0x39": 2199,
      "afterward": 2200,
      "ent_agent_": 2201,
      "strings": 2202,
      "against": 2203,
      "should": 2204,
      "340": 2205,
      "For": 2206,
      "RUN": 2207,
      "Skip": 2208,
      "WN": 2209,
      "_re": 2210,
      "_count": 2211,
      "_store": 2212,
      "pri": 2213,
      "s256": 2214,
      "algorithm": 2215,
      "248": 2216,
      "line_to_buf": 2217,
      "sage": 2218,
      "draw_frame": 2219,
      "settings": 2220,
      "creating": 2221,
      "cells": 2222,
      "tk_ret": 2223,
      "write_line_to_buf": 2224,
      "CLIP_": 2225,
      "ANSI_STATE": 2226,
      "1000": 2227,
      "264": 2228,
      "315": 2229,
      "4E": 2230,
      "C1": 2231,
      "Mem": 2232,
      "RL": 2233,
      "increment": 2234,
      "254": 2235,
      "conn": 2236,
      "0x4E": 2237,
      "found": 2238,
      "196": 2239,
      "0xD0": 2240,
      "0xB5": 2241,
      "saving": 2242,
      "decimal": 2243,
      "partic": 2244,
      "0x7800": 2245,
      "cyan": 2246,
      "Enter": 2247,
      "_TABLE": 2248,
      "STATUS_C": 2249,
      "217": 2250,
      "800": 2251,
      "HT": 2252,
      "_draw": 2253,
      "fixed": 2254,
      "hypervisor": 2255,
      "oid": 2256,
      "set_": 2257,
      "rac": 2258,
      "initial": 2259,
      "more": 2260,
      "0xC5": 2261,
      "same": 2262,
      "tab_": 2263,
      "try": 2264,
      "switch": 2265,
      "Update": 2266,
      "BEEP": 2267,
      "Regis": 2268,
      "3A": 2269,
      "336": 2270,
      "vx": 2271,
      "already": 2272,
      "org": 2273,
      "according": 2274,
      "saved": 2275,
      "divisions": 2276,
      "_next_": 2277,
      "show_": 2278,
      "advance_to": 2279,
      "Display": 2280,
      "DIRTY": 2281,
      "http_": 2282,
      "3F": 2283,
      "337": 2284,
      "Clo": 2285,
      "LS": 2286,
      "_str": 2287,
      "_row": 2288,
      "copy_": 2289,
      "da": 2290,
      "hl_": 2291,
      "ps": 2292,
      "incl": 2293,
      "spaces": 2294,
      "str_h": 2295,
      "dist": 2296,
      "do_newline": 2297,
      "appro": 2298,
      "starts": 2299,
      "mc_25": 2300,
      "signed": 2301,
      "restoring": 2302,
      "332": 2303,
      "339": 2304,
      "6D": 2305,
      "6F": 2306,
      "MM": 2307,
      "No": 2308,
      "Play": 2309,
      "_type": 2310,
      "dst": 2311,
      "na": 2312,
      "cols": 2313,
      "──────": 2314,
      "0xC4": 2315,
      "260": 2316,
      "after_": 2317,
      "calculated": 2318,
      "ontal": 2319,
      "camera_x": 2320,
      "charac": 2321,
      "2A": 2322,
      "2B": 2323,
      "280": 2324,
      "318": 2325,
      "BAR": 2326,
      "sx": 2327,
      "scal": 2328,
      "orange": 2329,
      "rols": 2330,
      "initializing": 2331,
      "diag": 2332,
      "usage": 2333,
      "MODE": 2334,
      "buil": 2335,
      "retrie": 2336,
      "sgr_ret": 2337,
      "divides": 2338,
      "STATUS": 2339,
      "actions": 2340,
      "inclu": 2341,
      "235": 2342,
      "4x": 2343,
      "Main": 2344,
      "has": 2345,
      "wra": 2346,
      "div": 2347,
      "strc": 2348,
      "ays": 2349,
      "pol": 2350,
      "0x99": 2351,
      "adding": 2352,
      "does": 2353,
      "bounc": 2354,
      "bles": 2355,
      "indicating": 2356,
      "caller": 2357,
      "help": 2358,
      "square": 2359,
      "given": 2360,
      "+=": 2361,
      "6A": 2362,
      "Pixel": 2363,
      "Sp": 2364,
      "au": 2365,
      "bright": 2366,
      "get_": 2367,
      "mask": 2368,
      "oom": 2369,
      "tal": 2370,
      "ORs": 2371,
      "racle": 2372,
      "ech": 2373,
      "total": 2374,
      "107": 2375,
      "else_3": 2376,
      "endif_4": 2377,
      "sim": 2378,
      "0xCC": 2379,
      "242": 2380,
      "0x8000": 2381,
      "0xA8": 2382,
      "areas": 2383,
      "point_": 2384,
      "Cont": 2385,
      "M_BASE": 2386,
      "demonstrates": 2387,
      "timer": 2388,
      "UT": 2389,
      "_col": 2390,
      "get": 2391,
      "ms": 2392,
      "slot": 2393,
      "well": 2394,
      "onal": 2395,
      "ension": 2396,
      "ormal": 2397,
      "ecting": 2398,
      "func_4": 2399,
      "0x430": 2400,
      "checking": 2401,
      "LINK": 2402,
      "222": 2403,
      "0x1F": 2404,
      "subtract": 2405,
      "body": 2406,
      "terminal": 2407,
      "points": 2408,
      "processes": 2409,
      "seconds": 2410,
      "height": 2411,
      "advance_to_null": 2412,
      "point_in_": 2413,
      "9B": 2414,
      "9E": 2415,
      "Ap": 2416,
      "Wa": 2417,
      "dur": 2418,
      "fi": 2419,
      "fine": 2420,
      "font": 2421,
      "zoom": 2422,
      "info": 2423,
      "ature": 2424,
      "initialized": 2425,
      "determin": 2426,
      "TIME": 2427,
      "ELL": 2428,
      "0x37": 2429,
      "270": 2430,
      "Init": 2431,
      "terminator": 2432,
      "subtracting": 2433,
      "CMD_": 2434,
      "include": 2435,
      "9F": 2436,
      "IT": 2437,
      "LI": 2438,
      "URL": 2439,
      "_H": 2440,
      "_s": 2441,
      "_ret": 2442,
      "m_": 2443,
      "tn": 2444,
      "rary": 2445,
      "ANDs": 2446,
      "context": 2447,
      "exp": 2448,
      "half": 2449,
      "0x400": 2450,
      "0xD4": 2451,
      "0xDB": 2452,
      "0x94": 2453,
      "0x9C": 2454,
      "0xE5": 2455,
      "past": 2456,
      "save_": 2457,
      "Input": 2458,
      "SCROLL_": 2459,
      "Memory": 2460,
      "6C": 2461,
      "7D": 2462,
      "Cursor": 2463,
      "ER": 2464,
      "FG": 2465,
      "USE": 2466,
      "Upon": 2467,
      "is_": 2468,
      "section": 2469,
      "their": 2470,
      "ART": 2471,
      "245": 2472,
      "0xEE": 2473,
      "350": 2474,
      "0xA5": 2475,
      "dot": 2476,
      "both": 2477,
      "mm_": 2478,
      "need": 2479,
      "okup": 2480,
      "Building": 2481,
      "mark_": 2482,
      "suggesting": 2483,
      "ZE": 2484,
      "btn": 2485,
      "cs": 2486,
      "dra": 2487,
      "ible": 2488,
      "od": 2489,
      "ub": 2490,
      "ong": 2491,
      "ication": 2492,
      "regs": 2493,
      "teg": 2494,
      "0x2100": 2495,
      "0x04": 2496,
      "0xFE": 2497,
      "0x98": 2498,
      "visible": 2499,
      "GET": 2500,
      "store_": 2501,
      "─────────────────────────────────": 2502,
      "message": 2503,
      "layout": 2504,
      "detected": 2505,
      "panel": 2506,
      "_digit_": 2507,
      "225": 2508,
      "7B": 2509,
      "9D": 2510,
      "Bl": 2511,
      "BLINK": 2512,
      "CV": 2513,
      "UP": 2514,
      "VI": 2515,
      "_pos": 2516,
      "_tab": 2517,
      "cap": 2518,
      "dn": 2519,
      "ii": 2520,
      "was": 2521,
      "seed": 2522,
      "ands": 2523,
      "opcodes": 2524,
      "ick_": 2525,
      "129": 2526,
      "stri": 2527,
      "256x": 2528,
      "0x77": 2529,
      "0x7F": 2530,
      "0xF8": 2531,
      "0xFC": 2532,
      "0x38": 2533,
      "0xC8": 2534,
      "0xCE": 2535,
      "0x95": 2536,
      "0x84": 2537,
      "row_": 2538,
      "iled": 2539,
      "pat_": 2540,
      "design": 2541,
      "decrement": 2542,
      "arger": 2543,
      "MEM": 2544,
      "blocks": 2545,
      "self": 2546,
      "prints": 2547,
      "nested": 2548,
      "asciz": 2549,
      "_do_": 2550,
      "remaining": 2551,
      "scale": 2552,
      "build_": 2553,
      "!\"": 2554,
      "319": 2555,
      "HEX": 2556,
      "SOR": 2557,
      "SP_": 2558,
      "fin": 2559,
      "hud": 2560,
      "larger": 2561,
      "only": 2562,
      "cos": 2563,
      "room": 2564,
      "LOOP": 2565,
      "ALAR": 2566,
      "MOUSE": 2567,
      "act": 2568,
      "sup": 2569,
      "0x500": 2570,
      "0xF5": 2571,
      "0x3C": 2572,
      "0xDD": 2573,
      "0x1B": 2574,
      "0x1D": 2575,
      "R_SCR": 2576,
      "idd": 2577,
      "SIZE": 2578,
      "sequences": 2579,
      "patterns": 2580,
      "RITE": 2581,
      "dimension": 2582,
      "horizontal": 2583,
      "trigger": 2584,
      "210": 2585,
      "338": 2586,
      "EM": 2587,
      "Other": 2588,
      "_left": 2589,
      "ab_": 2590,
      "ev": 2591,
      "mix": 2592,
      "0x170": 2593,
      "loa": 2594,
      "123": 2595,
      "RECV": 2596,
      "TER": 2597,
      "0x23": 2598,
      "0x58": 2599,
      "r256": 2600,
      "0x6D": 2601,
      "0x08": 2602,
      "0x0D": 2603,
      "0x35": 2604,
      "0x8B": 2605,
      "ROO": 2606,
      "computed": 2607,
      "animated": 2608,
      "fill_": 2609,
      "para": 2610,
      "buffers": 2611,
      "old": 2612,
      "Increment": 2613,
      "no_input": 2614,
      "sgr256": 2615,
      "management": 2616,
      "Status": 2617,
      "close": 2618,
      "debug": 2619,
      "debug_": 2620,
      "purple": 2621,
      "accordingly": 2622,
      "diagonal": 2623,
      "MAL": 2624,
      "NOR": 2625,
      "Ter": 2626,
      "UM": 2627,
      "ables": 2628,
      "ced": 2629,
      "cross": 2630,
      "gu": 2631,
      "ped": 2632,
      "ru": 2633,
      "unknown": 2634,
      "main_5": 2635,
      "0x28": 2636,
      "0x45": 2637,
      "0x49": 2638,
      "righ": 2639,
      "0x66": 2640,
      "0x68": 2641,
      "0x0A": 2642,
      "192": 2643,
      "0x300": 2644,
      "0xE8": 2645,
      "tens": 2646,
      "Constan": 2647,
      "walk": 2648,
      "TICKS": 2649,
      "DIRTY_": 2650,
      "str_hello": 2651,
      "256x256": 2652,
      "Otherwise": 2653,
      "NORMAL": 2654,
      "6B": 2655,
      "7C": 2656,
      "ID": 2657,
      "MS": 2658,
      "SS": 2659,
      "SPA": 2660,
      "TR": 2661,
      "ast": 2662,
      "eq": 2663,
      "fw": 2664,
      "nt": 2665,
      "alarm": 2666,
      "replace": 2667,
      "open": 2668,
      "dev": 2669,
      "LOSE": 2670,
      "TIT": 2671,
      "tour": 2672,
      "chk": 2673,
      "contour": 2674,
      "gradi": 2675,
      "across": 2676,
      "strip": 2677,
      "0x220": 2678,
      "0x48": 2679,
      "0x53": 2680,
      "0x550": 2681,
      "0x3F": 2682,
      "contain": 2683,
      "paint": 2684,
      "writing": 2685,
      "complete": 2686,
      "Screen": 2687,
      "CPY": 2688,
      "0x1201": 2689,
      "particle": 2690,
      "after_input": 2691,
      "fine_hash": 2692,
      "loaded": 2693,
      "317": 2694,
      "Back": 2695,
      "E1": 2696,
      "VFS": 2697,
      "Win": 2698,
      "_screen": 2699,
      "_not_": 2700,
      "_ADDR": 2701,
      "ai": 2702,
      "ck": 2703,
      "ccess": 2704,
      "ey": 2705,
      "gent": 2706,
      "hk_": 2707,
      "mark": 2708,
      "ring": 2709,
      "ying": 2710,
      "rece": 2711,
      "rage": 2712,
      "ective": 2713,
      "ata": 2714,
      "TILE": 2715,
      "TILE_": 2716,
      "252": 2717,
      "122": 2718,
      "extra": 2719,
      "shell": 2720,
      "0x26": 2721,
      "0x2200": 2722,
      "0x4D": 2723,
      "0x69": 2724,
      "0x0E": 2725,
      "near": 2726,
      "no_key": 2727,
      "correct": 2728,
      "MAIN": 2729,
      "parse_": 2730,
      "ANS_NORMAL": 2731,
      "accent": 2732,
      "SGR": 2733,
      "Controls": 2734,
      "determined": 2735,
      "dimensions": 2736,
      "gradient": 2737,
      "hk_ret": 2738,
      "Hand": 2739,
      "Op": 2740,
      "cil": 2741,
      "day": 2742,
      "ld": 2743,
      "sq": 2744,
      "thing": 2745,
      "STR": 2746,
      "ended": 2747,
      "means": 2748,
      "ANSI": 2749,
      "lete": 2750,
      "chang": 2751,
      "gray": 2752,
      "16x": 2753,
      "RESP": 2754,
      "0x6E": 2755,
      "208": 2756,
      "0x34": 2757,
      "0x3D": 2758,
      "0xB4": 2759,
      "0xB8": 2760,
      "0xBB": 2761,
      "tran": 2762,
      "lock": 2763,
      "termine": 2764,
      "ternal": 2765,
      "ggle": 2766,
      "mc_check_": 2767,
      "indicated": 2768,
      "MAP_": 2769,
      "....)": 2770,
      "Process": 2771,
      "Move": 2772,
      "bbers": 2773,
      "single": 2774,
      "\"/": 2775,
      "CELL": 2776,
      "Ext": 2777,
      "Fo": 2778,
      "TAB": 2779,
      "VED": 2780,
      "WRITE": 2781,
      "cry": 2782,
      "ges": 2783,
      "rup": 2784,
      "tree": 2785,
      "wu": 2786,
      "x8": 2787,
      "ties": 2788,
      "ones": 2789,
      "lookup": 2790,
      "del": 2791,
      "ading": 2792,
      "key_": 2793,
      "0x2C": 2794,
      "0x4C": 2795,
      "0x59": 2796,
      "0x5C": 2797,
      "0x530": 2798,
      "screen_x": 2799,
      "ING": 2800,
      "148": 2801,
      "0xCB": 2802,
      "0xD9": 2803,
      "0xBC": 2804,
      "appl": 2805,
      "_nx": 2806,
      "storage": 2807,
      "idle": 2808,
      "equals": 2809,
      "ENEM": 2810,
      "corner": 2811,
      "triangle": 2812,
      "abs": 2813,
      "regions": 2814,
      "hi_done": 2815,
      "send": 2816,
      "Adv": 2817,
      "SAVED": 2818,
      "configur": 2819,
      "Player": 2820,
      "bounce": 2821,
      "Term": 2822,
      "ENEMY": 2823,
      "V_": 2824,
      "csi": 2825,
      "ep": 2826,
      "p_done": 2827,
      "range": 2828,
      "sk": 2829,
      "onto": 2830,
      "esc_": 2831,
      "rever": 2832,
      "166": 2833,
      "ditional": 2834,
      "0x5E": 2835,
      "0x6100": 2836,
      "serv": 2837,
      "0x0C0": 2838,
      "0xFB": 2839,
      "176": 2840,
      "246": 2841,
      "0xE6": 2842,
      "variables": 2843,
      "computes": 2844,
      "patch": 2845,
      "terminated": 2846,
      "────────────────────────────────────────────────": 2847,
      "prev_": 2848,
      "world": 2849,
      "runs": 2850,
      "interrup": 2851,
      "cdl_": 2852,
      "CMD": 2853,
      "accum": 2854,
      "_neg": 2855,
      "Register": 2856,
      "echo": 2857,
      "right_": 2858,
      "csi_cursor": 2859,
      ")->": 2860,
      "Act": 2861,
      "Demon": 2862,
      "Le": 2863,
      "VAL": 2864,
      "_color": 2865,
      "_right": 2866,
      "bg": 2867,
      "nibble": 2868,
      "plot": 2869,
      "DISP_": 2870,
      "comb": 2871,
      "let": 2872,
      "dir_": 2873,
      "0x21": 2874,
      "0x29": 2875,
      "0x4A": 2876,
      "0x54": 2877,
      "0x5100": 2878,
      "0x6C": 2879,
      "0x6F": 2880,
      "0x600": 2881,
      "screen_y": 2882,
      "0xFD00": 2883,
      "0x3B": 2884,
      "0xDA": 2885,
      "249": 2886,
      "0x9D": 2887,
      "0xBA": 2888,
      "384": 2889,
      "visit": 2890,
      "saves": 2891,
      "typ": 2892,
      "clear_buf": 2893,
      "do_rect": 2894,
      "0x7801": 2895,
      "0x44FF44": 2896,
      "Convert": 2897,
      "State": 2898,
      "waiting": 2899,
      "_END": 2900,
      "wrap": 2901,
      "stripe": 2902,
      "16x16": 2903,
      "8x8": 2904,
      "CSI": 2905,
      "FO": 2906,
      "SLI": 2907,
      "UTI": 2908,
      "cx": 2909,
      "cul": 2910,
      "cb_": 2911,
      "csi_": 2912,
      "home": 2913,
      "wd": 2914,
      "atures": 2915,
      "detail": 2916,
      "may": 2917,
      "DER_": 2918,
      "uncon": 2919,
      "gradu": 2920,
      "clr": 2921,
      "0xFFE": 2922,
      "113": 2923,
      "0x4B": 2924,
      "0xF7": 2925,
      "198": 2926,
      "0xD5": 2927,
      "0xD8": 2928,
      "defines": 2929,
      "0x96": 2930,
      "0x97": 2931,
      "0xEF": 2932,
      "228": 2933,
      "t_loop": 2934,
      "varying": 2935,
      "variation": 2936,
      "blink": 2937,
      "renders": 2938,
      "tests": 2939,
      "bias": 2940,
      "Coun": 2941,
      "pb_esc_": 2942,
      "NEW": 2943,
      "spawn_": 2944,
      "camera_y": 2945,
      "tempo": 2946,
      "walls": 2947,
      "multiplying": 2948,
      "simul": 2949,
      "UTF8": 2950,
      "MEMCPY": 2951,
      "idden": 2952,
      "mixer": 2953,
      "sgr256_ret": 2954,
      "recei": 2955,
      "Actually": 2956,
      "Demonstrates": 2957,
      "Left": 2958,
      "SLIDER_": 2959,
      "graduated": 2960,
      "AS": 2961,
      "Al": 2962,
      "Bar": 2963,
      "CON": 2964,
      "Ctr": 2965,
      "GRE": 2966,
      "NA": 2967,
      "PC": 2968,
      "Right": 2969,
      "T_BUF": 2970,
      "_up": 2971,
      "_LEN": 2972,
      "_fail": 2973,
      "df": 2974,
      "oi": 2975,
      "osc": 2976,
      "snow": 2977,
      "inc": 2978,
      "atoi": 2979,
      "depending": 2980,
      "106": 2981,
      "specifically": 2982,
      "reset_": 2983,
      "clr_": 2984,
      "exec_done": 2985,
      "success": 2986,
      "tick": 2987,
      "0x2E": 2988,
      "0x7E": 2989,
      "0x47": 2990,
      "KEY_": 2991,
      "INE": 2992,
      "0x3E": 2993,
      "0xC6": 2994,
      "0xCCC": 2995,
      "0xE9": 2996,
      "0xA9": 2997,
      "trace": 2998,
      "bound": 2999
    },
    "merges": [
      [
        "r",
        "1"
      ],
      [
        "D",
        "I"
      ],
      [
        "L",
        "DI"
      ],
      [
        "r",
        "2"
      ],
      [
        "i",
        "n"
      ],
      [
        "t",
        "i"
      ],
      [
        "e",
        "r"
      ],
      [
        "o",
        "n"
      ],
      [
        "0",
        "x"
      ],
      [
        "a",
        "l"
      ],
      [
        "O",
        "R"
      ],
      [
        "e",
        "s"
      ],
      [
        "A",
        "D"
      ],
      [
        "=",
        "="
      ],
      [
        "r",
        "3"
      ],
      [
        "ti",
        "on"
      ],
      [
        "t",
        "h"
      ],
      [
        "r",
        "4"
      ],
      [
        "r",
        "0"
      ],
      [
        "a",
        "n"
      ],
      [
        "r",
        "7"
      ],
      [
        "S",
        "T"
      ],
      [
        "r",
        "e"
      ],
      [
        "ST",
        "OR"
      ],
      [
        "STOR",
        "E"
      ],
      [
        "i",
        "s"
      ],
      [
        "r",
        "5"
      ],
      [
        "r",
        "6"
      ],
      [
        "r1",
        "0"
      ],
      [
        "r",
        "9"
      ],
      [
        "r1",
        "1"
      ],
      [
        "r1",
        "2"
      ],
      [
        "r1",
        "4"
      ],
      [
        "═",
        "═"
      ],
      [
        "r1",
        "5"
      ],
      [
        "r1",
        "3"
      ],
      [
        "s",
        "e"
      ],
      [
        "r",
        "8"
      ],
      [
        "AD",
        "D"
      ],
      [
        "an",
        "d"
      ],
      [
        "o",
        "p"
      ],
      [
        "0",
        "0"
      ],
      [
        "e",
        "n"
      ],
      [
        "l",
        "o"
      ],
      [
        "c",
        "o"
      ],
      [
        "a",
        "tion"
      ],
      [
        "t",
        "er"
      ],
      [
        "r",
        "a"
      ],
      [
        "M",
        "P"
      ],
      [
        "S",
        "H"
      ],
      [
        "o",
        "r"
      ],
      [
        "in",
        "g"
      ],
      [
        "==",
        "=="
      ],
      [
        "─",
        "─"
      ],
      [
        "e",
        "c"
      ],
      [
        "i",
        "f"
      ],
      [
        "a",
        "t"
      ],
      [
        "in",
        "i"
      ],
      [
        "i",
        "z"
      ],
      [
        "ti",
        "al"
      ],
      [
        "F",
        "F"
      ],
      [
        "tial",
        "iz"
      ],
      [
        "r",
        "o"
      ],
      [
        "ini",
        "tializ"
      ],
      [
        "d",
        "e"
      ],
      [
        "L",
        "O"
      ],
      [
        "th",
        "e"
      ],
      [
        "i",
        "t"
      ],
      [
        "r2",
        "0"
      ],
      [
        "a",
        "r"
      ],
      [
        "i",
        "c"
      ],
      [
        "ter",
        "s"
      ],
      [
        "re",
        "g"
      ],
      [
        "u",
        "n"
      ],
      [
        "l",
        "y"
      ],
      [
        "C",
        "MP"
      ],
      [
        "reg",
        "is"
      ],
      [
        "lo",
        "op"
      ],
      [
        "i",
        "th"
      ],
      [
        "LO",
        "AD"
      ],
      [
        "══",
        "══"
      ],
      [
        "T",
        "h"
      ],
      [
        "s",
        "t"
      ],
      [
        "m",
        "e"
      ],
      [
        "_",
        "0"
      ],
      [
        "a",
        "s"
      ],
      [
        "ation",
        "s"
      ],
      [
        "A",
        "N"
      ],
      [
        "A",
        "L"
      ],
      [
        "f",
        "or"
      ],
      [
        "regis",
        "ters"
      ],
      [
        "T",
        "I"
      ],
      [
        "t",
        "o"
      ],
      [
        "co",
        "de"
      ],
      [
        "v",
        "al"
      ],
      [
        "2",
        "5"
      ],
      [
        "val",
        "u"
      ],
      [
        "op",
        "er"
      ],
      [
        "u",
        "t"
      ],
      [
        "l",
        "e"
      ],
      [
        "S",
        "C"
      ],
      [
        "SH",
        "L"
      ],
      [
        "oper",
        "ations"
      ],
      [
        "w",
        "ith"
      ],
      [
        "m",
        "a"
      ],
      [
        "D",
        "E"
      ],
      [
        "t",
        "e"
      ],
      [
        "====",
        "===="
      ],
      [
        "AN",
        "D"
      ],
      [
        "SC",
        "R"
      ],
      [
        "s",
        "p"
      ],
      [
        "d",
        "i"
      ],
      [
        "valu",
        "es"
      ],
      [
        "m",
        "b"
      ],
      [
        "ra",
        "w"
      ],
      [
        "e",
        "l"
      ],
      [
        "X",
        "OR"
      ],
      [
        "G",
        "e"
      ],
      [
        "──",
        "──"
      ],
      [
        "O",
        "N"
      ],
      [
        "J",
        "MP"
      ],
      [
        "1",
        "0"
      ],
      [
        "O",
        "S"
      ],
      [
        "un",
        "c"
      ],
      [
        "I",
        "P"
      ],
      [
        "se",
        "mb"
      ],
      [
        "S",
        "U"
      ],
      [
        "as",
        "semb"
      ],
      [
        "SU",
        "B"
      ],
      [
        "t",
        "s"
      ],
      [
        "assemb",
        "ly"
      ],
      [
        "TI",
        "ON"
      ],
      [
        "f",
        "unc"
      ],
      [
        "DE",
        "SCR"
      ],
      [
        "IP",
        "TION"
      ],
      [
        "DESCR",
        "IPTION"
      ],
      [
        "Ge",
        "OS"
      ],
      [
        "p",
        "ro"
      ],
      [
        "c",
        "h"
      ],
      [
        "d",
        "raw"
      ],
      [
        "initializ",
        "ation"
      ],
      [
        "u",
        "l"
      ],
      [
        "sp",
        "ec"
      ],
      [
        "spec",
        "if"
      ],
      [
        "c",
        "on"
      ],
      [
        "g",
        "ra"
      ],
      [
        "p",
        "er"
      ],
      [
        "m",
        "p"
      ],
      [
        "ma",
        "in"
      ],
      [
        "J",
        "N"
      ],
      [
        "JN",
        "Z"
      ],
      [
        "initializ",
        "es"
      ],
      [
        "for",
        "m"
      ],
      [
        "CMP",
        "I"
      ],
      [
        "u",
        "s"
      ],
      [
        "specif",
        "ic"
      ],
      [
        "per",
        "form"
      ],
      [
        "1",
        "2"
      ],
      [
        "_",
        "1"
      ],
      [
        "3",
        "2"
      ],
      [
        "a",
        "d"
      ],
      [
        "SH",
        "R"
      ],
      [
        "k",
        "e"
      ],
      [
        "gra",
        "m"
      ],
      [
        "pro",
        "gram"
      ],
      [
        "1",
        "6"
      ],
      [
        "R",
        "A"
      ],
      [
        "R",
        "E"
      ],
      [
        "Th",
        "e"
      ],
      [
        "-",
        "-"
      ],
      [
        "M",
        "O"
      ],
      [
        "e",
        "x"
      ],
      [
        "Th",
        "is"
      ],
      [
        "e",
        "d"
      ],
      [
        "════",
        "════"
      ],
      [
        "perform",
        "s"
      ],
      [
        "O",
        "P"
      ],
      [
        "4",
        "4"
      ],
      [
        "r1",
        "7"
      ],
      [
        "P",
        "OP"
      ],
      [
        "P",
        "U"
      ],
      [
        "PU",
        "SH"
      ],
      [
        "o",
        "f"
      ],
      [
        "v",
        "er"
      ],
      [
        "AL",
        "T"
      ],
      [
        "H",
        "ALT"
      ],
      [
        "r",
        "es"
      ],
      [
        "en",
        "d"
      ],
      [
        "ke",
        "y"
      ],
      [
        "0x",
        "00"
      ],
      [
        "di",
        "tion"
      ],
      [
        "r1",
        "8"
      ],
      [
        "AL",
        "L"
      ],
      [
        "C",
        "ALL"
      ],
      [
        "S",
        "E"
      ],
      [
        "c",
        "l"
      ],
      [
        "main",
        "_0"
      ],
      [
        "8",
        "8"
      ],
      [
        "r2",
        "1"
      ],
      [
        "b",
        "it"
      ],
      [
        "A",
        "A"
      ],
      [
        "RA",
        "M"
      ],
      [
        "i",
        "x"
      ],
      [
        "a",
        "c"
      ],
      [
        "s",
        "h"
      ],
      [
        "6",
        "4"
      ],
      [
        "in",
        "e"
      ],
      [
        "ver",
        "al"
      ],
      [
        "se",
        "veral"
      ],
      [
        "ex",
        "ec"
      ],
      [
        "r2",
        "2"
      ],
      [
        "0x",
        "FF"
      ],
      [
        "s",
        "u"
      ],
      [
        "h",
        "al"
      ],
      [
        "co",
        "mp"
      ],
      [
        "T",
        "E"
      ],
      [
        "p",
        "l"
      ],
      [
        "st",
        "r"
      ],
      [
        "U",
        "L"
      ],
      [
        "M",
        "UL"
      ],
      [
        "25",
        "6"
      ],
      [
        "ti",
        "c"
      ],
      [
        "_",
        "2"
      ],
      [
        "c",
        "tion"
      ],
      [
        "========",
        "========"
      ],
      [
        "is",
        "e"
      ],
      [
        "e",
        "t"
      ],
      [
        "w",
        "ise"
      ],
      [
        "────",
        "────"
      ],
      [
        "P",
        "SE"
      ],
      [
        "F",
        "RAM"
      ],
      [
        "FRAM",
        "E"
      ],
      [
        "el",
        "se"
      ],
      [
        "0x",
        "2"
      ],
      [
        "u",
        "d"
      ],
      [
        "end",
        "if"
      ],
      [
        "th",
        "en"
      ],
      [
        "p",
        "ut"
      ],
      [
        "c",
        "al"
      ],
      [
        "con",
        "dition"
      ],
      [
        "12",
        "8"
      ],
      [
        "cl",
        "ud"
      ],
      [
        "X",
        "T"
      ],
      [
        "E",
        "L"
      ],
      [
        "t",
        "ing"
      ],
      [
        "bit",
        "wise"
      ],
      [
        "A",
        "R"
      ],
      [
        "w",
        "h"
      ],
      [
        "0x",
        "7"
      ],
      [
        "25",
        "5"
      ],
      [
        "ith",
        "me"
      ],
      [
        "TE",
        "XT"
      ],
      [
        "ithme",
        "tic"
      ],
      [
        "ar",
        "ithmetic"
      ],
      [
        "u",
        "p"
      ],
      [
        "1",
        "1"
      ],
      [
        "MO",
        "D"
      ],
      [
        "sh",
        "if"
      ],
      [
        "I",
        "t"
      ],
      [
        "s",
        "c"
      ],
      [
        "ec",
        "k"
      ],
      [
        "0x",
        "4"
      ],
      [
        "DI",
        "V"
      ],
      [
        "0x",
        "5"
      ],
      [
        "J",
        "Z"
      ],
      [
        "b",
        "y"
      ],
      [
        "r",
        "i"
      ],
      [
        "r1",
        "6"
      ],
      [
        "in",
        "put"
      ],
      [
        "draw",
        "ing"
      ],
      [
        "in",
        "clud"
      ],
      [
        "S",
        "AR"
      ],
      [
        "3",
        "0"
      ],
      [
        "re",
        "en"
      ],
      [
        "at",
        "e"
      ],
      [
        "AD",
        "DI"
      ],
      [
        "l",
        "s"
      ],
      [
        "co",
        "lo"
      ],
      [
        "i",
        "es"
      ],
      [
        "r2",
        "5"
      ],
      [
        "RE",
        "T"
      ],
      [
        "m",
        "o"
      ],
      [
        "en",
        "t"
      ],
      [
        "or",
        "y"
      ],
      [
        "su",
        "b"
      ],
      [
        "g",
        "ic"
      ],
      [
        "colo",
        "r"
      ],
      [
        "SHL",
        "I"
      ],
      [
        "lo",
        "gic"
      ],
      [
        "en",
        "ters"
      ],
      [
        "a",
        "y"
      ],
      [
        "s",
        "i"
      ],
      [
        "u",
        "r"
      ],
      [
        "C",
        "T"
      ],
      [
        "str",
        "u"
      ],
      [
        "me",
        "m"
      ],
      [
        "ix",
        "el"
      ],
      [
        "an",
        "i"
      ],
      [
        "ch",
        "eck"
      ],
      [
        "r1",
        "9"
      ],
      [
        "0x",
        "6"
      ],
      [
        "ac",
        "k"
      ],
      [
        "func",
        "_0"
      ],
      [
        "u",
        "tion"
      ],
      [
        "MO",
        "V"
      ],
      [
        "exec",
        "ution"
      ],
      [
        "co",
        "un"
      ],
      [
        "p",
        "ixel"
      ],
      [
        "mem",
        "ory"
      ],
      [
        "at",
        "es"
      ],
      [
        "a",
        "se"
      ],
      [
        "s",
        "er"
      ],
      [
        "RE",
        "CT"
      ],
      [
        "K",
        "E"
      ],
      [
        "KE",
        "Y"
      ],
      [
        "r2",
        "3"
      ],
      [
        "0x",
        "0"
      ],
      [
        "v",
        "e"
      ],
      [
        "RECT",
        "F"
      ],
      [
        "stru",
        "ction"
      ],
      [
        "in",
        "struction"
      ],
      [
        "1",
        "5"
      ],
      [
        "sc",
        "reen"
      ],
      [
        "I",
        "KEY"
      ],
      [
        "════════",
        "════════"
      ],
      [
        "condition",
        "al"
      ],
      [
        "_",
        "d"
      ],
      [
        "I",
        "N"
      ],
      [
        "r3",
        "1"
      ],
      [
        "ser",
        "ies"
      ],
      [
        "4",
        "0"
      ],
      [
        "`",
        ","
      ],
      [
        "regis",
        "ter"
      ],
      [
        ")",
        ","
      ],
      [
        "L",
        "E"
      ],
      [
        "x",
        "t"
      ],
      [
        "g",
        "h"
      ],
      [
        "er",
        "e"
      ],
      [
        "8",
        "0"
      ],
      [
        "2",
        "0"
      ],
      [
        "ul",
        "ti"
      ],
      [
        "i",
        "l"
      ],
      [
        "wh",
        "ere"
      ],
      [
        "te",
        "xt"
      ],
      [
        "f",
        "o"
      ],
      [
        "p",
        "o"
      ],
      [
        "_",
        "3"
      ],
      [
        "ra",
        "me"
      ],
      [
        "draw",
        "s"
      ],
      [
        "0x",
        "F"
      ],
      [
        "1",
        "4"
      ],
      [
        "hal",
        "ts"
      ],
      [
        "pl",
        "ay"
      ],
      [
        "cal",
        "ls"
      ],
      [
        "1",
        "7"
      ],
      [
        "o",
        "us"
      ],
      [
        "1",
        "9"
      ],
      [
        "b",
        "ase"
      ],
      [
        "0x",
        "3"
      ],
      [
        "con",
        "t"
      ],
      [
        "n",
        "o"
      ],
      [
        "0x",
        "C"
      ],
      [
        "0x",
        "D"
      ],
      [
        "2",
        "4"
      ],
      [
        "de",
        "f"
      ],
      [
        "includ",
        "ing"
      ],
      [
        "0x",
        "9"
      ],
      [
        "3",
        "6"
      ],
      [
        "p",
        "e"
      ],
      [
        "i",
        "r"
      ],
      [
        "b",
        "e"
      ],
      [
        "us",
        "ing"
      ],
      [
        "on",
        "e"
      ],
      [
        "p",
        "al"
      ],
      [
        "L",
        "L"
      ],
      [
        "r2",
        "6"
      ],
      [
        "et",
        "te"
      ],
      [
        "pal",
        "ette"
      ],
      [
        "comp",
        "ar"
      ],
      [
        "r2",
        "4"
      ],
      [
        "0x",
        "B"
      ],
      [
        "r2",
        "8"
      ],
      [
        "PSE",
        "T"
      ],
      [
        "3",
        "7"
      ],
      [
        "0x",
        "E"
      ],
      [
        "c",
        "t"
      ],
      [
        "f",
        "rame"
      ],
      [
        "1",
        "8"
      ],
      [
        "3",
        "5"
      ],
      [
        "r2",
        "7"
      ],
      [
        "d",
        "is"
      ],
      [
        "b",
        "u"
      ],
      [
        "L",
        "IN"
      ],
      [
        "3",
        "9"
      ],
      [
        "P",
        "I"
      ],
      [
        "0x",
        "8"
      ],
      [
        "3",
        "8"
      ],
      [
        "loop",
        "_0"
      ],
      [
        "F",
        "I"
      ],
      [
        "2",
        "2"
      ],
      [
        "B",
        "U"
      ],
      [
        "func",
        "_1"
      ],
      [
        "else",
        "_0"
      ],
      [
        "res",
        "s"
      ],
      [
        "PSE",
        "TI"
      ],
      [
        "endif",
        "_1"
      ],
      [
        "LIN",
        "E"
      ],
      [
        "lo",
        "ad"
      ],
      [
        "base",
        "d"
      ],
      [
        "r3",
        "0"
      ],
      [
        "C",
        "LE"
      ],
      [
        "3",
        "4"
      ],
      [
        "L",
        "D"
      ],
      [
        "FI",
        "LL"
      ],
      [
        "I",
        "R"
      ],
      [
        "f",
        "er"
      ],
      [
        "ro",
        "w"
      ],
      [
        "dis",
        "play"
      ],
      [
        "X",
        "EL"
      ],
      [
        "PI",
        "XEL"
      ],
      [
        "C",
        "IR"
      ],
      [
        "W",
        "OR"
      ],
      [
        "SUB",
        "I"
      ],
      [
        "CIR",
        "CLE"
      ],
      [
        "WOR",
        "LD"
      ],
      [
        "m",
        "ulti"
      ],
      [
        "BU",
        "F"
      ],
      [
        "AN",
        "DI"
      ],
      [
        "se",
        "ts"
      ],
      [
        "r2",
        "9"
      ],
      [
        "t",
        "_"
      ],
      [
        "W",
        "PIXEL"
      ],
      [
        "d",
        "at"
      ],
      [
        "ad",
        "d"
      ],
      [
        "0x00",
        "FF"
      ],
      [
        "ro",
        "ut"
      ],
      [
        "ix",
        "ed"
      ],
      [
        "EL",
        "LO"
      ],
      [
        "H",
        "ELLO"
      ],
      [
        "logic",
        "al"
      ],
      [
        "D",
        "RA"
      ],
      [
        "R",
        "O"
      ],
      [
        "0x",
        "A"
      ],
      [
        "_d",
        "one"
      ],
      [
        "DRA",
        "W"
      ],
      [
        "0x00",
        "00"
      ],
      [
        "v",
        "is"
      ],
      [
        "p",
        "ul"
      ],
      [
        "v",
        "ar"
      ],
      [
        "func",
        "tion"
      ],
      [
        "an",
        "g"
      ],
      [
        "DRAW",
        "TEXT"
      ],
      [
        "────────",
        "────────"
      ],
      [
        "c",
        "le"
      ],
      [
        "2",
        "7"
      ],
      [
        "m",
        "ixed"
      ],
      [
        "i",
        "on"
      ],
      [
        "2",
        "9"
      ],
      [
        "m",
        "ani"
      ],
      [
        "mani",
        "pul"
      ],
      [
        "2",
        "8"
      ],
      [
        "--",
        "--"
      ],
      [
        "var",
        "i"
      ],
      [
        "t",
        "ra"
      ],
      [
        "exec",
        "ut"
      ],
      [
        "00",
        "0"
      ],
      [
        "mo",
        "d"
      ],
      [
        "shif",
        "ts"
      ],
      [
        "sub",
        "rout"
      ],
      [
        "d",
        "o"
      ],
      [
        "l",
        "ine"
      ],
      [
        "or",
        "d"
      ],
      [
        "2",
        "6"
      ],
      [
        "s",
        "a"
      ],
      [
        "te",
        "d"
      ],
      [
        "l",
        "i"
      ],
      [
        "fo",
        "re"
      ],
      [
        "is",
        "on"
      ],
      [
        "compar",
        "ison"
      ],
      [
        "s",
        "o"
      ],
      [
        "be",
        "fore"
      ],
      [
        "t",
        "a"
      ],
      [
        "0x",
        "1"
      ],
      [
        "in",
        "u"
      ],
      [
        "bu",
        "f"
      ],
      [
        "re",
        "ct"
      ],
      [
        "th",
        "er"
      ],
      [
        "vari",
        "ous"
      ],
      [
        "se",
        "t"
      ],
      [
        "dat",
        "a"
      ],
      [
        "gh",
        "t"
      ],
      [
        "R",
        "_"
      ],
      [
        "check",
        "s"
      ],
      [
        "(",
        "`"
      ],
      [
        "_",
        "loop"
      ],
      [
        "cont",
        "inu"
      ],
      [
        "a",
        "re"
      ],
      [
        "4",
        "8"
      ],
      [
        "v",
        "en"
      ],
      [
        "f",
        "ter"
      ],
      [
        "5",
        "0"
      ],
      [
        "t",
        "r"
      ],
      [
        "q",
        "u"
      ],
      [
        "multi",
        "pl"
      ],
      [
        "0xFF",
        "FF"
      ],
      [
        "re",
        "t"
      ],
      [
        "hal",
        "ting"
      ],
      [
        "comp",
        "ut"
      ],
      [
        "sub",
        "tra"
      ],
      [
        "C",
        "O"
      ],
      [
        ".",
        "."
      ],
      [
        "e",
        "m"
      ],
      [
        "f",
        "ro"
      ],
      [
        "fro",
        "m"
      ],
      [
        "at",
        "ed"
      ],
      [
        "ad",
        "dition"
      ],
      [
        "r",
        "it"
      ],
      [
        "b",
        "o"
      ],
      [
        "88",
        "00"
      ],
      [
        "re",
        "pe"
      ],
      [
        "6",
        "6"
      ],
      [
        "a",
        "p"
      ],
      [
        "st",
        "ack"
      ],
      [
        "a",
        "ch"
      ],
      [
        "d",
        "ri"
      ],
      [
        "b",
        "ack"
      ],
      [
        "subrout",
        "ine"
      ],
      [
        "dri",
        "ven"
      ],
      [
        "c",
        "ir"
      ],
      [
        "re",
        "n"
      ],
      [
        "ini",
        "te"
      ],
      [
        "C",
        "C"
      ],
      [
        "ani",
        "m"
      ],
      [
        "vis",
        "ion"
      ],
      [
        "valu",
        "e"
      ],
      [
        "by",
        "te"
      ],
      [
        "di",
        "vision"
      ],
      [
        "multipl",
        "ic"
      ],
      [
        "shif",
        "t"
      ],
      [
        "ar",
        "t"
      ],
      [
        "in",
        "es"
      ],
      [
        "0x",
        "AA"
      ],
      [
        "3",
        "3"
      ],
      [
        "a",
        "fter"
      ],
      [
        "7",
        "7"
      ],
      [
        "loop",
        "_1"
      ],
      [
        "c",
        "e"
      ],
      [
        "th",
        "at"
      ],
      [
        "j",
        "u"
      ],
      [
        "w",
        "a"
      ],
      [
        "CO",
        "L"
      ],
      [
        "_",
        "c"
      ],
      [
        "key",
        "_1"
      ],
      [
        "def",
        "ine"
      ],
      [
        "f",
        "il"
      ],
      [
        "_",
        "n"
      ],
      [
        "up",
        "d"
      ],
      [
        "rect",
        "ang"
      ],
      [
        "B",
        "L"
      ],
      [
        "a",
        "g"
      ],
      [
        "in",
        "al"
      ],
      [
        "b",
        "l"
      ],
      [
        "ti",
        "l"
      ],
      [
        "multiplic",
        "ation"
      ],
      [
        "1",
        "00"
      ],
      [
        "`",
        ")"
      ],
      [
        "in",
        "to"
      ],
      [
        "func",
        "_2"
      ],
      [
        "9",
        "9"
      ],
      [
        "es",
        "e"
      ],
      [
        "th",
        "ese"
      ],
      [
        "ri",
        "ght"
      ],
      [
        "o",
        "me"
      ],
      [
        "BL",
        "T"
      ],
      [
        "includ",
        "es"
      ],
      [
        "add",
        "ress"
      ],
      [
        "subtra",
        "ction"
      ],
      [
        "si",
        "tion"
      ],
      [
        "3",
        "1"
      ],
      [
        "I",
        "f"
      ],
      [
        "pixel",
        "s"
      ],
      [
        "st",
        "or"
      ],
      [
        "d",
        "_"
      ],
      [
        "ju",
        "mp"
      ],
      [
        "f",
        "t"
      ],
      [
        "li",
        "ke"
      ],
      [
        "44",
        "FF"
      ],
      [
        "execut",
        "es"
      ],
      [
        "o",
        "ther"
      ],
      [
        "load",
        "ing"
      ],
      [
        "co",
        "ord"
      ],
      [
        "4",
        "9"
      ],
      [
        "else",
        "_2"
      ],
      [
        "anim",
        "ation"
      ],
      [
        "endif",
        "_3"
      ],
      [
        "lo",
        "c"
      ],
      [
        "================",
        "================"
      ],
      [
        "po",
        "sition"
      ],
      [
        "al",
        "so"
      ],
      [
        "mp",
        "le"
      ],
      [
        "w",
        "e"
      ],
      [
        "d",
        "er"
      ],
      [
        "le",
        "ft"
      ],
      [
        "_",
        "4"
      ],
      [
        "coord",
        "in"
      ],
      [
        "res",
        "ul"
      ],
      [
        "coun",
        "ted"
      ],
      [
        "i",
        "p"
      ],
      [
        "to",
        "re"
      ],
      [
        "co",
        "l"
      ],
      [
        "E",
        "E"
      ],
      [
        "6",
        "0"
      ],
      [
        "5",
        "5"
      ],
      [
        "G",
        "E"
      ],
      [
        "p",
        "a"
      ],
      [
        "6",
        "8"
      ],
      [
        "o",
        "w"
      ],
      [
        "it",
        "s"
      ],
      [
        "c",
        "ur"
      ],
      [
        "coun",
        "ter"
      ],
      [
        "buf",
        "fer"
      ],
      [
        "w",
        "rit"
      ],
      [
        "================================",
        "========"
      ],
      [
        "m",
        "m"
      ],
      [
        "sa",
        "ve"
      ],
      [
        "en",
        "ts"
      ],
      [
        "7",
        "0"
      ],
      [
        "c",
        "es"
      ],
      [
        "_",
        "BUF"
      ],
      [
        "1",
        "3"
      ],
      [
        "n",
        "e"
      ],
      [
        "ST",
        "RO"
      ],
      [
        "cal",
        "c"
      ],
      [
        "comparison",
        "s"
      ],
      [
        "`",
        "."
      ],
      [
        "v",
        "i"
      ],
      [
        "lo",
        "w"
      ],
      [
        "un",
        "til"
      ],
      [
        "su",
        "ch"
      ],
      [
        "t",
        "y"
      ],
      [
        "0xFF",
        "00"
      ],
      [
        "st",
        "art"
      ],
      [
        "========================================",
        "="
      ],
      [
        "A",
        "T"
      ],
      [
        "════════════════",
        "════════════════"
      ],
      [
        "coordin",
        "ates"
      ],
      [
        "ren",
        "der"
      ],
      [
        "o",
        "l"
      ],
      [
        "6",
        "9"
      ],
      [
        "6",
        "5"
      ],
      [
        "s",
        "y"
      ],
      [
        "B",
        "GE"
      ],
      [
        "7",
        "5"
      ],
      [
        "calc",
        "ul"
      ],
      [
        "i",
        "m"
      ],
      [
        "0xFFFF",
        "FF"
      ],
      [
        "upd",
        "ates"
      ],
      [
        "9",
        "0"
      ],
      [
        "b",
        "_"
      ],
      [
        "2",
        "3"
      ],
      [
        "f",
        "inite"
      ],
      [
        "repe",
        "ated"
      ],
      [
        "z",
        "er"
      ],
      [
        "in",
        "finite"
      ],
      [
        "zer",
        "o"
      ],
      [
        "p",
        "h"
      ],
      [
        "cir",
        "cle"
      ],
      [
        "us",
        "es"
      ],
      [
        "7",
        "6"
      ],
      [
        "A",
        "B"
      ],
      [
        "d",
        "if"
      ],
      [
        "l",
        "ines"
      ],
      [
        "re",
        "d"
      ],
      [
        "repeated",
        "ly"
      ],
      [
        "7",
        "8"
      ],
      [
        "g",
        "e"
      ],
      [
        "res",
        "tore"
      ],
      [
        "st",
        "o"
      ],
      [
        "--",
        "-"
      ],
      [
        "dif",
        "fer"
      ],
      [
        "continu",
        "ous"
      ],
      [
        "jump",
        "s"
      ],
      [
        "ces",
        "s"
      ],
      [
        "5",
        "8"
      ],
      [
        "k",
        "_"
      ],
      [
        "al",
        "l"
      ],
      [
        "7",
        "9"
      ],
      [
        "44",
        "44"
      ],
      [
        "2",
        "1"
      ],
      [
        "p",
        "ress"
      ],
      [
        "ro",
        "l"
      ],
      [
        "f",
        "inal"
      ],
      [
        "at",
        "ing"
      ],
      [
        "ex",
        "t"
      ],
      [
        "ter",
        "m"
      ],
      [
        "continuous",
        "ly"
      ],
      [
        "b",
        "et"
      ],
      [
        "l",
        "es"
      ],
      [
        "differ",
        "ent"
      ],
      [
        "ar",
        "d"
      ],
      [
        "check",
        "_"
      ],
      [
        "we",
        "en"
      ],
      [
        "s",
        "or"
      ],
      [
        "y",
        "_"
      ],
      [
        "bet",
        "ween"
      ],
      [
        "k",
        "ip"
      ],
      [
        "po",
        "in"
      ],
      [
        "B",
        "A"
      ],
      [
        "c",
        "_"
      ],
      [
        "o",
        "ut"
      ],
      [
        "st",
        "em"
      ],
      [
        "comput",
        "ation"
      ],
      [
        "i",
        "d"
      ],
      [
        "9",
        "8"
      ],
      [
        "re",
        "m"
      ],
      [
        "address",
        "es"
      ],
      [
        "stor",
        "ing"
      ],
      [
        "C",
        "H"
      ],
      [
        "ch",
        "ar"
      ],
      [
        "comp",
        "le"
      ],
      [
        "co",
        "mm"
      ],
      [
        "loop",
        "_2"
      ],
      [
        "b",
        "ar"
      ],
      [
        "coun",
        "t"
      ],
      [
        "si",
        "mple"
      ],
      [
        "se",
        "d"
      ],
      [
        "sy",
        "stem"
      ],
      [
        "i",
        "ed"
      ],
      [
        "i",
        "le"
      ],
      [
        "4",
        "5"
      ],
      [
        "9",
        "5"
      ],
      [
        "----",
        "----"
      ],
      [
        "_",
        "5"
      ],
      [
        "ul",
        "l"
      ],
      [
        "7",
        "3"
      ],
      [
        "instruction",
        "s"
      ],
      [
        "resul",
        "t"
      ],
      [
        "color",
        "s"
      ],
      [
        "d",
        "ec"
      ],
      [
        "w",
        "o"
      ],
      [
        "ate",
        "ly"
      ],
      [
        "0x",
        "8800"
      ],
      [
        "m",
        "ately"
      ],
      [
        "loop",
        "s"
      ],
      [
        "draw",
        "_"
      ],
      [
        "_",
        "x"
      ],
      [
        "ulti",
        "mately"
      ],
      [
        "condition",
        "s"
      ],
      [
        "4",
        "2"
      ],
      [
        "w",
        "n"
      ],
      [
        "comm",
        "and"
      ],
      [
        "I",
        "n"
      ],
      [
        "9",
        "7"
      ],
      [
        "ac",
        "e"
      ],
      [
        "rectang",
        "le"
      ],
      [
        "p",
        "at"
      ],
      [
        "s",
        "kip"
      ],
      [
        "shif",
        "ting"
      ],
      [
        "ur",
        "n"
      ],
      [
        "b",
        "le"
      ],
      [
        "a",
        "me"
      ],
      [
        "set",
        "ting"
      ],
      [
        "t",
        "es"
      ],
      [
        "cle",
        "ar"
      ],
      [
        "h",
        "and"
      ],
      [
        "ic",
        "h"
      ],
      [
        "manipul",
        "ates"
      ],
      [
        "7",
        "2"
      ],
      [
        "wh",
        "ich"
      ],
      [
        "0x00",
        "44FF"
      ],
      [
        "0x4",
        "0"
      ],
      [
        "A",
        "0"
      ],
      [
        "pro",
        "cess"
      ],
      [
        "B",
        "B"
      ],
      [
        "u",
        "gh"
      ],
      [
        "ter",
        "n"
      ],
      [
        "0x00FF",
        "00"
      ],
      [
        "C",
        "h"
      ],
      [
        "E",
        "0"
      ],
      [
        "specif",
        "ied"
      ],
      [
        "t",
        "wo"
      ],
      [
        "ome",
        "tr"
      ],
      [
        "S",
        "I"
      ],
      [
        "th",
        "ro"
      ],
      [
        "ma",
        "th"
      ],
      [
        "4",
        "6"
      ],
      [
        "gra",
        "ph"
      ],
      [
        "func",
        "_3"
      ],
      [
        "C",
        "0"
      ],
      [
        "thro",
        "ugh"
      ],
      [
        "4",
        "7"
      ],
      [
        "v",
        "ol"
      ],
      [
        "re",
        "ad"
      ],
      [
        "bit",
        "s"
      ],
      [
        "un",
        "d"
      ],
      [
        "_",
        "h"
      ],
      [
        "graph",
        "ic"
      ],
      [
        "8",
        "5"
      ],
      [
        "9",
        "6"
      ],
      [
        "_",
        "y"
      ],
      [
        "u",
        "e"
      ],
      [
        "term",
        "in"
      ],
      [
        "D",
        "raw"
      ],
      [
        "display",
        "s"
      ],
      [
        "0x",
        "30"
      ],
      [
        "11",
        "4"
      ],
      [
        "Ch",
        "eck"
      ],
      [
        "ret",
        "urn"
      ],
      [
        "COL",
        "S"
      ],
      [
        "p",
        "res"
      ],
      [
        "di",
        "g"
      ],
      [
        "6",
        "7"
      ],
      [
        "function",
        "s"
      ],
      [
        "2",
        "00"
      ],
      [
        "en",
        "ter"
      ],
      [
        "d",
        "es"
      ],
      [
        "writ",
        "e"
      ],
      [
        "AT",
        "CH"
      ],
      [
        "no",
        "t"
      ],
      [
        "D",
        "0"
      ],
      [
        "C",
        "E"
      ],
      [
        "at",
        "ch"
      ],
      [
        "me",
        "t"
      ],
      [
        "RO",
        "W"
      ],
      [
        "====",
        "="
      ],
      [
        "C",
        "U"
      ],
      [
        "l",
        "a"
      ],
      [
        "r",
        "_"
      ],
      [
        "do",
        "_"
      ],
      [
        "sto",
        "re"
      ],
      [
        "calcul",
        "ations"
      ],
      [
        "F",
        "E"
      ],
      [
        "────────────────",
        "────────────────"
      ],
      [
        "il",
        "d"
      ],
      [
        "ta",
        "in"
      ],
      [
        "final",
        "ly"
      ],
      [
        "hal",
        "t"
      ],
      [
        "l",
        "ing"
      ],
      [
        "in",
        "vol"
      ],
      [
        "l",
        "_"
      ],
      [
        "ent",
        "_"
      ],
      [
        "8",
        "3"
      ],
      [
        "continu",
        "es"
      ],
      [
        "an",
        "other"
      ],
      [
        "oper",
        "ation"
      ],
      [
        "cl",
        "es"
      ],
      [
        "cur",
        "sor"
      ],
      [
        "9",
        "4"
      ],
      [
        "re",
        "ach"
      ],
      [
        "8",
        "4"
      ],
      [
        "u",
        "lo"
      ],
      [
        "se",
        "qu"
      ],
      [
        "SCR",
        "ATCH"
      ],
      [
        "mod",
        "ulo"
      ],
      [
        "7",
        "1"
      ],
      [
        "the",
        "m"
      ],
      [
        "wa",
        "its"
      ],
      [
        "F",
        "B"
      ],
      [
        "0x",
        "88"
      ],
      [
        "mod",
        "ul"
      ],
      [
        "m",
        "es"
      ],
      [
        "6",
        "3"
      ],
      [
        "no",
        "_"
      ],
      [
        "9",
        "3"
      ],
      [
        "R",
        "e"
      ],
      [
        "load",
        "s"
      ],
      [
        "mod",
        "if"
      ],
      [
        "8",
        "2"
      ],
      [
        "7",
        "4"
      ],
      [
        "rectang",
        "les"
      ],
      [
        "9",
        "1"
      ],
      [
        "b",
        "i"
      ],
      [
        "me",
        "di"
      ],
      [
        "perform",
        "ing"
      ],
      [
        "6",
        "2"
      ],
      [
        "sequ",
        "en"
      ],
      [
        "0xFF00",
        "00"
      ],
      [
        "-",
        ">"
      ],
      [
        "D",
        "D"
      ],
      [
        "compar",
        "es"
      ],
      [
        "p",
        "end"
      ],
      [
        "str",
        "ing"
      ],
      [
        "dec",
        "rem"
      ],
      [
        "0x5",
        "5"
      ],
      [
        "D",
        "00"
      ],
      [
        "1",
        "A"
      ],
      [
        "5",
        "4"
      ],
      [
        "s",
        "g"
      ],
      [
        "v",
        "es"
      ],
      [
        "v",
        "ing"
      ],
      [
        "CU",
        "R_"
      ],
      [
        "bo",
        "ard"
      ],
      [
        "medi",
        "ate"
      ],
      [
        "C",
        "B"
      ],
      [
        "c",
        "er"
      ],
      [
        "e",
        "qu"
      ],
      [
        "mo",
        "ve"
      ],
      [
        "cer",
        "tain"
      ],
      [
        "5",
        "9"
      ],
      [
        "w",
        "or"
      ],
      [
        "equ",
        "al"
      ],
      [
        "p",
        "re"
      ],
      [
        "else",
        "_4"
      ],
      [
        "m",
        "atch"
      ],
      [
        "de",
        "x"
      ],
      [
        "endif",
        "_5"
      ],
      [
        "cir",
        "cles"
      ],
      [
        "loc",
        "ations"
      ],
      [
        "5",
        "3"
      ],
      [
        "8",
        "7"
      ],
      [
        "g",
        "reen"
      ],
      [
        "w",
        "in"
      ],
      [
        "main",
        "_loop"
      ],
      [
        "p",
        "_"
      ],
      [
        "st",
        "ate"
      ],
      [
        "F",
        "D"
      ],
      [
        "in",
        "def"
      ],
      [
        "inite",
        "ly"
      ],
      [
        "indef",
        "initely"
      ],
      [
        "in",
        "dex"
      ],
      [
        "5",
        "6"
      ],
      [
        "══",
        "═"
      ],
      [
        "E",
        "C"
      ],
      [
        "im",
        "mediate"
      ],
      [
        "con",
        "clud"
      ],
      [
        "5",
        "1"
      ],
      [
        "E",
        "D"
      ],
      [
        "F",
        "0"
      ],
      [
        "F",
        "8"
      ],
      [
        "0x0000",
        "FF"
      ],
      [
        "pat",
        "tern"
      ],
      [
        "us",
        "h"
      ],
      [
        "pres",
        "sed"
      ],
      [
        "conclud",
        "es"
      ],
      [
        ")",
        "."
      ],
      [
        "0x2",
        "0"
      ],
      [
        "9",
        "2"
      ],
      [
        "f",
        "ir"
      ],
      [
        "F",
        "A"
      ],
      [
        "conditional",
        "ly"
      ],
      [
        "reach",
        "es"
      ],
      [
        "5",
        "2"
      ],
      [
        "C",
        "o"
      ],
      [
        "op",
        "y"
      ],
      [
        "key",
        "_2"
      ],
      [
        "ti",
        "ve"
      ],
      [
        "as",
        "h"
      ],
      [
        "0xFFFF",
        "00"
      ],
      [
        "0x0000",
        "00"
      ],
      [
        "════",
        "═══"
      ],
      [
        "ti",
        "le"
      ],
      [
        "st",
        "an"
      ],
      [
        "fil",
        "ls"
      ],
      [
        "════════",
        "═══════"
      ],
      [
        "b",
        "r"
      ],
      [
        "0xAA",
        "AA"
      ],
      [
        "of",
        "f"
      ],
      [
        "5",
        "7"
      ],
      [
        "mo",
        "de"
      ],
      [
        "o",
        "k"
      ],
      [
        "12",
        "0"
      ],
      [
        "A",
        "C"
      ],
      [
        "0x00FF",
        "FF"
      ],
      [
        "dig",
        "it"
      ],
      [
        "8",
        "6"
      ],
      [
        "8",
        "9"
      ],
      [
        "F",
        "C"
      ],
      [
        "c",
        "re"
      ],
      [
        "B",
        "0"
      ],
      [
        "B",
        "E"
      ],
      [
        "p",
        "le"
      ],
      [
        "de",
        "d"
      ],
      [
        "4",
        "3"
      ],
      [
        "fir",
        "st"
      ],
      [
        "e",
        "ach"
      ],
      [
        "t",
        "op"
      ],
      [
        "as",
        "m"
      ],
      [
        "0x7",
        "80"
      ],
      [
        "A",
        "E"
      ],
      [
        "wor",
        "l"
      ],
      [
        "E",
        "N"
      ],
      [
        "main",
        "_2"
      ],
      [
        "G",
        "_"
      ],
      [
        "2",
        "E"
      ],
      [
        "bi",
        "ome"
      ],
      [
        "8",
        "1"
      ],
      [
        "p",
        "ush"
      ],
      [
        "0xFF",
        "8800"
      ],
      [
        "sc",
        "rol"
      ],
      [
        "SI",
        "_"
      ],
      [
        "0x",
        "44FF"
      ],
      [
        "ge",
        "ometr"
      ],
      [
        "r",
        "y"
      ],
      [
        "u",
        "m"
      ],
      [
        "0x",
        "80"
      ],
      [
        "ne",
        "w"
      ],
      [
        "0xAAAA",
        "AA"
      ],
      [
        "u",
        "se"
      ],
      [
        "k",
        "s"
      ],
      [
        "p",
        "ar"
      ],
      [
        "cur",
        "ren"
      ],
      [
        "p",
        "b_"
      ],
      [
        "at",
        "us"
      ],
      [
        "88",
        "88"
      ],
      [
        "_n",
        "ext"
      ],
      [
        "bl",
        "ue"
      ],
      [
        "key",
        "_0"
      ],
      [
        "poin",
        "t"
      ],
      [
        "geometr",
        "ic"
      ],
      [
        "P",
        "A"
      ],
      [
        "p",
        "op"
      ],
      [
        "0x",
        "4444"
      ],
      [
        "10",
        "1"
      ],
      [
        "6",
        "1"
      ],
      [
        "D",
        "C"
      ],
      [
        "4",
        "1"
      ],
      [
        "a",
        "m"
      ],
      [
        "g",
        "g"
      ],
      [
        "p",
        "i"
      ],
      [
        "in",
        "d"
      ],
      [
        "════════════════",
        "═══════════════"
      ],
      [
        "════════════════════════════════",
        "═══════════════════════════════"
      ],
      [
        "F",
        "5"
      ],
      [
        "0x00",
        "AA"
      ],
      [
        "stor",
        "es"
      ],
      [
        "sp",
        "ace"
      ],
      [
        "0x00FF",
        "AA"
      ],
      [
        "0x00AA",
        "FF"
      ],
      [
        "B",
        "C"
      ],
      [
        "l",
        "en"
      ],
      [
        "0xFF",
        "AA"
      ],
      [
        "0x7",
        "8"
      ],
      [
        "us",
        "er"
      ],
      [
        "0x00FF",
        "44"
      ],
      [
        "T",
        "Y"
      ],
      [
        "`",
        "),"
      ],
      [
        "0x0000",
        "66"
      ],
      [
        "tr",
        "y_"
      ],
      [
        "ar",
        "k"
      ],
      [
        "44",
        "00"
      ],
      [
        "0xFFAA",
        "00"
      ],
      [
        "main",
        "_1"
      ],
      [
        "0x4444",
        "44"
      ],
      [
        "c",
        "enter"
      ],
      [
        "`)",
        "."
      ],
      [
        "modul",
        "us"
      ],
      [
        "curren",
        "t"
      ],
      [
        "F",
        "3"
      ],
      [
        "0xD",
        "D00"
      ],
      [
        "0x55",
        "00"
      ],
      [
        "0xDD00",
        "44"
      ],
      [
        "S",
        "_"
      ],
      [
        "u",
        "al"
      ],
      [
        "st",
        "ar"
      ],
      [
        "0x8800",
        "88"
      ],
      [
        "B",
        "D"
      ],
      [
        "c",
        "el"
      ],
      [
        "FF",
        "00"
      ],
      [
        "manipul",
        "ation"
      ],
      [
        "an",
        "ch"
      ],
      [
        "no",
        "t_"
      ],
      [
        "rit",
        "e"
      ],
      [
        "i",
        "gh"
      ],
      [
        "o",
        "ver"
      ],
      [
        "0x00",
        "8888"
      ],
      [
        "1",
        "C"
      ],
      [
        "F",
        "6"
      ],
      [
        "con",
        "stan"
      ],
      [
        "0x6",
        "0"
      ],
      [
        "0x0000",
        "CC"
      ],
      [
        "p",
        "on"
      ],
      [
        "w",
        "ord"
      ],
      [
        "0xAA",
        "FF00"
      ],
      [
        "1",
        "E"
      ],
      [
        "f",
        "l"
      ],
      [
        "r",
        "un"
      ],
      [
        "pa",
        "rame"
      ],
      [
        "comple",
        "ting"
      ],
      [
        "worl",
        "d_"
      ],
      [
        "P",
        "_"
      ],
      [
        "else",
        "_1"
      ],
      [
        "endif",
        "_2"
      ],
      [
        "play",
        "er"
      ],
      [
        "0xFF00",
        "FF"
      ],
      [
        "f",
        "ra"
      ],
      [
        "0x5500",
        "77"
      ],
      [
        "h",
        "ex"
      ],
      [
        "0x7",
        "0"
      ],
      [
        "br",
        "anch"
      ],
      [
        "F",
        "9"
      ],
      [
        "m",
        "c_"
      ],
      [
        "ar",
        "g"
      ],
      [
        "parame",
        "ters"
      ],
      [
        "N",
        "E"
      ],
      [
        "_",
        "check_"
      ],
      [
        "0x44FF",
        "00"
      ],
      [
        "0x5",
        "0"
      ],
      [
        "F",
        "7"
      ],
      [
        "n",
        "ull"
      ],
      [
        "comput",
        "ations"
      ],
      [
        "F",
        "4"
      ],
      [
        "fo",
        "l"
      ],
      [
        "cont",
        "ents"
      ],
      [
        "o",
        "m"
      ],
      [
        "le",
        "ar"
      ],
      [
        "upd",
        "ate"
      ],
      [
        "like",
        "ly"
      ],
      [
        "D",
        "4"
      ],
      [
        "b",
        "ut"
      ],
      [
        "i",
        "g"
      ],
      [
        "p",
        "ing"
      ],
      [
        "0xFF",
        "4400"
      ],
      [
        "0xAA",
        "00"
      ],
      [
        "fol",
        "low"
      ],
      [
        "a",
        "in"
      ],
      [
        "co",
        "r"
      ],
      [
        "EE",
        "00"
      ],
      [
        "out",
        "put"
      ],
      [
        "command",
        "s"
      ],
      [
        "in",
        "ter"
      ],
      [
        "tic",
        "al"
      ],
      [
        "0xAA00",
        "AA"
      ],
      [
        "0xFF",
        "EE00"
      ],
      [
        "e",
        "w"
      ],
      [
        "t",
        "en"
      ],
      [
        "at",
        "or"
      ],
      [
        "0x8800",
        "FF"
      ],
      [
        "m",
        "an"
      ],
      [
        "mb",
        "er"
      ],
      [
        "3",
        "E"
      ],
      [
        "C",
        "lear"
      ],
      [
        "st",
        "atus"
      ],
      [
        "sh",
        "ow"
      ],
      [
        "ta",
        "ble"
      ],
      [
        "--------",
        "--------"
      ],
      [
        "X",
        "X"
      ],
      [
        "BA",
        "SE"
      ],
      [
        "_",
        "to"
      ],
      [
        "v",
        "_"
      ],
      [
        "con",
        "d"
      ],
      [
        "ind",
        "ic"
      ],
      [
        "cont",
        "rol"
      ],
      [
        "render",
        "ing"
      ],
      [
        "follow",
        "ed"
      ],
      [
        "3",
        "00"
      ],
      [
        "N",
        "D"
      ],
      [
        "f",
        "ile"
      ],
      [
        "o",
        "t"
      ],
      [
        "resul",
        "ts"
      ],
      [
        "1",
        "10"
      ],
      [
        "po",
        "s"
      ],
      [
        "off",
        "set"
      ],
      [
        "3",
        "D"
      ],
      [
        "key",
        "board"
      ],
      [
        "up",
        "dat"
      ],
      [
        ")",
        ":"
      ],
      [
        "A",
        "5"
      ],
      [
        "in",
        "ed"
      ],
      [
        "res",
        "t"
      ],
      [
        "m",
        "ent"
      ],
      [
        "p",
        "or"
      ],
      [
        "with",
        "in"
      ],
      [
        "2",
        "C"
      ],
      [
        "c",
        "m"
      ],
      [
        "manipul",
        "ate"
      ],
      [
        "A",
        "7"
      ],
      [
        "se",
        "cond"
      ],
      [
        "do",
        "w"
      ],
      [
        "f",
        "a"
      ],
      [
        "ec",
        "e"
      ],
      [
        "match",
        "es"
      ],
      [
        "A",
        "8"
      ],
      [
        "c",
        "an"
      ],
      [
        "l",
        "ay"
      ],
      [
        "COL",
        "OR"
      ],
      [
        "writ",
        "es"
      ],
      [
        "H",
        "I"
      ],
      [
        "p",
        "x"
      ],
      [
        "an",
        "ce"
      ],
      [
        "the",
        "y"
      ],
      [
        "ic",
        "k"
      ],
      [
        "invol",
        "ving"
      ],
      [
        "man",
        "ag"
      ],
      [
        "2",
        "D"
      ],
      [
        "C",
        "on"
      ],
      [
        "C",
        "SI_"
      ],
      [
        "h",
        "e"
      ],
      [
        "main",
        "_3"
      ],
      [
        "graphic",
        "s"
      ],
      [
        "M",
        "_"
      ],
      [
        "ur",
        "ther"
      ],
      [
        "def",
        "ined"
      ],
      [
        "ta",
        "b"
      ],
      [
        "A",
        "6"
      ],
      [
        "t",
        "k_"
      ],
      [
        "u",
        "mber"
      ],
      [
        "ro",
        "t"
      ],
      [
        "are",
        "a"
      ],
      [
        "0x88",
        "8800"
      ],
      [
        "le",
        "d"
      ],
      [
        "2",
        "40"
      ],
      [
        "B",
        "6"
      ],
      [
        "B",
        "9"
      ],
      [
        "ow",
        "n"
      ],
      [
        "A",
        "4"
      ],
      [
        "tial",
        "ly"
      ],
      [
        "pro",
        "mp"
      ],
      [
        "subrout",
        "ines"
      ],
      [
        "decrem",
        "ents"
      ],
      [
        "f",
        "urther"
      ],
      [
        "repe",
        "ating"
      ],
      [
        "write",
        "_"
      ],
      [
        "B",
        "7"
      ],
      [
        "cal",
        "l"
      ],
      [
        "graphic",
        "al"
      ],
      [
        "E",
        "4"
      ],
      [
        "es",
        "t"
      ],
      [
        "row",
        "s"
      ],
      [
        "vi",
        "a"
      ],
      [
        "c",
        "y"
      ],
      [
        "re",
        "e"
      ],
      [
        "sequen",
        "ce"
      ],
      [
        "res",
        "h"
      ],
      [
        "multi",
        "ple"
      ],
      [
        "t",
        "le"
      ],
      [
        "0x",
        "44"
      ],
      [
        "execut",
        "ing"
      ],
      [
        "bl",
        "end"
      ],
      [
        "char",
        "s"
      ],
      [
        "termin",
        "ate"
      ],
      [
        "return",
        "s"
      ],
      [
        "modif",
        "ies"
      ],
      [
        "fra",
        "mes"
      ],
      [
        "C",
        "D"
      ],
      [
        "E",
        "ach"
      ],
      [
        "is",
        "t"
      ],
      [
        "0x2",
        "000"
      ],
      [
        "updat",
        "ing"
      ],
      [
        "1",
        "12"
      ],
      [
        "U",
        "N"
      ],
      [
        "M",
        "E"
      ],
      [
        "SC",
        "I"
      ],
      [
        "1",
        "D"
      ],
      [
        "1",
        "16"
      ],
      [
        "A",
        "SCI"
      ],
      [
        "ec",
        "t"
      ],
      [
        "pa",
        "th"
      ],
      [
        "ASCI",
        "I"
      ],
      [
        "C",
        "4"
      ],
      [
        "s",
        "s"
      ],
      [
        "ro",
        "und"
      ],
      [
        "to",
        "m"
      ],
      [
        "ul",
        "t"
      ],
      [
        "ap",
        "pend"
      ],
      [
        "push",
        "ing"
      ],
      [
        "_",
        "l"
      ],
      [
        "_",
        "buf"
      ],
      [
        "i",
        "mple"
      ],
      [
        "si",
        "on"
      ],
      [
        "t",
        "as"
      ],
      [
        "15",
        "0"
      ],
      [
        "addition",
        "al"
      ],
      [
        "B",
        "4"
      ],
      [
        "C",
        "_"
      ],
      [
        "P",
        "TY"
      ],
      [
        "s",
        "es"
      ],
      [
        "di",
        "r"
      ],
      [
        "10",
        "8"
      ],
      [
        "ty",
        "pe"
      ],
      [
        "CUR_",
        "ROW"
      ],
      [
        "pop",
        "ping"
      ],
      [
        "in",
        "t"
      ],
      [
        "ec",
        "ted"
      ],
      [
        "st",
        "e"
      ],
      [
        "A",
        "9"
      ],
      [
        "B",
        "8"
      ],
      [
        "L",
        "o"
      ],
      [
        "iz",
        "e"
      ],
      [
        "SE",
        "ND"
      ],
      [
        "11",
        "1"
      ],
      [
        "op",
        "code"
      ],
      [
        "ma",
        "tical"
      ],
      [
        "promp",
        "t"
      ],
      [
        "end",
        "s"
      ],
      [
        "do",
        "wn"
      ],
      [
        "return",
        "ing"
      ],
      [
        ">",
        ">"
      ],
      [
        "B",
        "5"
      ],
      [
        "S",
        "t"
      ],
      [
        "m",
        "ents"
      ],
      [
        "4",
        "00"
      ],
      [
        "execut",
        "e"
      ],
      [
        "comple",
        "x"
      ],
      [
        "hand",
        "le"
      ],
      [
        "a",
        "wn"
      ],
      [
        "add",
        "r"
      ],
      [
        "D",
        "6"
      ],
      [
        "m",
        "on"
      ],
      [
        "ma",
        "p"
      ],
      [
        "wa",
        "it"
      ],
      [
        "win",
        "dow"
      ],
      [
        "D",
        "9"
      ],
      [
        "f",
        "resh"
      ],
      [
        "3",
        "C"
      ],
      [
        "b",
        "loc"
      ],
      [
        "n",
        "umber"
      ],
      [
        "the",
        "matical"
      ],
      [
        "ma",
        "thematical"
      ],
      [
        "res",
        "pon"
      ],
      [
        "B",
        "F"
      ],
      [
        "i",
        "ter"
      ],
      [
        "PA",
        "RAM"
      ],
      [
        "cm",
        "d_"
      ],
      [
        "D",
        "5"
      ],
      [
        "g",
        "ame"
      ],
      [
        "ST",
        "R_"
      ],
      [
        "it",
        "y"
      ],
      [
        "pe",
        "ar"
      ],
      [
        "ap",
        "pear"
      ],
      [
        "wa",
        "ter"
      ],
      [
        "CSI_",
        "PARAM"
      ],
      [
        "B",
        "2"
      ],
      [
        "D",
        "8"
      ],
      [
        "S",
        "h"
      ],
      [
        "re",
        "fresh"
      ],
      [
        "p",
        "r"
      ],
      [
        "ti",
        "me"
      ],
      [
        "input",
        "s"
      ],
      [
        "si",
        "_"
      ],
      [
        "sg",
        "r_"
      ],
      [
        "pi",
        "ece"
      ],
      [
        "F",
        "2"
      ],
      [
        "M",
        "A"
      ],
      [
        "th",
        "is"
      ],
      [
        "se",
        "l"
      ],
      [
        "ad",
        "v"
      ],
      [
        "ur",
        "sor"
      ],
      [
        "_d",
        "own"
      ],
      [
        "im",
        "al"
      ],
      [
        "A",
        "2"
      ],
      [
        "B",
        "u"
      ],
      [
        "C",
        "7"
      ],
      [
        "E",
        "5"
      ],
      [
        "_",
        "T"
      ],
      [
        "key",
        "s"
      ],
      [
        "W",
        "IN"
      ],
      [
        "f",
        "f"
      ],
      [
        "p",
        "b"
      ],
      [
        "17",
        "0"
      ],
      [
        "por",
        "t"
      ],
      [
        "st",
        "ra"
      ],
      [
        "16",
        "0"
      ],
      [
        "bu",
        "ild"
      ],
      [
        "repe",
        "at"
      ],
      [
        "modif",
        "y"
      ],
      [
        "scrol",
        "l"
      ],
      [
        "C",
        "9"
      ],
      [
        "ti",
        "tle"
      ],
      [
        "ex",
        "t_"
      ],
      [
        "i",
        "ght"
      ],
      [
        "manipul",
        "ations"
      ],
      [
        "0xFFFFFF",
        "FF"
      ],
      [
        "Re",
        "ad"
      ],
      [
        "F",
        "inal"
      ],
      [
        "d",
        "y"
      ],
      [
        "t",
        "ri"
      ],
      [
        "et",
        "_"
      ],
      [
        "SEND",
        "_BUF"
      ],
      [
        "er",
        "s"
      ],
      [
        "0x2",
        "00"
      ],
      [
        "_check_",
        "result"
      ],
      [
        "A",
        "fter"
      ],
      [
        "D",
        "e"
      ],
      [
        "s",
        "ize"
      ],
      [
        "en",
        "ti"
      ],
      [
        "le",
        "v"
      ],
      [
        "ri",
        "d"
      ],
      [
        "A",
        "3"
      ],
      [
        "B",
        "3"
      ],
      [
        "11",
        "5"
      ],
      [
        "def",
        "a"
      ],
      [
        "bo",
        "t"
      ],
      [
        "CUR_",
        "COL"
      ],
      [
        "STR_",
        "BUF"
      ],
      [
        "n",
        "ext"
      ],
      [
        "Ge",
        "ometr"
      ],
      [
        "ang",
        "le"
      ],
      [
        "subtra",
        "c"
      ],
      [
        "Geometr",
        "y"
      ],
      [
        "D",
        "7"
      ],
      [
        "_",
        "ok"
      ],
      [
        "b",
        "or"
      ],
      [
        "b",
        "el"
      ],
      [
        "12",
        "7"
      ],
      [
        "ROW",
        "S"
      ],
      [
        "pb_",
        "ret"
      ],
      [
        "Final",
        "ly"
      ],
      [
        "defa",
        "ult"
      ],
      [
        "A",
        "1"
      ],
      [
        "v",
        "ed"
      ],
      [
        "v",
        "ir"
      ],
      [
        "==",
        "="
      ],
      [
        "sp",
        "awn"
      ],
      [
        "igh",
        "bor"
      ],
      [
        "C",
        "6"
      ],
      [
        "C",
        "L"
      ],
      [
        "F",
        "1"
      ],
      [
        "c",
        "rem"
      ],
      [
        "d",
        "ark"
      ],
      [
        "ar",
        "ch"
      ],
      [
        "0xFF",
        "B"
      ],
      [
        "wh",
        "ile"
      ],
      [
        "comput",
        "e"
      ],
      [
        "..",
        ".."
      ],
      [
        "B",
        "1"
      ],
      [
        "P",
        "h"
      ],
      [
        "W",
        "rite"
      ],
      [
        "an",
        "n"
      ],
      [
        "C",
        "8"
      ],
      [
        "s",
        "in"
      ],
      [
        "it",
        "e"
      ],
      [
        "key",
        "_3"
      ],
      [
        "ang",
        "e"
      ],
      [
        "skip",
        "_"
      ],
      [
        "Ph",
        "ase"
      ],
      [
        "d",
        "s"
      ],
      [
        "g",
        "round"
      ],
      [
        "el",
        "lo"
      ],
      [
        "position",
        "s"
      ],
      [
        "tes",
        "t"
      ],
      [
        "bot",
        "tom"
      ],
      [
        "D",
        "_"
      ],
      [
        "E",
        "8"
      ],
      [
        "t",
        "on"
      ],
      [
        "ST",
        "AT"
      ],
      [
        "SE",
        "T"
      ],
      [
        "fil",
        "l"
      ],
      [
        "id",
        "th"
      ],
      [
        "appear",
        "s"
      ],
      [
        "a",
        "b"
      ],
      [
        "c",
        "am"
      ],
      [
        "00",
        "00"
      ],
      [
        "25",
        "0"
      ],
      [
        "sh",
        "ap"
      ],
      [
        "ne",
        "ighbor"
      ],
      [
        "la",
        "bel"
      ],
      [
        "Bu",
        "ild"
      ],
      [
        "d",
        "ing"
      ],
      [
        "w",
        "idth"
      ],
      [
        "reg",
        "ion"
      ],
      [
        "0x5",
        "000"
      ],
      [
        "other",
        "wise"
      ],
      [
        "0x",
        "10"
      ],
      [
        "shap",
        "es"
      ],
      [
        "1",
        "30"
      ],
      [
        "E",
        "9"
      ],
      [
        "R",
        "I"
      ],
      [
        "g",
        "_"
      ],
      [
        "di",
        "vi"
      ],
      [
        "ch",
        "k_"
      ],
      [
        "STAT",
        "U"
      ],
      [
        "R",
        "AND"
      ],
      [
        "f",
        "low"
      ],
      [
        "pro",
        "vi"
      ],
      [
        "um",
        "n"
      ],
      [
        "tas",
        "ks"
      ],
      [
        "respon",
        "se"
      ],
      [
        "1",
        "40"
      ],
      [
        ">",
        "="
      ],
      [
        "A",
        "TE"
      ],
      [
        "e",
        "ff"
      ],
      [
        "l",
        "is"
      ],
      [
        "0x",
        "14"
      ],
      [
        "co",
        "des"
      ],
      [
        "el",
        "low"
      ],
      [
        "ac",
        "tive"
      ],
      [
        "col",
        "umn"
      ],
      [
        "Lo",
        "ad"
      ],
      [
        "vir",
        "on"
      ],
      [
        "g",
        "n"
      ],
      [
        "o",
        "st"
      ],
      [
        "en",
        "viron"
      ],
      [
        "el",
        "l"
      ],
      [
        "word",
        "s"
      ],
      [
        "C",
        "2"
      ],
      [
        "D",
        "2"
      ],
      [
        "ra",
        "in"
      ],
      [
        "0x1",
        "A"
      ],
      [
        "pb",
        "_c"
      ],
      [
        "C",
        "5"
      ],
      [
        "E",
        "6"
      ],
      [
        "on",
        "t"
      ],
      [
        "0x2",
        "4"
      ],
      [
        "0x6",
        "A"
      ],
      [
        "constan",
        "t"
      ],
      [
        "environ",
        "ment"
      ],
      [
        "+",
        "+"
      ],
      [
        "R",
        "es"
      ],
      [
        "w",
        "ard"
      ],
      [
        "de",
        "t"
      ],
      [
        "loc",
        "ation"
      ],
      [
        "press",
        "es"
      ],
      [
        "C",
        "3"
      ],
      [
        "er",
        "a"
      ],
      [
        "th",
        "ree"
      ],
      [
        "as",
        "s"
      ],
      [
        "repeat",
        "s"
      ],
      [
        "C",
        "A"
      ],
      [
        "R",
        "ow"
      ],
      [
        "s",
        "w"
      ],
      [
        "10",
        "4"
      ],
      [
        "jump",
        "ing"
      ],
      [
        "fl",
        "ag"
      ],
      [
        "D",
        "3"
      ],
      [
        "a",
        "ve"
      ],
      [
        "ma",
        "x"
      ],
      [
        "si",
        "gn"
      ],
      [
        "0x3",
        "000"
      ],
      [
        "but",
        "ton"
      ],
      [
        "E",
        "n"
      ],
      [
        "_",
        "byte"
      ],
      [
        "an",
        "s"
      ],
      [
        "wa",
        "ve"
      ],
      [
        "sto",
        "red"
      ],
      [
        "R",
        "G"
      ],
      [
        "ith",
        "er"
      ],
      [
        "process",
        "ing"
      ],
      [
        "u",
        "re"
      ],
      [
        "main",
        "_4"
      ],
      [
        "pl",
        "ace"
      ],
      [
        "by",
        "tes"
      ],
      [
        "back",
        "ground"
      ],
      [
        "fil",
        "ling"
      ],
      [
        "poin",
        "ter"
      ],
      [
        "par",
        "se"
      ],
      [
        "HI",
        "T"
      ],
      [
        "imple",
        "ments"
      ],
      [
        "ann",
        "el"
      ],
      [
        "E",
        "X"
      ],
      [
        "n",
        "ing"
      ],
      [
        "p",
        "ly"
      ],
      [
        "ra",
        "t"
      ],
      [
        "ut",
        "e"
      ],
      [
        "0x4",
        "E0"
      ],
      [
        "em",
        "it"
      ],
      [
        "Co",
        "mp"
      ],
      [
        "cam",
        "era"
      ],
      [
        "c",
        "lo"
      ],
      [
        "ra",
        "di"
      ],
      [
        "10",
        "5"
      ],
      [
        "ch",
        "annel"
      ],
      [
        "cl",
        "a"
      ],
      [
        "world_",
        "y"
      ],
      [
        "A",
        "I"
      ],
      [
        "n",
        "ame"
      ],
      [
        "st",
        "op"
      ],
      [
        "world_",
        "x"
      ],
      [
        "dir",
        "ty"
      ],
      [
        "adv",
        "ance"
      ],
      [
        "1",
        "44"
      ],
      [
        "E",
        "7"
      ],
      [
        "ver",
        "t"
      ],
      [
        "calcul",
        "ates"
      ],
      [
        "1",
        "36"
      ],
      [
        "E",
        "B"
      ],
      [
        "e",
        "mp"
      ],
      [
        "0x",
        "11"
      ],
      [
        "di",
        "m"
      ],
      [
        "wh",
        "ite"
      ],
      [
        "0x4",
        "000"
      ],
      [
        "stru",
        "ct"
      ],
      [
        "crem",
        "ent"
      ],
      [
        "provi",
        "ded"
      ],
      [
        "or",
        "iz"
      ],
      [
        "RG",
        "B"
      ],
      [
        "S",
        "M"
      ],
      [
        "po",
        "ten"
      ],
      [
        "hand",
        "ling"
      ],
      [
        "cel",
        "l"
      ],
      [
        "ste",
        "p"
      ],
      [
        "0",
        "5"
      ],
      [
        "g",
        "rid"
      ],
      [
        "h",
        "ash"
      ],
      [
        "l",
        "er"
      ],
      [
        "add",
        "s"
      ],
      [
        "2",
        "30"
      ],
      [
        "A",
        "F"
      ],
      [
        "S",
        "tore"
      ],
      [
        "wh",
        "en"
      ],
      [
        "LE",
        "N"
      ],
      [
        "manipul",
        "ating"
      ],
      [
        "hand",
        "les"
      ],
      [
        "constan",
        "ts"
      ],
      [
        "lev",
        "el"
      ],
      [
        "D",
        "B"
      ],
      [
        "P",
        "ro"
      ],
      [
        "_",
        "b"
      ],
      [
        "ac",
        "tion"
      ],
      [
        "ent",
        "ry"
      ],
      [
        "branch",
        "es"
      ],
      [
        "D",
        "1"
      ],
      [
        "U",
        "p"
      ],
      [
        "h",
        "i"
      ],
      [
        "se",
        "arch"
      ],
      [
        "en",
        "ting"
      ],
      [
        "10",
        "3"
      ],
      [
        "res",
        "et"
      ],
      [
        "rout",
        "ine"
      ],
      [
        "multipl",
        "ies"
      ],
      [
        "ph",
        "ase"
      ],
      [
        "_h",
        "ash"
      ],
      [
        "la",
        "st"
      ],
      [
        "Sh",
        "ow"
      ],
      [
        "C",
        "K"
      ],
      [
        "D",
        "F"
      ],
      [
        "S",
        "Y"
      ],
      [
        "e",
        "ither"
      ],
      [
        "v",
        "as"
      ],
      [
        "er",
        "r"
      ],
      [
        "0x",
        "32"
      ],
      [
        "AN",
        "S_"
      ],
      [
        "0x2",
        "40"
      ],
      [
        "0x7",
        "6"
      ],
      [
        "CO",
        "UN"
      ],
      [
        "til",
        "es"
      ],
      [
        "2",
        "24"
      ],
      [
        "T",
        "XT"
      ],
      [
        "y",
        "ellow"
      ],
      [
        "0x",
        "15"
      ],
      [
        "co",
        "re"
      ],
      [
        "te",
        "mp"
      ],
      [
        "colo",
        "red"
      ],
      [
        "mo",
        "use"
      ],
      [
        "il",
        "l"
      ],
      [
        "_l",
        "p"
      ],
      [
        "COUN",
        "T"
      ],
      [
        "1",
        "80"
      ],
      [
        "E",
        "A"
      ],
      [
        "V",
        "E"
      ],
      [
        "d",
        "x"
      ],
      [
        "se",
        "n"
      ],
      [
        "0x2",
        "2"
      ],
      [
        "ag",
        "e"
      ],
      [
        "fa",
        "il"
      ],
      [
        "radi",
        "us"
      ],
      [
        "9",
        "A"
      ],
      [
        "E",
        "SC"
      ],
      [
        "ini",
        "t_"
      ],
      [
        "de",
        "mo"
      ],
      [
        "de",
        "bu"
      ],
      [
        "0x7",
        "5"
      ],
      [
        "ord",
        "er"
      ],
      [
        "ta",
        "il"
      ],
      [
        "_c",
        "ursor"
      ],
      [
        "ag",
        "ent"
      ],
      [
        "dig",
        "its"
      ],
      [
        "modul",
        "ar"
      ],
      [
        "rest",
        "or"
      ],
      [
        "can",
        "vas"
      ],
      [
        "emp",
        "ty"
      ],
      [
        "D",
        "A"
      ],
      [
        "L",
        "ay"
      ],
      [
        "0x",
        "64"
      ],
      [
        "ul",
        "d"
      ],
      [
        "ed",
        "s"
      ],
      [
        "0xC",
        "0"
      ],
      [
        "vis",
        "ual"
      ],
      [
        "bl",
        "d"
      ],
      [
        "pend",
        "ing"
      ],
      [
        "pb_c",
        "si_"
      ],
      [
        "O",
        "LL"
      ],
      [
        "T",
        "it"
      ],
      [
        "0x",
        "17"
      ],
      [
        "0x",
        "19"
      ],
      [
        "SCR",
        "OLL"
      ],
      [
        "ver",
        "y"
      ],
      [
        "ri",
        "es"
      ],
      [
        "fo",
        "c"
      ],
      [
        "Tit",
        "le"
      ],
      [
        "<",
        "<"
      ],
      [
        "N",
        "O"
      ],
      [
        "c",
        "d"
      ],
      [
        "r",
        "c"
      ],
      [
        "w",
        "al"
      ],
      [
        "in",
        "k"
      ],
      [
        "lo",
        "t"
      ],
      [
        "ar",
        "row"
      ],
      [
        "su",
        "gg"
      ],
      [
        "si",
        "de"
      ],
      [
        "LE",
        "_"
      ],
      [
        "addition",
        "s"
      ],
      [
        "read",
        "s"
      ],
      [
        "lis",
        "ion"
      ],
      [
        "1",
        "39"
      ],
      [
        "E",
        "2"
      ],
      [
        "n",
        "er"
      ],
      [
        "10",
        "2"
      ],
      [
        "fil",
        "led"
      ],
      [
        "ag",
        "ain"
      ],
      [
        "pr",
        "in"
      ],
      [
        "C",
        "M"
      ],
      [
        "and",
        "om"
      ],
      [
        "ro",
        "ss"
      ],
      [
        "frame",
        "_"
      ],
      [
        "A0",
        "A"
      ],
      [
        "_T",
        "AB"
      ],
      [
        "stra",
        "tes"
      ],
      [
        "2",
        "16"
      ],
      [
        "_",
        "reg"
      ],
      [
        "g",
        "en"
      ],
      [
        "i",
        "b"
      ],
      [
        "s",
        "n"
      ],
      [
        "ac",
        "c"
      ],
      [
        "ent",
        "ries"
      ],
      [
        "ju",
        "st"
      ],
      [
        "manag",
        "es"
      ],
      [
        "ist",
        "ory"
      ],
      [
        "A",
        "d"
      ],
      [
        "S",
        "c"
      ],
      [
        "W",
        "ith"
      ],
      [
        "h",
        "oriz"
      ],
      [
        "0x",
        "18"
      ],
      [
        "an",
        "y"
      ],
      [
        "10",
        "9"
      ],
      [
        "pro",
        "ce"
      ],
      [
        "sh",
        "o"
      ],
      [
        "_c",
        "opy"
      ],
      [
        "subtraction",
        "s"
      ],
      [
        "append",
        "_byte"
      ],
      [
        "E",
        "F"
      ],
      [
        "s",
        "core"
      ],
      [
        "0x",
        "25"
      ],
      [
        "de",
        "mon"
      ],
      [
        "ex",
        "it"
      ],
      [
        "ur",
        "ce"
      ],
      [
        "vis",
        "or"
      ],
      [
        "so",
        "me"
      ],
      [
        "col",
        "lision"
      ],
      [
        "Comp",
        "ute"
      ],
      [
        "With",
        "in"
      ],
      [
        "1",
        "F"
      ],
      [
        "F",
        "G_"
      ],
      [
        "c",
        "no"
      ],
      [
        "g",
        "th"
      ],
      [
        "p",
        "art"
      ],
      [
        "op",
        "y_"
      ],
      [
        "00",
        "1"
      ],
      [
        "Ge",
        "t"
      ],
      [
        "11",
        "7"
      ],
      [
        "coun",
        "ters"
      ],
      [
        "0x9",
        "0"
      ],
      [
        "sequen",
        "tially"
      ],
      [
        "modify",
        "ing"
      ],
      [
        "rat",
        "ch"
      ],
      [
        "FG_",
        "COLOR"
      ],
      [
        "S",
        "G"
      ],
      [
        "S",
        "P"
      ],
      [
        "S",
        "et"
      ],
      [
        "_",
        "check"
      ],
      [
        "ADD",
        "R"
      ],
      [
        "19",
        "0"
      ],
      [
        "cont",
        "ent"
      ],
      [
        "len",
        "gth"
      ],
      [
        "HIT",
        "SET"
      ],
      [
        "cla",
        "mp"
      ],
      [
        "2",
        "20"
      ],
      [
        "C",
        "F"
      ],
      [
        "C",
        "opy"
      ],
      [
        "_",
        "6"
      ],
      [
        "c",
        "opy"
      ],
      [
        "f",
        "ull"
      ],
      [
        "ST",
        "ATE"
      ],
      [
        "ini",
        "t"
      ],
      [
        "fo",
        "ur"
      ],
      [
        "fil",
        "en"
      ],
      [
        "_n",
        "ew"
      ],
      [
        "invol",
        "ves"
      ],
      [
        "pre",
        "defined"
      ],
      [
        "build",
        "ing"
      ],
      [
        "foc",
        "us"
      ],
      [
        "2",
        "39"
      ],
      [
        ":",
        "\""
      ],
      [
        "M",
        "o"
      ],
      [
        "P",
        "RO"
      ],
      [
        "_",
        "BASE"
      ],
      [
        "n",
        "es"
      ],
      [
        "t",
        "arg"
      ],
      [
        "0x",
        "AD"
      ],
      [
        "as",
        "c"
      ],
      [
        "11",
        "8"
      ],
      [
        "PI",
        "D"
      ],
      [
        "vi",
        "ew"
      ],
      [
        "decrem",
        "enting"
      ],
      [
        "subtrac",
        "ts"
      ],
      [
        "TXT",
        "_BUF"
      ],
      [
        "2",
        "44"
      ],
      [
        "n",
        "ext_"
      ],
      [
        "u",
        "32"
      ],
      [
        "w",
        "all"
      ],
      [
        "0x",
        "16"
      ],
      [
        "with",
        "out"
      ],
      [
        "0x0",
        "6"
      ],
      [
        "render",
        "_"
      ],
      [
        "poten",
        "tially"
      ],
      [
        "SY",
        "S"
      ],
      [
        "D",
        "is"
      ],
      [
        "E",
        "3"
      ],
      [
        "a",
        "ble"
      ],
      [
        "d",
        "ate"
      ],
      [
        "m",
        "al"
      ],
      [
        "ec",
        "imal"
      ],
      [
        "no",
        "w"
      ],
      [
        "li",
        "ght"
      ],
      [
        "refresh",
        "es"
      ],
      [
        "WIN",
        "SYS"
      ],
      [
        "enti",
        "ty"
      ],
      [
        "proce",
        "eds"
      ],
      [
        "1",
        "88"
      ],
      [
        "1",
        "37"
      ],
      [
        "2",
        "32"
      ],
      [
        "a",
        "pe"
      ],
      [
        "p",
        "an"
      ],
      [
        "ed",
        "it"
      ],
      [
        "0x7",
        "000"
      ],
      [
        "0xF",
        "0"
      ],
      [
        "LL",
        "M"
      ],
      [
        "----------------",
        "----------------"
      ],
      [
        "2",
        "37"
      ],
      [
        "S",
        "A"
      ],
      [
        "d",
        "u"
      ],
      [
        "g",
        "o"
      ],
      [
        "ti",
        "m"
      ],
      [
        "th",
        "o"
      ],
      [
        "ec",
        "tion"
      ],
      [
        "loop",
        "_3"
      ],
      [
        "str",
        "len"
      ],
      [
        "36",
        "0"
      ],
      [
        "0xE",
        "0"
      ],
      [
        "li",
        "b"
      ],
      [
        "clear",
        "_"
      ],
      [
        "bloc",
        "k"
      ],
      [
        "f",
        "ig"
      ],
      [
        "h",
        "el"
      ],
      [
        "m",
        "sg"
      ],
      [
        "ar",
        "m"
      ],
      [
        "sp",
        "rite"
      ],
      [
        "12",
        "4"
      ],
      [
        "0x7",
        "4"
      ],
      [
        "0x0",
        "40"
      ],
      [
        "0x8",
        "5"
      ],
      [
        "scrol",
        "l_"
      ],
      [
        "filen",
        "ame"
      ],
      [
        "b",
        "all"
      ],
      [
        "f",
        "d"
      ],
      [
        "p",
        "y"
      ],
      [
        "p",
        "ur"
      ],
      [
        "r",
        "andom"
      ],
      [
        "0x00",
        "0"
      ],
      [
        "0x7",
        "9"
      ],
      [
        "sc",
        "ratch"
      ],
      [
        "display",
        "ing"
      ],
      [
        "qu",
        "it"
      ],
      [
        "read",
        "y"
      ],
      [
        "star",
        "ting"
      ],
      [
        "3",
        "30"
      ],
      [
        "a",
        "bo"
      ],
      [
        "g",
        "re"
      ],
      [
        "s",
        "rc"
      ],
      [
        "lo",
        "r"
      ],
      [
        "per",
        "visor"
      ],
      [
        "OP",
        "EN"
      ],
      [
        "0xB",
        "0"
      ],
      [
        "buf",
        "_"
      ],
      [
        "multiplic",
        "ations"
      ],
      [
        "ag",
        "ent_"
      ],
      [
        "coordin",
        "ate"
      ],
      [
        "In",
        "i"
      ],
      [
        "────────────────────────────────",
        "────────"
      ],
      [
        "cre",
        "ates"
      ],
      [
        "pi",
        "pe"
      ],
      [
        "_to",
        "_buf"
      ],
      [
        "1",
        "B"
      ],
      [
        "2",
        "F"
      ],
      [
        "2",
        "14"
      ],
      [
        "T",
        "_"
      ],
      [
        "_",
        "digit"
      ],
      [
        "m",
        "d"
      ],
      [
        "m",
        "ar"
      ],
      [
        "n",
        "on"
      ],
      [
        "DE",
        "BU"
      ],
      [
        "draw",
        "n"
      ],
      [
        "ad",
        "ecimal"
      ],
      [
        "11",
        "9"
      ],
      [
        "_d",
        "o"
      ],
      [
        "0xA",
        "0"
      ],
      [
        "bl",
        "ack"
      ],
      [
        "ual",
        "ly"
      ],
      [
        "hex",
        "adecimal"
      ],
      [
        "he",
        "ad"
      ],
      [
        "iter",
        "ation"
      ],
      [
        "1",
        "34"
      ],
      [
        "2",
        "18"
      ],
      [
        "8",
        "E"
      ],
      [
        "C",
        "P"
      ],
      [
        "R",
        "end"
      ],
      [
        "U",
        "ses"
      ],
      [
        "c",
        "c"
      ],
      [
        "d",
        "one"
      ],
      [
        "l",
        "ap"
      ],
      [
        "p",
        "ass"
      ],
      [
        "u",
        "res"
      ],
      [
        "XOR",
        "s"
      ],
      [
        "IP",
        "_"
      ],
      [
        "con",
        "fig"
      ],
      [
        "12",
        "6"
      ],
      [
        "32",
        "0"
      ],
      [
        "SE",
        "L"
      ],
      [
        "sc",
        "an"
      ],
      [
        "_n",
        "e"
      ],
      [
        "NE",
        "G"
      ],
      [
        "DEBU",
        "G_"
      ],
      [
        "1",
        "38"
      ],
      [
        "L",
        "A"
      ],
      [
        "V",
        "M"
      ],
      [
        "b",
        "b"
      ],
      [
        "i",
        "ve"
      ],
      [
        "s",
        "qu"
      ],
      [
        "0x",
        "120"
      ],
      [
        "key",
        "_4"
      ],
      [
        "cl",
        "ick"
      ],
      [
        "ac",
        "es"
      ],
      [
        "continu",
        "e"
      ],
      [
        "are",
        "d"
      ],
      [
        "_new",
        "line"
      ],
      [
        "*",
        "*"
      ],
      [
        "2",
        "15"
      ],
      [
        "2",
        "34"
      ],
      [
        "B",
        "EE"
      ],
      [
        "H",
        "ello"
      ],
      [
        "h",
        "istory"
      ],
      [
        "m",
        "in"
      ],
      [
        "s",
        "_"
      ],
      [
        "t",
        "int"
      ],
      [
        "v",
        "y"
      ],
      [
        "re",
        "main"
      ],
      [
        "as",
        "k"
      ],
      [
        "RE",
        "AD"
      ],
      [
        "0x7",
        "00"
      ],
      [
        "0x6",
        "000"
      ],
      [
        "0x0",
        "20"
      ],
      [
        "indic",
        "ator"
      ],
      [
        "0x1A",
        "1A"
      ],
      [
        "'",
        ","
      ],
      [
        "1",
        "35"
      ],
      [
        "3",
        "35"
      ],
      [
        "D",
        "O"
      ],
      [
        "F",
        "S"
      ],
      [
        "S",
        "ave"
      ],
      [
        "h",
        "it"
      ],
      [
        "h",
        "ost"
      ],
      [
        "cre",
        "ate"
      ],
      [
        "bld",
        "g"
      ],
      [
        "gen",
        "er"
      ],
      [
        "ib",
        "ble"
      ],
      [
        "targ",
        "et"
      ],
      [
        "Ini",
        "tializ"
      ],
      [
        "e",
        "very"
      ],
      [
        "k",
        "no"
      ],
      [
        "0x",
        "DE"
      ],
      [
        "al",
        "ly"
      ],
      [
        "loop",
        "ing"
      ],
      [
        "ch",
        "a"
      ],
      [
        "ke",
        "d"
      ],
      [
        "..",
        "."
      ],
      [
        "em",
        "on"
      ],
      [
        "_c",
        "md"
      ],
      [
        "branch",
        "ing"
      ],
      [
        "mc_",
        "ret"
      ],
      [
        "abo",
        "ve"
      ],
      [
        "kno",
        "wn"
      ],
      [
        "3",
        "44"
      ],
      [
        "3",
        "80"
      ],
      [
        "3",
        "34"
      ],
      [
        "8",
        "D"
      ],
      [
        "B",
        "O"
      ],
      [
        "N",
        "ull"
      ],
      [
        "s",
        "ine"
      ],
      [
        "u",
        "sed"
      ],
      [
        "en",
        "em"
      ],
      [
        "as",
        "ic"
      ],
      [
        "AN",
        "SI_"
      ],
      [
        "ed",
        "ge"
      ],
      [
        "so",
        "urce"
      ],
      [
        "_n",
        "ull"
      ],
      [
        "Co",
        "lor"
      ],
      [
        "cor",
        "ding"
      ],
      [
        "tri",
        "gg"
      ],
      [
        "err",
        "or"
      ],
      [
        "0x1A1A",
        "2E"
      ],
      [
        "1",
        "32"
      ],
      [
        "2",
        "36"
      ],
      [
        "3",
        "B"
      ],
      [
        "7",
        "E"
      ],
      [
        "O",
        "SC"
      ],
      [
        "a",
        "tive"
      ],
      [
        "g",
        "i"
      ],
      [
        "g",
        "or"
      ],
      [
        "t",
        "t"
      ],
      [
        "v",
        "a"
      ],
      [
        "ec",
        "ts"
      ],
      [
        "ar",
        "se"
      ],
      [
        "ic",
        "e"
      ],
      [
        "compar",
        "ing"
      ],
      [
        "multi",
        "ply"
      ],
      [
        "des",
        "t"
      ],
      [
        "Re",
        "g"
      ],
      [
        "STATU",
        "S_"
      ],
      [
        "frame_",
        "counter"
      ],
      [
        "3",
        "64"
      ],
      [
        "7",
        "A"
      ],
      [
        "_",
        "id"
      ],
      [
        "_",
        "over"
      ],
      [
        "b",
        "order"
      ],
      [
        "d",
        "ue"
      ],
      [
        "p",
        "v_"
      ],
      [
        "s",
        "ing"
      ],
      [
        "y",
        "pervisor"
      ],
      [
        "DI",
        "R"
      ],
      [
        "it",
        "ch"
      ],
      [
        "di",
        "re"
      ],
      [
        "ch",
        "ild"
      ],
      [
        "ne",
        "g"
      ],
      [
        "new",
        "line"
      ],
      [
        "run",
        "ning"
      ],
      [
        "COLOR",
        "_BUF"
      ],
      [
        "NO",
        "TE"
      ],
      [
        "sugg",
        "es"
      ],
      [
        "Rend",
        "er"
      ],
      [
        "\"",
        ","
      ],
      [
        "1",
        "25"
      ],
      [
        "2",
        "19"
      ],
      [
        "3",
        "14"
      ],
      [
        "0x",
        "12"
      ],
      [
        "es",
        "c"
      ],
      [
        "ith",
        "m"
      ],
      [
        "gra",
        "ss"
      ],
      [
        "29",
        "0"
      ],
      [
        "COL",
        "_"
      ],
      [
        "invol",
        "ve"
      ],
      [
        "Res",
        "et"
      ],
      [
        "gor",
        "ithm"
      ],
      [
        "2",
        "88"
      ],
      [
        "in",
        "_"
      ],
      [
        "di",
        "rect"
      ],
      [
        "0x6",
        "5"
      ],
      [
        "0xF",
        "9"
      ],
      [
        "tr",
        "ans"
      ],
      [
        "bo",
        "x"
      ],
      [
        "rest",
        "art"
      ],
      [
        "eff",
        "ect"
      ],
      [
        "tho",
        "se"
      ],
      [
        "Initializ",
        "e"
      ],
      [
        "(",
        "\""
      ],
      [
        "2",
        "38"
      ],
      [
        "3",
        "16"
      ],
      [
        "3",
        "88"
      ],
      [
        "6",
        "E"
      ],
      [
        "N",
        "DE"
      ],
      [
        "b",
        "asic"
      ],
      [
        "r",
        "h"
      ],
      [
        "r",
        "op"
      ],
      [
        "0x0",
        "C"
      ],
      [
        "0x0",
        "A0A"
      ],
      [
        "37",
        "0"
      ],
      [
        "0x1",
        "000"
      ],
      [
        "em",
        "ent"
      ],
      [
        "ig",
        "n"
      ],
      [
        "ses",
        "sion"
      ],
      [
        "Lay",
        "out"
      ],
      [
        "dire",
        "ction"
      ],
      [
        "\"",
        ")"
      ],
      [
        "7",
        "F"
      ],
      [
        "8",
        "A"
      ],
      [
        "T",
        "est"
      ],
      [
        "W",
        "e"
      ],
      [
        "_",
        "EN"
      ],
      [
        "f",
        "e"
      ],
      [
        "h",
        "tt"
      ],
      [
        "TI",
        "CK"
      ],
      [
        "12",
        "1"
      ],
      [
        "cal",
        "ling"
      ],
      [
        "ri",
        "e"
      ],
      [
        "0x0",
        "5"
      ],
      [
        "0x3",
        "9"
      ],
      [
        "after",
        "ward"
      ],
      [
        "ent_",
        "agent_"
      ],
      [
        "string",
        "s"
      ],
      [
        "again",
        "st"
      ],
      [
        "sho",
        "uld"
      ],
      [
        "3",
        "40"
      ],
      [
        "F",
        "or"
      ],
      [
        "R",
        "UN"
      ],
      [
        "S",
        "kip"
      ],
      [
        "W",
        "N"
      ],
      [
        "_",
        "re"
      ],
      [
        "_",
        "count"
      ],
      [
        "_",
        "store"
      ],
      [
        "p",
        "ri"
      ],
      [
        "s",
        "256"
      ],
      [
        "al",
        "gorithm"
      ],
      [
        "24",
        "8"
      ],
      [
        "line",
        "_to_buf"
      ],
      [
        "sa",
        "ge"
      ],
      [
        "draw_",
        "frame"
      ],
      [
        "setting",
        "s"
      ],
      [
        "cre",
        "ating"
      ],
      [
        "cel",
        "ls"
      ],
      [
        "tk_",
        "ret"
      ],
      [
        "write_",
        "line_to_buf"
      ],
      [
        "CL",
        "IP_"
      ],
      [
        "ANSI_",
        "STATE"
      ],
      [
        "1",
        "000"
      ],
      [
        "2",
        "64"
      ],
      [
        "3",
        "15"
      ],
      [
        "4",
        "E"
      ],
      [
        "C",
        "1"
      ],
      [
        "M",
        "em"
      ],
      [
        "R",
        "L"
      ],
      [
        "in",
        "crement"
      ],
      [
        "25",
        "4"
      ],
      [
        "con",
        "n"
      ],
      [
        "0x4",
        "E"
      ],
      [
        "fo",
        "und"
      ],
      [
        "19",
        "6"
      ],
      [
        "0xD",
        "0"
      ],
      [
        "0xB",
        "5"
      ],
      [
        "sa",
        "ving"
      ],
      [
        "dec",
        "imal"
      ],
      [
        "par",
        "tic"
      ],
      [
        "0x78",
        "00"
      ],
      [
        "cy",
        "an"
      ],
      [
        "En",
        "ter"
      ],
      [
        "_TAB",
        "LE"
      ],
      [
        "STATUS_",
        "C"
      ],
      [
        "2",
        "17"
      ],
      [
        "8",
        "00"
      ],
      [
        "H",
        "T"
      ],
      [
        "_",
        "draw"
      ],
      [
        "f",
        "ixed"
      ],
      [
        "h",
        "ypervisor"
      ],
      [
        "o",
        "id"
      ],
      [
        "se",
        "t_"
      ],
      [
        "ra",
        "c"
      ],
      [
        "ini",
        "tial"
      ],
      [
        "mo",
        "re"
      ],
      [
        "0xC",
        "5"
      ],
      [
        "sa",
        "me"
      ],
      [
        "ta",
        "b_"
      ],
      [
        "tr",
        "y"
      ],
      [
        "sw",
        "itch"
      ],
      [
        "Up",
        "date"
      ],
      [
        "BEE",
        "P"
      ],
      [
        "Reg",
        "is"
      ],
      [
        "3",
        "A"
      ],
      [
        "3",
        "36"
      ],
      [
        "v",
        "x"
      ],
      [
        "al",
        "ready"
      ],
      [
        "or",
        "g"
      ],
      [
        "ac",
        "cording"
      ],
      [
        "sa",
        "ved"
      ],
      [
        "division",
        "s"
      ],
      [
        "_n",
        "ext_"
      ],
      [
        "show",
        "_"
      ],
      [
        "advance",
        "_to"
      ],
      [
        "Dis",
        "play"
      ],
      [
        "DIR",
        "TY"
      ],
      [
        "htt",
        "p_"
      ],
      [
        "3",
        "F"
      ],
      [
        "3",
        "37"
      ],
      [
        "C",
        "lo"
      ],
      [
        "L",
        "S"
      ],
      [
        "_",
        "str"
      ],
      [
        "_",
        "row"
      ],
      [
        "c",
        "opy_"
      ],
      [
        "d",
        "a"
      ],
      [
        "h",
        "l_"
      ],
      [
        "p",
        "s"
      ],
      [
        "in",
        "cl"
      ],
      [
        "sp",
        "aces"
      ],
      [
        "str",
        "_h"
      ],
      [
        "dis",
        "t"
      ],
      [
        "do",
        "_newline"
      ],
      [
        "ap",
        "pro"
      ],
      [
        "star",
        "ts"
      ],
      [
        "mc_",
        "25"
      ],
      [
        "sign",
        "ed"
      ],
      [
        "restor",
        "ing"
      ],
      [
        "3",
        "32"
      ],
      [
        "3",
        "39"
      ],
      [
        "6",
        "D"
      ],
      [
        "6",
        "F"
      ],
      [
        "M",
        "M"
      ],
      [
        "N",
        "o"
      ],
      [
        "P",
        "lay"
      ],
      [
        "_",
        "type"
      ],
      [
        "d",
        "st"
      ],
      [
        "n",
        "a"
      ],
      [
        "co",
        "ls"
      ],
      [
        "────",
        "──"
      ],
      [
        "0xC",
        "4"
      ],
      [
        "26",
        "0"
      ],
      [
        "after",
        "_"
      ],
      [
        "calcul",
        "ated"
      ],
      [
        "ont",
        "al"
      ],
      [
        "camera",
        "_x"
      ],
      [
        "cha",
        "rac"
      ],
      [
        "2",
        "A"
      ],
      [
        "2",
        "B"
      ],
      [
        "2",
        "80"
      ],
      [
        "3",
        "18"
      ],
      [
        "B",
        "AR"
      ],
      [
        "s",
        "x"
      ],
      [
        "s",
        "cal"
      ],
      [
        "or",
        "ange"
      ],
      [
        "ro",
        "ls"
      ],
      [
        "initializ",
        "ing"
      ],
      [
        "di",
        "ag"
      ],
      [
        "us",
        "age"
      ],
      [
        "MO",
        "DE"
      ],
      [
        "bu",
        "il"
      ],
      [
        "ret",
        "rie"
      ],
      [
        "sgr_",
        "ret"
      ],
      [
        "divi",
        "des"
      ],
      [
        "STATU",
        "S"
      ],
      [
        "action",
        "s"
      ],
      [
        "incl",
        "u"
      ],
      [
        "2",
        "35"
      ],
      [
        "4",
        "x"
      ],
      [
        "M",
        "ain"
      ],
      [
        "h",
        "as"
      ],
      [
        "w",
        "ra"
      ],
      [
        "di",
        "v"
      ],
      [
        "str",
        "c"
      ],
      [
        "ay",
        "s"
      ],
      [
        "po",
        "l"
      ],
      [
        "0x9",
        "9"
      ],
      [
        "add",
        "ing"
      ],
      [
        "do",
        "es"
      ],
      [
        "bo",
        "unc"
      ],
      [
        "bl",
        "es"
      ],
      [
        "indic",
        "ating"
      ],
      [
        "call",
        "er"
      ],
      [
        "hel",
        "p"
      ],
      [
        "squ",
        "are"
      ],
      [
        "gi",
        "ven"
      ],
      [
        "+",
        "="
      ],
      [
        "6",
        "A"
      ],
      [
        "P",
        "ixel"
      ],
      [
        "S",
        "p"
      ],
      [
        "a",
        "u"
      ],
      [
        "b",
        "right"
      ],
      [
        "g",
        "et_"
      ],
      [
        "m",
        "ask"
      ],
      [
        "o",
        "om"
      ],
      [
        "t",
        "al"
      ],
      [
        "OR",
        "s"
      ],
      [
        "ra",
        "cle"
      ],
      [
        "ec",
        "h"
      ],
      [
        "to",
        "tal"
      ],
      [
        "10",
        "7"
      ],
      [
        "else",
        "_3"
      ],
      [
        "endif",
        "_4"
      ],
      [
        "si",
        "m"
      ],
      [
        "0xC",
        "C"
      ],
      [
        "24",
        "2"
      ],
      [
        "0x8",
        "000"
      ],
      [
        "0xA",
        "8"
      ],
      [
        "are",
        "as"
      ],
      [
        "poin",
        "t_"
      ],
      [
        "Con",
        "t"
      ],
      [
        "M_",
        "BASE"
      ],
      [
        "demon",
        "strates"
      ],
      [
        "tim",
        "er"
      ],
      [
        "U",
        "T"
      ],
      [
        "_",
        "col"
      ],
      [
        "g",
        "et"
      ],
      [
        "m",
        "s"
      ],
      [
        "s",
        "lot"
      ],
      [
        "w",
        "ell"
      ],
      [
        "on",
        "al"
      ],
      [
        "en",
        "sion"
      ],
      [
        "or",
        "mal"
      ],
      [
        "ec",
        "ting"
      ],
      [
        "func",
        "_4"
      ],
      [
        "0x4",
        "30"
      ],
      [
        "check",
        "ing"
      ],
      [
        "LIN",
        "K"
      ],
      [
        "22",
        "2"
      ],
      [
        "0x1",
        "F"
      ],
      [
        "subtra",
        "ct"
      ],
      [
        "bo",
        "dy"
      ],
      [
        "term",
        "inal"
      ],
      [
        "poin",
        "ts"
      ],
      [
        "process",
        "es"
      ],
      [
        "second",
        "s"
      ],
      [
        "he",
        "ight"
      ],
      [
        "advance_to",
        "_null"
      ],
      [
        "point_",
        "in_"
      ],
      [
        "9",
        "B"
      ],
      [
        "9",
        "E"
      ],
      [
        "A",
        "p"
      ],
      [
        "W",
        "a"
      ],
      [
        "d",
        "ur"
      ],
      [
        "f",
        "i"
      ],
      [
        "f",
        "ine"
      ],
      [
        "f",
        "ont"
      ],
      [
        "z",
        "oom"
      ],
      [
        "in",
        "fo"
      ],
      [
        "at",
        "ure"
      ],
      [
        "initializ",
        "ed"
      ],
      [
        "de",
        "termin"
      ],
      [
        "TI",
        "ME"
      ],
      [
        "EL",
        "L"
      ],
      [
        "0x3",
        "7"
      ],
      [
        "27",
        "0"
      ],
      [
        "In",
        "it"
      ],
      [
        "termin",
        "ator"
      ],
      [
        "subtrac",
        "ting"
      ],
      [
        "CM",
        "D_"
      ],
      [
        "inclu",
        "de"
      ],
      [
        "9",
        "F"
      ],
      [
        "I",
        "T"
      ],
      [
        "L",
        "I"
      ],
      [
        "U",
        "RL"
      ],
      [
        "_",
        "H"
      ],
      [
        "_",
        "s"
      ],
      [
        "_",
        "ret"
      ],
      [
        "m",
        "_"
      ],
      [
        "t",
        "n"
      ],
      [
        "ra",
        "ry"
      ],
      [
        "AND",
        "s"
      ],
      [
        "con",
        "text"
      ],
      [
        "ex",
        "p"
      ],
      [
        "hal",
        "f"
      ],
      [
        "0x4",
        "00"
      ],
      [
        "0xD",
        "4"
      ],
      [
        "0xD",
        "B"
      ],
      [
        "0x9",
        "4"
      ],
      [
        "0x9",
        "C"
      ],
      [
        "0xE",
        "5"
      ],
      [
        "pa",
        "st"
      ],
      [
        "save",
        "_"
      ],
      [
        "In",
        "put"
      ],
      [
        "SCROLL",
        "_"
      ],
      [
        "Mem",
        "ory"
      ],
      [
        "6",
        "C"
      ],
      [
        "7",
        "D"
      ],
      [
        "C",
        "ursor"
      ],
      [
        "E",
        "R"
      ],
      [
        "F",
        "G"
      ],
      [
        "U",
        "SE"
      ],
      [
        "U",
        "pon"
      ],
      [
        "is",
        "_"
      ],
      [
        "se",
        "ction"
      ],
      [
        "the",
        "ir"
      ],
      [
        "AR",
        "T"
      ],
      [
        "24",
        "5"
      ],
      [
        "0xE",
        "E"
      ],
      [
        "35",
        "0"
      ],
      [
        "0xA",
        "5"
      ],
      [
        "do",
        "t"
      ],
      [
        "bo",
        "th"
      ],
      [
        "mm",
        "_"
      ],
      [
        "ne",
        "ed"
      ],
      [
        "ok",
        "up"
      ],
      [
        "Build",
        "ing"
      ],
      [
        "mar",
        "k_"
      ],
      [
        "sugges",
        "ting"
      ],
      [
        "Z",
        "E"
      ],
      [
        "b",
        "tn"
      ],
      [
        "c",
        "s"
      ],
      [
        "d",
        "ra"
      ],
      [
        "i",
        "ble"
      ],
      [
        "o",
        "d"
      ],
      [
        "u",
        "b"
      ],
      [
        "on",
        "g"
      ],
      [
        "ic",
        "ation"
      ],
      [
        "reg",
        "s"
      ],
      [
        "te",
        "g"
      ],
      [
        "0x2",
        "100"
      ],
      [
        "0x0",
        "4"
      ],
      [
        "0xF",
        "E"
      ],
      [
        "0x9",
        "8"
      ],
      [
        "vis",
        "ible"
      ],
      [
        "GE",
        "T"
      ],
      [
        "store",
        "_"
      ],
      [
        "────────────────────────────────",
        "─"
      ],
      [
        "mes",
        "sage"
      ],
      [
        "lay",
        "out"
      ],
      [
        "det",
        "ected"
      ],
      [
        "pan",
        "el"
      ],
      [
        "_digit",
        "_"
      ],
      [
        "2",
        "25"
      ],
      [
        "7",
        "B"
      ],
      [
        "9",
        "D"
      ],
      [
        "B",
        "l"
      ],
      [
        "B",
        "LINK"
      ],
      [
        "C",
        "V"
      ],
      [
        "U",
        "P"
      ],
      [
        "V",
        "I"
      ],
      [
        "_",
        "pos"
      ],
      [
        "_",
        "tab"
      ],
      [
        "c",
        "ap"
      ],
      [
        "d",
        "n"
      ],
      [
        "i",
        "i"
      ],
      [
        "w",
        "as"
      ],
      [
        "se",
        "ed"
      ],
      [
        "and",
        "s"
      ],
      [
        "op",
        "codes"
      ],
      [
        "ic",
        "k_"
      ],
      [
        "12",
        "9"
      ],
      [
        "str",
        "i"
      ],
      [
        "256",
        "x"
      ],
      [
        "0x7",
        "7"
      ],
      [
        "0x7",
        "F"
      ],
      [
        "0xF",
        "8"
      ],
      [
        "0xF",
        "C"
      ],
      [
        "0x3",
        "8"
      ],
      [
        "0xC",
        "8"
      ],
      [
        "0xC",
        "E"
      ],
      [
        "0x9",
        "5"
      ],
      [
        "0x8",
        "4"
      ],
      [
        "row",
        "_"
      ],
      [
        "ile",
        "d"
      ],
      [
        "pat",
        "_"
      ],
      [
        "des",
        "ign"
      ],
      [
        "decrem",
        "ent"
      ],
      [
        "arg",
        "er"
      ],
      [
        "ME",
        "M"
      ],
      [
        "bloc",
        "ks"
      ],
      [
        "sel",
        "f"
      ],
      [
        "prin",
        "ts"
      ],
      [
        "nes",
        "ted"
      ],
      [
        "asc",
        "iz"
      ],
      [
        "_do",
        "_"
      ],
      [
        "remain",
        "ing"
      ],
      [
        "scal",
        "e"
      ],
      [
        "buil",
        "d_"
      ],
      [
        "!",
        "\""
      ],
      [
        "3",
        "19"
      ],
      [
        "H",
        "EX"
      ],
      [
        "S",
        "OR"
      ],
      [
        "S",
        "P_"
      ],
      [
        "f",
        "in"
      ],
      [
        "h",
        "ud"
      ],
      [
        "l",
        "arger"
      ],
      [
        "on",
        "ly"
      ],
      [
        "co",
        "s"
      ],
      [
        "ro",
        "om"
      ],
      [
        "LO",
        "OP"
      ],
      [
        "AL",
        "AR"
      ],
      [
        "MO",
        "USE"
      ],
      [
        "ac",
        "t"
      ],
      [
        "su",
        "p"
      ],
      [
        "0x5",
        "00"
      ],
      [
        "0xF",
        "5"
      ],
      [
        "0x3",
        "C"
      ],
      [
        "0xD",
        "D"
      ],
      [
        "0x1",
        "B"
      ],
      [
        "0x1",
        "D"
      ],
      [
        "R_",
        "SCR"
      ],
      [
        "id",
        "d"
      ],
      [
        "SI",
        "ZE"
      ],
      [
        "sequen",
        "ces"
      ],
      [
        "pattern",
        "s"
      ],
      [
        "RI",
        "TE"
      ],
      [
        "dim",
        "ension"
      ],
      [
        "horiz",
        "ontal"
      ],
      [
        "trigg",
        "er"
      ],
      [
        "2",
        "10"
      ],
      [
        "3",
        "38"
      ],
      [
        "E",
        "M"
      ],
      [
        "O",
        "ther"
      ],
      [
        "_",
        "left"
      ],
      [
        "a",
        "b_"
      ],
      [
        "e",
        "v"
      ],
      [
        "m",
        "ix"
      ],
      [
        "0x",
        "170"
      ],
      [
        "lo",
        "a"
      ],
      [
        "12",
        "3"
      ],
      [
        "RE",
        "CV"
      ],
      [
        "TE",
        "R"
      ],
      [
        "0x2",
        "3"
      ],
      [
        "0x5",
        "8"
      ],
      [
        "r25",
        "6"
      ],
      [
        "0x6",
        "D"
      ],
      [
        "0x0",
        "8"
      ],
      [
        "0x0",
        "D"
      ],
      [
        "0x3",
        "5"
      ],
      [
        "0x8",
        "B"
      ],
      [
        "RO",
        "O"
      ],
      [
        "comput",
        "ed"
      ],
      [
        "anim",
        "ated"
      ],
      [
        "fil",
        "l_"
      ],
      [
        "pa",
        "ra"
      ],
      [
        "buffer",
        "s"
      ],
      [
        "ol",
        "d"
      ],
      [
        "In",
        "crement"
      ],
      [
        "no_",
        "input"
      ],
      [
        "sg",
        "r256"
      ],
      [
        "manag",
        "ement"
      ],
      [
        "St",
        "atus"
      ],
      [
        "clo",
        "se"
      ],
      [
        "debu",
        "g"
      ],
      [
        "debu",
        "g_"
      ],
      [
        "pur",
        "ple"
      ],
      [
        "according",
        "ly"
      ],
      [
        "diag",
        "onal"
      ],
      [
        "M",
        "AL"
      ],
      [
        "N",
        "OR"
      ],
      [
        "T",
        "er"
      ],
      [
        "U",
        "M"
      ],
      [
        "a",
        "bles"
      ],
      [
        "c",
        "ed"
      ],
      [
        "c",
        "ross"
      ],
      [
        "g",
        "u"
      ],
      [
        "p",
        "ed"
      ],
      [
        "r",
        "u"
      ],
      [
        "un",
        "known"
      ],
      [
        "main",
        "_5"
      ],
      [
        "0x2",
        "8"
      ],
      [
        "0x4",
        "5"
      ],
      [
        "0x4",
        "9"
      ],
      [
        "ri",
        "gh"
      ],
      [
        "0x6",
        "6"
      ],
      [
        "0x6",
        "8"
      ],
      [
        "0x0",
        "A"
      ],
      [
        "19",
        "2"
      ],
      [
        "0x3",
        "00"
      ],
      [
        "0xE",
        "8"
      ],
      [
        "ten",
        "s"
      ],
      [
        "Con",
        "stan"
      ],
      [
        "wal",
        "k"
      ],
      [
        "TICK",
        "S"
      ],
      [
        "DIRTY",
        "_"
      ],
      [
        "str_h",
        "ello"
      ],
      [
        "256x",
        "256"
      ],
      [
        "Other",
        "wise"
      ],
      [
        "NOR",
        "MAL"
      ],
      [
        "6",
        "B"
      ],
      [
        "7",
        "C"
      ],
      [
        "I",
        "D"
      ],
      [
        "M",
        "S"
      ],
      [
        "S",
        "S"
      ],
      [
        "S",
        "PA"
      ],
      [
        "T",
        "R"
      ],
      [
        "a",
        "st"
      ],
      [
        "e",
        "q"
      ],
      [
        "f",
        "w"
      ],
      [
        "n",
        "t"
      ],
      [
        "al",
        "arm"
      ],
      [
        "re",
        "place"
      ],
      [
        "op",
        "en"
      ],
      [
        "de",
        "v"
      ],
      [
        "LO",
        "SE"
      ],
      [
        "TI",
        "T"
      ],
      [
        "to",
        "ur"
      ],
      [
        "ch",
        "k"
      ],
      [
        "con",
        "tour"
      ],
      [
        "gra",
        "di"
      ],
      [
        "ac",
        "ross"
      ],
      [
        "str",
        "ip"
      ],
      [
        "0x2",
        "20"
      ],
      [
        "0x4",
        "8"
      ],
      [
        "0x5",
        "3"
      ],
      [
        "0x5",
        "50"
      ],
      [
        "0x3",
        "F"
      ],
      [
        "cont",
        "ain"
      ],
      [
        "pa",
        "int"
      ],
      [
        "writ",
        "ing"
      ],
      [
        "comple",
        "te"
      ],
      [
        "Sc",
        "reen"
      ],
      [
        "CP",
        "Y"
      ],
      [
        "0x120",
        "1"
      ],
      [
        "partic",
        "le"
      ],
      [
        "after_",
        "input"
      ],
      [
        "fine",
        "_hash"
      ],
      [
        "loa",
        "ded"
      ],
      [
        "3",
        "17"
      ],
      [
        "B",
        "ack"
      ],
      [
        "E",
        "1"
      ],
      [
        "V",
        "FS"
      ],
      [
        "W",
        "in"
      ],
      [
        "_",
        "screen"
      ],
      [
        "_",
        "not_"
      ],
      [
        "_",
        "ADDR"
      ],
      [
        "a",
        "i"
      ],
      [
        "c",
        "k"
      ],
      [
        "c",
        "cess"
      ],
      [
        "e",
        "y"
      ],
      [
        "g",
        "ent"
      ],
      [
        "h",
        "k_"
      ],
      [
        "m",
        "ark"
      ],
      [
        "r",
        "ing"
      ],
      [
        "y",
        "ing"
      ],
      [
        "re",
        "ce"
      ],
      [
        "ra",
        "ge"
      ],
      [
        "ec",
        "tive"
      ],
      [
        "at",
        "a"
      ],
      [
        "TI",
        "LE"
      ],
      [
        "TI",
        "LE_"
      ],
      [
        "25",
        "2"
      ],
      [
        "12",
        "2"
      ],
      [
        "ex",
        "tra"
      ],
      [
        "sh",
        "ell"
      ],
      [
        "0x2",
        "6"
      ],
      [
        "0x2",
        "200"
      ],
      [
        "0x4",
        "D"
      ],
      [
        "0x6",
        "9"
      ],
      [
        "0x0",
        "E"
      ],
      [
        "ne",
        "ar"
      ],
      [
        "no_",
        "key"
      ],
      [
        "cor",
        "rect"
      ],
      [
        "MA",
        "IN"
      ],
      [
        "parse",
        "_"
      ],
      [
        "ANS_",
        "NORMAL"
      ],
      [
        "acc",
        "ent"
      ],
      [
        "SG",
        "R"
      ],
      [
        "Cont",
        "rols"
      ],
      [
        "determin",
        "ed"
      ],
      [
        "dimension",
        "s"
      ],
      [
        "gradi",
        "ent"
      ],
      [
        "hk_",
        "ret"
      ],
      [
        "H",
        "and"
      ],
      [
        "O",
        "p"
      ],
      [
        "c",
        "il"
      ],
      [
        "d",
        "ay"
      ],
      [
        "l",
        "d"
      ],
      [
        "s",
        "q"
      ],
      [
        "th",
        "ing"
      ],
      [
        "ST",
        "R"
      ],
      [
        "en",
        "ded"
      ],
      [
        "me",
        "ans"
      ],
      [
        "AN",
        "SI"
      ],
      [
        "le",
        "te"
      ],
      [
        "ch",
        "ang"
      ],
      [
        "gra",
        "y"
      ],
      [
        "16",
        "x"
      ],
      [
        "RE",
        "SP"
      ],
      [
        "0x6",
        "E"
      ],
      [
        "20",
        "8"
      ],
      [
        "0x3",
        "4"
      ],
      [
        "0x3",
        "D"
      ],
      [
        "0xB",
        "4"
      ],
      [
        "0xB",
        "8"
      ],
      [
        "0xB",
        "B"
      ],
      [
        "tr",
        "an"
      ],
      [
        "loc",
        "k"
      ],
      [
        "term",
        "ine"
      ],
      [
        "tern",
        "al"
      ],
      [
        "gg",
        "le"
      ],
      [
        "mc_",
        "check_"
      ],
      [
        "indic",
        "ated"
      ],
      [
        "MA",
        "P_"
      ],
      [
        "....",
        ")"
      ],
      [
        "Pro",
        "cess"
      ],
      [
        "Mo",
        "ve"
      ],
      [
        "bb",
        "ers"
      ],
      [
        "sing",
        "le"
      ],
      [
        "\"",
        "/"
      ],
      [
        "C",
        "ELL"
      ],
      [
        "E",
        "xt"
      ],
      [
        "F",
        "o"
      ],
      [
        "T",
        "AB"
      ],
      [
        "V",
        "ED"
      ],
      [
        "W",
        "RITE"
      ],
      [
        "c",
        "ry"
      ],
      [
        "g",
        "es"
      ],
      [
        "r",
        "up"
      ],
      [
        "t",
        "ree"
      ],
      [
        "w",
        "u"
      ],
      [
        "x",
        "8"
      ],
      [
        "ti",
        "es"
      ],
      [
        "on",
        "es"
      ],
      [
        "lo",
        "okup"
      ],
      [
        "de",
        "l"
      ],
      [
        "ad",
        "ing"
      ],
      [
        "key",
        "_"
      ],
      [
        "0x2",
        "C"
      ],
      [
        "0x4",
        "C"
      ],
      [
        "0x5",
        "9"
      ],
      [
        "0x5",
        "C"
      ],
      [
        "0x5",
        "30"
      ],
      [
        "screen",
        "_x"
      ],
      [
        "IN",
        "G"
      ],
      [
        "14",
        "8"
      ],
      [
        "0xC",
        "B"
      ],
      [
        "0xD",
        "9"
      ],
      [
        "0xB",
        "C"
      ],
      [
        "ap",
        "pl"
      ],
      [
        "_n",
        "x"
      ],
      [
        "sto",
        "rage"
      ],
      [
        "id",
        "le"
      ],
      [
        "equal",
        "s"
      ],
      [
        "EN",
        "EM"
      ],
      [
        "cor",
        "ner"
      ],
      [
        "tri",
        "angle"
      ],
      [
        "ab",
        "s"
      ],
      [
        "region",
        "s"
      ],
      [
        "hi",
        "_done"
      ],
      [
        "sen",
        "d"
      ],
      [
        "Ad",
        "v"
      ],
      [
        "SA",
        "VED"
      ],
      [
        "config",
        "ur"
      ],
      [
        "Play",
        "er"
      ],
      [
        "bounc",
        "e"
      ],
      [
        "Ter",
        "m"
      ],
      [
        "ENEM",
        "Y"
      ],
      [
        "V",
        "_"
      ],
      [
        "c",
        "si"
      ],
      [
        "e",
        "p"
      ],
      [
        "p",
        "_done"
      ],
      [
        "r",
        "ange"
      ],
      [
        "s",
        "k"
      ],
      [
        "on",
        "to"
      ],
      [
        "es",
        "c_"
      ],
      [
        "re",
        "ver"
      ],
      [
        "16",
        "6"
      ],
      [
        "dition",
        "al"
      ],
      [
        "0x5",
        "E"
      ],
      [
        "0x6",
        "100"
      ],
      [
        "ser",
        "v"
      ],
      [
        "0x0",
        "C0"
      ],
      [
        "0xF",
        "B"
      ],
      [
        "17",
        "6"
      ],
      [
        "24",
        "6"
      ],
      [
        "0xE",
        "6"
      ],
      [
        "vari",
        "ables"
      ],
      [
        "comput",
        "es"
      ],
      [
        "pat",
        "ch"
      ],
      [
        "termin",
        "ated"
      ],
      [
        "────────────────────────────────",
        "────────────────"
      ],
      [
        "pre",
        "v_"
      ],
      [
        "worl",
        "d"
      ],
      [
        "run",
        "s"
      ],
      [
        "inter",
        "rup"
      ],
      [
        "cd",
        "l_"
      ],
      [
        "CM",
        "D"
      ],
      [
        "acc",
        "um"
      ],
      [
        "_ne",
        "g"
      ],
      [
        "Regis",
        "ter"
      ],
      [
        "ech",
        "o"
      ],
      [
        "righ",
        "t_"
      ],
      [
        "csi",
        "_cursor"
      ],
      [
        ")",
        "->"
      ],
      [
        "A",
        "ct"
      ],
      [
        "D",
        "emon"
      ],
      [
        "L",
        "e"
      ],
      [
        "V",
        "AL"
      ],
      [
        "_",
        "color"
      ],
      [
        "_",
        "right"
      ],
      [
        "b",
        "g"
      ],
      [
        "n",
        "ibble"
      ],
      [
        "p",
        "lot"
      ],
      [
        "DI",
        "SP_"
      ],
      [
        "co",
        "mb"
      ],
      [
        "le",
        "t"
      ],
      [
        "di",
        "r_"
      ],
      [
        "0x2",
        "1"
      ],
      [
        "0x2",
        "9"
      ],
      [
        "0x4",
        "A"
      ],
      [
        "0x5",
        "4"
      ],
      [
        "0x5",
        "100"
      ],
      [
        "0x6",
        "C"
      ],
      [
        "0x6",
        "F"
      ],
      [
        "0x6",
        "00"
      ],
      [
        "screen",
        "_y"
      ],
      [
        "0xF",
        "D00"
      ],
      [
        "0x3",
        "B"
      ],
      [
        "0xD",
        "A"
      ],
      [
        "24",
        "9"
      ],
      [
        "0x9",
        "D"
      ],
      [
        "0xB",
        "A"
      ],
      [
        "38",
        "4"
      ],
      [
        "vis",
        "it"
      ],
      [
        "sa",
        "ves"
      ],
      [
        "ty",
        "p"
      ],
      [
        "clear",
        "_buf"
      ],
      [
        "do_",
        "rect"
      ],
      [
        "0x780",
        "1"
      ],
      [
        "0x44FF",
        "44"
      ],
      [
        "Con",
        "vert"
      ],
      [
        "St",
        "ate"
      ],
      [
        "wait",
        "ing"
      ],
      [
        "_EN",
        "D"
      ],
      [
        "wra",
        "p"
      ],
      [
        "stri",
        "pe"
      ],
      [
        "16x",
        "16"
      ],
      [
        "8",
        "x8"
      ],
      [
        "C",
        "SI"
      ],
      [
        "F",
        "O"
      ],
      [
        "S",
        "LI"
      ],
      [
        "U",
        "TI"
      ],
      [
        "c",
        "x"
      ],
      [
        "c",
        "ul"
      ],
      [
        "c",
        "b_"
      ],
      [
        "c",
        "si_"
      ],
      [
        "h",
        "ome"
      ],
      [
        "w",
        "d"
      ],
      [
        "at",
        "ures"
      ],
      [
        "de",
        "tail"
      ],
      [
        "ma",
        "y"
      ],
      [
        "DE",
        "R_"
      ],
      [
        "unc",
        "on"
      ],
      [
        "gra",
        "du"
      ],
      [
        "cl",
        "r"
      ],
      [
        "0xFF",
        "E"
      ],
      [
        "11",
        "3"
      ],
      [
        "0x4",
        "B"
      ],
      [
        "0xF",
        "7"
      ],
      [
        "19",
        "8"
      ],
      [
        "0xD",
        "5"
      ],
      [
        "0xD",
        "8"
      ],
      [
        "def",
        "ines"
      ],
      [
        "0x9",
        "6"
      ],
      [
        "0x9",
        "7"
      ],
      [
        "0xE",
        "F"
      ],
      [
        "22",
        "8"
      ],
      [
        "t_",
        "loop"
      ],
      [
        "var",
        "ying"
      ],
      [
        "vari",
        "ation"
      ],
      [
        "bl",
        "ink"
      ],
      [
        "render",
        "s"
      ],
      [
        "tes",
        "ts"
      ],
      [
        "bi",
        "as"
      ],
      [
        "Co",
        "un"
      ],
      [
        "pb_",
        "esc_"
      ],
      [
        "NE",
        "W"
      ],
      [
        "spawn",
        "_"
      ],
      [
        "camera",
        "_y"
      ],
      [
        "temp",
        "o"
      ],
      [
        "wal",
        "ls"
      ],
      [
        "multiply",
        "ing"
      ],
      [
        "sim",
        "ul"
      ],
      [
        "UT",
        "F8"
      ],
      [
        "MEM",
        "CPY"
      ],
      [
        "idd",
        "en"
      ],
      [
        "mix",
        "er"
      ],
      [
        "sgr256",
        "_ret"
      ],
      [
        "rece",
        "i"
      ],
      [
        "Act",
        "ually"
      ],
      [
        "Demon",
        "strates"
      ],
      [
        "Le",
        "ft"
      ],
      [
        "SLI",
        "DER_"
      ],
      [
        "gradu",
        "ated"
      ],
      [
        "A",
        "S"
      ],
      [
        "A",
        "l"
      ],
      [
        "B",
        "ar"
      ],
      [
        "C",
        "ON"
      ],
      [
        "C",
        "tr"
      ],
      [
        "G",
        "RE"
      ],
      [
        "N",
        "A"
      ],
      [
        "P",
        "C"
      ],
      [
        "R",
        "ight"
      ],
      [
        "T",
        "_BUF"
      ],
      [
        "_",
        "up"
      ],
      [
        "_",
        "LEN"
      ],
      [
        "_",
        "fail"
      ],
      [
        "d",
        "f"
      ],
      [
        "o",
        "i"
      ],
      [
        "o",
        "sc"
      ],
      [
        "s",
        "now"
      ],
      [
        "in",
        "c"
      ],
      [
        "at",
        "oi"
      ],
      [
        "de",
        "pending"
      ],
      [
        "10",
        "6"
      ],
      [
        "specific",
        "ally"
      ],
      [
        "res",
        "et_"
      ],
      [
        "cl",
        "r_"
      ],
      [
        "exec",
        "_done"
      ],
      [
        "su",
        "ccess"
      ],
      [
        "tic",
        "k"
      ],
      [
        "0x2",
        "E"
      ],
      [
        "0x7",
        "E"
      ],
      [
        "0x4",
        "7"
      ],
      [
        "KEY",
        "_"
      ],
      [
        "IN",
        "E"
      ],
      [
        "0x3",
        "E"
      ],
      [
        "0xC",
        "6"
      ],
      [
        "0xC",
        "CC"
      ],
      [
        "0xE",
        "9"
      ],
      [
        "0xA",
        "9"
      ],
      [
        "tra",
        "ce"
      ],
      [
        "bo",
        "und"
      ]
    ]
  }
}