{
  "version": "1.0",
  "truncation": null,
  "padding": null,
  "added_tokens": [
    {
      "id": 0,
      "content": "<UNK>",
      "single_word": false,
      "lstrip": false,
      "rstrip": false,
      "normalized": false,
      "special": true
    },
    {
      "id": 1,
      "content": "<PAD>",
      "single_word": false,
      "lstrip": false,
      "rstrip": false,
      "normalized": false,
      "special": true
    },
    {
      "id": 2,
      "content": "<BOS>",
      "single_word": false,
      "lstrip": false,
      "rstrip": false,
      "normalized": false,
      "special": true
    },
    {
      "id": 3,
      "content": "<EOS>",
      "single_word": false,
      "lstrip": false,
      "rstrip": false,
      "normalized": false,
      "special": true
    },
    {
      "id": 4,
      "content": "<NL>",
      "single_word": false,
      "lstrip": false,
      "rstrip": false,
      "normalized": false,
      "special": true
    }
  ],
  "normalizer": null,
  "pre_tokenizer": {
    "type": "Whitespace"
  },
  "post_processor": null,
  "decoder": null,
  "model": {
    "type": "BPE",
    "dropout": null,
    "unk_token": "<UNK>",
    "continuing_subword_prefix": null,
    "end_of_word_suffix": null,
    "fuse_unk": false,
    "byte_fallback": false,
    "ignore_merges": false,
    "vocab": {
      "<UNK>": 0,
      "<PAD>": 1,
      "<BOS>": 2,
      "<EOS>": 3,
      "<NL>": 4,
      "!": 5,
      "\"": 6,
      "#": 7,
      "$": 8,
      "%": 9,
      "&": 10,
      "'": 11,
      "(": 12,
      ")": 13,
      "*": 14,
      "+": 15,
      ",": 16,
      "-": 17,
      ".": 18,
      "/": 19,
      "0": 20,
      "1": 21,
      "2": 22,
      "3": 23,
      "4": 24,
      "5": 25,
      "6": 26,
      "7": 27,
      "8": 28,
      "9": 29,
      ":": 30,
      ";": 31,
      "<": 32,
      "=": 33,
      ">": 34,
      "?": 35,
      "@": 36,
      "A": 37,
      "B": 38,
      "C": 39,
      "D": 40,
      "E": 41,
      "F": 42,
      "G": 43,
      "H": 44,
      "I": 45,
      "J": 46,
      "K": 47,
      "L": 48,
      "M": 49,
      "N": 50,
      "O": 51,
      "P": 52,
      "Q": 53,
      "R": 54,
      "S": 55,
      "T": 56,
      "U": 57,
      "V": 58,
      "W": 59,
      "X": 60,
      "Y": 61,
      "Z": 62,
      "[": 63,
      "\\": 64,
      "]": 65,
      "^": 66,
      "_": 67,
      "`": 68,
      "a": 69,
      "b": 70,
      "c": 71,
      "d": 72,
      "e": 73,
      "f": 74,
      "g": 75,
      "h": 76,
      "i": 77,
      "j": 78,
      "k": 79,
      "l": 80,
      "m": 81,
      "n": 82,
      "o": 83,
      "p": 84,
      "q": 85,
      "r": 86,
      "s": 87,
      "t": 88,
      "u": 89,
      "v": 90,
      "w": 91,
      "x": 92,
      "y": 93,
      "z": 94,
      "{": 95,
      "|": 96,
      "}": 97,
      "~": 98,
      "±": 99,
      "—": 100,
      "→": 101,
      "≈": 102,
      "─": 103,
      "═": 104,
      "✓": 105,
      "r1": 106,
      "DI": 107,
      "r2": 108,
      "LDI": 109,
      "==": 110,
      "══": 111,
      "AD": 112,
      "====": 113,
      "──": 114,
      "RE": 115,
      "in": 116,
      "ST": 117,
      "0x": 118,
      "STO": 119,
      "STORE": 120,
      "ADD": 121,
      "re": 122,
      "r20": 123,
      "════": 124,
      "r3": 125,
      "r0": 126,
      "r4": 127,
      "te": 128,
      "r7": 129,
      "00": 130,
      "on": 131,
      "MP": 132,
      "========": 133,
      "────": 134,
      "or": 135,
      "en": 136,
      "er": 137,
      "it": 138,
      "st": 139,
      "co": 140,
      "an": 141,
      "at": 142,
      "ar": 143,
      "le": 144,
      "se": 145,
      "--": 146,
      "he": 147,
      "r5": 148,
      "r10": 149,
      "r6": 150,
      "FF": 151,
      "════════": 152,
      "al": 153,
      "ro": 154,
      "CMP": 155,
      "de": 156,
      "ra": 157,
      "LO": 158,
      "r11": 159,
      "r17": 160,
      "r9": 161,
      "r12": 162,
      "LOAD": 163,
      "lo": 164,
      "to": 165,
      "ter": 166,
      "ion": 167,
      "================": 168,
      "ing": 169,
      "────────": 170,
      "r18": 171,
      "AL": 172,
      "op": 173,
      "r15": 174,
      "me": 175,
      "is": 176,
      "JMP": 177,
      "r14": 178,
      "ck": 179,
      "10": 180,
      "r21": 181,
      "and": 182,
      "MO": 183,
      "un": 184,
      "es": 185,
      "_d": 186,
      "r13": 187,
      "r22": 188,
      "as": 189,
      "ALL": 190,
      "ch": 191,
      "CALL": 192,
      "RA": 193,
      "MOV": 194,
      "t_": 195,
      "ine": 196,
      "ri": 197,
      "════════════════": 198,
      "la": 199,
      "ad": 200,
      "el": 201,
      "CMPI": 202,
      "SH": 203,
      "the": 204,
      "r8": 205,
      "JZ": 206,
      "JN": 207,
      "JNZ": 208,
      "loop": 209,
      "raw": 210,
      "_c": 211,
      "ut": 212,
      "ne": 213,
      "ct": 214,
      "col": 215,
      "11": 216,
      "ul": 217,
      "mp": 218,
      "32": 219,
      "ve": 220,
      "one": 221,
      "sc": 222,
      "r16": 223,
      "25": 224,
      "ur": 225,
      "ce": 226,
      "no": 227,
      "heck": 228,
      "BU": 229,
      "SU": 230,
      "SE": 231,
      "bu": 232,
      "by": 233,
      "SUB": 234,
      "for": 235,
      "TE": 236,
      "di": 237,
      "RO": 238,
      "0x4": 239,
      "SC": 240,
      "ate": 241,
      "ti": 242,
      "row": 243,
      "12": 244,
      "BUF": 245,
      "_re": 246,
      "0xFF": 247,
      "ADDI": 248,
      "r25": 249,
      "il": 250,
      "_done": 251,
      "reen": 252,
      "sp": 253,
      "OP": 254,
      "ent": 255,
      "R_": 256,
      "bl": 257,
      "ation": 258,
      "────────────────": 259,
      "th": 260,
      "000": 261,
      "0x7": 262,
      "----": 263,
      "ND": 264,
      "mo": 265,
      "us": 266,
      "ma": 267,
      "xt": 268,
      "if": 269,
      "r23": 270,
      "d_": 271,
      "gh": 272,
      "ow": 273,
      "ff": 274,
      "r19": 275,
      "RAM": 276,
      "CO": 277,
      "16": 278,
      "TI": 279,
      "def": 280,
      "draw": 281,
      "r31": 282,
      "byte": 283,
      "pi": 284,
      "ith": 285,
      "..": 286,
      "_loop": 287,
      "POP": 288,
      "po": 289,
      "code": 290,
      "coun": 291,
      "BL": 292,
      "XT": 293,
      "str": 294,
      "PU": 295,
      "0x2": 296,
      "iz": 297,
      "pro": 298,
      "PUSH": 299,
      "con": 300,
      "ase": 301,
      "80": 302,
      "ab": 303,
      "UL": 304,
      "lay": 305,
      "ver": 306,
      "MUL": 307,
      "all": 308,
      "define": 309,
      "with": 310,
      "CT": 311,
      "sh": 312,
      "ren": 313,
      "TEXT": 314,
      "ed": 315,
      "up": 316,
      "screen": 317,
      "100": 318,
      "BLT": 319,
      "30": 320,
      "44": 321,
      "res": 322,
      "ts": 323,
      "OR": 324,
      "li": 325,
      "0x5": 326,
      "color": 327,
      "ge": 328,
      "RECT": 329,
      "40": 330,
      "line": 331,
      "================================": 332,
      "DE": 333,
      "0x00": 334,
      "RECTF": 335,
      "20": 336,
      "0x6": 337,
      "init": 338,
      "256": 339,
      "bo": 340,
      "rite": 341,
      "ke": 342,
      "xel": 343,
      "GE": 344,
      "RET": 345,
      "0x0": 346,
      "do": 347,
      "cur": 348,
      "fra": 349,
      "48": 350,
      "========================================": 351,
      "lear": 352,
      "Ge": 353,
      "play": 354,
      "y_": 355,
      "der": 356,
      "COL": 357,
      "put": 358,
      "STRO": 359,
      "ec": 360,
      "AND": 361,
      "reg": 362,
      "IN": 363,
      "of": 364,
      "fi": 365,
      "ffer": 366,
      "pixel": 367,
      "tr": 368,
      "ip": 369,
      "red": 370,
      "RI": 371,
      "si": 372,
      "=========================================": 373,
      "frame": 374,
      "════════════════════════════════": 375,
      "ial": 376,
      "ght": 377,
      "gra": 378,
      "buffer": 379,
      "ap": 380,
      "main": 381,
      "ition": 382,
      "BGE": 383,
      "set": 384,
      "ic": 385,
      "50": 386,
      "star": 387,
      "val": 388,
      "_BUF": 389,
      "FFFF": 390,
      "ue": 391,
      "sem": 392,
      "OS": 393,
      "ction": 394,
      "wor": 395,
      "add": 396,
      "rom": 397,
      "ister": 398,
      "from": 399,
      "---": 400,
      "char": 401,
      "sa": 402,
      "ializ": 403,
      "hi": 404,
      "r26": 405,
      "c_": 406,
      "ex": 407,
      "assem": 408,
      "pos": 409,
      "end": 410,
      "0x1": 411,
      "ack": 412,
      "ome": 413,
      "sor": 414,
      "PSE": 415,
      "ON": 416,
      "per": 417,
      "base": 418,
      "r24": 419,
      "check": 420,
      "kip": 421,
      "The": 422,
      "pat": 423,
      "_ret": 424,
      "wa": 425,
      "assembl": 426,
      "LL": 427,
      "88": 428,
      "ore": 429,
      "register": 430,
      "ty": 431,
      "text": 432,
      "CH": 433,
      "spa": 434,
      "count": 435,
      "Re": 436,
      "bar": 437,
      "tab": 438,
      "LE": 439,
      "ull": 440,
      "um": 441,
      "r27": 442,
      "--------": 443,
      "key": 444,
      "initializ": 445,
      "assembly": 446,
      "_check": 447,
      "ult": 448,
      "TION": 449,
      "ll": 450,
      "r28": 451,
      "bit": 452,
      "draw_": 453,
      "id": 454,
      "128": 455,
      "skip": 456,
      "ame": 457,
      "min": 458,
      "AN": 459,
      "DESC": 460,
      "RIP": 461,
      "DESCRIP": 462,
      "DESCRIPTION": 463,
      "0x3": 464,
      "_x": 465,
      "GeOS": 466,
      "im": 467,
      "),": 468,
      "Th": 469,
      "vi": 470,
      "pb": 471,
      "pe": 472,
      "0xF": 473,
      "start": 474,
      "SI": 475,
      "SHR": 476,
      "write": 477,
      "_ne": 478,
      "AR": 479,
      "input": 480,
      "ment": 481,
      "15": 482,
      "22": 483,
      "ent_": 484,
      "ations": 485,
      "ces": 486,
      "be": 487,
      "git": 488,
      "und": 489,
      "enter": 490,
      "tile": 491,
      "Draw": 492,
      "Check": 493,
      "SHL": 494,
      "COLS": 495,
      "CU": 496,
      "counter": 497,
      "FRAM": 498,
      "This": 499,
      "TCH": 500,
      "_y": 501,
      "FRAME": 502,
      "qu": 503,
      "ms": 504,
      "right": 505,
      "ROW": 506,
      "use": 507,
      "=====": 508,
      "ute": 509,
      "DRA": 510,
      "ALT": 511,
      "buf": 512,
      "CC": 513,
      "store": 514,
      "render": 515,
      "position": 516,
      "ft": 517,
      "comp": 518,
      "────────────────────────────────": 519,
      "oper": 520,
      "dow": 521,
      "isplay": 522,
      "ild": 523,
      "cursor": 524,
      "bi": 525,
      "RATCH": 526,
      "SCRATCH": 527,
      "64": 528,
      "ac": 529,
      "DRAW": 530,
      "fo": 531,
      "ds": 532,
      "rent": 533,
      "AA": 534,
      "su": 535,
      "p_": 536,
      "114": 537,
      "em": 538,
      "out": 539,
      "14": 540,
      "ues": 541,
      "0000": 542,
      "ag": 543,
      "ard": 544,
      "0xFFFFFF": 545,
      "registers": 546,
      "HALT": 547,
      "->": 548,
      "24": 549,
      "k_": 550,
      "In": 551,
      "ol": 552,
      "par": 553,
      "DRAWTEXT": 554,
      "cl": 555,
      "CUR_": 556,
      "ly": 557,
      "read": 558,
      "move": 559,
      "PSET": 560,
      "200": 561,
      "left": 562,
      "values": 563,
      "are": 564,
      "green": 565,
      "win": 566,
      "low": 567,
      "main_loop": 568,
      "255": 569,
      "═══": 570,
      "ory": 571,
      "progra": 572,
      "ted": 573,
      "r_": 574,
      "P_": 575,
      "XOR": 576,
      "pa": 577,
      "dex": 578,
      "ive": 579,
      "no_": 580,
      "FI": 581,
      "NE": 582,
      "FF00": 583,
      "mm": 584,
      "index": 585,
      "roll": 586,
      "tern": 587,
      "clear": 588,
      "cle": 589,
      "fun": 590,
      "ach": 591,
      "null": 592,
      "do_": 593,
      "operations": 594,
      "ir": 595,
      "save": 596,
      "back": 597,
      "vis": 598,
      "r29": 599,
      "mode": 600,
      "═══════": 601,
      "_o": 602,
      "ten": 603,
      "cop": 604,
      "═══════════════": 605,
      "ill": 606,
      "99": 607,
      "cre": 608,
      "display": 609,
      "PA": 610,
      "ash": 611,
      "ines": 612,
      "13": 613,
      "state": 614,
      "ang": 615,
      "biome": 616,
      "program": 617,
      "MOD": 618,
      "PI": 619,
      "60": 620,
      "BA": 621,
      "poin": 622,
      "asm": 623,
      "0x780": 624,
      "worl": 625,
      "app": 626,
      "termin": 627,
      "G_": 628,
      "am": 629,
      "using": 630,
      "EL": 631,
      "wn": 632,
      "SI_": 633,
      "spec": 634,
      "33": 635,
      "49": 636,
      "scroll": 637,
      "KE": 638,
      "atus": 639,
      "blue": 640,
      "DIV": 641,
      "ses": 642,
      "top": 643,
      "exec": 644,
      "ta": 645,
      "═══════════════════════════════": 646,
      "═══════════════════════════════════════════════════════════════": 647,
      "itle": 648,
      "ark": 649,
      "we": 650,
      "off": 651,
      "ress": 652,
      "KEY": 653,
      "_0": 654,
      "TY": 655,
      "hase": 656,
      "so": 657,
      "digit": 658,
      "r30": 659,
      "ber": 660,
      "fter": 661,
      "specif": 662,
      "68": 663,
      "sg": 664,
      "string": 665,
      "file": 666,
      "space": 667,
      "date": 668,
      "len": 669,
      "0x40": 670,
      "70": 671,
      "S_": 672,
      "STA": 673,
      "stru": 674,
      "cel": 675,
      "pre": 676,
      "to_": 677,
      "mple": 678,
      "initializes": 679,
      "_f": 680,
      "current": 681,
      "lines": 682,
      "et": 683,
      "hand": 684,
      "101": 685,
      "then": 686,
      "world_": 687,
      "ste": 688,
      "pattern": 689,
      "FILL": 690,
      "28": 691,
      "ator": 692,
      "player": 693,
      "ser": 694,
      "Co": 695,
      "after": 696,
      "It": 697,
      "bor": 698,
      "end_": 699,
      "shif": 700,
      "om": 701,
      "board": 702,
      "not_": 703,
      "angle": 704,
      "31": 705,
      "55": 706,
      "ity": 707,
      "specific": 708,
      "0x8": 709,
      "opcode": 710,
      "pixels": 711,
      "based": 712,
      "66": 713,
      "table": 714,
      "atch": 715,
      "R_BUF": 716,
      "try_": 717,
      "_next": 718,
      "Clear": 719,
      "por": 720,
      "0x30": 721,
      "status": 722,
      "----------------": 723,
      "XX": 724,
      "run": 725,
      "ance": 726,
      "BASE": 727,
      "ble": 728,
      "0x78": 729,
      "perfor": 730,
      "cess": 731,
      "cm": 732,
      "show": 733,
      "initialization": 734,
      "hash": 735,
      "_di": 736,
      "try": 737,
      "76": 738,
      "hal": 739,
      "mem": 740,
      "):": 741,
      "ot": 742,
      "ay": 743,
      "rect": 744,
      "igh": 745,
      "D_": 746,
      "MA": 747,
      "whi": 748,
      "COLO": 749,
      "HI": 750,
      "ME": 751,
      "cy": 752,
      "lp": 753,
      "px": 754,
      "new": 755,
      "offset": 756,
      "CSI_": 757,
      "ont": 758,
      "ata": 759,
      "M_": 760,
      "cell": 761,
      "can": 762,
      "ece": 763,
      "test": 764,
      "rot": 765,
      "address": 766,
      "65": 767,
      "own": 768,
      "clu": 769,
      "ry": 770,
      "sy": 771,
      "ated": 772,
      "promp": 773,
      "EN": 774,
      "cal": 775,
      "center": 776,
      "num": 777,
      "_to_": 778,
      "each": 779,
      "rows": 780,
      "_reg": 781,
      "PSETI": 782,
      "sub": 783,
      "copy": 784,
      "BB": 785,
      "zer": 786,
      "int": 787,
      "not": 788,
      "ANDI": 789,
      "mmand": 790,
      "zero": 791,
      "18": 792,
      "tom": 793,
      "chars": 794,
      "38": 795,
      "IKEY": 796,
      "hex": 797,
      "0x2000": 798,
      "0x6A": 799,
      "UN": 800,
      "97": 801,
      "ies": 802,
      "xt_": 803,
      "120": 804,
      "0x00FF00": 805,
      "fir": 806,
      "SUBI": 807,
      "cond": 808,
      "inclu": 809,
      "anim": 810,
      "next": 811,
      "ss": 812,
      "90": 813,
      "0x0000": 814,
      "value": 815,
      "addr": 816,
      "C_": 817,
      "PTY": 818,
      "load": 819,
      "type": 820,
      "CUR_ROW": 821,
      "func_": 822,
      "performs": 823,
      "St": 824,
      "call": 825,
      "_draw": 826,
      "SEND": 827,
      "Lo": 828,
      "XEL": 829,
      "PIXEL": 830,
      "prompt": 831,
      "_check_": 832,
      "0x40D": 833,
      ">>": 834,
      "ault": 835,
      "down": 836,
      "handle": 837,
      "port": 838,
      "map": 839,
      "INE": 840,
      ").": 841,
      "27": 842,
      "_res": 843,
      "check_": 844,
      "number": 845,
      "over": 846,
      "tra": 847,
      "window": 848,
      "TA": 849,
      "l_": 850,
      "write_": 851,
      "SAR": 852,
      "VE": 853,
      "game": 854,
      "vance": 855,
      "into": 856,
      "let": 857,
      "PARAM": 858,
      "command": 859,
      "time": 860,
      "water": 861,
      "CSI_PARAM": 862,
      "`,": 863,
      "but": 864,
      "crement": 865,
      "struction": 866,
      "19": 867,
      "piece": 868,
      "400": 869,
      "58": 870,
      "pla": 871,
      "title": 872,
      "ves": 873,
      "round": 874,
      "_down": 875,
      "shift": 876,
      "_result": 877,
      "Bu": 878,
      "instruction": 879,
      "0x4E": 880,
      "si_": 881,
      "first": 882,
      "Write": 883,
      "ursor": 884,
      "compute": 885,
      "memory": 886,
      "A1": 887,
      "CE": 888,
      "WIN": 889,
      "se_": 890,
      "ally": 891,
      "data": 892,
      "ok": 893,
      "spon": 894,
      "CL": 895,
      "update": 896,
      "Read": 897,
      "0xFFFFFFFF": 898,
      "cmd_": 899,
      "36": 900,
      "Sh": 901,
      "build": 902,
      "SEND_BUF": 903,
      "42": 904,
      "_check_result": 905,
      "Con": 906,
      "0x9": 907,
      "blend": 908,
      "17": 909,
      "STR_BUF": 910,
      "ctive": 911,
      "CUR_COL": 912,
      "A0": 913,
      "b_": 914,
      "clo": 915,
      "v_": 916,
      "chan": 917,
      "rid": 918,
      "fa": 919,
      "default": 920,
      "ize": 921,
      "bot": 922,
      "via": 923,
      "pb_ret": 924,
      "ROWS": 925,
      "TU": 926,
      "s_": 927,
      "===": 928,
      "ighbor": 929,
      "dark": 930,
      "....": 931,
      "spawn": 932,
      "If": 933,
      "ight": 934,
      "300": 935,
      "Phase": 936,
      "fill": 937,
      "var": 938,
      "respon": 939,
      "108": 940,
      "AI": 941,
      "EE": 942,
      "ground": 943,
      "neighbor": 944,
      "0xFFB": 945,
      "_1": 946,
      "arch": 947,
      "draws": 948,
      "0x200": 949,
      "lick": 950,
      "Init": 951,
      "place": 952,
      "73": 953,
      "De": 954,
      "EX": 955,
      "cam": 956,
      "sin": 957,
      "ton": 958,
      "_ok": 959,
      "_digit": 960,
      "Build": 961,
      "bottom": 962,
      "110": 963,
      "111": 964,
      "that": 965,
      "0x5000": 966,
      "nel": 967,
      "stan": 968,
      "path": 969,
      "WPIXEL": 970,
      "dy": 971,
      "ext": 972,
      "g_": 973,
      "chk_": 974,
      "SET": 975,
      "drawing": 976,
      "STATU": 977,
      "rate": 978,
      "RAND": 979,
      "_clear": 980,
      "umn": 981,
      ">=": 982,
      "mc": 983,
      "sever": 984,
      "ellow": 985,
      "column": 986,
      "output": 987,
      "several": 988,
      "ost": 989,
      "ous": 990,
      "tur": 991,
      "ded": 992,
      "words": 993,
      "Load": 994,
      "ust": 995,
      "wall": 996,
      "here": 997,
      "rain": 998,
      "pb_c": 999,
      "append_": 1000,
      "LINE": 1001,
      "_s": 1002,
      "age": 1003,
      "main_0": 1004,
      "hist": 1005,
      "execut": 1006,
      "++": 1007,
      "69": 1008,
      "ew": 1009,
      "mon": 1010,
      "sed": 1011,
      "ulti": 1012,
      "ffe": 1013,
      "function": 1014,
      "ile": 1015,
      "indi": 1016,
      "era": 1017,
      "advance": 1018,
      "result": 1019,
      "ments": 1020,
      "vari": 1021,
      "CK": 1022,
      "Row": 1023,
      "wi": 1024,
      "ates": 1025,
      "name": 1026,
      "max": 1027,
      "0x3000": 1028,
      "area": 1029,
      "button": 1030,
      "_b": 1031,
      "cor": 1032,
      "imple": 1033,
      "sion": 1034,
      "sig": 1035,
      "wave": 1036,
      "ircle": 1037,
      "ove": 1038,
      "wait": 1039,
      "idth": 1040,
      "75": 1041,
      "ave": 1042,
      "tri": 1043,
      "bits": 1044,
      "background": 1045,
      "HIT": 1046,
      "condition": 1047,
      "240": 1048,
      "man": 1049,
      "width": 1050,
      "get_": 1051,
      "skip_": 1052,
      "emit": 1053,
      "Comp": 1054,
      "white": 1055,
      "camera": 1056,
      "ning": 1057,
      "lock": 1058,
      "lag": 1059,
      "bytes": 1060,
      "process": 1061,
      "world_y": 1062,
      "channel": 1063,
      "ite": 1064,
      "lamp": 1065,
      "0x44": 1066,
      "vert": 1067,
      "world_x": 1068,
      "response": 1069,
      "tic": 1070,
      "ct_": 1071,
      "ix": 1072,
      "ran": 1073,
      "restore": 1074,
      "0x4000": 1075,
      "frames": 1076,
      "0x4E0": 1077,
      "83": 1078,
      "Sto": 1079,
      "ugh": 1080,
      "oriz": 1081,
      "115": 1082,
      "sgr_": 1083,
      "ding": 1084,
      "emp": 1085,
      "k_ret": 1086,
      "SHLI": 1087,
      "A2": 1088,
      "YS": 1089,
      "phase": 1090,
      "tk_": 1091,
      "where": 1092,
      "des": 1093,
      "0xFF0000": 1094,
      "ometry": 1095,
      "pointer": 1096,
      "execution": 1097,
      "72": 1098,
      "Pro": 1099,
      "Up": 1100,
      "pas": 1101,
      "ink": 1102,
      "0xC": 1103,
      "metic": 1104,
      "ithmetic": 1105,
      "Geometry": 1106,
      "LEN": 1107,
      "terminate": 1108,
      "77": 1109,
      "82": 1110,
      "En": 1111,
      "fin": 1112,
      "grid": 1113,
      "arithmetic": 1114,
      "lev": 1115,
      "rol": 1116,
      "dif": 1117,
      "sprite": 1118,
      "entry": 1119,
      "COLOR": 1120,
      "Store": 1121,
      "84": 1122,
      "0xD": 1123,
      "0xE": 1124,
      "127": 1125,
      "cont": 1126,
      "Show": 1127,
      "29": 1128,
      "SYS": 1129,
      "fil": 1130,
      "sw": 1131,
      "loc": 1132,
      "ision": 1133,
      "next_": 1134,
      "COUN": 1135,
      "LE_": 1136,
      "ANS_": 1137,
      "tiles": 1138,
      "TXT": 1139,
      "bel": 1140,
      "0x88": 1141,
      "core": 1142,
      "set_": 1143,
      "search": 1144,
      "mouse": 1145,
      "keyboard": 1146,
      "tail": 1147,
      "indic": 1148,
      "COUNT": 1149,
      "du": 1150,
      "dx": 1151,
      "flag": 1152,
      "ure": 1153,
      "vas": 1154,
      "err": 1155,
      "stri": 1156,
      "rough": 1157,
      "label": 1158,
      "112": 1159,
      "116": 1160,
      "tent": 1161,
      "copy_": 1162,
      "34": 1163,
      "gic": 1164,
      "yellow": 1165,
      "colo": 1166,
      "sets": 1167,
      "debu": 1168,
      "demo": 1169,
      "colors": 1170,
      "Lay": 1171,
      "Sc": 1172,
      "_TA": 1173,
      "cd": 1174,
      "hit": 1175,
      "horiz": 1176,
      "tar": 1177,
      "wo": 1178,
      "sto": 1179,
      "coor": 1180,
      "bld": 1181,
      "uses": 1182,
      "agent_": 1183,
      "lette": 1184,
      "ESC": 1185,
      "Title": 1186,
      "mat": 1187,
      "pres": 1188,
      "rout": 1189,
      "_cursor": 1190,
      "ROLL": 1191,
      "SCROLL": 1192,
      "through": 1193,
      "very": 1194,
      "canvas": 1195,
      "35": 1196,
      "<<": 1197,
      "mix": 1198,
      "arrow": 1199,
      "dec": 1200,
      "opy": 1201,
      "entri": 1202,
      "str_": 1203,
      "pb_csi_": 1204,
      "600": 1205,
      "Pi": 1206,
      "ib": 1207,
      "oth": 1208,
      "hes": 1209,
      "ask": 1210,
      "0xFFFF": 1211,
      "this": 1212,
      "step": 1213,
      "empty": 1214,
      "colored": 1215,
      "CM": 1216,
      "LA": 1217,
      "cus": 1218,
      "circle": 1219,
      "gg": 1220,
      "mc_": 1221,
      "ual": 1222,
      "frame_": 1223,
      "turn": 1224,
      "79": 1225,
      "C0": 1226,
      "_lp": 1227,
      "ain": 1228,
      "bri": 1229,
      "ler": 1230,
      "ree": 1231,
      "strate": 1232,
      "andom": 1233,
      "lap": 1234,
      "last": 1235,
      "ned": 1236,
      "dir": 1237,
      "acc": 1238,
      "wise": 1239,
      "SA": 1240,
      "fore": 1241,
      "ename": 1242,
      "ush": 1243,
      "append_byte": 1244,
      "Compute": 1245,
      "SM": 1246,
      "active": 1247,
      "dd": 1248,
      "lision": 1249,
      "sr": 1250,
      "score": 1251,
      "head": 1252,
      "collision": 1253,
      "FG_": 1254,
      "cno": 1255,
      "ratch": 1256,
      "ting": 1257,
      "wh": 1258,
      "ating": 1259,
      "0x20": 1260,
      "Get": 1261,
      "quen": 1262,
      "clear_": 1263,
      "visor": 1264,
      "FG_COLOR": 1265,
      "67": 1266,
      "NO": 1267,
      "SG": 1268,
      "Set": 1269,
      "multi": 1270,
      "n_": 1271,
      "non": 1272,
      "ADDR": 1273,
      "urce": 1274,
      "HITSET": 1275,
      "Copy": 1276,
      "SP": 1277,
      "endif": 1278,
      "hel": 1279,
      "late": 1280,
      "BLE": 1281,
      "0x240": 1282,
      "STATE": 1283,
      "stem": 1284,
      "building": 1285,
      ":\"": 1286,
      "PRO": 1287,
      "_BASE": 1288,
      "gen": 1289,
      "pan": 1290,
      "stack": 1291,
      "ans": 1292,
      "104": 1293,
      "asc": 1294,
      "0xFFFF00": 1295,
      "view": 1296,
      "focus": 1297,
      "palette": 1298,
      "PID": 1299,
      "TXT_BUF": 1300,
      "23": 1301,
      "26": 1302,
      "Hel": 1303,
      "Te": 1304,
      "full": 1305,
      "gth": 1306,
      "match": 1307,
      "ut_": 1308,
      "u32": 1309,
      "temp": 1310,
      "ary": 1311,
      "able": 1312,
      "sho": 1313,
      "enters": 1314,
      "render_": 1315,
      "cap": 1316,
      "cted": 1317,
      "scan": 1318,
      "now": 1319,
      "edit": 1320,
      "light": 1321,
      "ent_agent_": 1322,
      "length": 1323,
      "WINSYS": 1324,
      "entries": 1325,
      "51": 1326,
      "fe": 1327,
      "ple": 1328,
      "logic": 1329,
      "105": 1330,
      "0x7000": 1331,
      "get": 1332,
      "LLM": 1333,
      "agent": 1334,
      "visi": 1335,
      "--------------------------------": 1336,
      "calls": 1337,
      "stant": 1338,
      "implements": 1339,
      "Col": 1340,
      "ner": 1341,
      "size": 1342,
      "0xB": 1343,
      "0xAA": 1344,
      "ross": 1345,
      "uld": 1346,
      "strlen": 1347,
      "lib": 1348,
      "init_": 1349,
      "_new": 1350,
      "halts": 1351,
      "filename": 1352,
      "cp": 1353,
      "ist": 1354,
      "ender": 1355,
      "stop": 1356,
      "mes": 1357,
      "key_": 1358,
      "quit": 1359,
      "ER": 1360,
      "ball": 1361,
      "mer": 1362,
      "random": 1363,
      "neg": 1364,
      "scratch": 1365,
      "lic": 1366,
      "host": 1367,
      "arg": 1368,
      "0xFF00": 1369,
      "OPEN": 1370,
      "pipe": 1371,
      "0x040": 1372,
      "bitwise": 1373,
      "────────────────────────────────────────": 1374,
      "point": 1375,
      "_to_buf": 1376,
      "history": 1377,
      "SAVE": 1378,
      "45": 1379,
      "T_": 1380,
      "_hash": 1381,
      "din": 1382,
      "pr": 1383,
      "0x80": 1384,
      "art": 1385,
      "_do": 1386,
      "lack": 1387,
      "dire": 1388,
      "DEBU": 1389,
      "0x0A0": 1390,
      "displays": 1391,
      "ibble": 1392,
      "CP": 1393,
      "FS": 1394,
      "IP_": 1395,
      "Uses": 1396,
      "click": 1397,
      "done": 1398,
      "go": 1399,
      "gre": 1400,
      "just": 1401,
      "increment": 1402,
      "dest": 1403,
      "SEL": 1404,
      "region": 1405,
      "0x1A1": 1406,
      "imal": 1407,
      "NEG": 1408,
      "execute": 1409,
      "sgr": 1410,
      "system": 1411,
      "animation": 1412,
      "Test": 1413,
      "DEBUG_": 1414,
      "56": 1415,
      "D00": 1416,
      "Render": 1417,
      "VM": 1418,
      "_up": 1419,
      "ale": 1420,
      "black": 1421,
      "pend": 1422,
      "wr": 1423,
      "border": 1424,
      "src": 1425,
      "_newline": 1426,
      "**": 1427,
      "21": 1428,
      "IR": 1429,
      "_3": 1430,
      "cc": 1431,
      "ig": 1432,
      "ph": 1433,
      "tint": 1434,
      "vy": 1435,
      "READ": 1436,
      "0x000": 1437,
      "001": 1438,
      "sequen": 1439,
      "_dir": 1440,
      "0x1F": 1441,
      "buf_": 1442,
      "rendering": 1443,
      "ready": 1444,
      "rectangle": 1445,
      "A2E": 1446,
      "indicator": 1447,
      "routine": 1448,
      "strates": 1449,
      "Hello": 1450,
      "500": 1451,
      "CLE": 1452,
      "Save": 1453,
      "ared": 1454,
      "block": 1455,
      "squ": 1456,
      "reset": 1457,
      "its": 1458,
      "diffe": 1459,
      "SCI": 1460,
      "0x6000": 1461,
      "digits": 1462,
      "including": 1463,
      "Initializ": 1464,
      "bldg": 1465,
      "47": 1466,
      "ASCI": 1467,
      "DO": 1468,
      "dri": 1469,
      "every": 1470,
      "kno": 1471,
      "mal": 1472,
      "...": 1473,
      "above": 1474,
      "word": 1475,
      "mc_ret": 1476,
      "mc_25": 1477,
      "different": 1478,
      "ASCII": 1479,
      "known": 1480,
      "BO": 1481,
      "Null": 1482,
      "h_": 1483,
      "hy": 1484,
      "0x120": 1485,
      "enem": 1486,
      "sele": 1487,
      "edge": 1488,
      "ANSI_": 1489,
      "series": 1490,
      "func_0": 1491,
      "stored": 1492,
      "Color": 1493,
      "0x1A1A2E": 1494,
      "87": 1495,
      "OSC": 1496,
      "md": 1497,
      "na": 1498,
      "pl": 1499,
      "va": 1500,
      "arm": 1501,
      "103": 1502,
      "do_re": 1503,
      "STATUS_": 1504,
      "frame_counter": 1505,
      "_id": 1506,
      "sine": 1507,
      "DIR": 1508,
      "inu": 1509,
      "child": 1510,
      "_cl": 1511,
      "0x020": 1512,
      "simple": 1513,
      "pervisor": 1514,
      "Reg": 1515,
      "source": 1516,
      "running": 1517,
      "COLOR_BUF": 1518,
      "error": 1519,
      "NOTE": 1520,
      "53": 1521,
      "FE": 1522,
      "fd": 1523,
      "ht": 1524,
      "ulate": 1525,
      "content": 1526,
      "COL_": 1527,
      "fix": 1528,
      "grass": 1529,
      "Reset": 1530,
      "newline": 1531,
      "conditional": 1532,
      "Update": 1533,
      "level": 1534,
      "unti": 1535,
      "dim": 1536,
      "R_B": 1537,
      "box": 1538,
      "gener": 1539,
      "Initialize": 1540,
      "hypervisor": 1541,
      "150": 1542,
      "71": 1543,
      "RL": 1544,
      "We": 1545,
      "ven": 1546,
      "restart": 1547,
      "else": 1548,
      "ticle": 1549,
      "0x1000": 1550,
      "before": 1551,
      "session": 1552,
      "calc": 1553,
      "fail": 1554,
      "pass": 1555,
      "Layout": 1556,
      "93": 1557,
      "_2": 1558,
      "int_": 1559,
      "_cmd": 1560,
      "spe": 1561,
      "TICK": 1562,
      "constant": 1563,
      "_over": 1564,
      "other": 1565,
      "direction": 1566,
      "htt": 1567,
      "800": 1568,
      "91": 1569,
      "RUN": 1570,
      "Skip": 1571,
      "WN": 1572,
      "_col": 1573,
      "slo": 1574,
      "s256": 1575,
      "tk_ret": 1576,
      "ually": 1577,
      "like": 1578,
      "line_to_buf": 1579,
      "draw_frame": 1580,
      "particle": 1581,
      "cells": 1582,
      "subtra": 1583,
      "write_line_to_buf": 1584,
      "CLIP_": 1585,
      "ANSI_STATE": 1586,
      "Mem": 1587,
      "clamp": 1588,
      "inter": 1589,
      "stor": 1590,
      "ults": 1591,
      "dist": 1592,
      "0x444": 1593,
      "conds": 1594,
      "0x50": 1595,
      "appro": 1596,
      "writes": 1597,
      "bet": 1598,
      "msg": 1599,
      "emon": 1600,
      "parse": 1601,
      "cyan": 1602,
      "EEP": 1603,
      "_TABLE": 1604,
      "SCROLL_": 1605,
      "decimal": 1606,
      "96": 1607,
      "BEEP": 1608,
      "CIR": 1609,
      "HT": 1610,
      "pack": 1611,
      "tal": 1612,
      "0xCC": 1613,
      "ange": 1614,
      "them": 1615,
      "R_SC": 1616,
      "user": 1617,
      "0x000000": 1618,
      "checks": 1619,
      "found": 1620,
      "reads": 1621,
      "0x7800": 1622,
      "coordin": 1623,
      "Register": 1624,
      "CIRCLE": 1625,
      "AC": 1626,
      "Display": 1627,
      "vx": 1628,
      "remain": 1629,
      "already": 1630,
      "cts": 1631,
      "buil": 1632,
      "starts": 1633,
      "saved": 1634,
      "ween": 1635,
      "advance_to_": 1636,
      "DIRTY": 1637,
      "85": 1638,
      "Clo": 1639,
      "F8": 1640,
      "For": 1641,
      "has": 1642,
      "home": 1643,
      "ps": 1644,
      "org": 1645,
      "seconds": 1646,
      "help": 1647,
      "rag": 1648,
      "102": 1649,
      "tick": 1650,
      "0x00FFFF": 1651,
      "do_newline": 1652,
      "side": 1653,
      "spaces": 1654,
      "tab_": 1655,
      "acter": 1656,
      "mm_": 1657,
      "various": 1658,
      "signed": 1659,
      "dirty": 1660,
      "between": 1661,
      "1000": 1662,
      "Each": 1663,
      "MM": 1664,
      "Play": 1665,
      "Se": 1666,
      "dst": 1667,
      "pv": 1668,
      "──────": 1669,
      "arse": 1670,
      "need": 1671,
      "10000": 1672,
      "boun": 1673,
      "tain": 1674,
      "_fa": 1675,
      "after_": 1676,
      "ontal": 1677,
      "camera_x": 1678,
      "hello": 1679,
      "should": 1680,
      "until": 1681,
      "_n": 1682,
      "da": 1683,
      "sx": 1684,
      "wal": 1685,
      "inte": 1686,
      "orange": 1687,
      "lete": 1688,
      "MODE": 1689,
      "list": 1690,
      "character": 1691,
      "keys": 1692,
      "includes": 1693,
      "STATUS": 1694,
      "sign": 1695,
      "rols": 1696,
      "sgr_ret": 1697,
      "LS": 1698,
      "Main": 1699,
      "No": 1700,
      "RY": 1701,
      "Spa": 1702,
      "pop": 1703,
      "sup": 1704,
      "vol": 1705,
      "wra": 1706,
      "repe": 1707,
      "109": 1708,
      "timer": 1709,
      "0x700": 1710,
      "abs": 1711,
      "Enter": 1712,
      "\")": 1713,
      "(`": 1714,
      "+=": 1715,
      "140": 1716,
      "37": 1717,
      "54": 1718,
      "Ap": 1719,
      "m_": 1720,
      "mask": 1721,
      "oom": 1722,
      "push": 1723,
      "sb": 1724,
      "itch": 1725,
      "ative": 1726,
      "total": 1727,
      "t_in": 1728,
      "scale": 1729,
      "TER": 1730,
      "entity": 1731,
      "sage": 1732,
      "such": 1733,
      "0x8000": 1734,
      "M_BASE": 1735,
      "CELL": 1736,
      "debug": 1737,
      "Pixel": 1738,
      "multip": 1739,
      "62": 1740,
      "UT": 1741,
      "cs": 1742,
      "dur": 1743,
      "ping": 1744,
      "two": 1745,
      "ys": 1746,
      "onal": 1747,
      "sel": 1748,
      "FF44": 1749,
      "ract": 1750,
      "conne": 1751,
      "body": 1752,
      "INK": 1753,
      "trl": 1754,
      "agonal": 1755,
      "point_in": 1756,
      "terminal": 1757,
      "KEY_": 1758,
      "cmd": 1759,
      "show_": 1760,
      "square": 1761,
      "slot": 1762,
      "advance_to_null": 1763,
      "(\"": 1764,
      "FB": 1765,
      "LI": 1766,
      "Wa": 1767,
      "au": 1768,
      "fine": 1769,
      "ures": 1770,
      "ving": 1771,
      "zoom": 1772,
      "0x11": 1773,
      "ature": 1774,
      "rop": 1775,
      "TIME": 1776,
      "terminator": 1777,
      "struct_": 1778,
      "subroutine": 1779,
      "cdl": 1780,
      "CMD_": 1781,
      "4x": 1782,
      "52": 1783,
      "81": 1784,
      "URL": 1785,
      "_row": 1786,
      "bt": 1787,
      "bber": 1788,
      "flow": 1789,
      "mar": 1790,
      "ron": 1791,
      "ward": 1792,
      "hell": 1793,
      "same": 1794,
      "Input": 1795,
      "parse_": 1796,
      "half": 1797,
      "0x0000FF": 1798,
      "target_": 1799,
      "Memory": 1800,
      "coordinates": 1801,
      "build_": 1802,
      "57": 1803,
      "Cursor": 1804,
      "ED": 1805,
      "Ex": 1806,
      "FG": 1807,
      "USE": 1808,
      "ches": 1809,
      "day": 1810,
      "equ": 1811,
      "pur": 1812,
      "ru": 1813,
      "ormal": 1814,
      "these": 1815,
      "cols": 1816,
      "117": 1817,
      "dot": 1818,
      "pb_": 1819,
      "paint": 1820,
      "ELLO": 1821,
      "prev": 1822,
      "which": 1823,
      "loading": 1824,
      "instructions": 1825,
      "okup": 1826,
      "Building": 1827,
      "functions": 1828,
      "lication": 1829,
      "_dirty": 1830,
      "driven": 1831,
      "s256_": 1832,
      "130": 1833,
      "63": 1834,
      "CA": 1835,
      "RG": 1836,
      "ZE": 1837,
      "_store": 1838,
      "_type": 1839,
      "hu": 1840,
      "mark": 1841,
      "ound": 1842,
      "ub": 1843,
      "REEN": 1844,
      "height": 1845,
      "loop_0": 1846,
      "direct": 1847,
      "CON": 1848,
      "layout": 1849,
      "GET": 1850,
      "store_": 1851,
      "─────────────────────────────────": 1852,
      "when": 1853,
      "panel": 1854,
      "walk": 1855,
      "equal": 1856,
      "!\"": 1857,
      "95": 1858,
      "Bl": 1859,
      "CV": 1860,
      "DD": 1861,
      "HEX": 1862,
      "IT": 1863,
      "PC": 1864,
      "VI": 1865,
      "ii": 1866,
      "sing": 1867,
      "was": 1868,
      "replace": 1869,
      "0x430": 1870,
      "0x70": 1871,
      "BLINK": 1872,
      "0x2100": 1873,
      "results": 1874,
      "0x53": 1875,
      "224": 1876,
      "opcodes": 1877,
      "MEM": 1878,
      "0x8888": 1879,
      "ggle": 1880,
      "nonzero": 1881,
      "asciz": 1882,
      "visible": 1883,
      "cpy": 1884,
      "78": 1885,
      "SP_": 1886,
      "_count": 1887,
      "bright": 1888,
      "send": 1889,
      "only": 1890,
      "cos": 1891,
      "LOOP": 1892,
      "ALAR": 1893,
      "MOUSE": 1894,
      "usage": 1895,
      "RITE": 1896,
      "work": 1897,
      "SIZE": 1898,
      "Increment": 1899,
      "save_": 1900,
      "append": 1901,
      "horizontal": 1902,
      "R_SCR": 1903,
      "180": 1904,
      "Ad": 1905,
      "Cont": 1906,
      "END": 1907,
      "x8": 1908,
      "RECV": 1909,
      "enti": 1910,
      "led": 1911,
      "seed": 1912,
      "near": 1913,
      "dient": 1914,
      "diagonal": 1915,
      "ROO": 1916,
      "r256": 1917,
      "resses": 1918,
      "256x": 1919,
      "addresses": 1920,
      "exp": 1921,
      "ART": 1922,
      "compar": 1923,
      "no_input": 1924,
      "NEM": 1925,
      "sgr256": 1926,
      "Status": 1927,
      "updates": 1928,
      "close": 1929,
      "sequence": 1930,
      "mark_": 1931,
      "purple": 1932,
      "46": 1933,
      "LD": 1934,
      "MAL": 1935,
      "NU": 1936,
      "NOR": 1937,
      "SPA": 1938,
      "Ter": 1939,
      "WA": 1940,
      "_skip": 1941,
      "bran": 1942,
      "cross": 1943,
      "et_": 1944,
      "font": 1945,
      "rh_": 1946,
      "sn": 1947,
      "any": 1948,
      "second": 1949,
      "also": 1950,
      "demon": 1951,
      "ison": 1952,
      "unknown": 1953,
      "ctually": 1954,
      "addition": 1955,
      "visual": 1956,
      "strings": 1957,
      "func_1": 1958,
      "commands": 1959,
      "stants": 1960,
      "iled": 1961,
      "manip": 1962,
      "str_hello": 1963,
      "turns": 1964,
      "brigh": 1965,
      "executes": 1966,
      "TICKS": 1967,
      "DIRTY_": 1968,
      "256x256": 1969,
      "NORMAL": 1970,
      "\",": 1971,
      "248": 1972,
      "43": 1973,
      "4FF": 1974,
      "ENEM": 1975,
      "ID": 1976,
      "MS": 1977,
      "SS": 1978,
      "UP": 1979,
      "WOR": 1980,
      "_pos": 1981,
      "_start": 1982,
      "eq": 1983,
      "effe": 1984,
      "gent": 1985,
      "od": 1986,
      "tep": 1987,
      "ers": 1988,
      "del": 1989,
      "LOSE": 1990,
      "tour": 1991,
      "open": 1992,
      "is_": 1993,
      "chk": 1994,
      "else_": 1995,
      "loop_1": 1996,
      "0x41": 1997,
      "124": 1998,
      "126": 1999,
      "TIT": 2000,
      "contour": 2001,
      "0x60": 2002,
      "past": 2003,
      "tens": 2004,
      "BBBB": 2005,
      "Screen": 2006,
      "mixed": 2007,
      "CPY": 2008,
      "writ": 2009,
      "0x1201": 2010,
      "after_input": 2011,
      "fine_hash": 2012,
      "comparison": 2013,
      "Back": 2014,
      "NT": 2015,
      "VFS": 2016,
      "Win": 2017,
      "ast": 2018,
      "fl": 2019,
      "fle": 2020,
      "gu": 2021,
      "hk_ret": 2022,
      "ld": 2023,
      "nibble": 2024,
      "shell": 2025,
      "hed": 2026,
      "alarm": 2027,
      "ulator": 2028,
      "no_c": 2029,
      "TILE": 2030,
      "TILE_": 2031,
      "gradient": 2032,
      "ape": 2033,
      "0x170": 2034,
      "_next_": 2035,
      "no_key": 2036,
      "vision": 2037,
      "MAIN": 2038,
      "ANS_NORMAL": 2039,
      "accent": 2040,
      "SGR": 2041,
      "remaining": 2042,
      "Controls": 2043,
      "39": 2044,
      "FO": 2045,
      "Fin": 2046,
      "Hand": 2047,
      "Le": 2048,
      "Mo": 2049,
      "Move": 2050,
      "Op": 2051,
      "RS": 2052,
      "X_": 2053,
      "_left": 2054,
      "ai": 2055,
      "cil": 2056,
      "ey": 2057,
      "sk": 2058,
      "RESP": 2059,
      "0xA": 2060,
      "means": 2061,
      "aste": 2062,
      "cho": 2063,
      "118": 2064,
      "lip": 2065,
      "ING": 2066,
      "gray": 2067,
      "ANSI": 2068,
      "suc": 2069,
      "old": 2070,
      "create": 2071,
      "shifts": 2072,
      "MAP_": 2073,
      "....)": 2074,
      "mc_check_": 2075,
      "endif_1": 2076,
      "else_0": 2077,
      "http_": 2078,
      "bbers": 2079,
      "pb_es": 2080,
      "RGB": 2081,
      "\"/": 2082,
      "D4": 2083,
      "HELLO": 2084,
      "PE": 2085,
      "W_": 2086,
      "WRITE": 2087,
      "_color": 2088,
      "`.": 2089,
      "cat": 2090,
      "hl_": 2091,
      "tree": 2092,
      "wu": 2093,
      "inue": 2094,
      "0x10": 2095,
      "ones": 2096,
      "room": 2097,
      "lookup": 2098,
      "119": 2099,
      "0x400": 2100,
      "tical": 2101,
      "16x": 2102,
      "0x2200": 2103,
      "screen_x": 2104,
      "hi_done": 2105,
      "assemble": 2106,
      "idle": 2107,
      "222": 2108,
      "sert": 2109,
      "halting": 2110,
      "_regs": 2111,
      "triangle": 2112,
      "Process": 2113,
      "switch": 2114,
      "brick": 2115,
      "message": 2116,
      "0x0A0A1": 2117,
      "Player": 2118,
      "bounce": 2119,
      "ENEMY": 2120,
      "WORLD": 2121,
      "V_": 2122,
      "cx": 2123,
      "csi": 2124,
      "d_done": 2125,
      "echo": 2126,
      "fw": 2127,
      "her": 2128,
      "ling": 2129,
      "os": 2130,
      "p_done": 2131,
      "escap": 2132,
      "t_loop": 2133,
      "blink": 2134,
      "0x550": 2135,
      "0x6100": 2136,
      "────────────────────────────────────────────────": 2137,
      "handler": 2138,
      "finite": 2139,
      "CMD": 2140,
      "accum": 2141,
      "storing": 2142,
      "csi_cursor": 2143,
      ")->": 2144,
      "Al": 2145,
      "Demon": 2146,
      "E4": 2147,
      "HE": 2148,
      "VAL": 2149,
      "bg": 2150,
      "dis": 2151,
      "ges": 2152,
      "je": 2153,
      "put_": 2154,
      "rary": 2155,
      "sq": 2156,
      "DISP_": 2157,
      "info": 2158,
      "detail": 2159,
      "dir_": 2160,
      "entit": 2161,
      "160": 2162,
      "0x220": 2163,
      "screen_y": 2164,
      "0x5100": 2165,
      "0x00FF": 2166,
      "trans": 2167,
      "exit": 2168,
      "0xFD00": 2169,
      "tended": 2170,
      "0x7801": 2171,
      "world": 2172,
      "State": 2173,
      "Convert": 2174,
      "0x44FF44": 2175,
      "range": 2176,
      "stripe": 2177,
      "do_rect": 2178,
      "fixed": 2179,
      "subtraction": 2180,
      "_fail": 2181,
      "wrap": 2182,
      "Termin": 2183,
      "86": 2184,
      "8x8": 2185,
      "Actually": 2186,
      "CSI": 2187,
      "EC": 2188,
      "SLI": 2189,
      "TRA": 2190,
      "UTI": 2191,
      "_right": 2192,
      "csi_": 2193,
      "cb_": 2194,
      "db": 2195,
      "ep": 2196,
      "iter": 2197,
      "ied": 2198,
      "my": 2199,
      "atures": 2200,
      "toggle": 2201,
      "term": 2202,
      "ands": 2203,
      "0x76": 2204,
      "pick": 2205,
      "codes": 2206,
      "within": 2207,
      "DER_": 2208,
      "fig": 2209,
      "gradu": 2210,
      "buffers": 2211,
      "patch": 2212,
      "vice": 2213,
      "Coun": 2214,
      "_div": 2215,
      "cycle": 2216,
      "handles": 2217,
      "TAB": 2218,
      "computed": 2219,
      "walls": 2220,
      "variation": 2221,
      "camera_y": 2222,
      "debug_": 2223,
      "mixer": 2224,
      "0xAAAA": 2225,
      "intera": 2226,
      "UTF8": 2227,
      "MEMCPY": 2228,
      "sgr256_ret": 2229,
      "Left": 2230,
      "16x16": 2231,
      "Demonstrates": 2232,
      "SLIDER_": 2233,
      "graduated": 2234,
      "Bar": 2235,
      "Ctrl": 2236,
      "Fill": 2237,
      "NA": 2238,
      "Pat": 2239,
      "Right": 2240,
      "_LEN": 2241,
      "df": 2242,
      "nes": 2243,
      "oi": 2244,
      "pri": 2245,
      "pv_": 2246,
      "ring": 2247,
      "ump": 2248,
      "infinite": 2249,
      "STE": 2250,
      "ST_": 2251,
      "ong": 2252,
      "atoi": 2253,
      "0x42": 2254,
      "0xFFE": 2255,
      "0xFF44": 2256,
      "thing": 2257,
      "bound": 2258,
      "0x0600": 2259,
      "ument": 2260,
      "exec_done": 2261,
      "_fin": 2262,
      "player_x": 2263,
      "include": 2264,
      "trace": 2265,
      "get_tab_": 2266,
      "focus_": 2267,
      "negative": 2268,
      "grep_": 2269,
      "SEL_": 2270,
      "buf_a": 2271,
      "plan": 2272,
      "multiplication": 2273,
      "self": 2274,
      "Terminal": 2275,
      "'/": 2276,
      "98": 2277,
      "900": 2278,
      "Ar": 2279,
      "BAR": 2280,
      "Bot": 2281,
      "Out": 2282,
      "Tile": 2283,
      "Use": 2284,
      "Wor": 2285,
      "_buf": 2286,
      "pes": 2287,
      "padd": 2288,
      "inc": 2289,
      "ALLTEXT": 2290,
      "0x500": 2291,
      "boot": 2292,
      "0x0C0": 2293,
      "high": 2294,
      "used": 2295,
      "─────────────────────────────────────────────────────────────────": 2296,
      "ages": 2297,
      "0x7808": 2298,
      "Start": 2299,
      "_size": 2300,
      "SMALLTEXT": 2301,
      "_do_": 2302,
      "_clr": 2303,
      "rule": 2304,
      "ALARM_": 2305,
      "demonstrates": 2306,
      "Window": 2307,
      "success": 2308,
      "escape": 2309,
      "CMD_BUF": 2310,
      "'/'": 2311,
      "Bottom": 2312,
      "Output": 2313,
      "',": 2314,
      "74": 2315,
      "700": 2316,
      "An": 2317,
      "CW": 2318,
      "CLOSE": 2319,
      "D0": 2320,
      "FC": 2321,
      "Green": 2322,
      "GREEN": 2323,
      "_not_": 2324,
      "ax": 2325,
      "ares": 2326,
      "cv": 2327,
      "cc_": 2328,
      "dc": 2329,
      "ear": 2330,
      "fg": 2331,
      "ped": 2332,
      "snow": 2333,
      "inside": 2334,
      "itor": 2335,
      "lava": 2336,
      "0xFF88": 2337,
      "blend_": 2338,
      "0x22": 2339,
      "0x2400": 2340,
      "convert": 2341,
      "reds": 2342,
      "sim": 2343,
      "sample": 2344,
      "bitmask": 2345,
      "startup": 2346,
      "undreds": 2347,
      "dsb": 2348,
      "amon": 2349,
      "tests": 2350,
      "sys": 2351,
      "func_2": 2352,
      "Demo": 2353,
      "month": 2354,
      "corner": 2355,
      "levation": 2356,
      "continu": 2357,
      "PROMP": 2358,
      "...\"": 2359,
      "Advance": 2360,
      "ROOM_BASE": 2361,
      "branch": 2362,
      "DISP_VAL": 2363,
      "!=": 2364,
      "D1": 2365,
      "Step": 2366,
      "Try": 2367,
      "_screen": 2368,
      "act": 2369,
      "clip": 2370,
      "imap": 2371,
      "mx": 2372,
      "normal": 2373,
      "oa": 2374,
      "send_": 2375,
      "REND": 2376,
      "rever": 2377,
      "itoa": 2378,
      "terrain": 2379,
      "ass": 2380,
      "adj": 2381,
      "SHRI": 2382,
      "form": 2383,
      "TEMP": 2384,
      "ROUTI": 2385,
      "three": 2386,
      "0x74": 2387,
      "vertical": 2388,
      "shot": 2389,
      "0x530": 2390,
      "0x5300": 2391,
      "start_": 2392,
      "0000000": 2393,
      "olti": 2394,
      "perform": 2395,
      "copy_done": 2396,
      "sgr_brigh": 2397,
      "tk_arrow": 2398,
      "target": 2399,
      "Piece": 2400,
      "circles": 2401,
      "SGR_": 2402,
      "logical": 2403,
      "library": 2404,
      "DOWN": 2405,
      "inux": 2406,
      "Clobbers": 2407,
      "Space": 2408,
      "repeated": 2409,
      "TIMER": 2410,
      "Handle": 2411,
      "TRACE": 2412,
      "PROMPT": 2413,
      "ROUTINE": 2414,
      "sgr_bright_": 2415,
      "1F": 2416,
      "89": 2417,
      "HO": 2418,
      "ITE": 2419,
      "Ora": 2420,
      "UI": 2421,
      "dp": 2422,
      "dr_": 2423,
      "fre": 2424,
      "jump": 2425,
      "wd": 2426,
      "STR": 2427,
      "rer": 2428,
      "orig": 2429,
      "com": 2430,
      "copi": 2431,
      "dete": 2432,
      "dead": 2433,
      "local": 2434,
      "_con": 2435,
      "net": 2436,
      "colon": 2437,
      "SUBROUTINE": 2438,
      "mod": 2439,
      "poll": 2440,
      "counted": 2441,
      "0x00CC": 2442,
      "ected": 2443,
      "INIT": 2444,
      "fiel": 2445,
      "graph": 2446,
      "pat_": 2447,
      "CURS": 2448,
      "across": 2449,
      "again": 2450,
      "0x7809": 2451,
      "sound": 2452,
      "overlap": 2453,
      "0x9000": 2454,
      "visited": 2455,
      "STATUS_CW": 2456,
      "CONNE": 2457,
      "RECV_BUF": 2458,
      "MSG_": 2459,
      "RESP_BUF": 2460,
      "sqr": 2461,
      "paddle": 2462,
      "0xFF8800": 2463,
      "Oracle": 2464,
      ")\"": 2465,
      "144": 2466,
      "94": 2467,
      "ASM": 2468,
      "Add": 2469,
      "B0": 2470,
      "B2": 2471,
      "C4": 2472,
      "DU": 2473,
      "HP": 2474,
      "Pos": 2475,
      "Ver": 2476,
      "W1": 2477,
      "_T": 2478,
      "action": 2479,
      "cing": 2480,
      "cmp": 2481,
      "dn_": 2482,
      "have": 2483,
      "v1": 2484,
      "roid": 2485,
      "_cre": 2486,
      "TEND": 2487,
      "ility": 2488,
      "R_CL": 2489,
      "ify": 2490,
      "strcmp": 2491,
      "config": 2492,
      "shared": 2493,
      "0x03": 2494,
      "═══════════════════════════════════════════════": 2495,
      "exist": 2496,
      "starting": 2497,
      "bias": 2498,
      "acle": 2499,
      "_osc": 2500,
      "to_str": 2501,
      "0x80000000": 2502,
      "game_over": 2503,
      "CSI_PARAM2": 2504,
      "EXTEND": 2505,
      "control": 2506,
      "Scroll": 2507,
      "horizon": 2508,
      "SAVED_": 2509,
      "print_": 2510,
      "**:": 2511,
      "0x4444FF": 2512,
      "ai_": 2513,
      "Pattern": 2514,
      "SGR_EXTEND": 2515,
      "SGR_EXTENDED": 2516,
      "220": 2517,
      "Cre": 2518,
      "So": 2519,
      "Sub": 2520,
      "Tab": 2521,
      "Text": 2522,
      "_line": 2523,
      "case": 2524,
      "fall": 2525,
      "none": 2526,
      "py": 2527,
      "pty": 2528,
      "wc_": 2529,
      "STORY": 2530,
      "real": 2531,
      "rece": 2532,
      "dev": 2533,
      "medi": 2534,
      "cep": 2535,
      "division": 2536,
      "R_CC": 2537,
      "0x75": 2538,
      "TIVE": 2539,
      "lim": 2540,
      "y_hash": 2541,
      "0xFA": 2542,
      "buf_c": 2543,
      "renders": 2544,
      "136": 2545,
      "HISTORY": 2546,
      "_check_eq": 2547,
      "track": 2548,
      "Constants": 2549,
      "spawn_": 2550,
      "sin_": 2551,
      "correct": 2552,
      "locations": 2553,
      "Layer": 2554,
      "_TAB": 2555,
      "preser": 2556,
      "pressed": 2557,
      "regions": 2558,
      "approx": 2559,
      "0xCCCC": 2560,
      "NUM": 2561,
      "World": 2562,
      "origin": 2563,
      "230": 2564,
      "Fra": 2565,
      "Mark": 2566,
      "PRE": 2567,
      "PV_": 2568,
      "R0": 2569,
      "Res": 2570,
      "][": 2571,
      "_t": 2572,
      "_set": 2573,
      "`)": 2574,
      "cn": 2575,
      "cac": 2576,
      "drag": 2577,
      "oid": 2578,
      "que": 2579,
      "tle": 2580,
      "x_loop": 2581,
      "yes": 2582,
      "ze": 2583,
      "REQ": 2584,
      "reac": 2585,
      "att_": 2586,
      "radi": 2587,
      "toolti": 2588,
      "_drain": 2589,
      "ulations": 2590,
      "note": 2591,
      "0x43": 2592,
      "0x4100": 2593,
      "0x428": 2594,
      "0x418": 2595,
      "row_dirty": 2596,
      "ghost": 2597,
      "drawn": 2598,
      "grav": 2599,
      "setting": 2600,
      "ics": 2601,
      "ways": 2602,
      "CHA": 2603,
      "0x300": 2604,
      "_neg": 2605,
      "comput": 2606,
      "MAT": 2607,
      "handle_": 2608,
      "cmd_is_": 2609,
      "coords": 2610,
      "ascii": 2611,
      "pending": 2612,
      "selected": 2613,
      "ulates": 2614,
      "pv_regs": 2615,
      "4x4": 2616,
      "MOUSEQ": 2617,
      "mark_row_dirty": 2618,
      "SPAWN": 2619,
      "flat": 2620,
      "DUR_": 2621,
      "\"[": 2622,
      "BE": 2623,
      "Fo": 2624,
      "HA": 2625,
      "HAND": 2626,
      "LU": 2627,
      "NING": 2628,
      "OK": 2629,
      "Pre": 2630,
      "PEE": 2631,
      "Parse": 2632,
      "Top": 2633,
      "_m": 2634,
      "cp_": 2635,
      "hundreds": 2636,
      "ick": 2637,
      "pn": 2638,
      "press": 2639,
      "sand": 2640,
      "x32": 2641,
      "0x25": 2642,
      "0x100": 2643,
      "─────": 2644,
      "it_": 2645,
      "still": 2646,
      "ram": 2647,
      "========================": 2648,
      "_clo": 2649,
      "veloc": 2650,
      "diamon": 2651,
      "magent": 2652,
      "rende": 2653,
      "0x5200": 2654,
      "========================================================": 2655,
      "0x6200": 2656,
      "0x0400": 2657,
      "hidd": 2658,
      "0x14": 2659,
      "0x1A": 2660,
      "0x33": 2661,
      "245": 2662,
      "FILE": 2663,
      "terminated": 2664,
      "animal": 2665,
      "write_prompt": 2666,
      "0xFF00FF": 2667,
      "RUNNING": 2668,
      "ACTIVE": 2669,
      "Append": 2670,
      "CMD_HI": 2671,
      "sky": 2672,
      "asteroid": 2673,
      "0x0A0A1E": 2674,
      "entity_": 2675,
      "limit": 2676,
      "PEEK": 2677,
      "magenta": 2678,
      "hidden": 2679,
      "'.": 2680,
      ".\"": 2681,
      "1px": 2682,
      "CD": 2683,
      "Esc": 2684,
      "Key": 2685,
      "Linux": 2686,
      "Pa": 2687,
      "_and": 2688,
      "brow": 2689,
      "cro": 2690,
      "hp_": 2691,
      "sm": 2692,
      "void": 2693,
      "input_": 2694,
      "stone": 2695,
      "always": 2696,
      "decrement": 2697,
      "delete": 2698,
      "_drop": 2699,
      "_cont": 2700,
      "ctor": 2701,
      "1111": 2702,
      "ulation": 2703,
      "ved": 2704,
      "0x7F": 2705,
      "0x7600": 2706,
      "maze": 2707,
      "d_loop": 2708,
      "conten": 2709,
      "line_": 2710,
      "word_": 2711,
      "safe": 2712,
      "0x3100": 2713,
      "vig": 2714,
      "enter_digit": 2715,
      "ROW_": 2716,
      "242": 2717,
      "programs": 2718,
      "files": 2719,
      "prev_": 2720,
      "player_y": 2721,
      "runs": 2722,
      "rot0": 2723,
      "0x40D1": 2724,
      "0x40D2": 2725,
      "overflow": 2726,
      "192": 2727,
      "pb_csi": 2728,
      "Proves": 2729,
      "Blue": 2730,
      "entire": 2731,
      "effect": 2732,
      "written": 2733,
      "pb_esc_": 2734,
      "ENEMY_BASE": 2735,
      "Count": 2736,
      "repeatedly": 2737,
      "PROMPT_BUF": 2738,
      "Position": 2739,
      "_continue": 2740,
      "contents": 2741,
      "')": 2742,
      "132": 2743,
      "AT": 2744,
      "DY": 2745,
      "F0": 2746,
      "FT": 2747,
      "File": 2748,
      "Next": 2749,
      "PS": 2750,
      "SD": 2751,
      "cv_": 2752,
      "elevation": 2753,
      "kill": 2754,
      "ls": 2755,
      "night": 2756,
      "sof": 2757,
      "vent": 2758,
      "wan": 2759,
      "will": 2760,
      "RED_": 2761,
      "stal": 2762,
      "FFF": 2763,
      "tow": 2764,
      "asic": 2765,
      "chang": 2766,
      "url_": 2767,
      "ately": 2768,
      "proces": 2769,
      "0x030": 2770,
      "simp": 2771,
      "LEFT": 2772,
      "idx": 2773,
      "positions": 2774,
      "operation": 2775,
      "foam": 2776,
      "movement": 2777,
      "NEXT": 2778,
      "0x7807": 2779,
      "scrolling": 2780,
      "scroll_up": 2781,
      "struct": 2782,
      "patterns": 2783,
      "service": 2784,
      "rystal": 2785,
      "ously": 2786,
      "waiting": 2787,
      "stores": 2788,
      "who": 2789,
      "argument": 2790,
      "rectangles": 2791,
      "BODY": 2792,
      "navig": 2793,
      "Water": 2794,
      "nearby": 2795,
      "accumulator": 2796,
      "field": 2797,
      "Frame": 2798,
      "<=": 2799,
      "C3": 2800,
      "DA": 2801,
      "E5": 2802,
      "Ext": 2803,
      "Line": 2804,
      "POR": 2805,
      "SAND": 2806,
      "]\"": 2807,
      "_A": 2808,
      "bul": 2809,
      "drop": 2810,
      "gy": 2811,
      "lif": 2812,
      "nts": 2813,
      "oter": 2814,
      "xblend_": 2815,
      "ypre": 2816,
      "returns": 2817,
      "heal": 2818,
      "ish": 2819,
      "_drag": 2820,
      "adv": 2821,
      "loops": 2822,
      "loop_2": 2823,
      "_clamp": 2824,
      "32x32": 2825,
      "dio": 2826,
      "121": 2827,
      "_read": 2828,
      "────────────────────────": 2829,
      "0x0044": 2830,
      "0x600": 2831,
      "initial": 2832,
      "assembler": 2833,
      "quo": 2834,
      "ALT_": 2835,
      "win_y": 2836,
      "ived": 2837,
      "Command": 2838,
      "ports": 2839,
      "0x7814": 2840,
      "ights": 2841,
      "while": 2842,
      "rot1": 2843,
      "rot2": 2844,
      "rot3": 2845,
      "calc_": 2846,
      "PTY_": 2847,
      "overlay": 2848,
      "196": 2849,
      "face": 2850,
      "_digits": 2851,
      "functional": 2852,
      "name_done": 2853,
      "set_state": 2854,
      "features": 2855,
      "ccp_": 2856,
      "enemies": 2857,
      "R_BS": 2858,
      "int_to_str": 2859,
      "approach": 2860,
      "_nx": 2861,
      "btn_": 2862,
      "TITLE_": 2863,
      "Find": 2864,
      "============================================================": 2865,
      "3A": 2866,
      "41": 2867,
      "59": 2868,
      "Bi": 2869,
      "Di": 2870,
      "GHT": 2871,
      "NG": 2872,
      "Red": 2873,
      "Str": 2874,
      "],": 2875,
      "_copy": 2876,
      "_ADDR": 2877,
      "_END": 2878,
      "air": 2879,
      "cr": 2880,
      "crystal": 2881,
      "eded": 2882,
      "0xBBBB": 2883,
      "met": 2884,
      "meta": 2885,
      "chr": 2886,
      "laim": 2887,
      "ely": 2888,
      "OP_TABLE": 2889,
      "0x797": 2890,
      "most": 2891,
      "ift": 2892,
      "verif": 2893,
      "shr": 2894,
      "0x0C": 2895,
      "0x0200": 2896,
      "dots": 2897,
      "0x1B": 2898,
      "bars": 2899,
      "ent_render": 2900,
      "tile_": 2901,
      "win_id": 2902,
      "backspace": 2903,
      "0x7803": 2904,
      "0x780A": 2905,
      "precomputed": 2906,
      "shows": 2907,
      "halt": 2908,
      "memchr": 2909,
      "game_loop": 2910,
      "Shift": 2911,
      "clock": 2912,
      "EXEC": 2913,
      "extract": 2914,
      "bldg_": 2915,
      "lerp": 2916,
      "0x0A0A": 2917,
      "enemy": 2918,
      "parse_done": 2919,
      "Close": 2920,
      "Wait": 2921,
      "btn": 2922,
      "WASD": 2923,
      "delta": 2924,
      "no_click": 2925,
      "quest": 2926,
      "velocity": 2927,
      "\">": 2928,
      "(.": 2929,
      "232": 2930,
      "61": 2931,
      "Ch": 2932,
      "CTE": 2933,
      "Clamp": 2934,
      "Down": 2935,
      "FREQ": 2936,
      "NL": 2937,
      "OFF": 2938,
      "QU": 2939,
      "Ring": 2940,
      "_byte": 2941,
      "_COUNT": 2942,
      "_label": 2943,
      "bbe": 2944,
      "iv": 2945,
      "ise": 2946,
      "mid": 2947,
      "pul": 2948,
      "tx": 2949,
      "y_loop": 2950,
      "0x10000": 2951,
      "007": 2952,
      "allow": 2953,
      "med": 2954,
      "forward": 2955,
      "0x424": 2956,
      "0x7500": 2957,
      "modu": 2958,
      "1638": 2959,
      "uptime": 2960,
      "0x6AD": 2961,
      "do_draw": 2962,
      "ication": 2963,
      "Restore": 2964,
      "bitmap": 2965,
      "viron": 2966,
      "0xF9": 2967,
      "0xF00": 2968,
      "_neq": 2969,
      "inputs": 2970,
      "below": 2971,
      "utes": 2972,
      "_off": 2973,
      "displaying": 2974,
      "biome_type": 2975,
      "points": 2976,
      "apple": 2977,
      "specified": 2978,
      "MAX": 2979,
      "Loop": 2980,
      "windows": 2981,
      "clobbe": 2982,
      "change": 2983,
      "HITQ": 2984,
      "manage": 2985,
      "manages": 2986,
      "sprites": 2987,
      "math": 2988,
      "present": 2989,
      "79007": 2990,
      "endif_3": 2991,
      "editor": 2992,
      "---------------------------------": 2993,
      "-----------------------------------------------------------------": 2994,
      "OSC_BUF": 2995,
      "subtract": 2996,
      "ticks": 2997,
      "characters": 2998,
      "connected": 2999
    },
    "merges": [
      [
        "r",
        "1"
      ],
      [
        "D",
        "I"
      ],
      [
        "r",
        "2"
      ],
      [
        "L",
        "DI"
      ],
      [
        "=",
        "="
      ],
      [
        "═",
        "═"
      ],
      [
        "A",
        "D"
      ],
      [
        "==",
        "=="
      ],
      [
        "─",
        "─"
      ],
      [
        "R",
        "E"
      ],
      [
        "i",
        "n"
      ],
      [
        "S",
        "T"
      ],
      [
        "0",
        "x"
      ],
      [
        "ST",
        "O"
      ],
      [
        "STO",
        "RE"
      ],
      [
        "AD",
        "D"
      ],
      [
        "r",
        "e"
      ],
      [
        "r2",
        "0"
      ],
      [
        "══",
        "══"
      ],
      [
        "r",
        "3"
      ],
      [
        "r",
        "0"
      ],
      [
        "r",
        "4"
      ],
      [
        "t",
        "e"
      ],
      [
        "r",
        "7"
      ],
      [
        "0",
        "0"
      ],
      [
        "o",
        "n"
      ],
      [
        "M",
        "P"
      ],
      [
        "====",
        "===="
      ],
      [
        "──",
        "──"
      ],
      [
        "o",
        "r"
      ],
      [
        "e",
        "n"
      ],
      [
        "e",
        "r"
      ],
      [
        "i",
        "t"
      ],
      [
        "s",
        "t"
      ],
      [
        "c",
        "o"
      ],
      [
        "a",
        "n"
      ],
      [
        "a",
        "t"
      ],
      [
        "a",
        "r"
      ],
      [
        "l",
        "e"
      ],
      [
        "s",
        "e"
      ],
      [
        "-",
        "-"
      ],
      [
        "h",
        "e"
      ],
      [
        "r",
        "5"
      ],
      [
        "r1",
        "0"
      ],
      [
        "r",
        "6"
      ],
      [
        "F",
        "F"
      ],
      [
        "════",
        "════"
      ],
      [
        "a",
        "l"
      ],
      [
        "r",
        "o"
      ],
      [
        "C",
        "MP"
      ],
      [
        "d",
        "e"
      ],
      [
        "r",
        "a"
      ],
      [
        "L",
        "O"
      ],
      [
        "r1",
        "1"
      ],
      [
        "r1",
        "7"
      ],
      [
        "r",
        "9"
      ],
      [
        "r1",
        "2"
      ],
      [
        "LO",
        "AD"
      ],
      [
        "l",
        "o"
      ],
      [
        "t",
        "o"
      ],
      [
        "te",
        "r"
      ],
      [
        "i",
        "on"
      ],
      [
        "========",
        "========"
      ],
      [
        "in",
        "g"
      ],
      [
        "────",
        "────"
      ],
      [
        "r1",
        "8"
      ],
      [
        "A",
        "L"
      ],
      [
        "o",
        "p"
      ],
      [
        "r1",
        "5"
      ],
      [
        "m",
        "e"
      ],
      [
        "i",
        "s"
      ],
      [
        "J",
        "MP"
      ],
      [
        "r1",
        "4"
      ],
      [
        "c",
        "k"
      ],
      [
        "1",
        "0"
      ],
      [
        "r2",
        "1"
      ],
      [
        "an",
        "d"
      ],
      [
        "M",
        "O"
      ],
      [
        "u",
        "n"
      ],
      [
        "e",
        "s"
      ],
      [
        "_",
        "d"
      ],
      [
        "r1",
        "3"
      ],
      [
        "r2",
        "2"
      ],
      [
        "a",
        "s"
      ],
      [
        "AL",
        "L"
      ],
      [
        "c",
        "h"
      ],
      [
        "C",
        "ALL"
      ],
      [
        "R",
        "A"
      ],
      [
        "MO",
        "V"
      ],
      [
        "t",
        "_"
      ],
      [
        "in",
        "e"
      ],
      [
        "r",
        "i"
      ],
      [
        "════════",
        "════════"
      ],
      [
        "l",
        "a"
      ],
      [
        "a",
        "d"
      ],
      [
        "e",
        "l"
      ],
      [
        "CMP",
        "I"
      ],
      [
        "S",
        "H"
      ],
      [
        "t",
        "he"
      ],
      [
        "r",
        "8"
      ],
      [
        "J",
        "Z"
      ],
      [
        "J",
        "N"
      ],
      [
        "JN",
        "Z"
      ],
      [
        "lo",
        "op"
      ],
      [
        "ra",
        "w"
      ],
      [
        "_",
        "c"
      ],
      [
        "u",
        "t"
      ],
      [
        "n",
        "e"
      ],
      [
        "c",
        "t"
      ],
      [
        "co",
        "l"
      ],
      [
        "1",
        "1"
      ],
      [
        "u",
        "l"
      ],
      [
        "m",
        "p"
      ],
      [
        "3",
        "2"
      ],
      [
        "v",
        "e"
      ],
      [
        "on",
        "e"
      ],
      [
        "s",
        "c"
      ],
      [
        "r1",
        "6"
      ],
      [
        "2",
        "5"
      ],
      [
        "u",
        "r"
      ],
      [
        "c",
        "e"
      ],
      [
        "n",
        "o"
      ],
      [
        "he",
        "ck"
      ],
      [
        "B",
        "U"
      ],
      [
        "S",
        "U"
      ],
      [
        "S",
        "E"
      ],
      [
        "b",
        "u"
      ],
      [
        "b",
        "y"
      ],
      [
        "SU",
        "B"
      ],
      [
        "f",
        "or"
      ],
      [
        "T",
        "E"
      ],
      [
        "d",
        "i"
      ],
      [
        "R",
        "O"
      ],
      [
        "0x",
        "4"
      ],
      [
        "S",
        "C"
      ],
      [
        "a",
        "te"
      ],
      [
        "t",
        "i"
      ],
      [
        "ro",
        "w"
      ],
      [
        "1",
        "2"
      ],
      [
        "BU",
        "F"
      ],
      [
        "_",
        "re"
      ],
      [
        "0x",
        "FF"
      ],
      [
        "AD",
        "DI"
      ],
      [
        "r2",
        "5"
      ],
      [
        "i",
        "l"
      ],
      [
        "_d",
        "one"
      ],
      [
        "re",
        "en"
      ],
      [
        "s",
        "p"
      ],
      [
        "O",
        "P"
      ],
      [
        "en",
        "t"
      ],
      [
        "R",
        "_"
      ],
      [
        "b",
        "l"
      ],
      [
        "at",
        "ion"
      ],
      [
        "────────",
        "────────"
      ],
      [
        "t",
        "h"
      ],
      [
        "00",
        "0"
      ],
      [
        "0x",
        "7"
      ],
      [
        "--",
        "--"
      ],
      [
        "N",
        "D"
      ],
      [
        "m",
        "o"
      ],
      [
        "u",
        "s"
      ],
      [
        "m",
        "a"
      ],
      [
        "x",
        "t"
      ],
      [
        "i",
        "f"
      ],
      [
        "r2",
        "3"
      ],
      [
        "d",
        "_"
      ],
      [
        "g",
        "h"
      ],
      [
        "o",
        "w"
      ],
      [
        "f",
        "f"
      ],
      [
        "r1",
        "9"
      ],
      [
        "RA",
        "M"
      ],
      [
        "C",
        "O"
      ],
      [
        "1",
        "6"
      ],
      [
        "T",
        "I"
      ],
      [
        "de",
        "f"
      ],
      [
        "d",
        "raw"
      ],
      [
        "r3",
        "1"
      ],
      [
        "by",
        "te"
      ],
      [
        "p",
        "i"
      ],
      [
        "it",
        "h"
      ],
      [
        ".",
        "."
      ],
      [
        "_",
        "loop"
      ],
      [
        "P",
        "OP"
      ],
      [
        "p",
        "o"
      ],
      [
        "co",
        "de"
      ],
      [
        "co",
        "un"
      ],
      [
        "B",
        "L"
      ],
      [
        "X",
        "T"
      ],
      [
        "st",
        "r"
      ],
      [
        "P",
        "U"
      ],
      [
        "0x",
        "2"
      ],
      [
        "i",
        "z"
      ],
      [
        "p",
        "ro"
      ],
      [
        "PU",
        "SH"
      ],
      [
        "c",
        "on"
      ],
      [
        "a",
        "se"
      ],
      [
        "8",
        "0"
      ],
      [
        "a",
        "b"
      ],
      [
        "U",
        "L"
      ],
      [
        "la",
        "y"
      ],
      [
        "v",
        "er"
      ],
      [
        "M",
        "UL"
      ],
      [
        "al",
        "l"
      ],
      [
        "def",
        "ine"
      ],
      [
        "w",
        "ith"
      ],
      [
        "C",
        "T"
      ],
      [
        "s",
        "h"
      ],
      [
        "re",
        "n"
      ],
      [
        "TE",
        "XT"
      ],
      [
        "e",
        "d"
      ],
      [
        "u",
        "p"
      ],
      [
        "sc",
        "reen"
      ],
      [
        "1",
        "00"
      ],
      [
        "BL",
        "T"
      ],
      [
        "3",
        "0"
      ],
      [
        "4",
        "4"
      ],
      [
        "re",
        "s"
      ],
      [
        "t",
        "s"
      ],
      [
        "O",
        "R"
      ],
      [
        "l",
        "i"
      ],
      [
        "0x",
        "5"
      ],
      [
        "col",
        "or"
      ],
      [
        "g",
        "e"
      ],
      [
        "RE",
        "CT"
      ],
      [
        "4",
        "0"
      ],
      [
        "l",
        "ine"
      ],
      [
        "================",
        "================"
      ],
      [
        "D",
        "E"
      ],
      [
        "0x",
        "00"
      ],
      [
        "RECT",
        "F"
      ],
      [
        "2",
        "0"
      ],
      [
        "0x",
        "6"
      ],
      [
        "in",
        "it"
      ],
      [
        "25",
        "6"
      ],
      [
        "b",
        "o"
      ],
      [
        "ri",
        "te"
      ],
      [
        "k",
        "e"
      ],
      [
        "x",
        "el"
      ],
      [
        "G",
        "E"
      ],
      [
        "RE",
        "T"
      ],
      [
        "0x",
        "0"
      ],
      [
        "d",
        "o"
      ],
      [
        "c",
        "ur"
      ],
      [
        "f",
        "ra"
      ],
      [
        "4",
        "8"
      ],
      [
        "================================",
        "========"
      ],
      [
        "le",
        "ar"
      ],
      [
        "G",
        "e"
      ],
      [
        "p",
        "lay"
      ],
      [
        "y",
        "_"
      ],
      [
        "d",
        "er"
      ],
      [
        "CO",
        "L"
      ],
      [
        "p",
        "ut"
      ],
      [
        "ST",
        "RO"
      ],
      [
        "e",
        "c"
      ],
      [
        "A",
        "ND"
      ],
      [
        "re",
        "g"
      ],
      [
        "I",
        "N"
      ],
      [
        "o",
        "f"
      ],
      [
        "f",
        "i"
      ],
      [
        "ff",
        "er"
      ],
      [
        "pi",
        "xel"
      ],
      [
        "t",
        "r"
      ],
      [
        "i",
        "p"
      ],
      [
        "re",
        "d"
      ],
      [
        "R",
        "I"
      ],
      [
        "s",
        "i"
      ],
      [
        "========================================",
        "="
      ],
      [
        "fra",
        "me"
      ],
      [
        "════════════════",
        "════════════════"
      ],
      [
        "i",
        "al"
      ],
      [
        "gh",
        "t"
      ],
      [
        "g",
        "ra"
      ],
      [
        "bu",
        "ffer"
      ],
      [
        "a",
        "p"
      ],
      [
        "ma",
        "in"
      ],
      [
        "it",
        "ion"
      ],
      [
        "B",
        "GE"
      ],
      [
        "se",
        "t"
      ],
      [
        "i",
        "c"
      ],
      [
        "5",
        "0"
      ],
      [
        "st",
        "ar"
      ],
      [
        "v",
        "al"
      ],
      [
        "_",
        "BUF"
      ],
      [
        "FF",
        "FF"
      ],
      [
        "u",
        "e"
      ],
      [
        "se",
        "m"
      ],
      [
        "O",
        "S"
      ],
      [
        "ct",
        "ion"
      ],
      [
        "w",
        "or"
      ],
      [
        "ad",
        "d"
      ],
      [
        "ro",
        "m"
      ],
      [
        "is",
        "ter"
      ],
      [
        "f",
        "rom"
      ],
      [
        "--",
        "-"
      ],
      [
        "ch",
        "ar"
      ],
      [
        "s",
        "a"
      ],
      [
        "ial",
        "iz"
      ],
      [
        "h",
        "i"
      ],
      [
        "r2",
        "6"
      ],
      [
        "c",
        "_"
      ],
      [
        "e",
        "x"
      ],
      [
        "as",
        "sem"
      ],
      [
        "po",
        "s"
      ],
      [
        "en",
        "d"
      ],
      [
        "0x",
        "1"
      ],
      [
        "a",
        "ck"
      ],
      [
        "o",
        "me"
      ],
      [
        "s",
        "or"
      ],
      [
        "P",
        "SE"
      ],
      [
        "O",
        "N"
      ],
      [
        "p",
        "er"
      ],
      [
        "b",
        "ase"
      ],
      [
        "r2",
        "4"
      ],
      [
        "c",
        "heck"
      ],
      [
        "k",
        "ip"
      ],
      [
        "T",
        "he"
      ],
      [
        "p",
        "at"
      ],
      [
        "_re",
        "t"
      ],
      [
        "w",
        "a"
      ],
      [
        "assem",
        "bl"
      ],
      [
        "L",
        "L"
      ],
      [
        "8",
        "8"
      ],
      [
        "o",
        "re"
      ],
      [
        "reg",
        "ister"
      ],
      [
        "t",
        "y"
      ],
      [
        "te",
        "xt"
      ],
      [
        "C",
        "H"
      ],
      [
        "sp",
        "a"
      ],
      [
        "coun",
        "t"
      ],
      [
        "R",
        "e"
      ],
      [
        "b",
        "ar"
      ],
      [
        "t",
        "ab"
      ],
      [
        "L",
        "E"
      ],
      [
        "ul",
        "l"
      ],
      [
        "u",
        "m"
      ],
      [
        "r2",
        "7"
      ],
      [
        "----",
        "----"
      ],
      [
        "ke",
        "y"
      ],
      [
        "init",
        "ializ"
      ],
      [
        "assembl",
        "y"
      ],
      [
        "_c",
        "heck"
      ],
      [
        "ul",
        "t"
      ],
      [
        "TI",
        "ON"
      ],
      [
        "l",
        "l"
      ],
      [
        "r2",
        "8"
      ],
      [
        "b",
        "it"
      ],
      [
        "draw",
        "_"
      ],
      [
        "i",
        "d"
      ],
      [
        "12",
        "8"
      ],
      [
        "s",
        "kip"
      ],
      [
        "a",
        "me"
      ],
      [
        "m",
        "in"
      ],
      [
        "A",
        "N"
      ],
      [
        "DE",
        "SC"
      ],
      [
        "RI",
        "P"
      ],
      [
        "DESC",
        "RIP"
      ],
      [
        "DESCRIP",
        "TION"
      ],
      [
        "0x",
        "3"
      ],
      [
        "_",
        "x"
      ],
      [
        "Ge",
        "OS"
      ],
      [
        "i",
        "m"
      ],
      [
        ")",
        ","
      ],
      [
        "T",
        "h"
      ],
      [
        "v",
        "i"
      ],
      [
        "p",
        "b"
      ],
      [
        "p",
        "e"
      ],
      [
        "0x",
        "F"
      ],
      [
        "star",
        "t"
      ],
      [
        "S",
        "I"
      ],
      [
        "SH",
        "R"
      ],
      [
        "w",
        "rite"
      ],
      [
        "_",
        "ne"
      ],
      [
        "A",
        "R"
      ],
      [
        "in",
        "put"
      ],
      [
        "m",
        "ent"
      ],
      [
        "1",
        "5"
      ],
      [
        "2",
        "2"
      ],
      [
        "en",
        "t_"
      ],
      [
        "ation",
        "s"
      ],
      [
        "c",
        "es"
      ],
      [
        "b",
        "e"
      ],
      [
        "g",
        "it"
      ],
      [
        "un",
        "d"
      ],
      [
        "en",
        "ter"
      ],
      [
        "ti",
        "le"
      ],
      [
        "D",
        "raw"
      ],
      [
        "C",
        "heck"
      ],
      [
        "SH",
        "L"
      ],
      [
        "COL",
        "S"
      ],
      [
        "C",
        "U"
      ],
      [
        "coun",
        "ter"
      ],
      [
        "F",
        "RAM"
      ],
      [
        "Th",
        "is"
      ],
      [
        "T",
        "CH"
      ],
      [
        "_",
        "y"
      ],
      [
        "FRAM",
        "E"
      ],
      [
        "q",
        "u"
      ],
      [
        "m",
        "s"
      ],
      [
        "ri",
        "ght"
      ],
      [
        "RO",
        "W"
      ],
      [
        "u",
        "se"
      ],
      [
        "====",
        "="
      ],
      [
        "u",
        "te"
      ],
      [
        "D",
        "RA"
      ],
      [
        "AL",
        "T"
      ],
      [
        "bu",
        "f"
      ],
      [
        "C",
        "C"
      ],
      [
        "st",
        "ore"
      ],
      [
        "ren",
        "der"
      ],
      [
        "pos",
        "ition"
      ],
      [
        "f",
        "t"
      ],
      [
        "co",
        "mp"
      ],
      [
        "────────────────",
        "────────────────"
      ],
      [
        "op",
        "er"
      ],
      [
        "d",
        "ow"
      ],
      [
        "is",
        "play"
      ],
      [
        "il",
        "d"
      ],
      [
        "cur",
        "sor"
      ],
      [
        "b",
        "i"
      ],
      [
        "RA",
        "TCH"
      ],
      [
        "SC",
        "RATCH"
      ],
      [
        "6",
        "4"
      ],
      [
        "a",
        "c"
      ],
      [
        "DRA",
        "W"
      ],
      [
        "f",
        "o"
      ],
      [
        "d",
        "s"
      ],
      [
        "ren",
        "t"
      ],
      [
        "A",
        "A"
      ],
      [
        "s",
        "u"
      ],
      [
        "p",
        "_"
      ],
      [
        "11",
        "4"
      ],
      [
        "e",
        "m"
      ],
      [
        "o",
        "ut"
      ],
      [
        "1",
        "4"
      ],
      [
        "u",
        "es"
      ],
      [
        "00",
        "00"
      ],
      [
        "a",
        "g"
      ],
      [
        "ar",
        "d"
      ],
      [
        "0xFF",
        "FFFF"
      ],
      [
        "register",
        "s"
      ],
      [
        "H",
        "ALT"
      ],
      [
        "-",
        ">"
      ],
      [
        "2",
        "4"
      ],
      [
        "k",
        "_"
      ],
      [
        "I",
        "n"
      ],
      [
        "o",
        "l"
      ],
      [
        "p",
        "ar"
      ],
      [
        "DRAW",
        "TEXT"
      ],
      [
        "c",
        "l"
      ],
      [
        "CU",
        "R_"
      ],
      [
        "l",
        "y"
      ],
      [
        "re",
        "ad"
      ],
      [
        "mo",
        "ve"
      ],
      [
        "PSE",
        "T"
      ],
      [
        "2",
        "00"
      ],
      [
        "le",
        "ft"
      ],
      [
        "val",
        "ues"
      ],
      [
        "a",
        "re"
      ],
      [
        "g",
        "reen"
      ],
      [
        "w",
        "in"
      ],
      [
        "lo",
        "w"
      ],
      [
        "main",
        "_loop"
      ],
      [
        "25",
        "5"
      ],
      [
        "══",
        "═"
      ],
      [
        "or",
        "y"
      ],
      [
        "pro",
        "gra"
      ],
      [
        "te",
        "d"
      ],
      [
        "r",
        "_"
      ],
      [
        "P",
        "_"
      ],
      [
        "X",
        "OR"
      ],
      [
        "p",
        "a"
      ],
      [
        "de",
        "x"
      ],
      [
        "i",
        "ve"
      ],
      [
        "no",
        "_"
      ],
      [
        "F",
        "I"
      ],
      [
        "N",
        "E"
      ],
      [
        "FF",
        "00"
      ],
      [
        "m",
        "m"
      ],
      [
        "in",
        "dex"
      ],
      [
        "ro",
        "ll"
      ],
      [
        "ter",
        "n"
      ],
      [
        "c",
        "lear"
      ],
      [
        "c",
        "le"
      ],
      [
        "f",
        "un"
      ],
      [
        "a",
        "ch"
      ],
      [
        "n",
        "ull"
      ],
      [
        "do",
        "_"
      ],
      [
        "oper",
        "ations"
      ],
      [
        "i",
        "r"
      ],
      [
        "sa",
        "ve"
      ],
      [
        "b",
        "ack"
      ],
      [
        "v",
        "is"
      ],
      [
        "r2",
        "9"
      ],
      [
        "mo",
        "de"
      ],
      [
        "════",
        "═══"
      ],
      [
        "_",
        "o"
      ],
      [
        "te",
        "n"
      ],
      [
        "co",
        "p"
      ],
      [
        "════════",
        "═══════"
      ],
      [
        "il",
        "l"
      ],
      [
        "9",
        "9"
      ],
      [
        "c",
        "re"
      ],
      [
        "d",
        "isplay"
      ],
      [
        "P",
        "A"
      ],
      [
        "as",
        "h"
      ],
      [
        "in",
        "es"
      ],
      [
        "1",
        "3"
      ],
      [
        "st",
        "ate"
      ],
      [
        "an",
        "g"
      ],
      [
        "bi",
        "ome"
      ],
      [
        "progra",
        "m"
      ],
      [
        "MO",
        "D"
      ],
      [
        "P",
        "I"
      ],
      [
        "6",
        "0"
      ],
      [
        "B",
        "A"
      ],
      [
        "po",
        "in"
      ],
      [
        "as",
        "m"
      ],
      [
        "0x7",
        "80"
      ],
      [
        "wor",
        "l"
      ],
      [
        "ap",
        "p"
      ],
      [
        "ter",
        "min"
      ],
      [
        "G",
        "_"
      ],
      [
        "a",
        "m"
      ],
      [
        "us",
        "ing"
      ],
      [
        "E",
        "L"
      ],
      [
        "w",
        "n"
      ],
      [
        "SI",
        "_"
      ],
      [
        "sp",
        "ec"
      ],
      [
        "3",
        "3"
      ],
      [
        "4",
        "9"
      ],
      [
        "sc",
        "roll"
      ],
      [
        "K",
        "E"
      ],
      [
        "at",
        "us"
      ],
      [
        "bl",
        "ue"
      ],
      [
        "DI",
        "V"
      ],
      [
        "se",
        "s"
      ],
      [
        "to",
        "p"
      ],
      [
        "ex",
        "ec"
      ],
      [
        "t",
        "a"
      ],
      [
        "════════════════",
        "═══════════════"
      ],
      [
        "════════════════════════════════",
        "═══════════════════════════════"
      ],
      [
        "it",
        "le"
      ],
      [
        "ar",
        "k"
      ],
      [
        "w",
        "e"
      ],
      [
        "o",
        "ff"
      ],
      [
        "res",
        "s"
      ],
      [
        "KE",
        "Y"
      ],
      [
        "_",
        "0"
      ],
      [
        "T",
        "Y"
      ],
      [
        "h",
        "ase"
      ],
      [
        "s",
        "o"
      ],
      [
        "di",
        "git"
      ],
      [
        "r3",
        "0"
      ],
      [
        "b",
        "er"
      ],
      [
        "f",
        "ter"
      ],
      [
        "spec",
        "if"
      ],
      [
        "6",
        "8"
      ],
      [
        "s",
        "g"
      ],
      [
        "str",
        "ing"
      ],
      [
        "fi",
        "le"
      ],
      [
        "spa",
        "ce"
      ],
      [
        "d",
        "ate"
      ],
      [
        "l",
        "en"
      ],
      [
        "0x4",
        "0"
      ],
      [
        "7",
        "0"
      ],
      [
        "S",
        "_"
      ],
      [
        "ST",
        "A"
      ],
      [
        "str",
        "u"
      ],
      [
        "c",
        "el"
      ],
      [
        "p",
        "re"
      ],
      [
        "to",
        "_"
      ],
      [
        "mp",
        "le"
      ],
      [
        "initializ",
        "es"
      ],
      [
        "_",
        "f"
      ],
      [
        "cur",
        "rent"
      ],
      [
        "l",
        "ines"
      ],
      [
        "e",
        "t"
      ],
      [
        "h",
        "and"
      ],
      [
        "10",
        "1"
      ],
      [
        "th",
        "en"
      ],
      [
        "worl",
        "d_"
      ],
      [
        "s",
        "te"
      ],
      [
        "pat",
        "tern"
      ],
      [
        "FI",
        "LL"
      ],
      [
        "2",
        "8"
      ],
      [
        "at",
        "or"
      ],
      [
        "play",
        "er"
      ],
      [
        "s",
        "er"
      ],
      [
        "C",
        "o"
      ],
      [
        "a",
        "fter"
      ],
      [
        "I",
        "t"
      ],
      [
        "b",
        "or"
      ],
      [
        "en",
        "d_"
      ],
      [
        "sh",
        "if"
      ],
      [
        "o",
        "m"
      ],
      [
        "bo",
        "ard"
      ],
      [
        "no",
        "t_"
      ],
      [
        "ang",
        "le"
      ],
      [
        "3",
        "1"
      ],
      [
        "5",
        "5"
      ],
      [
        "it",
        "y"
      ],
      [
        "specif",
        "ic"
      ],
      [
        "0x",
        "8"
      ],
      [
        "op",
        "code"
      ],
      [
        "pixel",
        "s"
      ],
      [
        "base",
        "d"
      ],
      [
        "6",
        "6"
      ],
      [
        "tab",
        "le"
      ],
      [
        "at",
        "ch"
      ],
      [
        "R_",
        "BUF"
      ],
      [
        "tr",
        "y_"
      ],
      [
        "_ne",
        "xt"
      ],
      [
        "C",
        "lear"
      ],
      [
        "p",
        "or"
      ],
      [
        "0x",
        "30"
      ],
      [
        "st",
        "atus"
      ],
      [
        "--------",
        "--------"
      ],
      [
        "X",
        "X"
      ],
      [
        "r",
        "un"
      ],
      [
        "an",
        "ce"
      ],
      [
        "BA",
        "SE"
      ],
      [
        "b",
        "le"
      ],
      [
        "0x7",
        "8"
      ],
      [
        "per",
        "for"
      ],
      [
        "ces",
        "s"
      ],
      [
        "c",
        "m"
      ],
      [
        "sh",
        "ow"
      ],
      [
        "initializ",
        "ation"
      ],
      [
        "h",
        "ash"
      ],
      [
        "_d",
        "i"
      ],
      [
        "tr",
        "y"
      ],
      [
        "7",
        "6"
      ],
      [
        "h",
        "al"
      ],
      [
        "me",
        "m"
      ],
      [
        ")",
        ":"
      ],
      [
        "o",
        "t"
      ],
      [
        "a",
        "y"
      ],
      [
        "re",
        "ct"
      ],
      [
        "i",
        "gh"
      ],
      [
        "D",
        "_"
      ],
      [
        "M",
        "A"
      ],
      [
        "w",
        "hi"
      ],
      [
        "CO",
        "LO"
      ],
      [
        "H",
        "I"
      ],
      [
        "M",
        "E"
      ],
      [
        "c",
        "y"
      ],
      [
        "l",
        "p"
      ],
      [
        "p",
        "x"
      ],
      [
        "ne",
        "w"
      ],
      [
        "off",
        "set"
      ],
      [
        "C",
        "SI_"
      ],
      [
        "on",
        "t"
      ],
      [
        "at",
        "a"
      ],
      [
        "M",
        "_"
      ],
      [
        "cel",
        "l"
      ],
      [
        "c",
        "an"
      ],
      [
        "e",
        "ce"
      ],
      [
        "te",
        "st"
      ],
      [
        "ro",
        "t"
      ],
      [
        "add",
        "ress"
      ],
      [
        "6",
        "5"
      ],
      [
        "ow",
        "n"
      ],
      [
        "cl",
        "u"
      ],
      [
        "r",
        "y"
      ],
      [
        "s",
        "y"
      ],
      [
        "ate",
        "d"
      ],
      [
        "pro",
        "mp"
      ],
      [
        "E",
        "N"
      ],
      [
        "c",
        "al"
      ],
      [
        "c",
        "enter"
      ],
      [
        "n",
        "um"
      ],
      [
        "_",
        "to_"
      ],
      [
        "e",
        "ach"
      ],
      [
        "row",
        "s"
      ],
      [
        "_re",
        "g"
      ],
      [
        "PSE",
        "TI"
      ],
      [
        "su",
        "b"
      ],
      [
        "cop",
        "y"
      ],
      [
        "B",
        "B"
      ],
      [
        "z",
        "er"
      ],
      [
        "in",
        "t"
      ],
      [
        "no",
        "t"
      ],
      [
        "AN",
        "DI"
      ],
      [
        "mm",
        "and"
      ],
      [
        "zer",
        "o"
      ],
      [
        "1",
        "8"
      ],
      [
        "to",
        "m"
      ],
      [
        "char",
        "s"
      ],
      [
        "3",
        "8"
      ],
      [
        "I",
        "KEY"
      ],
      [
        "he",
        "x"
      ],
      [
        "0x2",
        "000"
      ],
      [
        "0x6",
        "A"
      ],
      [
        "U",
        "N"
      ],
      [
        "9",
        "7"
      ],
      [
        "i",
        "es"
      ],
      [
        "x",
        "t_"
      ],
      [
        "12",
        "0"
      ],
      [
        "0x00",
        "FF00"
      ],
      [
        "fi",
        "r"
      ],
      [
        "SUB",
        "I"
      ],
      [
        "con",
        "d"
      ],
      [
        "in",
        "clu"
      ],
      [
        "an",
        "im"
      ],
      [
        "ne",
        "xt"
      ],
      [
        "s",
        "s"
      ],
      [
        "9",
        "0"
      ],
      [
        "0x00",
        "00"
      ],
      [
        "val",
        "ue"
      ],
      [
        "add",
        "r"
      ],
      [
        "C",
        "_"
      ],
      [
        "P",
        "TY"
      ],
      [
        "lo",
        "ad"
      ],
      [
        "ty",
        "pe"
      ],
      [
        "CUR_",
        "ROW"
      ],
      [
        "fun",
        "c_"
      ],
      [
        "perfor",
        "ms"
      ],
      [
        "S",
        "t"
      ],
      [
        "c",
        "all"
      ],
      [
        "_d",
        "raw"
      ],
      [
        "SE",
        "ND"
      ],
      [
        "L",
        "o"
      ],
      [
        "X",
        "EL"
      ],
      [
        "PI",
        "XEL"
      ],
      [
        "promp",
        "t"
      ],
      [
        "_check",
        "_"
      ],
      [
        "0x40",
        "D"
      ],
      [
        ">",
        ">"
      ],
      [
        "a",
        "ult"
      ],
      [
        "dow",
        "n"
      ],
      [
        "hand",
        "le"
      ],
      [
        "por",
        "t"
      ],
      [
        "ma",
        "p"
      ],
      [
        "IN",
        "E"
      ],
      [
        ")",
        "."
      ],
      [
        "2",
        "7"
      ],
      [
        "_re",
        "s"
      ],
      [
        "check",
        "_"
      ],
      [
        "num",
        "ber"
      ],
      [
        "o",
        "ver"
      ],
      [
        "t",
        "ra"
      ],
      [
        "win",
        "dow"
      ],
      [
        "T",
        "A"
      ],
      [
        "l",
        "_"
      ],
      [
        "write",
        "_"
      ],
      [
        "S",
        "AR"
      ],
      [
        "V",
        "E"
      ],
      [
        "g",
        "ame"
      ],
      [
        "v",
        "ance"
      ],
      [
        "in",
        "to"
      ],
      [
        "le",
        "t"
      ],
      [
        "PA",
        "RAM"
      ],
      [
        "co",
        "mmand"
      ],
      [
        "ti",
        "me"
      ],
      [
        "wa",
        "ter"
      ],
      [
        "CSI_",
        "PARAM"
      ],
      [
        "`",
        ","
      ],
      [
        "b",
        "ut"
      ],
      [
        "cre",
        "ment"
      ],
      [
        "stru",
        "ction"
      ],
      [
        "1",
        "9"
      ],
      [
        "pi",
        "ece"
      ],
      [
        "4",
        "00"
      ],
      [
        "5",
        "8"
      ],
      [
        "p",
        "la"
      ],
      [
        "t",
        "itle"
      ],
      [
        "v",
        "es"
      ],
      [
        "ro",
        "und"
      ],
      [
        "_d",
        "own"
      ],
      [
        "shif",
        "t"
      ],
      [
        "_res",
        "ult"
      ],
      [
        "B",
        "u"
      ],
      [
        "in",
        "struction"
      ],
      [
        "0x4",
        "E"
      ],
      [
        "si",
        "_"
      ],
      [
        "fir",
        "st"
      ],
      [
        "W",
        "rite"
      ],
      [
        "ur",
        "sor"
      ],
      [
        "comp",
        "ute"
      ],
      [
        "mem",
        "ory"
      ],
      [
        "A",
        "1"
      ],
      [
        "C",
        "E"
      ],
      [
        "W",
        "IN"
      ],
      [
        "se",
        "_"
      ],
      [
        "all",
        "y"
      ],
      [
        "d",
        "ata"
      ],
      [
        "o",
        "k"
      ],
      [
        "sp",
        "on"
      ],
      [
        "C",
        "L"
      ],
      [
        "up",
        "date"
      ],
      [
        "Re",
        "ad"
      ],
      [
        "0xFFFFFF",
        "FF"
      ],
      [
        "cm",
        "d_"
      ],
      [
        "3",
        "6"
      ],
      [
        "S",
        "h"
      ],
      [
        "bu",
        "ild"
      ],
      [
        "SEND",
        "_BUF"
      ],
      [
        "4",
        "2"
      ],
      [
        "_check",
        "_result"
      ],
      [
        "C",
        "on"
      ],
      [
        "0x",
        "9"
      ],
      [
        "bl",
        "end"
      ],
      [
        "1",
        "7"
      ],
      [
        "ST",
        "R_BUF"
      ],
      [
        "ct",
        "ive"
      ],
      [
        "CUR_",
        "COL"
      ],
      [
        "A",
        "0"
      ],
      [
        "b",
        "_"
      ],
      [
        "c",
        "lo"
      ],
      [
        "v",
        "_"
      ],
      [
        "ch",
        "an"
      ],
      [
        "ri",
        "d"
      ],
      [
        "f",
        "a"
      ],
      [
        "def",
        "ault"
      ],
      [
        "iz",
        "e"
      ],
      [
        "bo",
        "t"
      ],
      [
        "vi",
        "a"
      ],
      [
        "pb",
        "_ret"
      ],
      [
        "ROW",
        "S"
      ],
      [
        "T",
        "U"
      ],
      [
        "s",
        "_"
      ],
      [
        "==",
        "="
      ],
      [
        "igh",
        "bor"
      ],
      [
        "d",
        "ark"
      ],
      [
        "..",
        ".."
      ],
      [
        "spa",
        "wn"
      ],
      [
        "I",
        "f"
      ],
      [
        "i",
        "ght"
      ],
      [
        "3",
        "00"
      ],
      [
        "P",
        "hase"
      ],
      [
        "f",
        "ill"
      ],
      [
        "v",
        "ar"
      ],
      [
        "re",
        "spon"
      ],
      [
        "10",
        "8"
      ],
      [
        "A",
        "I"
      ],
      [
        "E",
        "E"
      ],
      [
        "g",
        "round"
      ],
      [
        "ne",
        "ighbor"
      ],
      [
        "0xFF",
        "B"
      ],
      [
        "_",
        "1"
      ],
      [
        "ar",
        "ch"
      ],
      [
        "draw",
        "s"
      ],
      [
        "0x2",
        "00"
      ],
      [
        "li",
        "ck"
      ],
      [
        "In",
        "it"
      ],
      [
        "pla",
        "ce"
      ],
      [
        "7",
        "3"
      ],
      [
        "D",
        "e"
      ],
      [
        "E",
        "X"
      ],
      [
        "c",
        "am"
      ],
      [
        "s",
        "in"
      ],
      [
        "t",
        "on"
      ],
      [
        "_o",
        "k"
      ],
      [
        "_di",
        "git"
      ],
      [
        "Bu",
        "ild"
      ],
      [
        "bot",
        "tom"
      ],
      [
        "1",
        "10"
      ],
      [
        "11",
        "1"
      ],
      [
        "th",
        "at"
      ],
      [
        "0x5",
        "000"
      ],
      [
        "n",
        "el"
      ],
      [
        "st",
        "an"
      ],
      [
        "pat",
        "h"
      ],
      [
        "W",
        "PIXEL"
      ],
      [
        "d",
        "y"
      ],
      [
        "e",
        "xt"
      ],
      [
        "g",
        "_"
      ],
      [
        "ch",
        "k_"
      ],
      [
        "SE",
        "T"
      ],
      [
        "draw",
        "ing"
      ],
      [
        "STA",
        "TU"
      ],
      [
        "ra",
        "te"
      ],
      [
        "RA",
        "ND"
      ],
      [
        "_c",
        "lear"
      ],
      [
        "um",
        "n"
      ],
      [
        ">",
        "="
      ],
      [
        "m",
        "c"
      ],
      [
        "se",
        "ver"
      ],
      [
        "el",
        "low"
      ],
      [
        "col",
        "umn"
      ],
      [
        "out",
        "put"
      ],
      [
        "sever",
        "al"
      ],
      [
        "o",
        "st"
      ],
      [
        "o",
        "us"
      ],
      [
        "t",
        "ur"
      ],
      [
        "de",
        "d"
      ],
      [
        "wor",
        "ds"
      ],
      [
        "Lo",
        "ad"
      ],
      [
        "u",
        "st"
      ],
      [
        "w",
        "all"
      ],
      [
        "he",
        "re"
      ],
      [
        "ra",
        "in"
      ],
      [
        "pb",
        "_c"
      ],
      [
        "app",
        "end_"
      ],
      [
        "L",
        "INE"
      ],
      [
        "_",
        "s"
      ],
      [
        "a",
        "ge"
      ],
      [
        "main",
        "_0"
      ],
      [
        "hi",
        "st"
      ],
      [
        "exec",
        "ut"
      ],
      [
        "+",
        "+"
      ],
      [
        "6",
        "9"
      ],
      [
        "e",
        "w"
      ],
      [
        "m",
        "on"
      ],
      [
        "se",
        "d"
      ],
      [
        "ul",
        "ti"
      ],
      [
        "ff",
        "e"
      ],
      [
        "fun",
        "ction"
      ],
      [
        "i",
        "le"
      ],
      [
        "in",
        "di"
      ],
      [
        "er",
        "a"
      ],
      [
        "ad",
        "vance"
      ],
      [
        "res",
        "ult"
      ],
      [
        "ment",
        "s"
      ],
      [
        "var",
        "i"
      ],
      [
        "C",
        "K"
      ],
      [
        "R",
        "ow"
      ],
      [
        "w",
        "i"
      ],
      [
        "ate",
        "s"
      ],
      [
        "n",
        "ame"
      ],
      [
        "ma",
        "x"
      ],
      [
        "0x3",
        "000"
      ],
      [
        "are",
        "a"
      ],
      [
        "but",
        "ton"
      ],
      [
        "_",
        "b"
      ],
      [
        "c",
        "or"
      ],
      [
        "i",
        "mple"
      ],
      [
        "s",
        "ion"
      ],
      [
        "si",
        "g"
      ],
      [
        "wa",
        "ve"
      ],
      [
        "ir",
        "cle"
      ],
      [
        "o",
        "ve"
      ],
      [
        "wa",
        "it"
      ],
      [
        "id",
        "th"
      ],
      [
        "7",
        "5"
      ],
      [
        "a",
        "ve"
      ],
      [
        "t",
        "ri"
      ],
      [
        "bit",
        "s"
      ],
      [
        "back",
        "ground"
      ],
      [
        "HI",
        "T"
      ],
      [
        "cond",
        "ition"
      ],
      [
        "2",
        "40"
      ],
      [
        "m",
        "an"
      ],
      [
        "w",
        "idth"
      ],
      [
        "ge",
        "t_"
      ],
      [
        "skip",
        "_"
      ],
      [
        "em",
        "it"
      ],
      [
        "Co",
        "mp"
      ],
      [
        "whi",
        "te"
      ],
      [
        "cam",
        "era"
      ],
      [
        "n",
        "ing"
      ],
      [
        "lo",
        "ck"
      ],
      [
        "la",
        "g"
      ],
      [
        "byte",
        "s"
      ],
      [
        "pro",
        "cess"
      ],
      [
        "world_",
        "y"
      ],
      [
        "chan",
        "nel"
      ],
      [
        "i",
        "te"
      ],
      [
        "la",
        "mp"
      ],
      [
        "0x4",
        "4"
      ],
      [
        "ver",
        "t"
      ],
      [
        "world_",
        "x"
      ],
      [
        "respon",
        "se"
      ],
      [
        "ti",
        "c"
      ],
      [
        "c",
        "t_"
      ],
      [
        "i",
        "x"
      ],
      [
        "r",
        "an"
      ],
      [
        "re",
        "store"
      ],
      [
        "0x4",
        "000"
      ],
      [
        "frame",
        "s"
      ],
      [
        "0x4E",
        "0"
      ],
      [
        "8",
        "3"
      ],
      [
        "S",
        "to"
      ],
      [
        "u",
        "gh"
      ],
      [
        "or",
        "iz"
      ],
      [
        "11",
        "5"
      ],
      [
        "sg",
        "r_"
      ],
      [
        "d",
        "ing"
      ],
      [
        "e",
        "mp"
      ],
      [
        "k",
        "_ret"
      ],
      [
        "SHL",
        "I"
      ],
      [
        "A",
        "2"
      ],
      [
        "Y",
        "S"
      ],
      [
        "p",
        "hase"
      ],
      [
        "t",
        "k_"
      ],
      [
        "w",
        "here"
      ],
      [
        "de",
        "s"
      ],
      [
        "0xFF",
        "0000"
      ],
      [
        "ome",
        "try"
      ],
      [
        "poin",
        "ter"
      ],
      [
        "execut",
        "ion"
      ],
      [
        "7",
        "2"
      ],
      [
        "P",
        "ro"
      ],
      [
        "U",
        "p"
      ],
      [
        "p",
        "as"
      ],
      [
        "in",
        "k"
      ],
      [
        "0x",
        "C"
      ],
      [
        "me",
        "tic"
      ],
      [
        "ith",
        "metic"
      ],
      [
        "Ge",
        "ometry"
      ],
      [
        "LE",
        "N"
      ],
      [
        "termin",
        "ate"
      ],
      [
        "7",
        "7"
      ],
      [
        "8",
        "2"
      ],
      [
        "E",
        "n"
      ],
      [
        "f",
        "in"
      ],
      [
        "g",
        "rid"
      ],
      [
        "ar",
        "ithmetic"
      ],
      [
        "le",
        "v"
      ],
      [
        "ro",
        "l"
      ],
      [
        "di",
        "f"
      ],
      [
        "sp",
        "rite"
      ],
      [
        "ent",
        "ry"
      ],
      [
        "COLO",
        "R"
      ],
      [
        "Sto",
        "re"
      ],
      [
        "8",
        "4"
      ],
      [
        "0x",
        "D"
      ],
      [
        "0x",
        "E"
      ],
      [
        "12",
        "7"
      ],
      [
        "con",
        "t"
      ],
      [
        "Sh",
        "ow"
      ],
      [
        "2",
        "9"
      ],
      [
        "S",
        "YS"
      ],
      [
        "f",
        "il"
      ],
      [
        "s",
        "w"
      ],
      [
        "lo",
        "c"
      ],
      [
        "is",
        "ion"
      ],
      [
        "ne",
        "xt_"
      ],
      [
        "CO",
        "UN"
      ],
      [
        "LE",
        "_"
      ],
      [
        "AN",
        "S_"
      ],
      [
        "tile",
        "s"
      ],
      [
        "T",
        "XT"
      ],
      [
        "b",
        "el"
      ],
      [
        "0x",
        "88"
      ],
      [
        "co",
        "re"
      ],
      [
        "se",
        "t_"
      ],
      [
        "se",
        "arch"
      ],
      [
        "mo",
        "use"
      ],
      [
        "key",
        "board"
      ],
      [
        "ta",
        "il"
      ],
      [
        "indi",
        "c"
      ],
      [
        "COUN",
        "T"
      ],
      [
        "d",
        "u"
      ],
      [
        "d",
        "x"
      ],
      [
        "f",
        "lag"
      ],
      [
        "u",
        "re"
      ],
      [
        "v",
        "as"
      ],
      [
        "er",
        "r"
      ],
      [
        "st",
        "ri"
      ],
      [
        "ro",
        "ugh"
      ],
      [
        "la",
        "bel"
      ],
      [
        "11",
        "2"
      ],
      [
        "11",
        "6"
      ],
      [
        "ten",
        "t"
      ],
      [
        "cop",
        "y_"
      ],
      [
        "3",
        "4"
      ],
      [
        "g",
        "ic"
      ],
      [
        "y",
        "ellow"
      ],
      [
        "co",
        "lo"
      ],
      [
        "se",
        "ts"
      ],
      [
        "de",
        "bu"
      ],
      [
        "de",
        "mo"
      ],
      [
        "color",
        "s"
      ],
      [
        "L",
        "ay"
      ],
      [
        "S",
        "c"
      ],
      [
        "_",
        "TA"
      ],
      [
        "c",
        "d"
      ],
      [
        "h",
        "it"
      ],
      [
        "h",
        "oriz"
      ],
      [
        "t",
        "ar"
      ],
      [
        "w",
        "o"
      ],
      [
        "st",
        "o"
      ],
      [
        "co",
        "or"
      ],
      [
        "bl",
        "d"
      ],
      [
        "use",
        "s"
      ],
      [
        "ag",
        "ent_"
      ],
      [
        "let",
        "te"
      ],
      [
        "E",
        "SC"
      ],
      [
        "T",
        "itle"
      ],
      [
        "m",
        "at"
      ],
      [
        "p",
        "res"
      ],
      [
        "ro",
        "ut"
      ],
      [
        "_c",
        "ursor"
      ],
      [
        "RO",
        "LL"
      ],
      [
        "SC",
        "ROLL"
      ],
      [
        "th",
        "rough"
      ],
      [
        "ver",
        "y"
      ],
      [
        "can",
        "vas"
      ],
      [
        "3",
        "5"
      ],
      [
        "<",
        "<"
      ],
      [
        "m",
        "ix"
      ],
      [
        "ar",
        "row"
      ],
      [
        "de",
        "c"
      ],
      [
        "op",
        "y"
      ],
      [
        "ent",
        "ri"
      ],
      [
        "str",
        "_"
      ],
      [
        "pb_c",
        "si_"
      ],
      [
        "6",
        "00"
      ],
      [
        "P",
        "i"
      ],
      [
        "i",
        "b"
      ],
      [
        "o",
        "th"
      ],
      [
        "he",
        "s"
      ],
      [
        "as",
        "k"
      ],
      [
        "0xFF",
        "FF"
      ],
      [
        "th",
        "is"
      ],
      [
        "ste",
        "p"
      ],
      [
        "emp",
        "ty"
      ],
      [
        "colo",
        "red"
      ],
      [
        "C",
        "M"
      ],
      [
        "L",
        "A"
      ],
      [
        "c",
        "us"
      ],
      [
        "c",
        "ircle"
      ],
      [
        "g",
        "g"
      ],
      [
        "m",
        "c_"
      ],
      [
        "u",
        "al"
      ],
      [
        "frame",
        "_"
      ],
      [
        "tur",
        "n"
      ],
      [
        "7",
        "9"
      ],
      [
        "C",
        "0"
      ],
      [
        "_",
        "lp"
      ],
      [
        "a",
        "in"
      ],
      [
        "b",
        "ri"
      ],
      [
        "l",
        "er"
      ],
      [
        "re",
        "e"
      ],
      [
        "st",
        "rate"
      ],
      [
        "and",
        "om"
      ],
      [
        "la",
        "p"
      ],
      [
        "la",
        "st"
      ],
      [
        "ne",
        "d"
      ],
      [
        "di",
        "r"
      ],
      [
        "ac",
        "c"
      ],
      [
        "wi",
        "se"
      ],
      [
        "S",
        "A"
      ],
      [
        "f",
        "ore"
      ],
      [
        "en",
        "ame"
      ],
      [
        "us",
        "h"
      ],
      [
        "append_",
        "byte"
      ],
      [
        "Comp",
        "ute"
      ],
      [
        "S",
        "M"
      ],
      [
        "a",
        "ctive"
      ],
      [
        "d",
        "d"
      ],
      [
        "l",
        "ision"
      ],
      [
        "s",
        "r"
      ],
      [
        "s",
        "core"
      ],
      [
        "he",
        "ad"
      ],
      [
        "col",
        "lision"
      ],
      [
        "F",
        "G_"
      ],
      [
        "c",
        "no"
      ],
      [
        "r",
        "atch"
      ],
      [
        "t",
        "ing"
      ],
      [
        "w",
        "h"
      ],
      [
        "at",
        "ing"
      ],
      [
        "0x2",
        "0"
      ],
      [
        "Ge",
        "t"
      ],
      [
        "qu",
        "en"
      ],
      [
        "clear",
        "_"
      ],
      [
        "vis",
        "or"
      ],
      [
        "FG_",
        "COLOR"
      ],
      [
        "6",
        "7"
      ],
      [
        "N",
        "O"
      ],
      [
        "S",
        "G"
      ],
      [
        "S",
        "et"
      ],
      [
        "m",
        "ulti"
      ],
      [
        "n",
        "_"
      ],
      [
        "n",
        "on"
      ],
      [
        "ADD",
        "R"
      ],
      [
        "ur",
        "ce"
      ],
      [
        "HIT",
        "SET"
      ],
      [
        "C",
        "opy"
      ],
      [
        "S",
        "P"
      ],
      [
        "en",
        "dif"
      ],
      [
        "he",
        "l"
      ],
      [
        "la",
        "te"
      ],
      [
        "BL",
        "E"
      ],
      [
        "0x2",
        "40"
      ],
      [
        "STA",
        "TE"
      ],
      [
        "ste",
        "m"
      ],
      [
        "build",
        "ing"
      ],
      [
        ":",
        "\""
      ],
      [
        "P",
        "RO"
      ],
      [
        "_",
        "BASE"
      ],
      [
        "g",
        "en"
      ],
      [
        "p",
        "an"
      ],
      [
        "st",
        "ack"
      ],
      [
        "an",
        "s"
      ],
      [
        "10",
        "4"
      ],
      [
        "as",
        "c"
      ],
      [
        "0xFF",
        "FF00"
      ],
      [
        "vi",
        "ew"
      ],
      [
        "fo",
        "cus"
      ],
      [
        "pa",
        "lette"
      ],
      [
        "PI",
        "D"
      ],
      [
        "TXT",
        "_BUF"
      ],
      [
        "2",
        "3"
      ],
      [
        "2",
        "6"
      ],
      [
        "H",
        "el"
      ],
      [
        "T",
        "e"
      ],
      [
        "f",
        "ull"
      ],
      [
        "g",
        "th"
      ],
      [
        "m",
        "atch"
      ],
      [
        "u",
        "t_"
      ],
      [
        "u",
        "32"
      ],
      [
        "te",
        "mp"
      ],
      [
        "ar",
        "y"
      ],
      [
        "ab",
        "le"
      ],
      [
        "sh",
        "o"
      ],
      [
        "enter",
        "s"
      ],
      [
        "render",
        "_"
      ],
      [
        "c",
        "ap"
      ],
      [
        "c",
        "ted"
      ],
      [
        "sc",
        "an"
      ],
      [
        "no",
        "w"
      ],
      [
        "ed",
        "it"
      ],
      [
        "li",
        "ght"
      ],
      [
        "ent_",
        "agent_"
      ],
      [
        "len",
        "gth"
      ],
      [
        "WIN",
        "SYS"
      ],
      [
        "entri",
        "es"
      ],
      [
        "5",
        "1"
      ],
      [
        "f",
        "e"
      ],
      [
        "p",
        "le"
      ],
      [
        "lo",
        "gic"
      ],
      [
        "10",
        "5"
      ],
      [
        "0x7",
        "000"
      ],
      [
        "ge",
        "t"
      ],
      [
        "LL",
        "M"
      ],
      [
        "ag",
        "ent"
      ],
      [
        "vis",
        "i"
      ],
      [
        "----------------",
        "----------------"
      ],
      [
        "call",
        "s"
      ],
      [
        "stan",
        "t"
      ],
      [
        "imple",
        "ments"
      ],
      [
        "C",
        "ol"
      ],
      [
        "n",
        "er"
      ],
      [
        "s",
        "ize"
      ],
      [
        "0x",
        "B"
      ],
      [
        "0x",
        "AA"
      ],
      [
        "ro",
        "ss"
      ],
      [
        "ul",
        "d"
      ],
      [
        "str",
        "len"
      ],
      [
        "li",
        "b"
      ],
      [
        "init",
        "_"
      ],
      [
        "_ne",
        "w"
      ],
      [
        "hal",
        "ts"
      ],
      [
        "fil",
        "ename"
      ],
      [
        "c",
        "p"
      ],
      [
        "i",
        "st"
      ],
      [
        "en",
        "der"
      ],
      [
        "st",
        "op"
      ],
      [
        "me",
        "s"
      ],
      [
        "ke",
        "y_"
      ],
      [
        "qu",
        "it"
      ],
      [
        "E",
        "R"
      ],
      [
        "b",
        "all"
      ],
      [
        "m",
        "er"
      ],
      [
        "r",
        "andom"
      ],
      [
        "ne",
        "g"
      ],
      [
        "sc",
        "ratch"
      ],
      [
        "li",
        "c"
      ],
      [
        "h",
        "ost"
      ],
      [
        "ar",
        "g"
      ],
      [
        "0xFF",
        "00"
      ],
      [
        "OP",
        "EN"
      ],
      [
        "pi",
        "pe"
      ],
      [
        "0x0",
        "40"
      ],
      [
        "bit",
        "wise"
      ],
      [
        "────────────────────────────────",
        "────────"
      ],
      [
        "poin",
        "t"
      ],
      [
        "_to_",
        "buf"
      ],
      [
        "hist",
        "ory"
      ],
      [
        "SA",
        "VE"
      ],
      [
        "4",
        "5"
      ],
      [
        "T",
        "_"
      ],
      [
        "_",
        "hash"
      ],
      [
        "d",
        "in"
      ],
      [
        "p",
        "r"
      ],
      [
        "0x",
        "80"
      ],
      [
        "ar",
        "t"
      ],
      [
        "_d",
        "o"
      ],
      [
        "la",
        "ck"
      ],
      [
        "di",
        "re"
      ],
      [
        "DE",
        "BU"
      ],
      [
        "0x0",
        "A0"
      ],
      [
        "display",
        "s"
      ],
      [
        "ib",
        "ble"
      ],
      [
        "C",
        "P"
      ],
      [
        "F",
        "S"
      ],
      [
        "I",
        "P_"
      ],
      [
        "U",
        "ses"
      ],
      [
        "c",
        "lick"
      ],
      [
        "d",
        "one"
      ],
      [
        "g",
        "o"
      ],
      [
        "g",
        "re"
      ],
      [
        "j",
        "ust"
      ],
      [
        "in",
        "crement"
      ],
      [
        "de",
        "st"
      ],
      [
        "SE",
        "L"
      ],
      [
        "reg",
        "ion"
      ],
      [
        "0x1",
        "A1"
      ],
      [
        "im",
        "al"
      ],
      [
        "NE",
        "G"
      ],
      [
        "exec",
        "ute"
      ],
      [
        "sg",
        "r"
      ],
      [
        "sy",
        "stem"
      ],
      [
        "anim",
        "ation"
      ],
      [
        "Te",
        "st"
      ],
      [
        "DEBU",
        "G_"
      ],
      [
        "5",
        "6"
      ],
      [
        "D",
        "00"
      ],
      [
        "R",
        "ender"
      ],
      [
        "V",
        "M"
      ],
      [
        "_",
        "up"
      ],
      [
        "a",
        "le"
      ],
      [
        "b",
        "lack"
      ],
      [
        "p",
        "end"
      ],
      [
        "w",
        "r"
      ],
      [
        "bor",
        "der"
      ],
      [
        "sr",
        "c"
      ],
      [
        "_new",
        "line"
      ],
      [
        "*",
        "*"
      ],
      [
        "2",
        "1"
      ],
      [
        "I",
        "R"
      ],
      [
        "_",
        "3"
      ],
      [
        "c",
        "c"
      ],
      [
        "i",
        "g"
      ],
      [
        "p",
        "h"
      ],
      [
        "t",
        "int"
      ],
      [
        "v",
        "y"
      ],
      [
        "RE",
        "AD"
      ],
      [
        "0x",
        "000"
      ],
      [
        "00",
        "1"
      ],
      [
        "se",
        "quen"
      ],
      [
        "_d",
        "ir"
      ],
      [
        "0x1",
        "F"
      ],
      [
        "buf",
        "_"
      ],
      [
        "render",
        "ing"
      ],
      [
        "read",
        "y"
      ],
      [
        "rect",
        "angle"
      ],
      [
        "A2",
        "E"
      ],
      [
        "indic",
        "ator"
      ],
      [
        "rout",
        "ine"
      ],
      [
        "strate",
        "s"
      ],
      [
        "Hel",
        "lo"
      ],
      [
        "5",
        "00"
      ],
      [
        "C",
        "LE"
      ],
      [
        "S",
        "ave"
      ],
      [
        "a",
        "red"
      ],
      [
        "b",
        "lock"
      ],
      [
        "s",
        "qu"
      ],
      [
        "re",
        "set"
      ],
      [
        "it",
        "s"
      ],
      [
        "di",
        "ffe"
      ],
      [
        "SC",
        "I"
      ],
      [
        "0x6",
        "000"
      ],
      [
        "digit",
        "s"
      ],
      [
        "inclu",
        "ding"
      ],
      [
        "Init",
        "ializ"
      ],
      [
        "bld",
        "g"
      ],
      [
        "4",
        "7"
      ],
      [
        "A",
        "SCI"
      ],
      [
        "D",
        "O"
      ],
      [
        "d",
        "ri"
      ],
      [
        "e",
        "very"
      ],
      [
        "k",
        "no"
      ],
      [
        "m",
        "al"
      ],
      [
        "..",
        "."
      ],
      [
        "ab",
        "ove"
      ],
      [
        "wor",
        "d"
      ],
      [
        "mc",
        "_ret"
      ],
      [
        "mc_",
        "25"
      ],
      [
        "diffe",
        "rent"
      ],
      [
        "ASCI",
        "I"
      ],
      [
        "kno",
        "wn"
      ],
      [
        "B",
        "O"
      ],
      [
        "N",
        "ull"
      ],
      [
        "h",
        "_"
      ],
      [
        "h",
        "y"
      ],
      [
        "0x",
        "120"
      ],
      [
        "en",
        "em"
      ],
      [
        "se",
        "le"
      ],
      [
        "ed",
        "ge"
      ],
      [
        "AN",
        "SI_"
      ],
      [
        "ser",
        "ies"
      ],
      [
        "func_",
        "0"
      ],
      [
        "sto",
        "red"
      ],
      [
        "Col",
        "or"
      ],
      [
        "0x1A1",
        "A2E"
      ],
      [
        "8",
        "7"
      ],
      [
        "O",
        "SC"
      ],
      [
        "m",
        "d"
      ],
      [
        "n",
        "a"
      ],
      [
        "p",
        "l"
      ],
      [
        "v",
        "a"
      ],
      [
        "ar",
        "m"
      ],
      [
        "10",
        "3"
      ],
      [
        "do",
        "_re"
      ],
      [
        "STATU",
        "S_"
      ],
      [
        "frame_",
        "counter"
      ],
      [
        "_",
        "id"
      ],
      [
        "s",
        "ine"
      ],
      [
        "DI",
        "R"
      ],
      [
        "in",
        "u"
      ],
      [
        "ch",
        "ild"
      ],
      [
        "_c",
        "l"
      ],
      [
        "0x0",
        "20"
      ],
      [
        "si",
        "mple"
      ],
      [
        "per",
        "visor"
      ],
      [
        "Re",
        "g"
      ],
      [
        "so",
        "urce"
      ],
      [
        "run",
        "ning"
      ],
      [
        "COLO",
        "R_BUF"
      ],
      [
        "err",
        "or"
      ],
      [
        "NO",
        "TE"
      ],
      [
        "5",
        "3"
      ],
      [
        "F",
        "E"
      ],
      [
        "f",
        "d"
      ],
      [
        "h",
        "t"
      ],
      [
        "u",
        "late"
      ],
      [
        "con",
        "tent"
      ],
      [
        "COL",
        "_"
      ],
      [
        "fi",
        "x"
      ],
      [
        "gra",
        "ss"
      ],
      [
        "Re",
        "set"
      ],
      [
        "new",
        "line"
      ],
      [
        "condition",
        "al"
      ],
      [
        "Up",
        "date"
      ],
      [
        "lev",
        "el"
      ],
      [
        "un",
        "ti"
      ],
      [
        "di",
        "m"
      ],
      [
        "R_",
        "B"
      ],
      [
        "bo",
        "x"
      ],
      [
        "gen",
        "er"
      ],
      [
        "Initializ",
        "e"
      ],
      [
        "hy",
        "pervisor"
      ],
      [
        "1",
        "50"
      ],
      [
        "7",
        "1"
      ],
      [
        "R",
        "L"
      ],
      [
        "W",
        "e"
      ],
      [
        "v",
        "en"
      ],
      [
        "re",
        "start"
      ],
      [
        "el",
        "se"
      ],
      [
        "ti",
        "cle"
      ],
      [
        "0x1",
        "000"
      ],
      [
        "be",
        "fore"
      ],
      [
        "ses",
        "sion"
      ],
      [
        "cal",
        "c"
      ],
      [
        "fa",
        "il"
      ],
      [
        "pas",
        "s"
      ],
      [
        "Lay",
        "out"
      ],
      [
        "9",
        "3"
      ],
      [
        "_",
        "2"
      ],
      [
        "in",
        "t_"
      ],
      [
        "_c",
        "md"
      ],
      [
        "sp",
        "e"
      ],
      [
        "TI",
        "CK"
      ],
      [
        "con",
        "stant"
      ],
      [
        "_o",
        "ver"
      ],
      [
        "oth",
        "er"
      ],
      [
        "dire",
        "ction"
      ],
      [
        "ht",
        "t"
      ],
      [
        "8",
        "00"
      ],
      [
        "9",
        "1"
      ],
      [
        "R",
        "UN"
      ],
      [
        "S",
        "kip"
      ],
      [
        "W",
        "N"
      ],
      [
        "_",
        "col"
      ],
      [
        "s",
        "lo"
      ],
      [
        "s",
        "256"
      ],
      [
        "t",
        "k_ret"
      ],
      [
        "u",
        "ally"
      ],
      [
        "li",
        "ke"
      ],
      [
        "line",
        "_to_buf"
      ],
      [
        "draw_",
        "frame"
      ],
      [
        "par",
        "ticle"
      ],
      [
        "cell",
        "s"
      ],
      [
        "sub",
        "tra"
      ],
      [
        "write_",
        "line_to_buf"
      ],
      [
        "CL",
        "IP_"
      ],
      [
        "ANSI_",
        "STATE"
      ],
      [
        "M",
        "em"
      ],
      [
        "c",
        "lamp"
      ],
      [
        "in",
        "ter"
      ],
      [
        "st",
        "or"
      ],
      [
        "ul",
        "ts"
      ],
      [
        "di",
        "st"
      ],
      [
        "0x4",
        "44"
      ],
      [
        "con",
        "ds"
      ],
      [
        "0x5",
        "0"
      ],
      [
        "ap",
        "pro"
      ],
      [
        "write",
        "s"
      ],
      [
        "be",
        "t"
      ],
      [
        "ms",
        "g"
      ],
      [
        "em",
        "on"
      ],
      [
        "par",
        "se"
      ],
      [
        "cy",
        "an"
      ],
      [
        "EE",
        "P"
      ],
      [
        "_TA",
        "BLE"
      ],
      [
        "SCROLL",
        "_"
      ],
      [
        "dec",
        "imal"
      ],
      [
        "9",
        "6"
      ],
      [
        "B",
        "EEP"
      ],
      [
        "C",
        "IR"
      ],
      [
        "H",
        "T"
      ],
      [
        "p",
        "ack"
      ],
      [
        "t",
        "al"
      ],
      [
        "0x",
        "CC"
      ],
      [
        "an",
        "ge"
      ],
      [
        "the",
        "m"
      ],
      [
        "R_",
        "SC"
      ],
      [
        "us",
        "er"
      ],
      [
        "0x00",
        "0000"
      ],
      [
        "check",
        "s"
      ],
      [
        "fo",
        "und"
      ],
      [
        "read",
        "s"
      ],
      [
        "0x78",
        "00"
      ],
      [
        "coor",
        "din"
      ],
      [
        "Reg",
        "ister"
      ],
      [
        "CIR",
        "CLE"
      ],
      [
        "A",
        "C"
      ],
      [
        "D",
        "isplay"
      ],
      [
        "v",
        "x"
      ],
      [
        "re",
        "main"
      ],
      [
        "al",
        "ready"
      ],
      [
        "ct",
        "s"
      ],
      [
        "bu",
        "il"
      ],
      [
        "star",
        "ts"
      ],
      [
        "save",
        "d"
      ],
      [
        "we",
        "en"
      ],
      [
        "advance",
        "_to_"
      ],
      [
        "DIR",
        "TY"
      ],
      [
        "8",
        "5"
      ],
      [
        "C",
        "lo"
      ],
      [
        "F",
        "8"
      ],
      [
        "F",
        "or"
      ],
      [
        "h",
        "as"
      ],
      [
        "h",
        "ome"
      ],
      [
        "p",
        "s"
      ],
      [
        "or",
        "g"
      ],
      [
        "se",
        "conds"
      ],
      [
        "he",
        "lp"
      ],
      [
        "ra",
        "g"
      ],
      [
        "10",
        "2"
      ],
      [
        "ti",
        "ck"
      ],
      [
        "0x00",
        "FFFF"
      ],
      [
        "do",
        "_newline"
      ],
      [
        "si",
        "de"
      ],
      [
        "spa",
        "ces"
      ],
      [
        "tab",
        "_"
      ],
      [
        "ac",
        "ter"
      ],
      [
        "mm",
        "_"
      ],
      [
        "vari",
        "ous"
      ],
      [
        "sig",
        "ned"
      ],
      [
        "dir",
        "ty"
      ],
      [
        "bet",
        "ween"
      ],
      [
        "1",
        "000"
      ],
      [
        "E",
        "ach"
      ],
      [
        "M",
        "M"
      ],
      [
        "P",
        "lay"
      ],
      [
        "S",
        "e"
      ],
      [
        "d",
        "st"
      ],
      [
        "p",
        "v"
      ],
      [
        "────",
        "──"
      ],
      [
        "ar",
        "se"
      ],
      [
        "ne",
        "ed"
      ],
      [
        "100",
        "00"
      ],
      [
        "bo",
        "un"
      ],
      [
        "ta",
        "in"
      ],
      [
        "_f",
        "a"
      ],
      [
        "after",
        "_"
      ],
      [
        "ont",
        "al"
      ],
      [
        "camera",
        "_x"
      ],
      [
        "hel",
        "lo"
      ],
      [
        "sho",
        "uld"
      ],
      [
        "unti",
        "l"
      ],
      [
        "_",
        "n"
      ],
      [
        "d",
        "a"
      ],
      [
        "s",
        "x"
      ],
      [
        "w",
        "al"
      ],
      [
        "in",
        "te"
      ],
      [
        "or",
        "ange"
      ],
      [
        "le",
        "te"
      ],
      [
        "MO",
        "DE"
      ],
      [
        "li",
        "st"
      ],
      [
        "char",
        "acter"
      ],
      [
        "key",
        "s"
      ],
      [
        "inclu",
        "des"
      ],
      [
        "STATU",
        "S"
      ],
      [
        "sig",
        "n"
      ],
      [
        "rol",
        "s"
      ],
      [
        "sgr",
        "_ret"
      ],
      [
        "L",
        "S"
      ],
      [
        "M",
        "ain"
      ],
      [
        "N",
        "o"
      ],
      [
        "R",
        "Y"
      ],
      [
        "S",
        "pa"
      ],
      [
        "p",
        "op"
      ],
      [
        "s",
        "up"
      ],
      [
        "v",
        "ol"
      ],
      [
        "w",
        "ra"
      ],
      [
        "re",
        "pe"
      ],
      [
        "10",
        "9"
      ],
      [
        "ti",
        "mer"
      ],
      [
        "0x7",
        "00"
      ],
      [
        "ab",
        "s"
      ],
      [
        "En",
        "ter"
      ],
      [
        "\"",
        ")"
      ],
      [
        "(",
        "`"
      ],
      [
        "+",
        "="
      ],
      [
        "1",
        "40"
      ],
      [
        "3",
        "7"
      ],
      [
        "5",
        "4"
      ],
      [
        "A",
        "p"
      ],
      [
        "m",
        "_"
      ],
      [
        "m",
        "ask"
      ],
      [
        "o",
        "om"
      ],
      [
        "p",
        "ush"
      ],
      [
        "s",
        "b"
      ],
      [
        "it",
        "ch"
      ],
      [
        "at",
        "ive"
      ],
      [
        "to",
        "tal"
      ],
      [
        "t_",
        "in"
      ],
      [
        "sc",
        "ale"
      ],
      [
        "TE",
        "R"
      ],
      [
        "ent",
        "ity"
      ],
      [
        "sa",
        "ge"
      ],
      [
        "su",
        "ch"
      ],
      [
        "0x8",
        "000"
      ],
      [
        "M_",
        "BASE"
      ],
      [
        "CE",
        "LL"
      ],
      [
        "debu",
        "g"
      ],
      [
        "Pi",
        "xel"
      ],
      [
        "multi",
        "p"
      ],
      [
        "6",
        "2"
      ],
      [
        "U",
        "T"
      ],
      [
        "c",
        "s"
      ],
      [
        "d",
        "ur"
      ],
      [
        "p",
        "ing"
      ],
      [
        "t",
        "wo"
      ],
      [
        "y",
        "s"
      ],
      [
        "on",
        "al"
      ],
      [
        "se",
        "l"
      ],
      [
        "FF",
        "44"
      ],
      [
        "ra",
        "ct"
      ],
      [
        "con",
        "ne"
      ],
      [
        "bo",
        "dy"
      ],
      [
        "IN",
        "K"
      ],
      [
        "tr",
        "l"
      ],
      [
        "ag",
        "onal"
      ],
      [
        "poin",
        "t_in"
      ],
      [
        "termin",
        "al"
      ],
      [
        "KEY",
        "_"
      ],
      [
        "cm",
        "d"
      ],
      [
        "show",
        "_"
      ],
      [
        "squ",
        "are"
      ],
      [
        "slo",
        "t"
      ],
      [
        "advance_to_",
        "null"
      ],
      [
        "(",
        "\""
      ],
      [
        "F",
        "B"
      ],
      [
        "L",
        "I"
      ],
      [
        "W",
        "a"
      ],
      [
        "a",
        "u"
      ],
      [
        "f",
        "ine"
      ],
      [
        "u",
        "res"
      ],
      [
        "v",
        "ing"
      ],
      [
        "z",
        "oom"
      ],
      [
        "0x",
        "11"
      ],
      [
        "at",
        "ure"
      ],
      [
        "ro",
        "p"
      ],
      [
        "TI",
        "ME"
      ],
      [
        "termin",
        "ator"
      ],
      [
        "stru",
        "ct_"
      ],
      [
        "sub",
        "routine"
      ],
      [
        "cd",
        "l"
      ],
      [
        "CM",
        "D_"
      ],
      [
        "4",
        "x"
      ],
      [
        "5",
        "2"
      ],
      [
        "8",
        "1"
      ],
      [
        "U",
        "RL"
      ],
      [
        "_",
        "row"
      ],
      [
        "b",
        "t"
      ],
      [
        "b",
        "ber"
      ],
      [
        "f",
        "low"
      ],
      [
        "m",
        "ar"
      ],
      [
        "r",
        "on"
      ],
      [
        "w",
        "ard"
      ],
      [
        "he",
        "ll"
      ],
      [
        "sa",
        "me"
      ],
      [
        "In",
        "put"
      ],
      [
        "par",
        "se_"
      ],
      [
        "hal",
        "f"
      ],
      [
        "0x0000",
        "FF"
      ],
      [
        "tar",
        "get_"
      ],
      [
        "Mem",
        "ory"
      ],
      [
        "coordin",
        "ates"
      ],
      [
        "buil",
        "d_"
      ],
      [
        "5",
        "7"
      ],
      [
        "C",
        "ursor"
      ],
      [
        "E",
        "D"
      ],
      [
        "E",
        "x"
      ],
      [
        "F",
        "G"
      ],
      [
        "U",
        "SE"
      ],
      [
        "c",
        "hes"
      ],
      [
        "d",
        "ay"
      ],
      [
        "e",
        "qu"
      ],
      [
        "p",
        "ur"
      ],
      [
        "r",
        "u"
      ],
      [
        "or",
        "mal"
      ],
      [
        "the",
        "se"
      ],
      [
        "col",
        "s"
      ],
      [
        "11",
        "7"
      ],
      [
        "do",
        "t"
      ],
      [
        "pb",
        "_"
      ],
      [
        "pa",
        "int"
      ],
      [
        "EL",
        "LO"
      ],
      [
        "pre",
        "v"
      ],
      [
        "whi",
        "ch"
      ],
      [
        "load",
        "ing"
      ],
      [
        "instruction",
        "s"
      ],
      [
        "ok",
        "up"
      ],
      [
        "Build",
        "ing"
      ],
      [
        "function",
        "s"
      ],
      [
        "lic",
        "ation"
      ],
      [
        "_dir",
        "ty"
      ],
      [
        "dri",
        "ven"
      ],
      [
        "s256",
        "_"
      ],
      [
        "1",
        "30"
      ],
      [
        "6",
        "3"
      ],
      [
        "C",
        "A"
      ],
      [
        "R",
        "G"
      ],
      [
        "Z",
        "E"
      ],
      [
        "_",
        "store"
      ],
      [
        "_",
        "type"
      ],
      [
        "h",
        "u"
      ],
      [
        "m",
        "ark"
      ],
      [
        "o",
        "und"
      ],
      [
        "u",
        "b"
      ],
      [
        "RE",
        "EN"
      ],
      [
        "he",
        "ight"
      ],
      [
        "loop",
        "_0"
      ],
      [
        "di",
        "rect"
      ],
      [
        "CO",
        "N"
      ],
      [
        "lay",
        "out"
      ],
      [
        "GE",
        "T"
      ],
      [
        "store",
        "_"
      ],
      [
        "────────────────────────────────",
        "─"
      ],
      [
        "wh",
        "en"
      ],
      [
        "pan",
        "el"
      ],
      [
        "wal",
        "k"
      ],
      [
        "equ",
        "al"
      ],
      [
        "!",
        "\""
      ],
      [
        "9",
        "5"
      ],
      [
        "B",
        "l"
      ],
      [
        "C",
        "V"
      ],
      [
        "D",
        "D"
      ],
      [
        "H",
        "EX"
      ],
      [
        "I",
        "T"
      ],
      [
        "P",
        "C"
      ],
      [
        "V",
        "I"
      ],
      [
        "i",
        "i"
      ],
      [
        "s",
        "ing"
      ],
      [
        "w",
        "as"
      ],
      [
        "re",
        "place"
      ],
      [
        "0x4",
        "30"
      ],
      [
        "0x7",
        "0"
      ],
      [
        "BL",
        "INK"
      ],
      [
        "0x2",
        "100"
      ],
      [
        "res",
        "ults"
      ],
      [
        "0x5",
        "3"
      ],
      [
        "22",
        "4"
      ],
      [
        "opcode",
        "s"
      ],
      [
        "ME",
        "M"
      ],
      [
        "0x88",
        "88"
      ],
      [
        "gg",
        "le"
      ],
      [
        "non",
        "zero"
      ],
      [
        "asc",
        "iz"
      ],
      [
        "visi",
        "ble"
      ],
      [
        "cp",
        "y"
      ],
      [
        "7",
        "8"
      ],
      [
        "S",
        "P_"
      ],
      [
        "_",
        "count"
      ],
      [
        "b",
        "right"
      ],
      [
        "s",
        "end"
      ],
      [
        "on",
        "ly"
      ],
      [
        "co",
        "s"
      ],
      [
        "LO",
        "OP"
      ],
      [
        "AL",
        "AR"
      ],
      [
        "MO",
        "USE"
      ],
      [
        "us",
        "age"
      ],
      [
        "RI",
        "TE"
      ],
      [
        "wor",
        "k"
      ],
      [
        "SI",
        "ZE"
      ],
      [
        "In",
        "crement"
      ],
      [
        "save",
        "_"
      ],
      [
        "app",
        "end"
      ],
      [
        "horiz",
        "ontal"
      ],
      [
        "R_SC",
        "R"
      ],
      [
        "1",
        "80"
      ],
      [
        "A",
        "d"
      ],
      [
        "C",
        "ont"
      ],
      [
        "E",
        "ND"
      ],
      [
        "x",
        "8"
      ],
      [
        "RE",
        "CV"
      ],
      [
        "en",
        "ti"
      ],
      [
        "le",
        "d"
      ],
      [
        "se",
        "ed"
      ],
      [
        "ne",
        "ar"
      ],
      [
        "di",
        "ent"
      ],
      [
        "di",
        "agonal"
      ],
      [
        "RO",
        "O"
      ],
      [
        "r25",
        "6"
      ],
      [
        "res",
        "ses"
      ],
      [
        "256",
        "x"
      ],
      [
        "add",
        "resses"
      ],
      [
        "ex",
        "p"
      ],
      [
        "AR",
        "T"
      ],
      [
        "comp",
        "ar"
      ],
      [
        "no_",
        "input"
      ],
      [
        "NE",
        "M"
      ],
      [
        "sg",
        "r256"
      ],
      [
        "St",
        "atus"
      ],
      [
        "update",
        "s"
      ],
      [
        "clo",
        "se"
      ],
      [
        "sequen",
        "ce"
      ],
      [
        "mar",
        "k_"
      ],
      [
        "pur",
        "ple"
      ],
      [
        "4",
        "6"
      ],
      [
        "L",
        "D"
      ],
      [
        "M",
        "AL"
      ],
      [
        "N",
        "U"
      ],
      [
        "N",
        "OR"
      ],
      [
        "S",
        "PA"
      ],
      [
        "T",
        "er"
      ],
      [
        "W",
        "A"
      ],
      [
        "_",
        "skip"
      ],
      [
        "b",
        "ran"
      ],
      [
        "c",
        "ross"
      ],
      [
        "e",
        "t_"
      ],
      [
        "f",
        "ont"
      ],
      [
        "r",
        "h_"
      ],
      [
        "s",
        "n"
      ],
      [
        "an",
        "y"
      ],
      [
        "se",
        "cond"
      ],
      [
        "al",
        "so"
      ],
      [
        "de",
        "mon"
      ],
      [
        "is",
        "on"
      ],
      [
        "un",
        "known"
      ],
      [
        "ct",
        "ually"
      ],
      [
        "add",
        "ition"
      ],
      [
        "vis",
        "ual"
      ],
      [
        "string",
        "s"
      ],
      [
        "func_",
        "1"
      ],
      [
        "command",
        "s"
      ],
      [
        "stan",
        "ts"
      ],
      [
        "ile",
        "d"
      ],
      [
        "man",
        "ip"
      ],
      [
        "str_",
        "hello"
      ],
      [
        "turn",
        "s"
      ],
      [
        "bri",
        "gh"
      ],
      [
        "execute",
        "s"
      ],
      [
        "TICK",
        "S"
      ],
      [
        "DIRTY",
        "_"
      ],
      [
        "256x",
        "256"
      ],
      [
        "NOR",
        "MAL"
      ],
      [
        "\"",
        ","
      ],
      [
        "2",
        "48"
      ],
      [
        "4",
        "3"
      ],
      [
        "4",
        "FF"
      ],
      [
        "E",
        "NEM"
      ],
      [
        "I",
        "D"
      ],
      [
        "M",
        "S"
      ],
      [
        "S",
        "S"
      ],
      [
        "U",
        "P"
      ],
      [
        "W",
        "OR"
      ],
      [
        "_",
        "pos"
      ],
      [
        "_",
        "start"
      ],
      [
        "e",
        "q"
      ],
      [
        "e",
        "ffe"
      ],
      [
        "g",
        "ent"
      ],
      [
        "o",
        "d"
      ],
      [
        "te",
        "p"
      ],
      [
        "er",
        "s"
      ],
      [
        "de",
        "l"
      ],
      [
        "LO",
        "SE"
      ],
      [
        "to",
        "ur"
      ],
      [
        "op",
        "en"
      ],
      [
        "is",
        "_"
      ],
      [
        "ch",
        "k"
      ],
      [
        "el",
        "se_"
      ],
      [
        "loop",
        "_1"
      ],
      [
        "0x4",
        "1"
      ],
      [
        "12",
        "4"
      ],
      [
        "12",
        "6"
      ],
      [
        "TI",
        "T"
      ],
      [
        "con",
        "tour"
      ],
      [
        "0x6",
        "0"
      ],
      [
        "pa",
        "st"
      ],
      [
        "ten",
        "s"
      ],
      [
        "BB",
        "BB"
      ],
      [
        "Sc",
        "reen"
      ],
      [
        "mix",
        "ed"
      ],
      [
        "CP",
        "Y"
      ],
      [
        "wr",
        "it"
      ],
      [
        "0x120",
        "1"
      ],
      [
        "after_",
        "input"
      ],
      [
        "fine",
        "_hash"
      ],
      [
        "compar",
        "ison"
      ],
      [
        "B",
        "ack"
      ],
      [
        "N",
        "T"
      ],
      [
        "V",
        "FS"
      ],
      [
        "W",
        "in"
      ],
      [
        "a",
        "st"
      ],
      [
        "f",
        "l"
      ],
      [
        "f",
        "le"
      ],
      [
        "g",
        "u"
      ],
      [
        "h",
        "k_ret"
      ],
      [
        "l",
        "d"
      ],
      [
        "n",
        "ibble"
      ],
      [
        "s",
        "hell"
      ],
      [
        "he",
        "d"
      ],
      [
        "al",
        "arm"
      ],
      [
        "ul",
        "ator"
      ],
      [
        "no",
        "_c"
      ],
      [
        "TI",
        "LE"
      ],
      [
        "TI",
        "LE_"
      ],
      [
        "gra",
        "dient"
      ],
      [
        "ap",
        "e"
      ],
      [
        "0x1",
        "70"
      ],
      [
        "_ne",
        "xt_"
      ],
      [
        "no_",
        "key"
      ],
      [
        "vis",
        "ion"
      ],
      [
        "MA",
        "IN"
      ],
      [
        "ANS_",
        "NORMAL"
      ],
      [
        "acc",
        "ent"
      ],
      [
        "SG",
        "R"
      ],
      [
        "remain",
        "ing"
      ],
      [
        "Cont",
        "rols"
      ],
      [
        "3",
        "9"
      ],
      [
        "F",
        "O"
      ],
      [
        "F",
        "in"
      ],
      [
        "H",
        "and"
      ],
      [
        "L",
        "e"
      ],
      [
        "M",
        "o"
      ],
      [
        "M",
        "ove"
      ],
      [
        "O",
        "p"
      ],
      [
        "R",
        "S"
      ],
      [
        "X",
        "_"
      ],
      [
        "_",
        "left"
      ],
      [
        "a",
        "i"
      ],
      [
        "c",
        "il"
      ],
      [
        "e",
        "y"
      ],
      [
        "s",
        "k"
      ],
      [
        "RE",
        "SP"
      ],
      [
        "0x",
        "A"
      ],
      [
        "me",
        "ans"
      ],
      [
        "as",
        "te"
      ],
      [
        "ch",
        "o"
      ],
      [
        "11",
        "8"
      ],
      [
        "li",
        "p"
      ],
      [
        "IN",
        "G"
      ],
      [
        "gra",
        "y"
      ],
      [
        "AN",
        "SI"
      ],
      [
        "su",
        "c"
      ],
      [
        "ol",
        "d"
      ],
      [
        "cre",
        "ate"
      ],
      [
        "shif",
        "ts"
      ],
      [
        "MA",
        "P_"
      ],
      [
        "....",
        ")"
      ],
      [
        "mc",
        "_check_"
      ],
      [
        "endif",
        "_1"
      ],
      [
        "else",
        "_0"
      ],
      [
        "htt",
        "p_"
      ],
      [
        "bber",
        "s"
      ],
      [
        "pb_",
        "es"
      ],
      [
        "RG",
        "B"
      ],
      [
        "\"",
        "/"
      ],
      [
        "D",
        "4"
      ],
      [
        "H",
        "ELLO"
      ],
      [
        "P",
        "E"
      ],
      [
        "W",
        "_"
      ],
      [
        "W",
        "RITE"
      ],
      [
        "_",
        "color"
      ],
      [
        "`",
        "."
      ],
      [
        "c",
        "at"
      ],
      [
        "h",
        "l_"
      ],
      [
        "t",
        "ree"
      ],
      [
        "w",
        "u"
      ],
      [
        "in",
        "ue"
      ],
      [
        "0x",
        "10"
      ],
      [
        "on",
        "es"
      ],
      [
        "ro",
        "om"
      ],
      [
        "lo",
        "okup"
      ],
      [
        "11",
        "9"
      ],
      [
        "0x4",
        "00"
      ],
      [
        "ti",
        "cal"
      ],
      [
        "16",
        "x"
      ],
      [
        "0x2",
        "200"
      ],
      [
        "screen",
        "_x"
      ],
      [
        "hi",
        "_done"
      ],
      [
        "assem",
        "ble"
      ],
      [
        "id",
        "le"
      ],
      [
        "22",
        "2"
      ],
      [
        "ser",
        "t"
      ],
      [
        "hal",
        "ting"
      ],
      [
        "_reg",
        "s"
      ],
      [
        "tri",
        "angle"
      ],
      [
        "Pro",
        "cess"
      ],
      [
        "sw",
        "itch"
      ],
      [
        "bri",
        "ck"
      ],
      [
        "mes",
        "sage"
      ],
      [
        "0x0A0",
        "A1"
      ],
      [
        "Play",
        "er"
      ],
      [
        "boun",
        "ce"
      ],
      [
        "ENEM",
        "Y"
      ],
      [
        "WOR",
        "LD"
      ],
      [
        "V",
        "_"
      ],
      [
        "c",
        "x"
      ],
      [
        "c",
        "si"
      ],
      [
        "d",
        "_done"
      ],
      [
        "e",
        "cho"
      ],
      [
        "f",
        "w"
      ],
      [
        "h",
        "er"
      ],
      [
        "l",
        "ing"
      ],
      [
        "o",
        "s"
      ],
      [
        "p",
        "_done"
      ],
      [
        "es",
        "cap"
      ],
      [
        "t_",
        "loop"
      ],
      [
        "bl",
        "ink"
      ],
      [
        "0x5",
        "50"
      ],
      [
        "0x6",
        "100"
      ],
      [
        "────────────────────────────────",
        "────────────────"
      ],
      [
        "hand",
        "ler"
      ],
      [
        "fin",
        "ite"
      ],
      [
        "CM",
        "D"
      ],
      [
        "acc",
        "um"
      ],
      [
        "stor",
        "ing"
      ],
      [
        "csi",
        "_cursor"
      ],
      [
        ")",
        "->"
      ],
      [
        "A",
        "l"
      ],
      [
        "D",
        "emon"
      ],
      [
        "E",
        "4"
      ],
      [
        "H",
        "E"
      ],
      [
        "V",
        "AL"
      ],
      [
        "b",
        "g"
      ],
      [
        "d",
        "is"
      ],
      [
        "g",
        "es"
      ],
      [
        "j",
        "e"
      ],
      [
        "p",
        "ut_"
      ],
      [
        "r",
        "ary"
      ],
      [
        "s",
        "q"
      ],
      [
        "DI",
        "SP_"
      ],
      [
        "in",
        "fo"
      ],
      [
        "de",
        "tail"
      ],
      [
        "di",
        "r_"
      ],
      [
        "ent",
        "it"
      ],
      [
        "16",
        "0"
      ],
      [
        "0x2",
        "20"
      ],
      [
        "screen",
        "_y"
      ],
      [
        "0x5",
        "100"
      ],
      [
        "0x00",
        "FF"
      ],
      [
        "tr",
        "ans"
      ],
      [
        "ex",
        "it"
      ],
      [
        "0xF",
        "D00"
      ],
      [
        "ten",
        "ded"
      ],
      [
        "0x780",
        "1"
      ],
      [
        "worl",
        "d"
      ],
      [
        "St",
        "ate"
      ],
      [
        "Con",
        "vert"
      ],
      [
        "0x44",
        "FF44"
      ],
      [
        "ran",
        "ge"
      ],
      [
        "stri",
        "pe"
      ],
      [
        "do_re",
        "ct"
      ],
      [
        "fix",
        "ed"
      ],
      [
        "subtra",
        "ction"
      ],
      [
        "_fa",
        "il"
      ],
      [
        "wra",
        "p"
      ],
      [
        "Ter",
        "min"
      ],
      [
        "8",
        "6"
      ],
      [
        "8",
        "x8"
      ],
      [
        "A",
        "ctually"
      ],
      [
        "C",
        "SI"
      ],
      [
        "E",
        "C"
      ],
      [
        "S",
        "LI"
      ],
      [
        "T",
        "RA"
      ],
      [
        "U",
        "TI"
      ],
      [
        "_",
        "right"
      ],
      [
        "c",
        "si_"
      ],
      [
        "c",
        "b_"
      ],
      [
        "d",
        "b"
      ],
      [
        "e",
        "p"
      ],
      [
        "i",
        "ter"
      ],
      [
        "i",
        "ed"
      ],
      [
        "m",
        "y"
      ],
      [
        "at",
        "ures"
      ],
      [
        "to",
        "ggle"
      ],
      [
        "ter",
        "m"
      ],
      [
        "and",
        "s"
      ],
      [
        "0x7",
        "6"
      ],
      [
        "pi",
        "ck"
      ],
      [
        "code",
        "s"
      ],
      [
        "with",
        "in"
      ],
      [
        "DE",
        "R_"
      ],
      [
        "fi",
        "g"
      ],
      [
        "gra",
        "du"
      ],
      [
        "buffer",
        "s"
      ],
      [
        "pat",
        "ch"
      ],
      [
        "vi",
        "ce"
      ],
      [
        "Co",
        "un"
      ],
      [
        "_di",
        "v"
      ],
      [
        "cy",
        "cle"
      ],
      [
        "handle",
        "s"
      ],
      [
        "TA",
        "B"
      ],
      [
        "compute",
        "d"
      ],
      [
        "wall",
        "s"
      ],
      [
        "vari",
        "ation"
      ],
      [
        "camera",
        "_y"
      ],
      [
        "debu",
        "g_"
      ],
      [
        "mix",
        "er"
      ],
      [
        "0xAA",
        "AA"
      ],
      [
        "inte",
        "ra"
      ],
      [
        "UT",
        "F8"
      ],
      [
        "MEM",
        "CPY"
      ],
      [
        "sgr256",
        "_ret"
      ],
      [
        "Le",
        "ft"
      ],
      [
        "16x",
        "16"
      ],
      [
        "Demon",
        "strates"
      ],
      [
        "SLI",
        "DER_"
      ],
      [
        "gradu",
        "ated"
      ],
      [
        "B",
        "ar"
      ],
      [
        "C",
        "trl"
      ],
      [
        "F",
        "ill"
      ],
      [
        "N",
        "A"
      ],
      [
        "P",
        "at"
      ],
      [
        "R",
        "ight"
      ],
      [
        "_",
        "LEN"
      ],
      [
        "d",
        "f"
      ],
      [
        "n",
        "es"
      ],
      [
        "o",
        "i"
      ],
      [
        "p",
        "ri"
      ],
      [
        "p",
        "v_"
      ],
      [
        "r",
        "ing"
      ],
      [
        "u",
        "mp"
      ],
      [
        "in",
        "finite"
      ],
      [
        "ST",
        "E"
      ],
      [
        "ST",
        "_"
      ],
      [
        "on",
        "g"
      ],
      [
        "at",
        "oi"
      ],
      [
        "0x4",
        "2"
      ],
      [
        "0xFF",
        "E"
      ],
      [
        "0xFF",
        "44"
      ],
      [
        "th",
        "ing"
      ],
      [
        "bo",
        "und"
      ],
      [
        "0x0",
        "600"
      ],
      [
        "um",
        "ent"
      ],
      [
        "exec",
        "_done"
      ],
      [
        "_f",
        "in"
      ],
      [
        "player",
        "_x"
      ],
      [
        "inclu",
        "de"
      ],
      [
        "tra",
        "ce"
      ],
      [
        "get_",
        "tab_"
      ],
      [
        "focus",
        "_"
      ],
      [
        "neg",
        "ative"
      ],
      [
        "gre",
        "p_"
      ],
      [
        "SEL",
        "_"
      ],
      [
        "buf_",
        "a"
      ],
      [
        "pl",
        "an"
      ],
      [
        "multip",
        "lication"
      ],
      [
        "sel",
        "f"
      ],
      [
        "Termin",
        "al"
      ],
      [
        "'",
        "/"
      ],
      [
        "9",
        "8"
      ],
      [
        "9",
        "00"
      ],
      [
        "A",
        "r"
      ],
      [
        "B",
        "AR"
      ],
      [
        "B",
        "ot"
      ],
      [
        "O",
        "ut"
      ],
      [
        "T",
        "ile"
      ],
      [
        "U",
        "se"
      ],
      [
        "W",
        "or"
      ],
      [
        "_",
        "buf"
      ],
      [
        "p",
        "es"
      ],
      [
        "p",
        "add"
      ],
      [
        "in",
        "c"
      ],
      [
        "ALL",
        "TEXT"
      ],
      [
        "0x5",
        "00"
      ],
      [
        "bo",
        "ot"
      ],
      [
        "0x0",
        "C0"
      ],
      [
        "hi",
        "gh"
      ],
      [
        "use",
        "d"
      ],
      [
        "────────────────────────────────",
        "─────────────────────────────────"
      ],
      [
        "ag",
        "es"
      ],
      [
        "0x780",
        "8"
      ],
      [
        "St",
        "art"
      ],
      [
        "_s",
        "ize"
      ],
      [
        "SM",
        "ALLTEXT"
      ],
      [
        "_do",
        "_"
      ],
      [
        "_cl",
        "r"
      ],
      [
        "ru",
        "le"
      ],
      [
        "ALAR",
        "M_"
      ],
      [
        "demon",
        "strates"
      ],
      [
        "Win",
        "dow"
      ],
      [
        "suc",
        "cess"
      ],
      [
        "escap",
        "e"
      ],
      [
        "CMD",
        "_BUF"
      ],
      [
        "'/",
        "'"
      ],
      [
        "Bot",
        "tom"
      ],
      [
        "Out",
        "put"
      ],
      [
        "'",
        ","
      ],
      [
        "7",
        "4"
      ],
      [
        "7",
        "00"
      ],
      [
        "A",
        "n"
      ],
      [
        "C",
        "W"
      ],
      [
        "C",
        "LOSE"
      ],
      [
        "D",
        "0"
      ],
      [
        "F",
        "C"
      ],
      [
        "G",
        "reen"
      ],
      [
        "G",
        "REEN"
      ],
      [
        "_",
        "not_"
      ],
      [
        "a",
        "x"
      ],
      [
        "a",
        "res"
      ],
      [
        "c",
        "v"
      ],
      [
        "c",
        "c_"
      ],
      [
        "d",
        "c"
      ],
      [
        "e",
        "ar"
      ],
      [
        "f",
        "g"
      ],
      [
        "p",
        "ed"
      ],
      [
        "s",
        "now"
      ],
      [
        "in",
        "side"
      ],
      [
        "it",
        "or"
      ],
      [
        "la",
        "va"
      ],
      [
        "0xFF",
        "88"
      ],
      [
        "bl",
        "end_"
      ],
      [
        "0x2",
        "2"
      ],
      [
        "0x2",
        "400"
      ],
      [
        "con",
        "vert"
      ],
      [
        "red",
        "s"
      ],
      [
        "si",
        "m"
      ],
      [
        "sa",
        "mple"
      ],
      [
        "bit",
        "mask"
      ],
      [
        "start",
        "up"
      ],
      [
        "und",
        "reds"
      ],
      [
        "ds",
        "b"
      ],
      [
        "am",
        "on"
      ],
      [
        "test",
        "s"
      ],
      [
        "sy",
        "s"
      ],
      [
        "func_",
        "2"
      ],
      [
        "De",
        "mo"
      ],
      [
        "mon",
        "th"
      ],
      [
        "cor",
        "ner"
      ],
      [
        "lev",
        "ation"
      ],
      [
        "cont",
        "inu"
      ],
      [
        "PRO",
        "MP"
      ],
      [
        "...",
        "\""
      ],
      [
        "Ad",
        "vance"
      ],
      [
        "ROO",
        "M_BASE"
      ],
      [
        "bran",
        "ch"
      ],
      [
        "DISP_",
        "VAL"
      ],
      [
        "!",
        "="
      ],
      [
        "D",
        "1"
      ],
      [
        "S",
        "tep"
      ],
      [
        "T",
        "ry"
      ],
      [
        "_",
        "screen"
      ],
      [
        "a",
        "ct"
      ],
      [
        "c",
        "lip"
      ],
      [
        "i",
        "map"
      ],
      [
        "m",
        "x"
      ],
      [
        "n",
        "ormal"
      ],
      [
        "o",
        "a"
      ],
      [
        "s",
        "end_"
      ],
      [
        "RE",
        "ND"
      ],
      [
        "re",
        "ver"
      ],
      [
        "it",
        "oa"
      ],
      [
        "ter",
        "rain"
      ],
      [
        "as",
        "s"
      ],
      [
        "ad",
        "j"
      ],
      [
        "SH",
        "RI"
      ],
      [
        "for",
        "m"
      ],
      [
        "TE",
        "MP"
      ],
      [
        "RO",
        "UTI"
      ],
      [
        "th",
        "ree"
      ],
      [
        "0x7",
        "4"
      ],
      [
        "ver",
        "tical"
      ],
      [
        "sh",
        "ot"
      ],
      [
        "0x5",
        "30"
      ],
      [
        "0x5",
        "300"
      ],
      [
        "star",
        "t_"
      ],
      [
        "0000",
        "000"
      ],
      [
        "ol",
        "ti"
      ],
      [
        "perfor",
        "m"
      ],
      [
        "copy",
        "_done"
      ],
      [
        "sgr_",
        "brigh"
      ],
      [
        "tk_",
        "arrow"
      ],
      [
        "tar",
        "get"
      ],
      [
        "Pi",
        "ece"
      ],
      [
        "circle",
        "s"
      ],
      [
        "SG",
        "R_"
      ],
      [
        "logic",
        "al"
      ],
      [
        "lib",
        "rary"
      ],
      [
        "DO",
        "WN"
      ],
      [
        "inu",
        "x"
      ],
      [
        "Clo",
        "bbers"
      ],
      [
        "Spa",
        "ce"
      ],
      [
        "repe",
        "ated"
      ],
      [
        "TIME",
        "R"
      ],
      [
        "Hand",
        "le"
      ],
      [
        "TRA",
        "CE"
      ],
      [
        "PROMP",
        "T"
      ],
      [
        "ROUTI",
        "NE"
      ],
      [
        "sgr_brigh",
        "t_"
      ],
      [
        "1",
        "F"
      ],
      [
        "8",
        "9"
      ],
      [
        "H",
        "O"
      ],
      [
        "I",
        "TE"
      ],
      [
        "O",
        "ra"
      ],
      [
        "U",
        "I"
      ],
      [
        "d",
        "p"
      ],
      [
        "d",
        "r_"
      ],
      [
        "f",
        "re"
      ],
      [
        "j",
        "ump"
      ],
      [
        "w",
        "d"
      ],
      [
        "ST",
        "R"
      ],
      [
        "re",
        "r"
      ],
      [
        "or",
        "ig"
      ],
      [
        "co",
        "m"
      ],
      [
        "co",
        "pi"
      ],
      [
        "de",
        "te"
      ],
      [
        "de",
        "ad"
      ],
      [
        "lo",
        "cal"
      ],
      [
        "_c",
        "on"
      ],
      [
        "ne",
        "t"
      ],
      [
        "col",
        "on"
      ],
      [
        "SUB",
        "ROUTINE"
      ],
      [
        "mo",
        "d"
      ],
      [
        "po",
        "ll"
      ],
      [
        "coun",
        "ted"
      ],
      [
        "0x00",
        "CC"
      ],
      [
        "ec",
        "ted"
      ],
      [
        "IN",
        "IT"
      ],
      [
        "fi",
        "el"
      ],
      [
        "gra",
        "ph"
      ],
      [
        "pat",
        "_"
      ],
      [
        "CU",
        "RS"
      ],
      [
        "ac",
        "ross"
      ],
      [
        "ag",
        "ain"
      ],
      [
        "0x780",
        "9"
      ],
      [
        "so",
        "und"
      ],
      [
        "over",
        "lap"
      ],
      [
        "0x9",
        "000"
      ],
      [
        "visi",
        "ted"
      ],
      [
        "STATUS_",
        "CW"
      ],
      [
        "CON",
        "NE"
      ],
      [
        "RECV",
        "_BUF"
      ],
      [
        "MS",
        "G_"
      ],
      [
        "RESP",
        "_BUF"
      ],
      [
        "sq",
        "r"
      ],
      [
        "padd",
        "le"
      ],
      [
        "0xFF88",
        "00"
      ],
      [
        "Ora",
        "cle"
      ],
      [
        ")",
        "\""
      ],
      [
        "1",
        "44"
      ],
      [
        "9",
        "4"
      ],
      [
        "A",
        "SM"
      ],
      [
        "A",
        "dd"
      ],
      [
        "B",
        "0"
      ],
      [
        "B",
        "2"
      ],
      [
        "C",
        "4"
      ],
      [
        "D",
        "U"
      ],
      [
        "H",
        "P"
      ],
      [
        "P",
        "os"
      ],
      [
        "V",
        "er"
      ],
      [
        "W",
        "1"
      ],
      [
        "_",
        "T"
      ],
      [
        "a",
        "ction"
      ],
      [
        "c",
        "ing"
      ],
      [
        "c",
        "mp"
      ],
      [
        "d",
        "n_"
      ],
      [
        "h",
        "ave"
      ],
      [
        "v",
        "1"
      ],
      [
        "ro",
        "id"
      ],
      [
        "_c",
        "re"
      ],
      [
        "TE",
        "ND"
      ],
      [
        "il",
        "ity"
      ],
      [
        "R_",
        "CL"
      ],
      [
        "if",
        "y"
      ],
      [
        "str",
        "cmp"
      ],
      [
        "con",
        "fig"
      ],
      [
        "sh",
        "ared"
      ],
      [
        "0x0",
        "3"
      ],
      [
        "════════════════════════════════",
        "═══════════════"
      ],
      [
        "ex",
        "ist"
      ],
      [
        "start",
        "ing"
      ],
      [
        "bi",
        "as"
      ],
      [
        "ac",
        "le"
      ],
      [
        "_o",
        "sc"
      ],
      [
        "to_",
        "str"
      ],
      [
        "0x8",
        "0000000"
      ],
      [
        "game",
        "_over"
      ],
      [
        "CSI_PARAM",
        "2"
      ],
      [
        "EX",
        "TEND"
      ],
      [
        "cont",
        "rol"
      ],
      [
        "Sc",
        "roll"
      ],
      [
        "horiz",
        "on"
      ],
      [
        "SAVE",
        "D_"
      ],
      [
        "pr",
        "int_"
      ],
      [
        "**",
        ":"
      ],
      [
        "0x444",
        "4FF"
      ],
      [
        "ai",
        "_"
      ],
      [
        "Pat",
        "tern"
      ],
      [
        "SGR_",
        "EXTEND"
      ],
      [
        "SGR_EXTEND",
        "ED"
      ],
      [
        "2",
        "20"
      ],
      [
        "C",
        "re"
      ],
      [
        "S",
        "o"
      ],
      [
        "S",
        "ub"
      ],
      [
        "T",
        "ab"
      ],
      [
        "T",
        "ext"
      ],
      [
        "_",
        "line"
      ],
      [
        "c",
        "ase"
      ],
      [
        "f",
        "all"
      ],
      [
        "n",
        "one"
      ],
      [
        "p",
        "y"
      ],
      [
        "p",
        "ty"
      ],
      [
        "w",
        "c_"
      ],
      [
        "STO",
        "RY"
      ],
      [
        "re",
        "al"
      ],
      [
        "re",
        "ce"
      ],
      [
        "de",
        "v"
      ],
      [
        "me",
        "di"
      ],
      [
        "ce",
        "p"
      ],
      [
        "di",
        "vision"
      ],
      [
        "R_",
        "CC"
      ],
      [
        "0x7",
        "5"
      ],
      [
        "TI",
        "VE"
      ],
      [
        "li",
        "m"
      ],
      [
        "y_",
        "hash"
      ],
      [
        "0xF",
        "A"
      ],
      [
        "buf",
        "_c"
      ],
      [
        "render",
        "s"
      ],
      [
        "13",
        "6"
      ],
      [
        "HI",
        "STORY"
      ],
      [
        "_check_",
        "eq"
      ],
      [
        "tra",
        "ck"
      ],
      [
        "Con",
        "stants"
      ],
      [
        "spawn",
        "_"
      ],
      [
        "sin",
        "_"
      ],
      [
        "cor",
        "rect"
      ],
      [
        "loc",
        "ations"
      ],
      [
        "Lay",
        "er"
      ],
      [
        "_TA",
        "B"
      ],
      [
        "pres",
        "er"
      ],
      [
        "pres",
        "sed"
      ],
      [
        "region",
        "s"
      ],
      [
        "appro",
        "x"
      ],
      [
        "0xCC",
        "CC"
      ],
      [
        "NU",
        "M"
      ],
      [
        "Wor",
        "ld"
      ],
      [
        "orig",
        "in"
      ],
      [
        "2",
        "30"
      ],
      [
        "F",
        "ra"
      ],
      [
        "M",
        "ark"
      ],
      [
        "P",
        "RE"
      ],
      [
        "P",
        "V_"
      ],
      [
        "R",
        "0"
      ],
      [
        "R",
        "es"
      ],
      [
        "]",
        "["
      ],
      [
        "_",
        "t"
      ],
      [
        "_",
        "set"
      ],
      [
        "`",
        ")"
      ],
      [
        "c",
        "n"
      ],
      [
        "c",
        "ac"
      ],
      [
        "d",
        "rag"
      ],
      [
        "o",
        "id"
      ],
      [
        "q",
        "ue"
      ],
      [
        "t",
        "le"
      ],
      [
        "x",
        "_loop"
      ],
      [
        "y",
        "es"
      ],
      [
        "z",
        "e"
      ],
      [
        "RE",
        "Q"
      ],
      [
        "re",
        "ac"
      ],
      [
        "at",
        "t_"
      ],
      [
        "ra",
        "di"
      ],
      [
        "to",
        "olti"
      ],
      [
        "_d",
        "rain"
      ],
      [
        "ul",
        "ations"
      ],
      [
        "no",
        "te"
      ],
      [
        "0x4",
        "3"
      ],
      [
        "0x4",
        "100"
      ],
      [
        "0x4",
        "28"
      ],
      [
        "0x4",
        "18"
      ],
      [
        "row",
        "_dirty"
      ],
      [
        "gh",
        "ost"
      ],
      [
        "draw",
        "n"
      ],
      [
        "gra",
        "v"
      ],
      [
        "set",
        "ting"
      ],
      [
        "ic",
        "s"
      ],
      [
        "wa",
        "ys"
      ],
      [
        "CH",
        "A"
      ],
      [
        "0x3",
        "00"
      ],
      [
        "_ne",
        "g"
      ],
      [
        "comp",
        "ut"
      ],
      [
        "MA",
        "T"
      ],
      [
        "handle",
        "_"
      ],
      [
        "cmd_",
        "is_"
      ],
      [
        "coor",
        "ds"
      ],
      [
        "asc",
        "ii"
      ],
      [
        "pend",
        "ing"
      ],
      [
        "sele",
        "cted"
      ],
      [
        "ulate",
        "s"
      ],
      [
        "pv",
        "_regs"
      ],
      [
        "4x",
        "4"
      ],
      [
        "MOUSE",
        "Q"
      ],
      [
        "mark_",
        "row_dirty"
      ],
      [
        "SPA",
        "WN"
      ],
      [
        "fl",
        "at"
      ],
      [
        "DU",
        "R_"
      ],
      [
        "\"",
        "["
      ],
      [
        "B",
        "E"
      ],
      [
        "F",
        "o"
      ],
      [
        "H",
        "A"
      ],
      [
        "H",
        "AND"
      ],
      [
        "L",
        "U"
      ],
      [
        "N",
        "ING"
      ],
      [
        "O",
        "K"
      ],
      [
        "P",
        "re"
      ],
      [
        "P",
        "EE"
      ],
      [
        "P",
        "arse"
      ],
      [
        "T",
        "op"
      ],
      [
        "_",
        "m"
      ],
      [
        "c",
        "p_"
      ],
      [
        "h",
        "undreds"
      ],
      [
        "i",
        "ck"
      ],
      [
        "p",
        "n"
      ],
      [
        "p",
        "ress"
      ],
      [
        "s",
        "and"
      ],
      [
        "x",
        "32"
      ],
      [
        "0x",
        "25"
      ],
      [
        "0x",
        "100"
      ],
      [
        "────",
        "─"
      ],
      [
        "it",
        "_"
      ],
      [
        "st",
        "ill"
      ],
      [
        "ra",
        "m"
      ],
      [
        "================",
        "========"
      ],
      [
        "_c",
        "lo"
      ],
      [
        "ve",
        "loc"
      ],
      [
        "di",
        "amon"
      ],
      [
        "ma",
        "gent"
      ],
      [
        "ren",
        "de"
      ],
      [
        "0x5",
        "200"
      ],
      [
        "================================",
        "========================"
      ],
      [
        "0x6",
        "200"
      ],
      [
        "0x0",
        "400"
      ],
      [
        "hi",
        "dd"
      ],
      [
        "0x1",
        "4"
      ],
      [
        "0x1",
        "A"
      ],
      [
        "0x3",
        "3"
      ],
      [
        "24",
        "5"
      ],
      [
        "FI",
        "LE"
      ],
      [
        "termin",
        "ated"
      ],
      [
        "anim",
        "al"
      ],
      [
        "write_",
        "prompt"
      ],
      [
        "0xFF00",
        "FF"
      ],
      [
        "RUN",
        "NING"
      ],
      [
        "AC",
        "TIVE"
      ],
      [
        "Ap",
        "pend"
      ],
      [
        "CMD_",
        "HI"
      ],
      [
        "sk",
        "y"
      ],
      [
        "aste",
        "roid"
      ],
      [
        "0x0A0A1",
        "E"
      ],
      [
        "entit",
        "y_"
      ],
      [
        "lim",
        "it"
      ],
      [
        "PEE",
        "K"
      ],
      [
        "magent",
        "a"
      ],
      [
        "hidd",
        "en"
      ],
      [
        "'",
        "."
      ],
      [
        ".",
        "\""
      ],
      [
        "1",
        "px"
      ],
      [
        "C",
        "D"
      ],
      [
        "E",
        "sc"
      ],
      [
        "K",
        "ey"
      ],
      [
        "L",
        "inux"
      ],
      [
        "P",
        "a"
      ],
      [
        "_",
        "and"
      ],
      [
        "b",
        "row"
      ],
      [
        "c",
        "ro"
      ],
      [
        "h",
        "p_"
      ],
      [
        "s",
        "m"
      ],
      [
        "v",
        "oid"
      ],
      [
        "in",
        "put_"
      ],
      [
        "st",
        "one"
      ],
      [
        "al",
        "ways"
      ],
      [
        "de",
        "crement"
      ],
      [
        "de",
        "lete"
      ],
      [
        "_d",
        "rop"
      ],
      [
        "_c",
        "ont"
      ],
      [
        "ct",
        "or"
      ],
      [
        "11",
        "11"
      ],
      [
        "ul",
        "ation"
      ],
      [
        "ve",
        "d"
      ],
      [
        "0x7",
        "F"
      ],
      [
        "0x7",
        "600"
      ],
      [
        "ma",
        "ze"
      ],
      [
        "d_",
        "loop"
      ],
      [
        "con",
        "ten"
      ],
      [
        "line",
        "_"
      ],
      [
        "wor",
        "d_"
      ],
      [
        "sa",
        "fe"
      ],
      [
        "0x3",
        "100"
      ],
      [
        "vi",
        "g"
      ],
      [
        "enter",
        "_digit"
      ],
      [
        "ROW",
        "_"
      ],
      [
        "24",
        "2"
      ],
      [
        "progra",
        "ms"
      ],
      [
        "file",
        "s"
      ],
      [
        "pre",
        "v_"
      ],
      [
        "player",
        "_y"
      ],
      [
        "run",
        "s"
      ],
      [
        "rot",
        "0"
      ],
      [
        "0x40D",
        "1"
      ],
      [
        "0x40D",
        "2"
      ],
      [
        "over",
        "flow"
      ],
      [
        "19",
        "2"
      ],
      [
        "pb_c",
        "si"
      ],
      [
        "Pro",
        "ves"
      ],
      [
        "Bl",
        "ue"
      ],
      [
        "enti",
        "re"
      ],
      [
        "effe",
        "ct"
      ],
      [
        "writ",
        "ten"
      ],
      [
        "pb_es",
        "c_"
      ],
      [
        "ENEMY",
        "_BASE"
      ],
      [
        "Coun",
        "t"
      ],
      [
        "repeated",
        "ly"
      ],
      [
        "PROMPT",
        "_BUF"
      ],
      [
        "Pos",
        "ition"
      ],
      [
        "_cont",
        "inue"
      ],
      [
        "conten",
        "ts"
      ],
      [
        "'",
        ")"
      ],
      [
        "1",
        "32"
      ],
      [
        "A",
        "T"
      ],
      [
        "D",
        "Y"
      ],
      [
        "F",
        "0"
      ],
      [
        "F",
        "T"
      ],
      [
        "F",
        "ile"
      ],
      [
        "N",
        "ext"
      ],
      [
        "P",
        "S"
      ],
      [
        "S",
        "D"
      ],
      [
        "c",
        "v_"
      ],
      [
        "e",
        "levation"
      ],
      [
        "k",
        "ill"
      ],
      [
        "l",
        "s"
      ],
      [
        "n",
        "ight"
      ],
      [
        "s",
        "of"
      ],
      [
        "v",
        "ent"
      ],
      [
        "w",
        "an"
      ],
      [
        "w",
        "ill"
      ],
      [
        "RE",
        "D_"
      ],
      [
        "st",
        "al"
      ],
      [
        "FF",
        "F"
      ],
      [
        "to",
        "w"
      ],
      [
        "as",
        "ic"
      ],
      [
        "ch",
        "ang"
      ],
      [
        "ur",
        "l_"
      ],
      [
        "ate",
        "ly"
      ],
      [
        "pro",
        "ces"
      ],
      [
        "0x0",
        "30"
      ],
      [
        "si",
        "mp"
      ],
      [
        "LE",
        "FT"
      ],
      [
        "id",
        "x"
      ],
      [
        "position",
        "s"
      ],
      [
        "oper",
        "ation"
      ],
      [
        "fo",
        "am"
      ],
      [
        "move",
        "ment"
      ],
      [
        "NE",
        "XT"
      ],
      [
        "0x780",
        "7"
      ],
      [
        "scroll",
        "ing"
      ],
      [
        "scroll",
        "_up"
      ],
      [
        "stru",
        "ct"
      ],
      [
        "pattern",
        "s"
      ],
      [
        "ser",
        "vice"
      ],
      [
        "ry",
        "stal"
      ],
      [
        "ous",
        "ly"
      ],
      [
        "wait",
        "ing"
      ],
      [
        "sto",
        "res"
      ],
      [
        "wh",
        "o"
      ],
      [
        "arg",
        "ument"
      ],
      [
        "rectangle",
        "s"
      ],
      [
        "BO",
        "DY"
      ],
      [
        "na",
        "vig"
      ],
      [
        "Wa",
        "ter"
      ],
      [
        "near",
        "by"
      ],
      [
        "accum",
        "ulator"
      ],
      [
        "fiel",
        "d"
      ],
      [
        "Fra",
        "me"
      ],
      [
        "<",
        "="
      ],
      [
        "C",
        "3"
      ],
      [
        "D",
        "A"
      ],
      [
        "E",
        "5"
      ],
      [
        "E",
        "xt"
      ],
      [
        "L",
        "ine"
      ],
      [
        "P",
        "OR"
      ],
      [
        "S",
        "AND"
      ],
      [
        "]",
        "\""
      ],
      [
        "_",
        "A"
      ],
      [
        "b",
        "ul"
      ],
      [
        "d",
        "rop"
      ],
      [
        "g",
        "y"
      ],
      [
        "l",
        "if"
      ],
      [
        "n",
        "ts"
      ],
      [
        "o",
        "ter"
      ],
      [
        "x",
        "blend_"
      ],
      [
        "y",
        "pre"
      ],
      [
        "re",
        "turns"
      ],
      [
        "he",
        "al"
      ],
      [
        "is",
        "h"
      ],
      [
        "_d",
        "rag"
      ],
      [
        "ad",
        "v"
      ],
      [
        "loop",
        "s"
      ],
      [
        "loop",
        "_2"
      ],
      [
        "_c",
        "lamp"
      ],
      [
        "32",
        "x32"
      ],
      [
        "di",
        "o"
      ],
      [
        "12",
        "1"
      ],
      [
        "_re",
        "ad"
      ],
      [
        "────────────────",
        "────────"
      ],
      [
        "0x00",
        "44"
      ],
      [
        "0x6",
        "00"
      ],
      [
        "init",
        "ial"
      ],
      [
        "assembl",
        "er"
      ],
      [
        "qu",
        "o"
      ],
      [
        "ALT",
        "_"
      ],
      [
        "win",
        "_y"
      ],
      [
        "ive",
        "d"
      ],
      [
        "Co",
        "mmand"
      ],
      [
        "por",
        "ts"
      ],
      [
        "0x78",
        "14"
      ],
      [
        "igh",
        "ts"
      ],
      [
        "whi",
        "le"
      ],
      [
        "rot",
        "1"
      ],
      [
        "rot",
        "2"
      ],
      [
        "rot",
        "3"
      ],
      [
        "cal",
        "c_"
      ],
      [
        "PTY",
        "_"
      ],
      [
        "over",
        "lay"
      ],
      [
        "19",
        "6"
      ],
      [
        "fa",
        "ce"
      ],
      [
        "_digit",
        "s"
      ],
      [
        "function",
        "al"
      ],
      [
        "name",
        "_done"
      ],
      [
        "set_",
        "state"
      ],
      [
        "fe",
        "atures"
      ],
      [
        "cc",
        "p_"
      ],
      [
        "enem",
        "ies"
      ],
      [
        "R_B",
        "S"
      ],
      [
        "int_",
        "to_str"
      ],
      [
        "appro",
        "ach"
      ],
      [
        "_n",
        "x"
      ],
      [
        "bt",
        "n_"
      ],
      [
        "TIT",
        "LE_"
      ],
      [
        "Fin",
        "d"
      ],
      [
        "========================================================",
        "===="
      ],
      [
        "3",
        "A"
      ],
      [
        "4",
        "1"
      ],
      [
        "5",
        "9"
      ],
      [
        "B",
        "i"
      ],
      [
        "D",
        "i"
      ],
      [
        "G",
        "HT"
      ],
      [
        "N",
        "G"
      ],
      [
        "R",
        "ed"
      ],
      [
        "S",
        "tr"
      ],
      [
        "]",
        ","
      ],
      [
        "_",
        "copy"
      ],
      [
        "_",
        "ADDR"
      ],
      [
        "_",
        "END"
      ],
      [
        "a",
        "ir"
      ],
      [
        "c",
        "r"
      ],
      [
        "c",
        "rystal"
      ],
      [
        "e",
        "ded"
      ],
      [
        "0x",
        "BBBB"
      ],
      [
        "me",
        "t"
      ],
      [
        "me",
        "ta"
      ],
      [
        "ch",
        "r"
      ],
      [
        "la",
        "im"
      ],
      [
        "el",
        "y"
      ],
      [
        "OP",
        "_TABLE"
      ],
      [
        "0x7",
        "97"
      ],
      [
        "mo",
        "st"
      ],
      [
        "if",
        "t"
      ],
      [
        "ver",
        "if"
      ],
      [
        "sh",
        "r"
      ],
      [
        "0x0",
        "C"
      ],
      [
        "0x0",
        "200"
      ],
      [
        "do",
        "ts"
      ],
      [
        "0x1",
        "B"
      ],
      [
        "bar",
        "s"
      ],
      [
        "ent_",
        "render"
      ],
      [
        "tile",
        "_"
      ],
      [
        "win",
        "_id"
      ],
      [
        "back",
        "space"
      ],
      [
        "0x780",
        "3"
      ],
      [
        "0x780",
        "A"
      ],
      [
        "pre",
        "computed"
      ],
      [
        "show",
        "s"
      ],
      [
        "hal",
        "t"
      ],
      [
        "mem",
        "chr"
      ],
      [
        "game",
        "_loop"
      ],
      [
        "Sh",
        "ift"
      ],
      [
        "clo",
        "ck"
      ],
      [
        "EX",
        "EC"
      ],
      [
        "ext",
        "ract"
      ],
      [
        "bld",
        "g_"
      ],
      [
        "ler",
        "p"
      ],
      [
        "0x0A0",
        "A"
      ],
      [
        "enem",
        "y"
      ],
      [
        "parse",
        "_done"
      ],
      [
        "Clo",
        "se"
      ],
      [
        "Wa",
        "it"
      ],
      [
        "bt",
        "n"
      ],
      [
        "WA",
        "SD"
      ],
      [
        "del",
        "ta"
      ],
      [
        "no_c",
        "lick"
      ],
      [
        "que",
        "st"
      ],
      [
        "veloc",
        "ity"
      ],
      [
        "\"",
        ">"
      ],
      [
        "(",
        "."
      ],
      [
        "2",
        "32"
      ],
      [
        "6",
        "1"
      ],
      [
        "C",
        "h"
      ],
      [
        "C",
        "TE"
      ],
      [
        "C",
        "lamp"
      ],
      [
        "D",
        "own"
      ],
      [
        "F",
        "REQ"
      ],
      [
        "N",
        "L"
      ],
      [
        "O",
        "FF"
      ],
      [
        "Q",
        "U"
      ],
      [
        "R",
        "ing"
      ],
      [
        "_",
        "byte"
      ],
      [
        "_",
        "COUNT"
      ],
      [
        "_",
        "label"
      ],
      [
        "b",
        "be"
      ],
      [
        "i",
        "v"
      ],
      [
        "i",
        "se"
      ],
      [
        "m",
        "id"
      ],
      [
        "p",
        "ul"
      ],
      [
        "t",
        "x"
      ],
      [
        "y",
        "_loop"
      ],
      [
        "0x",
        "10000"
      ],
      [
        "00",
        "7"
      ],
      [
        "al",
        "low"
      ],
      [
        "me",
        "d"
      ],
      [
        "for",
        "ward"
      ],
      [
        "0x4",
        "24"
      ],
      [
        "0x7",
        "500"
      ],
      [
        "mo",
        "du"
      ],
      [
        "16",
        "38"
      ],
      [
        "up",
        "time"
      ],
      [
        "0x6",
        "AD"
      ],
      [
        "do",
        "_draw"
      ],
      [
        "ic",
        "ation"
      ],
      [
        "Re",
        "store"
      ],
      [
        "bit",
        "map"
      ],
      [
        "vi",
        "ron"
      ],
      [
        "0xF",
        "9"
      ],
      [
        "0xF",
        "00"
      ],
      [
        "_ne",
        "q"
      ],
      [
        "input",
        "s"
      ],
      [
        "be",
        "low"
      ],
      [
        "ute",
        "s"
      ],
      [
        "_o",
        "ff"
      ],
      [
        "display",
        "ing"
      ],
      [
        "biome",
        "_type"
      ],
      [
        "poin",
        "ts"
      ],
      [
        "app",
        "le"
      ],
      [
        "specif",
        "ied"
      ],
      [
        "MA",
        "X"
      ],
      [
        "Lo",
        "op"
      ],
      [
        "window",
        "s"
      ],
      [
        "clo",
        "bbe"
      ],
      [
        "chan",
        "ge"
      ],
      [
        "HIT",
        "Q"
      ],
      [
        "man",
        "age"
      ],
      [
        "man",
        "ages"
      ],
      [
        "sprite",
        "s"
      ],
      [
        "mat",
        "h"
      ],
      [
        "pres",
        "ent"
      ],
      [
        "79",
        "007"
      ],
      [
        "endif",
        "_3"
      ],
      [
        "edit",
        "or"
      ],
      [
        "--------------------------------",
        "-"
      ],
      [
        "--------------------------------",
        "---------------------------------"
      ],
      [
        "OSC",
        "_BUF"
      ],
      [
        "subtra",
        "ct"
      ],
      [
        "tick",
        "s"
      ],
      [
        "character",
        "s"
      ],
      [
        "conne",
        "cted"
      ]
    ]
  }
}