{
  "version": "1.0",
  "truncation": null,
  "padding": null,
  "added_tokens": [
    {
      "id": 0,
      "content": "<UNK>",
      "single_word": false,
      "lstrip": false,
      "rstrip": false,
      "normalized": false,
      "special": true
    },
    {
      "id": 1,
      "content": "<PAD>",
      "single_word": false,
      "lstrip": false,
      "rstrip": false,
      "normalized": false,
      "special": true
    },
    {
      "id": 2,
      "content": "<BOS>",
      "single_word": false,
      "lstrip": false,
      "rstrip": false,
      "normalized": false,
      "special": true
    },
    {
      "id": 3,
      "content": "<EOS>",
      "single_word": false,
      "lstrip": false,
      "rstrip": false,
      "normalized": false,
      "special": true
    },
    {
      "id": 4,
      "content": "<NL>",
      "single_word": false,
      "lstrip": false,
      "rstrip": false,
      "normalized": false,
      "special": true
    }
  ],
  "normalizer": null,
  "pre_tokenizer": {
    "type": "Whitespace"
  },
  "post_processor": null,
  "decoder": null,
  "model": {
    "type": "BPE",
    "dropout": null,
    "unk_token": "<UNK>",
    "continuing_subword_prefix": null,
    "end_of_word_suffix": null,
    "fuse_unk": false,
    "byte_fallback": false,
    "ignore_merges": false,
    "vocab": {
      "<UNK>": 0,
      "<PAD>": 1,
      "<BOS>": 2,
      "<EOS>": 3,
      "<NL>": 4,
      "!": 5,
      "\"": 6,
      "#": 7,
      "$": 8,
      "%": 9,
      "&": 10,
      "'": 11,
      "(": 12,
      ")": 13,
      "*": 14,
      "+": 15,
      ",": 16,
      "-": 17,
      ".": 18,
      "/": 19,
      "0": 20,
      "1": 21,
      "2": 22,
      "3": 23,
      "4": 24,
      "5": 25,
      "6": 26,
      "7": 27,
      "8": 28,
      "9": 29,
      ":": 30,
      ";": 31,
      "<": 32,
      "=": 33,
      ">": 34,
      "?": 35,
      "@": 36,
      "A": 37,
      "B": 38,
      "C": 39,
      "D": 40,
      "E": 41,
      "F": 42,
      "G": 43,
      "H": 44,
      "I": 45,
      "J": 46,
      "K": 47,
      "L": 48,
      "M": 49,
      "N": 50,
      "O": 51,
      "P": 52,
      "Q": 53,
      "R": 54,
      "S": 55,
      "T": 56,
      "U": 57,
      "V": 58,
      "W": 59,
      "X": 60,
      "Y": 61,
      "Z": 62,
      "[": 63,
      "\\": 64,
      "]": 65,
      "^": 66,
      "_": 67,
      "`": 68,
      "a": 69,
      "b": 70,
      "c": 71,
      "d": 72,
      "e": 73,
      "f": 74,
      "g": 75,
      "h": 76,
      "i": 77,
      "j": 78,
      "k": 79,
      "l": 80,
      "m": 81,
      "n": 82,
      "o": 83,
      "p": 84,
      "q": 85,
      "r": 86,
      "s": 87,
      "t": 88,
      "u": 89,
      "v": 90,
      "w": 91,
      "x": 92,
      "y": 93,
      "z": 94,
      "{": 95,
      "|": 96,
      "}": 97,
      "~": 98,
      "±": 99,
      "—": 100,
      "→": 101,
      "≈": 102,
      "─": 103,
      "═": 104,
      "✓": 105,
      "r1": 106,
      "DI": 107,
      "r2": 108,
      "LDI": 109,
      "==": 110,
      "══": 111,
      "AD": 112,
      "====": 113,
      "──": 114,
      "RE": 115,
      "in": 116,
      "ST": 117,
      "0x": 118,
      "STO": 119,
      "STORE": 120,
      "re": 121,
      "ADD": 122,
      "r3": 123,
      "r20": 124,
      "════": 125,
      "te": 126,
      "r0": 127,
      "r4": 128,
      "r7": 129,
      "00": 130,
      "on": 131,
      "MP": 132,
      "========": 133,
      "────": 134,
      "or": 135,
      "en": 136,
      "er": 137,
      "ti": 138,
      "an": 139,
      "se": 140,
      "st": 141,
      "co": 142,
      "al": 143,
      "he": 144,
      "ar": 145,
      "r10": 146,
      "r5": 147,
      "r6": 148,
      "--": 149,
      "le": 150,
      "FF": 151,
      "════════": 152,
      "ro": 153,
      "ra": 154,
      "de": 155,
      "CMP": 156,
      "it": 157,
      "LO": 158,
      "r11": 159,
      "r9": 160,
      "r12": 161,
      "r17": 162,
      "lo": 163,
      "at": 164,
      "LOAD": 165,
      "op": 166,
      "ter": 167,
      "ing": 168,
      "tion": 169,
      "is": 170,
      "r15": 171,
      "================": 172,
      "es": 173,
      "r14": 174,
      "to": 175,
      "────────": 176,
      "r18": 177,
      "AL": 178,
      "and": 179,
      "JMP": 180,
      "ck": 181,
      "10": 182,
      "r13": 183,
      "r21": 184,
      "un": 185,
      "MO": 186,
      "me": 187,
      "_d": 188,
      "as": 189,
      "r22": 190,
      "ALL": 191,
      "ch": 192,
      "CALL": 193,
      "RA": 194,
      "r8": 195,
      "MOV": 196,
      "la": 197,
      "SH": 198,
      "the": 199,
      "ine": 200,
      "ri": 201,
      "t_": 202,
      "ad": 203,
      "════════════════": 204,
      "el": 205,
      "CMPI": 206,
      "loop": 207,
      "JN": 208,
      "JNZ": 209,
      "JZ": 210,
      "raw": 211,
      "di": 212,
      "_c": 213,
      "bu": 214,
      "ne": 215,
      "32": 216,
      "mp": 217,
      "col": 218,
      "11": 219,
      "25": 220,
      "ve": 221,
      "one": 222,
      "sc": 223,
      "for": 224,
      "r16": 225,
      "ul": 226,
      "ma": 227,
      "SU": 228,
      "heck": 229,
      "SC": 230,
      "ce": 231,
      "SE": 232,
      "SUB": 233,
      "no": 234,
      "si": 235,
      "by": 236,
      "ur": 237,
      "BU": 238,
      "TE": 239,
      "0x4": 240,
      "12": 241,
      "ut": 242,
      "RO": 243,
      "0xFF": 244,
      "fi": 245,
      "row": 246,
      "sp": 247,
      "ate": 248,
      "BUF": 249,
      "bl": 250,
      "OP": 251,
      "_re": 252,
      "ADDI": 253,
      "th": 254,
      "r25": 255,
      "ND": 256,
      "reen": 257,
      "_done": 258,
      "0x7": 259,
      "R_": 260,
      "────────────────": 261,
      "000": 262,
      "us": 263,
      "ation": 264,
      "TI": 265,
      "----": 266,
      "mo": 267,
      "ith": 268,
      "draw": 269,
      "ts": 270,
      "xt": 271,
      "RAM": 272,
      "16": 273,
      "r23": 274,
      "gh": 275,
      "d_": 276,
      "r19": 277,
      "code": 278,
      "ow": 279,
      "ff": 280,
      "POP": 281,
      "def": 282,
      "CO": 283,
      "pi": 284,
      "r31": 285,
      "PU": 286,
      "byte": 287,
      "pro": 288,
      "po": 289,
      "..": 290,
      "PUSH": 291,
      "XT": 292,
      "_loop": 293,
      "coun": 294,
      "con": 295,
      "str": 296,
      "BL": 297,
      "iz": 298,
      "OR": 299,
      "0x2": 300,
      "hi": 301,
      "with": 302,
      "ec": 303,
      "ase": 304,
      "ent": 305,
      "80": 306,
      "ver": 307,
      "all": 308,
      "UL": 309,
      "il": 310,
      "MUL": 311,
      "lay": 312,
      "ab": 313,
      "define": 314,
      "CT": 315,
      "ed": 316,
      "ren": 317,
      "TEXT": 318,
      "up": 319,
      "res": 320,
      "DE": 321,
      "ini": 322,
      "44": 323,
      "30": 324,
      "screen": 325,
      "reg": 326,
      "li": 327,
      "100": 328,
      "tial": 329,
      "BLT": 330,
      "0x5": 331,
      "0x00": 332,
      "color": 333,
      "ke": 334,
      "40": 335,
      "RECT": 336,
      "Ge": 337,
      "ge": 338,
      "0x6": 339,
      "AND": 340,
      "line": 341,
      "256": 342,
      "tializ": 343,
      "ister": 344,
      "================================": 345,
      "RECTF": 346,
      "RI": 347,
      "20": 348,
      "xel": 349,
      "gra": 350,
      "main": 351,
      "bo": 352,
      "0x0": 353,
      "rite": 354,
      "val": 355,
      "RET": 356,
      "fra": 357,
      "GE": 358,
      "of": 359,
      "put": 360,
      "y_": 361,
      "do": 362,
      "48": 363,
      "play": 364,
      "cur": 365,
      "OS": 366,
      "========================================": 367,
      "sem": 368,
      "register": 369,
      "cle": 370,
      "ll": 371,
      "pixel": 372,
      "der": 373,
      "initializ": 374,
      "IN": 375,
      "COL": 376,
      "STRO": 377,
      "assem": 378,
      "tr": 379,
      "ffer": 380,
      "ip": 381,
      "red": 382,
      "ct": 383,
      "=========================================": 384,
      "ght": 385,
      "ap": 386,
      "valu": 387,
      "set": 388,
      "════════════════════════════════": 389,
      "buffer": 390,
      "ON": 391,
      "ction": 392,
      "BGE": 393,
      "c_": 394,
      "ex": 395,
      "50": 396,
      "star": 397,
      "assembl": 398,
      "per": 399,
      "FFFF": 400,
      "_BUF": 401,
      "ft": 402,
      "The": 403,
      "PSE": 404,
      "ty": 405,
      "fro": 406,
      "assembly": 407,
      "sa": 408,
      "wor": 409,
      "r26": 410,
      "from": 411,
      "ack": 412,
      "---": 413,
      "char": 414,
      "TION": 415,
      "r24": 416,
      "0x1": 417,
      "88": 418,
      "base": 419,
      "check": 420,
      "sh": 421,
      "end": 422,
      "DESC": 423,
      "RIP": 424,
      "DESCRIP": 425,
      "DESCRIPTION": 426,
      "ome": 427,
      "add": 428,
      "GeOS": 429,
      "sor": 430,
      "frame": 431,
      "ore": 432,
      "ac": 433,
      "LL": 434,
      "kip": 435,
      "pat": 436,
      "wa": 437,
      "text": 438,
      "key": 439,
      "_ret": 440,
      "if": 441,
      "LE": 442,
      "bit": 443,
      "Th": 444,
      "CH": 445,
      "r27": 446,
      "count": 447,
      "bar": 448,
      "128": 449,
      "tab": 450,
      "um": 451,
      "Re": 452,
      "SHR": 453,
      "ull": 454,
      "--------": 455,
      "r28": 456,
      "registers": 457,
      "This": 458,
      "oper": 459,
      "_check": 460,
      "ult": 461,
      "SHL": 462,
      "AN": 463,
      "ations": 464,
      "vi": 465,
      "et": 466,
      "ms": 467,
      "input": 468,
      "draw_": 469,
      "0x3": 470,
      "skip": 471,
      "enter": 472,
      "AR": 473,
      "FRAM": 474,
      "),": 475,
      "id": 476,
      "FRAME": 477,
      "_x": 478,
      "ame": 479,
      "0xF": 480,
      "ALT": 481,
      "sition": 482,
      "pe": 483,
      "spa": 484,
      "qu": 485,
      "22": 486,
      "start": 487,
      "AA": 488,
      "ted": 489,
      "values": 490,
      "pb": 491,
      "15": 492,
      "SI": 493,
      "write": 494,
      "_ne": 495,
      "min": 496,
      "comp": 497,
      "ent_": 498,
      "git": 499,
      "und": 500,
      "tile": 501,
      "counter": 502,
      "Draw": 503,
      "Check": 504,
      "CC": 505,
      "HALT": 506,
      "spec": 507,
      "COLS": 508,
      "DRA": 509,
      "progra": 510,
      "64": 511,
      "XOR": 512,
      "TCH": 513,
      "_y": 514,
      "use": 515,
      "operations": 516,
      "store": 517,
      "isplay": 518,
      "right": 519,
      "su": 520,
      "ROW": 521,
      "=====": 522,
      "position": 523,
      "CU": 524,
      "render": 525,
      "buf": 526,
      "DRAW": 527,
      "_0": 528,
      "────────────────────────────────": 529,
      "dow": 530,
      "ifi": 531,
      "14": 532,
      "cl": 533,
      "fo": 534,
      "mm": 535,
      "cursor": 536,
      "bi": 537,
      "program": 538,
      "rent": 539,
      "ds": 540,
      "ue": 541,
      "0000": 542,
      "RATCH": 543,
      "SCRATCH": 544,
      "ly": 545,
      "be": 546,
      "ces": 547,
      "255": 548,
      "ild": 549,
      "out": 550,
      "114": 551,
      "em": 552,
      "DRAWTEXT": 553,
      "24": 554,
      "ory": 555,
      "ag": 556,
      "ute": 557,
      "0xFFFFFF": 558,
      "lear": 559,
      "PSET": 560,
      "fun": 561,
      "p_": 562,
      "ard": 563,
      "par": 564,
      "In": 565,
      "->": 566,
      "k_": 567,
      "ol": 568,
      "specifi": 569,
      "len": 570,
      "are": 571,
      "FF00": 572,
      "CUR_": 573,
      "left": 574,
      "low": 575,
      "read": 576,
      "move": 577,
      "200": 578,
      "initializes": 579,
      "green": 580,
      "win": 581,
      "main_loop": 582,
      "FI": 583,
      "ir": 584,
      "═══": 585,
      "r_": 586,
      "vis": 587,
      "r29": 588,
      "P_": 589,
      "dex": 590,
      "99": 591,
      "display": 592,
      "tern": 593,
      "no_": 594,
      "save": 595,
      "NE": 596,
      "back": 597,
      "MOD": 598,
      "index": 599,
      "initialization": 600,
      "exec": 601,
      "13": 602,
      "roll": 603,
      "cre": 604,
      "clear": 605,
      "ach": 606,
      "specific": 607,
      "null": 608,
      "ten": 609,
      "_o": 610,
      "shi": 611,
      "using": 612,
      "mode": 613,
      "EL": 614,
      "do_": 615,
      "═══════": 616,
      "KE": 617,
      "ang": 618,
      "PI": 619,
      "cop": 620,
      "═══════════════": 621,
      "60": 622,
      "PA": 623,
      "DIV": 624,
      "ash": 625,
      "ines": 626,
      "am": 627,
      "perfor": 628,
      "33": 629,
      "state": 630,
      "poin": 631,
      "BA": 632,
      "KEY": 633,
      "then": 634,
      "49": 635,
      "cal": 636,
      "asm": 637,
      "0x780": 638,
      "termin": 639,
      "worl": 640,
      "ses": 641,
      "app": 642,
      "stru": 643,
      "G_": 644,
      "biome": 645,
      "top": 646,
      "wn": 647,
      "SI_": 648,
      "It": 649,
      "so": 650,
      "scroll": 651,
      "ment": 652,
      "atus": 653,
      "blue": 654,
      "we": 655,
      "date": 656,
      "70": 657,
      "ser": 658,
      "ress": 659,
      "fter": 660,
      "ion": 661,
      "r30": 662,
      "═══════════════════════════════": 663,
      "═══════════════════════════════════════════════════════════════": 664,
      "68": 665,
      "ta": 666,
      "ark": 667,
      "off": 668,
      "TY": 669,
      "hal": 670,
      "hase": 671,
      "digit": 672,
      "28": 673,
      "ber": 674,
      "mple": 675,
      "0x40": 676,
      "FILL": 677,
      "sg": 678,
      "file": 679,
      "string": 680,
      "space": 681,
      "dition": 682,
      "based": 683,
      "S_": 684,
      "cel": 685,
      "pre": 686,
      "STA": 687,
      "to_": 688,
      "mem": 689,
      "66": 690,
      "im": 691,
      "performs": 692,
      "lines": 693,
      "om": 694,
      "current": 695,
      "ste": 696,
      "0x8": 697,
      "after": 698,
      "hand": 699,
      "pattern": 700,
      "55": 701,
      "101": 702,
      "angle": 703,
      "world_": 704,
      "pixels": 705,
      "clu": 706,
      "ator": 707,
      "player": 708,
      "31": 709,
      "bor": 710,
      "end_": 711,
      "board": 712,
      "Co": 713,
      "tive": 714,
      "not_": 715,
      "fa": 716,
      "76": 717,
      "mes": 718,
      "opcode": 719,
      "0x30": 720,
      "table": 721,
      "pa": 722,
      "R_BUF": 723,
      "try_": 724,
      "_next": 725,
      "cess": 726,
      "Clear": 727,
      "por": 728,
      "status": 729,
      "ata": 730,
      "PSETI": 731,
      "----------------": 732,
      "XX": 733,
      "run": 734,
      "ance": 735,
      "0x78": 736,
      "try": 737,
      "BASE": 738,
      "ble": 739,
      "IKEY": 740,
      "cm": 741,
      "show": 742,
      "hash": 743,
      "_di": 744,
      "sub": 745,
      "inclu": 746,
      "whi": 747,
      "):": 748,
      "call": 749,
      "ot": 750,
      "rect": 751,
      "tt": 752,
      "func_": 753,
      "ay": 754,
      "main_0": 755,
      "65": 756,
      "igh": 757,
      "comm": 758,
      "38": 759,
      "D_": 760,
      "MA": 761,
      "tin": 762,
      "new": 763,
      "COLO": 764,
      "ANDI": 765,
      "18": 766,
      "HI": 767,
      "ME": 768,
      "cy": 769,
      "can": 770,
      "lp": 771,
      "px": 772,
      "offset": 773,
      "CSI_": 774,
      "address": 775,
      "BB": 776,
      "Con": 777,
      "M_": 778,
      "it_": 779,
      "cell": 780,
      "ece": 781,
      "sy": 782,
      "zer": 783,
      "test": 784,
      "SUBI": 785,
      "zero": 786,
      "19": 787,
      "SAR": 788,
      "own": 789,
      "center": 790,
      "ry": 791,
      "promp": 792,
      "value": 793,
      "load": 794,
      "not": 795,
      "EN": 796,
      "each": 797,
      "num": 798,
      "0x9": 799,
      "struction": 800,
      "_1": 801,
      "_to_": 802,
      "ic": 803,
      "mat": 804,
      "tic": 805,
      "rows": 806,
      "_reg": 807,
      "0x00FF00": 808,
      "copy": 809,
      "memory": 810,
      "ents": 811,
      "tit": 812,
      "rot": 813,
      "instruction": 814,
      "0x0000": 815,
      "0x6A": 816,
      "fir": 817,
      "chars": 818,
      "XEL": 819,
      "tra": 820,
      "ula": 821,
      "hex": 822,
      "0x2000": 823,
      "write_": 824,
      "PIXEL": 825,
      "UN": 826,
      "120": 827,
      "xt_": 828,
      "INE": 829,
      "97": 830,
      "next": 831,
      "sever": 832,
      "drawing": 833,
      "several": 834,
      "`,": 835,
      "ss": 836,
      "27": 837,
      "addr": 838,
      "C_": 839,
      "PTY": 840,
      "tom": 841,
      "type": 842,
      "CUR_ROW": 843,
      "_draw": 844,
      "SEND": 845,
      ").": 846,
      "Lo": 847,
      "b_": 848,
      "wi": 849,
      "into": 850,
      "shift": 851,
      "prompt": 852,
      "58": 853,
      "data": 854,
      "_check_": 855,
      "17": 856,
      "condition": 857,
      "0x40D": 858,
      "handle": 859,
      "command": 860,
      ">>": 861,
      "update": 862,
      "down": 863,
      "ies": 864,
      "l_": 865,
      "map": 866,
      "ated": 867,
      "36": 868,
      "St": 869,
      "se_": 870,
      "here": 871,
      "check_": 872,
      "number": 873,
      "over": 874,
      "si_": 875,
      "draws": 876,
      "window": 877,
      "TA": 878,
      "_res": 879,
      "VE": 880,
      "ima": 881,
      "var": 882,
      "vance": 883,
      "ally": 884,
      "PARAM": 885,
      "water": 886,
      "CSI_PARAM": 887,
      "game": 888,
      "ze": 889,
      "first": 890,
      "400": 891,
      "CE": 892,
      "ting": 893,
      "ves": 894,
      "fill": 895,
      "piece": 896,
      "42": 897,
      "A1": 898,
      "pla": 899,
      "round": 900,
      "_down": 901,
      "0x4E": 902,
      "port": 903,
      "title": 904,
      "_result": 905,
      "Bu": 906,
      "ous": 907,
      "If": 908,
      "Write": 909,
      "ursor": 910,
      "WIN": 911,
      "pos": 912,
      "90": 913,
      "spon": 914,
      "CL": 915,
      "EE": 916,
      "ution": 917,
      "Read": 918,
      "0xFFFFFFFF": 919,
      "cmd_": 920,
      "ulti": 921,
      "SEND_BUF": 922,
      "dif": 923,
      "_check_result": 924,
      "A0": 925,
      "ok": 926,
      "where": 927,
      "time": 928,
      "ity": 929,
      "blend": 930,
      "STR_BUF": 931,
      "build": 932,
      "defa": 933,
      "CUR_COL": 934,
      "vari": 935,
      "WPIXEL": 936,
      "clo": 937,
      "v_": 938,
      "metic": 939,
      "chan": 940,
      "rid": 941,
      "ithmetic": 942,
      "via": 943,
      "pal": 944,
      "arithmetic": 945,
      "bot": 946,
      "pb_ret": 947,
      "ROWS": 948,
      "default": 949,
      "73": 950,
      "TU": 951,
      "man": 952,
      "===": 953,
      "tes": 954,
      "108": 955,
      "ighbor": 956,
      "wise": 957,
      "300": 958,
      "LINE": 959,
      "dark": 960,
      "that": 961,
      "....": 962,
      "spawn": 963,
      "ight": 964,
      "SHLI": 965,
      "execution": 966,
      "_ok": 967,
      "Phase": 968,
      "respon": 969,
      "function": 970,
      "AI": 971,
      "ding": 972,
      "ground": 973,
      "stan": 974,
      "neighbor": 975,
      "0xFFB": 976,
      "ircle": 977,
      "g_": 978,
      "arch": 979,
      "0x200": 980,
      "lick": 981,
      "place": 982,
      "EX": 983,
      "cam": 984,
      "ments": 985,
      "sin": 986,
      "crement": 987,
      "_digit": 988,
      "bottom": 989,
      "110": 990,
      "111": 991,
      "0x5000": 992,
      "Build": 993,
      "nel": 994,
      "path": 995,
      "69": 996,
      "dy": 997,
      "ext": 998,
      "tur": 999,
      "chk_": 1000,
      "SET": 1001,
      "ates": 1002,
      "enters": 1003,
      "STATU": 1004,
      "75": 1005,
      "ded": 1006,
      "RAND": 1007,
      "_clear": 1008,
      "umn": 1009,
      "ette": 1010,
      ">=": 1011,
      "mc": 1012,
      "sed": 1013,
      "ellow": 1014,
      "column": 1015,
      "output": 1016,
      "ix": 1017,
      "ost": 1018,
      "ust": 1019,
      "0xD": 1020,
      "sion": 1021,
      "words": 1022,
      "Load": 1023,
      "wall": 1024,
      "rain": 1025,
      "pb_c": 1026,
      "append_": 1027,
      "29": 1028,
      "De": 1029,
      "age": 1030,
      "mon": 1031,
      "tri": 1032,
      "0xE": 1033,
      "anima": 1034,
      "its": 1035,
      "size": 1036,
      "hist": 1037,
      "++": 1038,
      "ew": 1039,
      "indi": 1040,
      "0xC": 1041,
      "log": 1042,
      "result": 1043,
      "skip_": 1044,
      "ile": 1045,
      "tal": 1046,
      "era": 1047,
      "sets": 1048,
      "advance": 1049,
      "CK": 1050,
      "Row": 1051,
      "du": 1052,
      "restore": 1053,
      "enti": 1054,
      "endif": 1055,
      "area": 1056,
      "cor": 1057,
      "ning": 1058,
      "des": 1059,
      "butt": 1060,
      "max": 1061,
      "bits": 1062,
      "bitwise": 1063,
      "0x3000": 1064,
      "button": 1065,
      "240": 1066,
      "35": 1067,
      "imple": 1068,
      "sig": 1069,
      "process": 1070,
      "wave": 1071,
      "Sh": 1072,
      "fore": 1073,
      "ove": 1074,
      "idth": 1075,
      "ave": 1076,
      "ls": 1077,
      "name": 1078,
      "0x44": 1079,
      "0xFF0000": 1080,
      "buf_": 1081,
      "background": 1082,
      "HIT": 1083,
      "palette": 1084,
      "77": 1085,
      "fla": 1086,
      "width": 1087,
      "get_": 1088,
      "emit": 1089,
      "Comp": 1090,
      "white": 1091,
      "camera": 1092,
      "lock": 1093,
      "bytes": 1094,
      "world_y": 1095,
      "channel": 1096,
      "mix": 1097,
      "ugh": 1098,
      "lamp": 1099,
      "compute": 1100,
      "world_x": 1101,
      "response": 1102,
      "83": 1103,
      "ran": 1104,
      "sw": 1105,
      "coor": 1106,
      "115": 1107,
      "vert": 1108,
      "frames": 1109,
      "72": 1110,
      "A2": 1111,
      "ct_": 1112,
      "circle": 1113,
      "oriz": 1114,
      "loc": 1115,
      "0x4000": 1116,
      "key_": 1117,
      "ometry": 1118,
      "0x4E0": 1119,
      "flag": 1120,
      "Sto": 1121,
      "0x88": 1122,
      "secon": 1123,
      "sgr_": 1124,
      "84": 1125,
      "emp": 1126,
      "k_ret": 1127,
      "hes": 1128,
      "Geometry": 1129,
      "82": 1130,
      "YS": 1131,
      "fin": 1132,
      "phase": 1133,
      "tk_": 1134,
      "0xB": 1135,
      "rout": 1136,
      "ass": 1137,
      "pointer": 1138,
      "terminate": 1139,
      "fail": 1140,
      "34": 1141,
      "Pro": 1142,
      "Up": 1143,
      "oth": 1144,
      "pres": 1145,
      "ink": 1146,
      "stra": 1147,
      "stack": 1148,
      "LEN": 1149,
      "En": 1150,
      "grid": 1151,
      "lev": 1152,
      "127": 1153,
      "sprite": 1154,
      "thro": 1155,
      "entry": 1156,
      "pb_csi_": 1157,
      "Store": 1158,
      "fe": 1159,
      "multi": 1160,
      "wo": 1161,
      "112": 1162,
      "colors": 1163,
      "uses": 1164,
      "COLOR": 1165,
      "Show": 1166,
      "CLE": 1167,
      "SYS": 1168,
      "bel": 1169,
      "sto": 1170,
      "ision": 1171,
      "next_": 1172,
      "COUN": 1173,
      "keyboard": 1174,
      "ANS_": 1175,
      "tiles": 1176,
      "halts": 1177,
      "calls": 1178,
      "indic": 1179,
      "TXT": 1180,
      "ain": 1181,
      "ure": 1182,
      "set_": 1183,
      "search": 1184,
      "core": 1185,
      "label": 1186,
      "mouse": 1187,
      "conten": 1188,
      "COUNT": 1189,
      "dx": 1190,
      "vas": 1191,
      "err": 1192,
      "stri": 1193,
      "116": 1194,
      "copy_": 1195,
      "tail": 1196,
      "through": 1197,
      "yellow": 1198,
      "tera": 1199,
      "colo": 1200,
      "debu": 1201,
      "demo": 1202,
      "Lay": 1203,
      "_TA": 1204,
      "cd": 1205,
      "horiz": 1206,
      "tar": 1207,
      "bld": 1208,
      "agent_": 1209,
      "series": 1210,
      "imal": 1211,
      "26": 1212,
      "C0": 1213,
      "ESC": 1214,
      "IR": 1215,
      "Tit": 1216,
      "bri": 1217,
      "est": 1218,
      "ven": 1219,
      "_cursor": 1220,
      "SCRO": 1221,
      "ush": 1222,
      "very": 1223,
      "canvas": 1224,
      "Title": 1225,
      "SCROLL": 1226,
      "79": 1227,
      "<<": 1228,
      "gg": 1229,
      "tro": 1230,
      "init": 1231,
      "0xAA": 1232,
      "arrow": 1233,
      "dec": 1234,
      "opy": 1235,
      "ask": 1236,
      "0xFFFF00": 1237,
      "this": 1238,
      "str_": 1239,
      "entri": 1240,
      "wait": 1241,
      "LE_": 1242,
      "600": 1243,
      "Pi": 1244,
      "_lp": 1245,
      "n_": 1246,
      "sr": 1247,
      "rat": 1248,
      "0xFFFF": 1249,
      "step": 1250,
      "empty": 1251,
      "colored": 1252,
      "23": 1253,
      "CM": 1254,
      "LA": 1255,
      "cus": 1256,
      "mc_": 1257,
      "ree": 1258,
      "frame_": 1259,
      "including": 1260,
      "ler": 1261,
      "ual": 1262,
      "andom": 1263,
      "lap": 1264,
      "last": 1265,
      "dir": 1266,
      "ned": 1267,
      "acc": 1268,
      "SA": 1269,
      "Sc": 1270,
      "wh": 1271,
      "else": 1272,
      "lic": 1273,
      "stem": 1274,
      "conditional": 1275,
      "turn": 1276,
      "append_byte": 1277,
      "Compute": 1278,
      "67": 1279,
      "SM": 1280,
      "din": 1281,
      "dri": 1282,
      "lision": 1283,
      "score": 1284,
      "init_": 1285,
      "head": 1286,
      "collision": 1287,
      "ill": 1288,
      "active": 1289,
      "func_0": 1290,
      "animation": 1291,
      "FG_": 1292,
      "cno": 1293,
      "full": 1294,
      "ib": 1295,
      "0x20": 1296,
      "Get": 1297,
      "visor": 1298,
      "clear_": 1299,
      "ratch": 1300,
      "FG_COLOR": 1301,
      "NO": 1302,
      "SG": 1303,
      "Set": 1304,
      "fd": 1305,
      "non": 1306,
      "ADDR": 1307,
      "urce": 1308,
      "HITSET": 1309,
      "Copy": 1310,
      "SP": 1311,
      "cted": 1312,
      "ple": 1313,
      "int": 1314,
      "hel": 1315,
      "104": 1316,
      "filen": 1317,
      "BLE": 1318,
      "0x240": 1319,
      "STATE": 1320,
      "building": 1321,
      "51": 1322,
      ":\"": 1323,
      "PRO": 1324,
      "_BASE": 1325,
      "gen": 1326,
      "pan": 1327,
      "asc": 1328,
      "0xFF00": 1329,
      "able": 1330,
      "view": 1331,
      "focus": 1332,
      "PID": 1333,
      "stant": 1334,
      "TXT_BUF": 1335,
      "Hel": 1336,
      "_3": 1337,
      "block": 1338,
      "gth": 1339,
      "ut_": 1340,
      "u32": 1341,
      "temp": 1342,
      "ary": 1343,
      "sho": 1344,
      "quen": 1345,
      "render_": 1346,
      "match": 1347,
      "CIR": 1348,
      "cap": 1349,
      "dd": 1350,
      "105": 1351,
      "scan": 1352,
      "now": 1353,
      "light": 1354,
      "ent_agent_": 1355,
      "length": 1356,
      "visi": 1357,
      "point": 1358,
      "rectangle": 1359,
      "WINSYS": 1360,
      "entries": 1361,
      "CIRCLE": 1362,
      "hit": 1363,
      "0x80": 1364,
      "til": 1365,
      "ating": 1366,
      "0x7000": 1367,
      "get": 1368,
      "LLM": 1369,
      "execute": 1370,
      "shif": 1371,
      "--------------------------------": 1372,
      "implements": 1373,
      "routine": 1374,
      "Col": 1375,
      "ball": 1376,
      "h_": 1377,
      "ner": 1378,
      "ross": 1379,
      "uld": 1380,
      "strlen": 1381,
      "lib": 1382,
      "checks": 1383,
      "_new": 1384,
      "displays": 1385,
      "cp": 1386,
      "ender": 1387,
      "stop": 1388,
      "arg": 1389,
      "dire": 1390,
      "diff": 1391,
      "calc": 1392,
      "system": 1393,
      "filename": 1394,
      "56": 1395,
      "500": 1396,
      "ER": 1397,
      "_up": 1398,
      "mal": 1399,
      "random": 1400,
      "neg": 1401,
      "scratch": 1402,
      "quit": 1403,
      "before": 1404,
      "agent": 1405,
      "horizon": 1406,
      "src": 1407,
      "cs": 1408,
      "erent": 1409,
      "host": 1410,
      "pr": 1411,
      "wr": 1412,
      "tim": 1413,
      "OPEN": 1414,
      "pipe": 1415,
      "0x040": 1416,
      "────────────────────────────────────────": 1417,
      "Ini": 1418,
      "_to_buf": 1419,
      "history": 1420,
      "SAVE": 1421,
      "21": 1422,
      "T_": 1423,
      "_hash": 1424,
      "bla": 1425,
      "art": 1426,
      "_do": 1427,
      "DEBU": 1428,
      "region": 1429,
      "0x0A0": 1430,
      "subtra": 1431,
      "various": 1432,
      "ibble": 1433,
      "different": 1434,
      "black": 1435,
      "(`": 1436,
      "47": 1437,
      "CP": 1438,
      "D00": 1439,
      "FS": 1440,
      "IP_": 1441,
      "Test": 1442,
      "Uses": 1443,
      "click": 1444,
      "done": 1445,
      "gre": 1446,
      "just": 1447,
      "pend": 1448,
      "pass": 1449,
      "dest": 1450,
      "SEL": 1451,
      "0x1A1": 1452,
      "rendering": 1453,
      "NEG": 1454,
      "sgr": 1455,
      "DEBUG_": 1456,
      "F8": 1457,
      "Render": 1458,
      "VM": 1459,
      "squ": 1460,
      "SCI": 1461,
      "simple": 1462,
      "border": 1463,
      "ulation": 1464,
      "A2E": 1465,
      "other": 1466,
      "_newline": 1467,
      "**": 1468,
      "45": 1469,
      "71": 1470,
      "ASCI": 1471,
      "cc": 1472,
      "ig": 1473,
      "na": 1474,
      "vy": 1475,
      "READ": 1476,
      "0x000": 1477,
      "001": 1478,
      "_dir": 1479,
      "ready": 1480,
      "tint": 1481,
      "coordin": 1482,
      "strates": 1483,
      "indicator": 1484,
      "Hello": 1485,
      "ASCII": 1486,
      "Save": 1487,
      "ared": 1488,
      "go": 1489,
      "reset": 1490,
      "103": 1491,
      "loop_0": 1492,
      "0x6000": 1493,
      "digits": 1494,
      "bldg": 1495,
      "Initializ": 1496,
      "DO": 1497,
      "every": 1498,
      "hy": 1499,
      "ive": 1500,
      "kno": 1501,
      "...": 1502,
      "contin": 1503,
      "above": 1504,
      "word": 1505,
      "mc_ret": 1506,
      "mc_25": 1507,
      "known": 1508,
      "87": 1509,
      "93": 1510,
      "BO": 1511,
      "Null": 1512,
      "_2": 1513,
      "sine": 1514,
      "0x120": 1515,
      "enem": 1516,
      "sele": 1517,
      "arm": 1518,
      "edge": 1519,
      "inite": 1520,
      "ANSI_": 1521,
      "stored": 1522,
      "Color": 1523,
      "0x1A1A2E": 1524,
      "FE": 1525,
      "OSC": 1526,
      "bet": 1527,
      "md": 1528,
      "pl": 1529,
      "va": 1530,
      "ans": 1531,
      "sequen": 1532,
      "do_re": 1533,
      "STATUS_": 1534,
      "frame_counter": 1535,
      "53": 1536,
      "DIR": 1537,
      "repe": 1538,
      "stor": 1539,
      "until": 1540,
      "child": 1541,
      "fix": 1542,
      "0x50": 1543,
      "0x020": 1544,
      "pervisor": 1545,
      "Reg": 1546,
      "source": 1547,
      "running": 1548,
      "COLOR_BUF": 1549,
      "error": 1550,
      "driven": 1551,
      "NOTE": 1552,
      "_col": 1553,
      "dim": 1554,
      "spac": 1555,
      "constant": 1556,
      "0x000000": 1557,
      "grass": 1558,
      "COL_": 1559,
      "Reset": 1560,
      "ween": 1561,
      "newline": 1562,
      "Update": 1563,
      "level": 1564,
      "content": 1565,
      "FB": 1566,
      "_id": 1567,
      "R_B": 1568,
      "like": 1569,
      "box": 1570,
      "multip": 1571,
      "gener": 1572,
      "Initialize": 1573,
      "hypervisor": 1574,
      "between": 1575,
      "150": 1576,
      "91": 1577,
      "96": 1578,
      "LD": 1579,
      "RL": 1580,
      "increment": 1581,
      "restart": 1582,
      "ticle": 1583,
      "0x1000": 1584,
      "session": 1585,
      "includes": 1586,
      "Layout": 1587,
      "85": 1588,
      "We": 1589,
      "WOR": 1590,
      "htt": 1591,
      "_cmd": 1592,
      "ults": 1593,
      "user": 1594,
      "TICK": 1595,
      "_over": 1596,
      "manip": 1597,
      "direction": 1598,
      "800": 1599,
      "RUN": 1600,
      "Skip": 1601,
      "WN": 1602,
      "fl": 1603,
      "slo": 1604,
      "s256": 1605,
      "tk_ret": 1606,
      "ually": 1607,
      "inter": 1608,
      "also": 1609,
      "them": 1610,
      "buil": 1611,
      "0x444": 1612,
      "0x00FF": 1613,
      "0x00FFFF": 1614,
      "line_to_buf": 1615,
      "draw_frame": 1616,
      "writes": 1617,
      "particle": 1618,
      "tain": 1619,
      "cells": 1620,
      "write_line_to_buf": 1621,
      "CLIP_": 1622,
      "ANSI_STATE": 1623,
      "Mem": 1624,
      "clamp": 1625,
      "pop": 1626,
      "ron": 1627,
      "0xCC": 1628,
      "dist": 1629,
      "_cl": 1630,
      "_con": 1631,
      "appro": 1632,
      "msg": 1633,
      "emon": 1634,
      "parse": 1635,
      "cyan": 1636,
      "EEP": 1637,
      "_TABLE": 1638,
      "SCROLL_": 1639,
      "decimal": 1640,
      "coordinates": 1641,
      "37": 1642,
      "BEEP": 1643,
      "HT": 1644,
      "_b": 1645,
      "has": 1646,
      "pack": 1647,
      "ange": 1648,
      "addition": 1649,
      "R_SC": 1650,
      "tab_": 1651,
      "found": 1652,
      "reads": 1653,
      "ELLO": 1654,
      "0x7800": 1655,
      "updates": 1656,
      "logic": 1657,
      "lication": 1658,
      "Register": 1659,
      "WORLD": 1660,
      "Display": 1661,
      "ist": 1662,
      "push": 1663,
      "s_": 1664,
      "vx": 1665,
      "vol": 1666,
      "int_": 1667,
      "0xA": 1668,
      "remain": 1669,
      "tick": 1670,
      "already": 1671,
      "edit": 1672,
      "starts": 1673,
      "compar": 1674,
      "such": 1675,
      "saved": 1676,
      "subroutine": 1677,
      "loading": 1678,
      "advance_to_": 1679,
      "mixed": 1680,
      "continu": 1681,
      "DIRTY": 1682,
      "62": 1683,
      "95": 1684,
      "Clo": 1685,
      "For": 1686,
      "home": 1687,
      "ps": 1688,
      "two": 1689,
      "org": 1690,
      "help": 1691,
      "lete": 1692,
      "rag": 1693,
      "ison": 1694,
      "102": 1695,
      "side": 1696,
      "do_newline": 1697,
      "acter": 1698,
      "mm_": 1699,
      "instructions": 1700,
      "endif_1": 1701,
      "signed": 1702,
      "seconds": 1703,
      "dirty": 1704,
      "else_0": 1705,
      "spaces": 1706,
      "1000": 1707,
      "Each": 1708,
      "MM": 1709,
      "Play": 1710,
      "dst": 1711,
      "gu": 1712,
      "pv": 1713,
      "ping": 1714,
      "──────": 1715,
      "arse": 1716,
      "these": 1717,
      "need": 1718,
      "0x700": 1719,
      "10000": 1720,
      "boun": 1721,
      "keys": 1722,
      "after_": 1723,
      "which": 1724,
      "camera_x": 1725,
      "hello": 1726,
      "should": 1727,
      "executes": 1728,
      "comparison": 1729,
      "da": 1730,
      "m_": 1731,
      "sx": 1732,
      "wal": 1733,
      "orange": 1734,
      "sel": 1735,
      "MODE": 1736,
      "scal": 1737,
      "list": 1738,
      "character": 1739,
      "pb_": 1740,
      "vision": 1741,
      "STATUS": 1742,
      "sign": 1743,
      "sgr_ret": 1744,
      "140": 1745,
      "54": 1746,
      "LS": 1747,
      "Main": 1748,
      "No": 1749,
      "RY": 1750,
      "Spa": 1751,
      "equ": 1752,
      "sup": 1753,
      "ving": 1754,
      "wra": 1755,
      "109": 1756,
      "abs": 1757,
      "show_": 1758,
      "func_1": 1759,
      "Enter": 1760,
      "shifts": 1761,
      "timer": 1762,
      "square": 1763,
      "\")": 1764,
      "+=": 1765,
      "52": 1766,
      "63": 1767,
      "Ap": 1768,
      "ED": 1769,
      "fon": 1770,
      "lle": 1771,
      "mask": 1772,
      "nibble": 1773,
      "oom": 1774,
      "0x11": 1775,
      "itch": 1776,
      "total": 1777,
      "t_in": 1778,
      "TER": 1779,
      "sage": 1780,
      "halting": 1781,
      "0x8000": 1782,
      "M_BASE": 1783,
      "0x0000FF": 1784,
      "CELL": 1785,
      "entity": 1786,
      "debug": 1787,
      "trols": 1788,
      "Pixel": 1789,
      "equal": 1790,
      "81": 1791,
      "UT": 1792,
      "ches": 1793,
      "ys": 1794,
      "onal": 1795,
      "conne": 1796,
      "resses": 1797,
      "body": 1798,
      "INK": 1799,
      "trl": 1800,
      "addresses": 1801,
      "agonal": 1802,
      "point_in": 1803,
      "KEY_": 1804,
      "terminal": 1805,
      "cmd": 1806,
      "slot": 1807,
      "advance_to_null": 1808,
      "(\"": 1809,
      "39": 1810,
      "46": 1811,
      "57": 1812,
      "Ad": 1813,
      "DD": 1814,
      "LI": 1815,
      "Wa": 1816,
      "_s": 1817,
      "au": 1818,
      "fine": 1819,
      "flow": 1820,
      "finite": 1821,
      "ld": 1822,
      "ward": 1823,
      "zoom": 1824,
      "rop": 1825,
      "ature": 1826,
      "loop_1": 1827,
      "0x70": 1828,
      "TIME": 1829,
      "Init": 1830,
      "terminator": 1831,
      "struct_": 1832,
      "cdl": 1833,
      "CMD_": 1834,
      "4x": 1835,
      "CA": 1836,
      "Ex": 1837,
      "HELLO": 1838,
      "RG": 1839,
      "URL": 1840,
      "`.": 1841,
      "bt": 1842,
      "bber": 1843,
      "hu": 1844,
      "mar": 1845,
      "hell": 1846,
      "same": 1847,
      "0x1F": 1848,
      "parse_": 1849,
      "Input": 1850,
      "half": 1851,
      "target_": 1852,
      "when": 1853,
      "subtraction": 1854,
      "build_": 1855,
      "Memory": 1856,
      "43": 1857,
      "78": 1858,
      "Cursor": 1859,
      "FG": 1860,
      "Se": 1861,
      "USE": 1862,
      "day": 1863,
      "ite": 1864,
      "pur": 1865,
      "ru": 1866,
      "rh_": 1867,
      "ormal": 1868,
      "tical": 1869,
      "ract": 1870,
      "else_": 1871,
      "cols": 1872,
      "117": 1873,
      "results": 1874,
      "0x60": 1875,
      "dot": 1876,
      "prev": 1877,
      "commands": 1878,
      "okup": 1879,
      "functions": 1880,
      "Building": 1881,
      "_dirty": 1882,
      "s256_": 1883,
      "130": 1884,
      "ZE": 1885,
      "_row": 1886,
      "_store": 1887,
      "mark": 1888,
      "ound": 1889,
      "ub": 1890,
      "ump": 1891,
      "REEN": 1892,
      "infinite": 1893,
      "height": 1894,
      "aste": 1895,
      "ffec": 1896,
      "CON": 1897,
      "layout": 1898,
      "0x53": 1899,
      "GET": 1900,
      "store_": 1901,
      "─────────────────────────────────": 1902,
      "spawn_": 1903,
      "_digit_": 1904,
      "0x8888": 1905,
      "panel": 1906,
      "walk": 1907,
      "!\"": 1908,
      "Bl": 1909,
      "CV": 1910,
      "D4": 1911,
      "HEX": 1912,
      "IT": 1913,
      "PC": 1914,
      "VI": 1915,
      "ii": 1916,
      "ical": 1917,
      "sing": 1918,
      "ures": 1919,
      "was": 1920,
      "replace": 1921,
      "0x430": 1922,
      "BLINK": 1923,
      "0x2100": 1924,
      "visual": 1925,
      "biome_": 1926,
      "opcodes": 1927,
      "MEM": 1928,
      "logical": 1929,
      "second": 1930,
      "ggle": 1931,
      "nonzero": 1932,
      "asciz": 1933,
      "visible": 1934,
      "cpy": 1935,
      "scale": 1936,
      "SP_": 1937,
      "ative": 1938,
      "bright": 1939,
      "send": 1940,
      "only": 1941,
      "cos": 1942,
      "LOOP": 1943,
      "ALAR": 1944,
      "MOUSE": 1945,
      "usage": 1946,
      "RITE": 1947,
      "work": 1948,
      "224": 1949,
      "SIZE": 1950,
      "save_": 1951,
      "append": 1952,
      "switch": 1953,
      "horizontal": 1954,
      "writ": 1955,
      "sequence": 1956,
      "multiplication": 1957,
      "R_SCR": 1958,
      "180": 1959,
      "END": 1960,
      "`)": 1961,
      "cts": 1962,
      "effec": 1963,
      "jec": 1964,
      "x8": 1965,
      "RECV": 1966,
      "any": 1967,
      "seed": 1968,
      "demon": 1969,
      "direct": 1970,
      "diagonal": 1971,
      "near": 1972,
      "mag": 1973,
      "ROO": 1974,
      "r256": 1975,
      "256x": 1976,
      "exp": 1977,
      "ART": 1978,
      "Increment": 1979,
      "no_input": 1980,
      "NEM": 1981,
      "sgr256": 1982,
      "Status": 1983,
      "stants": 1984,
      "storing": 1985,
      "mark_": 1986,
      "purple": 1987,
      "EC": 1988,
      "Fin": 1989,
      "MAL": 1990,
      "NU": 1991,
      "NOR": 1992,
      "SPA": 1993,
      "Ter": 1994,
      "WA": 1995,
      "bran": 1996,
      "cross": 1997,
      "et_": 1998,
      "jump": 1999,
      "ux": 2000,
      "uted": 2001,
      "ands": 2002,
      "unknown": 2003,
      "dient": 2004,
      "124": 2005,
      "ctually": 2006,
      "strings": 2007,
      "iled": 2008,
      "brick": 2009,
      "brigh": 2010,
      "str_hello": 2011,
      "turns": 2012,
      "TICKS": 2013,
      "DIRTY_": 2014,
      "font": 2015,
      "256x256": 2016,
      "NORMAL": 2017,
      "\",": 2018,
      "248": 2019,
      "4FF": 2020,
      "AC": 2021,
      "ENEM": 2022,
      "ID": 2023,
      "MS": 2024,
      "SS": 2025,
      "UP": 2026,
      "_pos": 2027,
      "eq": 2028,
      "fw": 2029,
      "od": 2030,
      "tep": 2031,
      "ers": 2032,
      "del": 2033,
      "LOSE": 2034,
      "open": 2035,
      "is_": 2036,
      "tour": 2037,
      "chk": 2038,
      "division": 2039,
      "126": 2040,
      "TIT": 2041,
      "mod": 2042,
      "contour": 2043,
      "create": 2044,
      "tens": 2045,
      "past": 2046,
      "paint": 2047,
      "BBBB": 2048,
      "close": 2049,
      "Screen": 2050,
      "CPY": 2051,
      "0x1201": 2052,
      "after_input": 2053,
      "fine_hash": 2054,
      "RGB": 2055,
      "Back": 2056,
      "NT": 2057,
      "VFS": 2058,
      "Win": 2059,
      "ast": 2060,
      "fle": 2061,
      "hk_ret": 2062,
      "nx": 2063,
      "ph": 2064,
      "shell": 2065,
      "alarm": 2066,
      "hed": 2067,
      "118": 2068,
      "ulator": 2069,
      "TILE": 2070,
      "TILE_": 2071,
      "counted": 2072,
      "line_": 2073,
      "ape": 2074,
      "setting": 2075,
      "0x170": 2076,
      "_next_": 2077,
      "no_key": 2078,
      "MAIN": 2079,
      "Controls": 2080,
      "ANS_NORMAL": 2081,
      "accent": 2082,
      "SGR": 2083,
      "remaining": 2084,
      "1F": 2085,
      "74": 2086,
      "98": 2087,
      "E4": 2088,
      "FO": 2089,
      "Hand": 2090,
      "Le": 2091,
      "Mo": 2092,
      "Move": 2093,
      "Op": 2094,
      "RS": 2095,
      "X_": 2096,
      "_left": 2097,
      "ai": 2098,
      "ares": 2099,
      "cil": 2100,
      "ey": 2101,
      "normal": 2102,
      "RESP": 2103,
      "intera": 2104,
      "ones": 2105,
      "means": 2106,
      "cho": 2107,
      "within": 2108,
      "lip": 2109,
      "gray": 2110,
      "gradient": 2111,
      "ANSI": 2112,
      "suc": 2113,
      "old": 2114,
      "MAP_": 2115,
      "....)": 2116,
      "mc_check_": 2117,
      "0xAAAA": 2118,
      "repeated": 2119,
      "http_": 2120,
      "pb_es": 2121,
      "bbers": 2122,
      "\"/": 2123,
      "PE": 2124,
      "W_": 2125,
      "WRITE": 2126,
      "_color": 2127,
      "_skip": 2128,
      "cat": 2129,
      "hl_": 2130,
      "sn": 2131,
      "snow": 2132,
      "tree": 2133,
      "wu": 2134,
      "0x10": 2135,
      "room": 2136,
      "lookup": 2137,
      "119": 2138,
      "no_c": 2139,
      "0x41": 2140,
      "0x400": 2141,
      "0x76": 2142,
      "16x": 2143,
      "0x2200": 2144,
      "hi_done": 2145,
      "screen_x": 2146,
      "assemble": 2147,
      "idle": 2148,
      "222": 2149,
      "message": 2150,
      "_regs": 2151,
      "triangle": 2152,
      "Process": 2153,
      "0x0A0A1": 2154,
      "ulations": 2155,
      "Player": 2156,
      "bounce": 2157,
      "ENEMY": 2158,
      "V_": 2159,
      "cx": 2160,
      "csi": 2161,
      "dur": 2162,
      "echo": 2163,
      "ges": 2164,
      "her": 2165,
      "p_done": 2166,
      "sk": 2167,
      "FF44": 2168,
      "escap": 2169,
      "t_loop": 2170,
      "0xFF44": 2171,
      "0xFF88": 2172,
      "blink": 2173,
      "160": 2174,
      "0x220": 2175,
      "0x550": 2176,
      "0x6100": 2177,
      "tile_": 2178,
      "────────────────────────────────────────────────": 2179,
      "ages": 2180,
      "servi": 2181,
      "handler": 2182,
      "ulate": 2183,
      "circles": 2184,
      "CMD": 2185,
      "accum": 2186,
      "csi_cursor": 2187,
      ")->": 2188,
      "Al": 2189,
      "Demon": 2190,
      "EA": 2191,
      "Po": 2192,
      "VAL": 2193,
      "bg": 2194,
      "ctive": 2195,
      "dis": 2196,
      "ling": 2197,
      "nes": 2198,
      "put_": 2199,
      "rary": 2200,
      "sq": 2201,
      "DISP_": 2202,
      "info": 2203,
      "detail": 2204,
      "term": 2205,
      "dir_": 2206,
      "codes": 2207,
      "screen_y": 2208,
      "0x5100": 2209,
      "0x0044": 2210,
      "0xFD00": 2211,
      "tended": 2212,
      "0x7801": 2213,
      "world": 2214,
      "Convert": 2215,
      "handles": 2216,
      "State": 2217,
      "0x44FF44": 2218,
      "range": 2219,
      "key_1": 2220,
      "stripe": 2221,
      "do_rect": 2222,
      "fixed": 2223,
      "wrap": 2224,
      "Termin": 2225,
      "89": 2226,
      "8x8": 2227,
      "Actually": 2228,
      "CSI": 2229,
      "D0": 2230,
      "SLI": 2231,
      "TRA": 2232,
      "UTI": 2233,
      "_right": 2234,
      "cb_": 2235,
      "csi_": 2236,
      "db": 2237,
      "ep": 2238,
      "my": 2239,
      "atures": 2240,
      "toggle": 2241,
      "0x42": 2242,
      "pick": 2243,
      "DER_": 2244,
      "0x500": 2245,
      "gradu": 2246,
      "ING": 2247,
      "tran": 2248,
      "buffers": 2249,
      "pat_": 2250,
      "patch": 2251,
      "computed": 2252,
      "perform": 2253,
      "sert": 2254,
      "Coun": 2255,
      "_div": 2256,
      "cycle": 2257,
      "ulates": 2258,
      "TAB": 2259,
      "variation": 2260,
      "walls": 2261,
      "camera_y": 2262,
      "mixer": 2263,
      "debug_": 2264,
      "_do_": 2265,
      "self": 2266,
      "UTF8": 2267,
      "MEMCPY": 2268,
      "sgr256_ret": 2269,
      "Left": 2270,
      "16x16": 2271,
      "0xFF8800": 2272,
      "Demonstrates": 2273,
      "SLIDER_": 2274,
      "graduated": 2275,
      "86": 2276,
      "900": 2277,
      "Bar": 2278,
      "C4": 2279,
      "Ctrl": 2280,
      "D1": 2281,
      "NA": 2282,
      "Pat": 2283,
      "Right": 2284,
      "_LEN": 2285,
      "df": 2286,
      "itera": 2287,
      "oi": 2288,
      "pri": 2289,
      "press": 2290,
      "pv_": 2291,
      "ring": 2292,
      "STE": 2293,
      "ST_": 2294,
      "atoi": 2295,
      "0xFFE": 2296,
      "thing": 2297,
      "bound": 2298,
      "0x0600": 2299,
      "used": 2300,
      "exec_done": 2301,
      "player_x": 2302,
      "include": 2303,
      "trace": 2304,
      "buf_a": 2305,
      "get_tab_": 2306,
      "focus_": 2307,
      "negative": 2308,
      "grep_": 2309,
      "SEL_": 2310,
      "plan": 2311,
      "flat": 2312,
      "Terminal": 2313,
      "',": 2314,
      "'/": 2315,
      "Ar": 2316,
      "BAR": 2317,
      "Bot": 2318,
      "Out": 2319,
      "TH": 2320,
      "Tile": 2321,
      "Use": 2322,
      "Wor": 2323,
      "d_done": 2324,
      "mini": 2325,
      "pes": 2326,
      "padd": 2327,
      "inc": 2328,
      "reac": 2329,
      "dete": 2330,
      "ALLTEXT": 2331,
      "sim": 2332,
      "confi": 2333,
      "0x22": 2334,
      "high": 2335,
      "boot": 2336,
      "0x0C0": 2337,
      "─────────────────────────────────────────────────────────────────": 2338,
      "0x7808": 2339,
      "Start": 2340,
      "locations": 2341,
      "find_": 2342,
      "SMALLTEXT": 2343,
      "0xFF00FF": 2344,
      "_clr": 2345,
      "rule": 2346,
      "ALARM_": 2347,
      "demonstrates": 2348,
      "Window": 2349,
      "success": 2350,
      "repeatedly": 2351,
      "escape": 2352,
      "CMD_BUF": 2353,
      "'/'": 2354,
      "Bottom": 2355,
      "Output": 2356,
      "700": 2357,
      "An": 2358,
      "B0": 2359,
      "CW": 2360,
      "CLOSE": 2361,
      "FC": 2362,
      "Green": 2363,
      "GREEN": 2364,
      "ax": 2365,
      "cv": 2366,
      "cc_": 2367,
      "dc": 2368,
      "ear": 2369,
      "fg": 2370,
      "ped": 2371,
      "inside": 2372,
      "ong": 2373,
      "itor": 2374,
      "atch": 2375,
      "lava": 2376,
      "blend_": 2377,
      "three": 2378,
      "0x74": 2379,
      "convert": 2380,
      "contro": 2381,
      "0x2400": 2382,
      "reds": 2383,
      "sample": 2384,
      "bitmask": 2385,
      "startup": 2386,
      "undreds": 2387,
      "amon": 2388,
      "func_2": 2389,
      "sys": 2390,
      "tests": 2391,
      "Demo": 2392,
      "month": 2393,
      "corner": 2394,
      "levation": 2395,
      "PROMP": 2396,
      "...\"": 2397,
      "Advance": 2398,
      "ROOM_BASE": 2399,
      "DISP_VAL": 2400,
      "!=": 2401,
      "Fill": 2402,
      "Step": 2403,
      "Try": 2404,
      "_tab": 2405,
      "_buf": 2406,
      "clip": 2407,
      "mx": 2408,
      "oa": 2409,
      "sb": 2410,
      "send_": 2411,
      "REND": 2412,
      "inux": 2413,
      "rever": 2414,
      "itoa": 2415,
      "terrain": 2416,
      "SHRI": 2417,
      "adj": 2418,
      "but": 2419,
      "TEMP": 2420,
      "ROUTI": 2421,
      "vertical": 2422,
      "0x530": 2423,
      "0x5300": 2424,
      "exit": 2425,
      "start_": 2426,
      "shot": 2427,
      "ument": 2428,
      "0000000": 2429,
      "again": 2430,
      "olti": 2431,
      "copy_done": 2432,
      "sgr_brigh": 2433,
      "tk_arrow": 2434,
      "pressed": 2435,
      "target": 2436,
      "Piece": 2437,
      "SGR_": 2438,
      "library": 2439,
      "DOWN": 2440,
      "Clobbers": 2441,
      "Space": 2442,
      "TIMER": 2443,
      "branch": 2444,
      "Handle": 2445,
      "TRACE": 2446,
      "PROMPT": 2447,
      "ROUTINE": 2448,
      "sgr_bright_": 2449,
      "144": 2450,
      "94": 2451,
      "B2": 2452,
      "HO": 2453,
      "ITE": 2454,
      "Ora": 2455,
      "UI": 2456,
      "dp": 2457,
      "dr_": 2458,
      "sand": 2459,
      "rer": 2460,
      "orig": 2461,
      "copi": 2462,
      "radi": 2463,
      "dead": 2464,
      "local": 2465,
      "loops": 2466,
      "net": 2467,
      "colon": 2468,
      "SUBROUTINE": 2469,
      "fiel": 2470,
      "poll": 2471,
      "0x00CC": 2472,
      "INIT": 2473,
      "across": 2474,
      "0xFA": 2475,
      "starting": 2476,
      "comput": 2477,
      "CURS": 2478,
      "0x7809": 2479,
      "sound": 2480,
      "failed": 2481,
      "0x9000": 2482,
      "update_": 2483,
      "overlap": 2484,
      "contents": 2485,
      "visited": 2486,
      "STATUS_CW": 2487,
      "CONNE": 2488,
      "RECV_BUF": 2489,
      "MSG_": 2490,
      "RESP_BUF": 2491,
      "sqr": 2492,
      "paddle": 2493,
      "Oracle": 2494,
      ")\"": 2495,
      "ASM": 2496,
      "DU": 2497,
      "HP": 2498,
      "Ver": 2499,
      "W1": 2500,
      "_T": 2501,
      "_screen": 2502,
      "acle": 2503,
      "action": 2504,
      "cmp": 2505,
      "dn_": 2506,
      "have": 2507,
      "phi": 2508,
      "v1": 2509,
      "teg": 2510,
      "tely": 2511,
      "ties": 2512,
      "till": 2513,
      "roid": 2514,
      "medi": 2515,
      "_cre": 2516,
      "TEND": 2517,
      "0x75": 2518,
      "R_CL": 2519,
      "strcmp": 2520,
      "0x03": 2521,
      "═══════════════════════════════════════════════": 2522,
      "exist": 2523,
      "shared": 2524,
      "bias": 2525,
      "specified": 2526,
      "136": 2527,
      "tent": 2528,
      "_osc": 2529,
      "to_str": 2530,
      "0x80000000": 2531,
      "CSI_PARAM2": 2532,
      "game_over": 2533,
      "ously": 2534,
      "EXTEND": 2535,
      "endif_3": 2536,
      "forest": 2537,
      "Scroll": 2538,
      "calculations": 2539,
      "print_": 2540,
      "SAVED_": 2541,
      "**:": 2542,
      "0x4444FF": 2543,
      "lled": 2544,
      "else_2": 2545,
      "jumps": 2546,
      "ai_": 2547,
      "Pattern": 2548,
      "SGR_EXTEND": 2549,
      "SGR_EXTENDED": 2550,
      "220": 2551,
      "Cre": 2552,
      "So": 2553,
      "Sub": 2554,
      "Text": 2555,
      "_count": 2556,
      "case": 2557,
      "fall": 2558,
      "none": 2559,
      "py": 2560,
      "pty": 2561,
      "wd": 2562,
      "wc_": 2563,
      "STORY": 2564,
      "real": 2565,
      "rece": 2566,
      "anim": 2567,
      "met": 2568,
      "cep": 2569,
      "0x43": 2570,
      "R_CC": 2571,
      "TIVE": 2572,
      "lim": 2573,
      "y_hash": 2574,
      "operation": 2575,
      "0x300": 2576,
      "comple": 2577,
      "renders": 2578,
      "buf_c": 2579,
      "HISTORY": 2580,
      "Constants": 2581,
      "track": 2582,
      "_check_eq": 2583,
      "sin_": 2584,
      "correct": 2585,
      "preser": 2586,
      "stores": 2587,
      "Layer": 2588,
      "_TAB": 2589,
      "rectangles": 2590,
      "regions": 2591,
      "pending": 2592,
      "0xCCCC": 2593,
      "approx": 2594,
      "auto": 2595,
      "NUM": 2596,
      "World": 2597,
      "origin": 2598,
      "230": 2599,
      "AB": 2600,
      "Fra": 2601,
      "Mark": 2602,
      "PRE": 2603,
      "PV_": 2604,
      "R0": 2605,
      "Res": 2606,
      "Shi": 2607,
      "][": 2608,
      "_set": 2609,
      "cn": 2610,
      "cac": 2611,
      "drag": 2612,
      "fre": 2613,
      "oid": 2614,
      "yes": 2615,
      "REQ": 2616,
      "STR": 2617,
      "0x25": 2618,
      "stal": 2619,
      "dev": 2620,
      "att_": 2621,
      "toolti": 2622,
      "_drain": 2623,
      "mately": 2624,
      "0x4100": 2625,
      "0x428": 2626,
      "0x418": 2627,
      "row_dirty": 2628,
      "drawn": 2629,
      "ghost": 2630,
      "grav": 2631,
      "0x14": 2632,
      "ways": 2633,
      "ify": 2634,
      "CHA": 2635,
      "_neg": 2636,
      "positions": 2637,
      "halt": 2638,
      "MAT": 2639,
      "tinue": 2640,
      "hex_": 2641,
      "handle_": 2642,
      "cmd_is_": 2643,
      "ultimately": 2644,
      "coords": 2645,
      "ascii": 2646,
      "selected": 2647,
      "pv_regs": 2648,
      "4x4": 2649,
      "MOUSEQ": 2650,
      "mark_row_dirty": 2651,
      "SPAWN": 2652,
      "reaches": 2653,
      "DUR_": 2654,
      "\"[": 2655,
      "'.": 2656,
      "CD": 2657,
      "DA": 2658,
      "F0": 2659,
      "Fo": 2660,
      "HAND": 2661,
      "LU": 2662,
      "NG": 2663,
      "NING": 2664,
      "OK": 2665,
      "Pre": 2666,
      "PEE": 2667,
      "Parse": 2668,
      "Top": 2669,
      "Tab": 2670,
      "_not_": 2671,
      "cp_": 2672,
      "hundreds": 2673,
      "pn": 2674,
      "still": 2675,
      "x32": 2676,
      "incre": 2677,
      "0x100": 2678,
      "─────": 2679,
      "entit": 2680,
      "animal": 2681,
      "ram": 2682,
      "========================": 2683,
      "diamon": 2684,
      "_clo": 2685,
      "veloc": 2686,
      "proces": 2687,
      "hidd": 2688,
      "enta": 2689,
      "rende": 2690,
      "0x5200": 2691,
      "0x6200": 2692,
      "========================================================": 2693,
      "graphi": 2694,
      "0x0400": 2695,
      "0x1A": 2696,
      "viron": 2697,
      "0x33": 2698,
      "idx": 2699,
      "dsb": 2700,
      "242": 2701,
      "245": 2702,
      "FILE": 2703,
      "terminated": 2704,
      "192": 2705,
      "write_prompt": 2706,
      "RUNNING": 2707,
      "continuously": 2708,
      "Append": 2709,
      "CMD_HI": 2710,
      "asteroid": 2711,
      "magenta": 2712,
      "ACTIVE": 2713,
      "0x0A0A1E": 2714,
      "limit": 2715,
      "PEEK": 2716,
      "entity_": 2717,
      "hidden": 2718,
      "vironment": 2719,
      ".\"": 2720,
      "1px": 2721,
      "C3": 2722,
      "E5": 2723,
      "Esc": 2724,
      "Key": 2725,
      "Linux": 2726,
      "_fail": 2727,
      "brow": 2728,
      "cro": 2729,
      "hp_": 2730,
      "ick": 2731,
      "mid": 2732,
      "sm": 2733,
      "void": 2734,
      "x_loop": 2735,
      "input_": 2736,
      "environment": 2737,
      "stone": 2738,
      "always": 2739,
      "decre": 2740,
      "delete": 2741,
      "_drop": 2742,
      "asic": 2743,
      "1111": 2744,
      "ved": 2745,
      "maze": 2746,
      "spe": 2747,
      "0x7F": 2748,
      "0x7600": 2749,
      "d_loop": 2750,
      "safe": 2751,
      "word_": 2752,
      "0x1B": 2753,
      "vig": 2754,
      "0x3100": 2755,
      "compares": 2756,
      "programs": 2757,
      "ROW_": 2758,
      "struct": 2759,
      "files": 2760,
      "prev_": 2761,
      "player_y": 2762,
      "Comm": 2763,
      "runs": 2764,
      "rot0": 2765,
      "shifting": 2766,
      "conditions": 2767,
      "0x40D1": 2768,
      "0x40D2": 2769,
      "overflow": 2770,
      "manages": 2771,
      "tric": 2772,
      "entire": 2773,
      "Proves": 2774,
      "_continue": 2775,
      "Blue": 2776,
      "written": 2777,
      "pb_esc_": 2778,
      "ENEMY_BASE": 2779,
      "Position": 2780,
      "Count": 2781,
      "PROMPT_BUF": 2782,
      "')": 2783,
      "132": 2784,
      "7F": 2785,
      "DY": 2786,
      "Di": 2787,
      "FT": 2788,
      "File": 2789,
      "HA": 2790,
      "Next": 2791,
      "PS": 2792,
      "SD": 2793,
      "ci": 2794,
      "cv_": 2795,
      "elevation": 2796,
      "night": 2797,
      "sof": 2798,
      "wan": 2799,
      "will": 2800,
      "RED_": 2801,
      "FFF": 2802,
      "tow": 2803,
      "chang": 2804,
      "simp": 2805,
      "url_": 2806,
      "ected": 2807,
      "initial": 2808,
      "0x0C": 2809,
      "0x030": 2810,
      "LEFT": 2811,
      "inputs": 2812,
      "foam": 2813,
      "movement": 2814,
      "NEXT": 2815,
      "0x7807": 2816,
      "scrolling": 2817,
      "scroll_up": 2818,
      "patterns": 2819,
      "rystal": 2820,
      "math": 2821,
      "tail_": 2822,
      "waiting": 2823,
      "who": 2824,
      "navig": 2825,
      "BODY": 2826,
      "comparisons": 2827,
      "Water": 2828,
      "nearby": 2829,
      "sky": 2830,
      "service": 2831,
      "accumulator": 2832,
      "0x0044FF": 2833,
      "field": 2834,
      "Frame": 2835,
      "232": 2836,
      "3A": 2837,
      "3D": 2838,
      "41": 2839,
      "59": 2840,
      "92": 2841,
      "<=": 2842,
      "ACC": 2843,
      "Add": 2844,
      "Ext": 2845,
      "Line": 2846,
      "POR": 2847,
      "SAND": 2848,
      "]\"": 2849,
      "_t": 2850,
      "_copy": 2851,
      "drop": 2852,
      "nts": 2853,
      "oter": 2854,
      "some": 2855,
      "tle": 2856,
      "xblend_": 2857,
      "y_loop": 2858,
      "ypre": 2859,
      "returns": 2860,
      "heal": 2861,
      "let": 2862,
      "ish": 2863,
      "_drag": 2864,
      "adv": 2865,
      "ely": 2866,
      "loop_2": 2867,
      "dio": 2868,
      "_clamp": 2869,
      "32x32": 2870,
      "121": 2871,
      "_read": 2872,
      "────────────────────────": 2873,
      "0x600": 2874,
      "assembler": 2875,
      "enter_digit_": 2876,
      "ALT_": 2877,
      "quo": 2878,
      "fol": 2879,
      "mmer": 2880,
      "win_y": 2881,
      "calc_": 2882,
      "face": 2883,
      "ports": 2884,
      "0x7814": 2885,
      "while": 2886,
      "ights": 2887,
      "196": 2888,
      "rot1": 2889,
      "rot2": 2890,
      "rot3": 2891,
      "PTY_": 2892,
      "overlay": 2893,
      "functional": 2894,
      "_digits": 2895,
      "name_done": 2896,
      "features": 2897,
      "set_state": 2898,
      "ccp_": 2899,
      "ived": 2900,
      "enemies": 2901,
      "R_BS": 2902,
      "approach": 2903,
      "int_to_str": 2904,
      "btn_": 2905,
      "effect": 2906,
      "Find": 2907,
      "TITLE_": 2908,
      "0xAAAAAA": 2909,
      "control": 2910,
      "radius": 2911,
      "============================================================": 2912,
      "216": 2913,
      "61": 2914,
      "Bi": 2915,
      "CB": 2916,
      "GHT": 2917,
      "Red": 2918,
      "Str": 2919,
      "],": 2920,
      "_ADDR": 2921,
      "_END": 2922,
      "air": 2923,
      "crystal": 2924,
      "eded": 2925,
      "0xBBBB": 2926,
      "meta": 2927,
      "chr": 2928,
      "laim": 2929,
      "0xFFAA": 2930,
      "OP_TABLE": 2931,
      "ther": 2932,
      "0x797": 2933,
      "most": 2934,
      "modu": 2935,
      "verifi": 2936,
      "ility": 2937,
      "0x0200": 2938,
      "dots": 2939,
      "shr": 2940,
      "bars": 2941,
      "FRAME_": 2942,
      "ent_render": 2943,
      "win_id": 2944,
      "backspace": 2945,
      "0x7803": 2946,
      "0x780A": 2947,
      "precomputed": 2948,
      "memchr": 2949,
      "shows": 2950,
      "384": 2951,
      "game_loop": 2952,
      "clock": 2953,
      "EXEC": 2954,
      "extract": 2955,
      "bldg_": 2956,
      "lerp": 2957,
      "argument": 2958,
      "0x0A0A": 2959,
      "enemy": 2960,
      "parse_done": 2961,
      "Close": 2962,
      "Wait": 2963,
      "btn": 2964,
      "WASD": 2965,
      "delta": 2966,
      "no_click": 2967,
      "Shift": 2968,
      "velocity": 2969,
      "follow": 2970,
      "\">": 2971,
      "(.": 2972,
      "170": 2973,
      "176": 2974,
      "ARE": 2975,
      "CTE": 2976,
      "Clamp": 2977,
      "D2": 2978,
      "Down": 2979,
      "FD": 2980,
      "FREQ": 2981,
      "NL": 2982,
      "OFF": 2983,
      "QU": 2984,
      "Ring": 2985,
      "_label": 2986,
      "aded": 2987,
      "bbe": 2988,
      "cer": 2989,
      "cing": 2990,
      "pul": 2991,
      "tx": 2992,
      "ints": 2993,
      "invol": 2994,
      "0x10000": 2995,
      "007": 2996,
      "tiv": 2997,
      "allow": 2998,
      "loaded": 2999
    },
    "merges": [
      [
        "r",
        "1"
      ],
      [
        "D",
        "I"
      ],
      [
        "r",
        "2"
      ],
      [
        "L",
        "DI"
      ],
      [
        "=",
        "="
      ],
      [
        "═",
        "═"
      ],
      [
        "A",
        "D"
      ],
      [
        "==",
        "=="
      ],
      [
        "─",
        "─"
      ],
      [
        "R",
        "E"
      ],
      [
        "i",
        "n"
      ],
      [
        "S",
        "T"
      ],
      [
        "0",
        "x"
      ],
      [
        "ST",
        "O"
      ],
      [
        "STO",
        "RE"
      ],
      [
        "r",
        "e"
      ],
      [
        "AD",
        "D"
      ],
      [
        "r",
        "3"
      ],
      [
        "r2",
        "0"
      ],
      [
        "══",
        "══"
      ],
      [
        "t",
        "e"
      ],
      [
        "r",
        "0"
      ],
      [
        "r",
        "4"
      ],
      [
        "r",
        "7"
      ],
      [
        "0",
        "0"
      ],
      [
        "o",
        "n"
      ],
      [
        "M",
        "P"
      ],
      [
        "====",
        "===="
      ],
      [
        "──",
        "──"
      ],
      [
        "o",
        "r"
      ],
      [
        "e",
        "n"
      ],
      [
        "e",
        "r"
      ],
      [
        "t",
        "i"
      ],
      [
        "a",
        "n"
      ],
      [
        "s",
        "e"
      ],
      [
        "s",
        "t"
      ],
      [
        "c",
        "o"
      ],
      [
        "a",
        "l"
      ],
      [
        "h",
        "e"
      ],
      [
        "a",
        "r"
      ],
      [
        "r1",
        "0"
      ],
      [
        "r",
        "5"
      ],
      [
        "r",
        "6"
      ],
      [
        "-",
        "-"
      ],
      [
        "l",
        "e"
      ],
      [
        "F",
        "F"
      ],
      [
        "════",
        "════"
      ],
      [
        "r",
        "o"
      ],
      [
        "r",
        "a"
      ],
      [
        "d",
        "e"
      ],
      [
        "C",
        "MP"
      ],
      [
        "i",
        "t"
      ],
      [
        "L",
        "O"
      ],
      [
        "r1",
        "1"
      ],
      [
        "r",
        "9"
      ],
      [
        "r1",
        "2"
      ],
      [
        "r1",
        "7"
      ],
      [
        "l",
        "o"
      ],
      [
        "a",
        "t"
      ],
      [
        "LO",
        "AD"
      ],
      [
        "o",
        "p"
      ],
      [
        "te",
        "r"
      ],
      [
        "in",
        "g"
      ],
      [
        "ti",
        "on"
      ],
      [
        "i",
        "s"
      ],
      [
        "r1",
        "5"
      ],
      [
        "========",
        "========"
      ],
      [
        "e",
        "s"
      ],
      [
        "r1",
        "4"
      ],
      [
        "t",
        "o"
      ],
      [
        "────",
        "────"
      ],
      [
        "r1",
        "8"
      ],
      [
        "A",
        "L"
      ],
      [
        "an",
        "d"
      ],
      [
        "J",
        "MP"
      ],
      [
        "c",
        "k"
      ],
      [
        "1",
        "0"
      ],
      [
        "r1",
        "3"
      ],
      [
        "r2",
        "1"
      ],
      [
        "u",
        "n"
      ],
      [
        "M",
        "O"
      ],
      [
        "m",
        "e"
      ],
      [
        "_",
        "d"
      ],
      [
        "a",
        "s"
      ],
      [
        "r2",
        "2"
      ],
      [
        "AL",
        "L"
      ],
      [
        "c",
        "h"
      ],
      [
        "C",
        "ALL"
      ],
      [
        "R",
        "A"
      ],
      [
        "r",
        "8"
      ],
      [
        "MO",
        "V"
      ],
      [
        "l",
        "a"
      ],
      [
        "S",
        "H"
      ],
      [
        "t",
        "he"
      ],
      [
        "in",
        "e"
      ],
      [
        "r",
        "i"
      ],
      [
        "t",
        "_"
      ],
      [
        "a",
        "d"
      ],
      [
        "════════",
        "════════"
      ],
      [
        "e",
        "l"
      ],
      [
        "CMP",
        "I"
      ],
      [
        "lo",
        "op"
      ],
      [
        "J",
        "N"
      ],
      [
        "JN",
        "Z"
      ],
      [
        "J",
        "Z"
      ],
      [
        "ra",
        "w"
      ],
      [
        "d",
        "i"
      ],
      [
        "_",
        "c"
      ],
      [
        "b",
        "u"
      ],
      [
        "n",
        "e"
      ],
      [
        "3",
        "2"
      ],
      [
        "m",
        "p"
      ],
      [
        "co",
        "l"
      ],
      [
        "1",
        "1"
      ],
      [
        "2",
        "5"
      ],
      [
        "v",
        "e"
      ],
      [
        "on",
        "e"
      ],
      [
        "s",
        "c"
      ],
      [
        "f",
        "or"
      ],
      [
        "r1",
        "6"
      ],
      [
        "u",
        "l"
      ],
      [
        "m",
        "a"
      ],
      [
        "S",
        "U"
      ],
      [
        "he",
        "ck"
      ],
      [
        "S",
        "C"
      ],
      [
        "c",
        "e"
      ],
      [
        "S",
        "E"
      ],
      [
        "SU",
        "B"
      ],
      [
        "n",
        "o"
      ],
      [
        "s",
        "i"
      ],
      [
        "b",
        "y"
      ],
      [
        "u",
        "r"
      ],
      [
        "B",
        "U"
      ],
      [
        "T",
        "E"
      ],
      [
        "0x",
        "4"
      ],
      [
        "1",
        "2"
      ],
      [
        "u",
        "t"
      ],
      [
        "R",
        "O"
      ],
      [
        "0x",
        "FF"
      ],
      [
        "f",
        "i"
      ],
      [
        "ro",
        "w"
      ],
      [
        "s",
        "p"
      ],
      [
        "a",
        "te"
      ],
      [
        "BU",
        "F"
      ],
      [
        "b",
        "l"
      ],
      [
        "O",
        "P"
      ],
      [
        "_",
        "re"
      ],
      [
        "AD",
        "DI"
      ],
      [
        "t",
        "h"
      ],
      [
        "r2",
        "5"
      ],
      [
        "N",
        "D"
      ],
      [
        "re",
        "en"
      ],
      [
        "_d",
        "one"
      ],
      [
        "0x",
        "7"
      ],
      [
        "R",
        "_"
      ],
      [
        "────────",
        "────────"
      ],
      [
        "00",
        "0"
      ],
      [
        "u",
        "s"
      ],
      [
        "a",
        "tion"
      ],
      [
        "T",
        "I"
      ],
      [
        "--",
        "--"
      ],
      [
        "m",
        "o"
      ],
      [
        "it",
        "h"
      ],
      [
        "d",
        "raw"
      ],
      [
        "t",
        "s"
      ],
      [
        "x",
        "t"
      ],
      [
        "RA",
        "M"
      ],
      [
        "1",
        "6"
      ],
      [
        "r2",
        "3"
      ],
      [
        "g",
        "h"
      ],
      [
        "d",
        "_"
      ],
      [
        "r1",
        "9"
      ],
      [
        "co",
        "de"
      ],
      [
        "o",
        "w"
      ],
      [
        "f",
        "f"
      ],
      [
        "P",
        "OP"
      ],
      [
        "de",
        "f"
      ],
      [
        "C",
        "O"
      ],
      [
        "p",
        "i"
      ],
      [
        "r3",
        "1"
      ],
      [
        "P",
        "U"
      ],
      [
        "by",
        "te"
      ],
      [
        "p",
        "ro"
      ],
      [
        "p",
        "o"
      ],
      [
        ".",
        "."
      ],
      [
        "PU",
        "SH"
      ],
      [
        "X",
        "T"
      ],
      [
        "_",
        "loop"
      ],
      [
        "co",
        "un"
      ],
      [
        "c",
        "on"
      ],
      [
        "st",
        "r"
      ],
      [
        "B",
        "L"
      ],
      [
        "i",
        "z"
      ],
      [
        "O",
        "R"
      ],
      [
        "0x",
        "2"
      ],
      [
        "h",
        "i"
      ],
      [
        "w",
        "ith"
      ],
      [
        "e",
        "c"
      ],
      [
        "a",
        "se"
      ],
      [
        "en",
        "t"
      ],
      [
        "8",
        "0"
      ],
      [
        "v",
        "er"
      ],
      [
        "al",
        "l"
      ],
      [
        "U",
        "L"
      ],
      [
        "i",
        "l"
      ],
      [
        "M",
        "UL"
      ],
      [
        "la",
        "y"
      ],
      [
        "a",
        "b"
      ],
      [
        "def",
        "ine"
      ],
      [
        "C",
        "T"
      ],
      [
        "e",
        "d"
      ],
      [
        "re",
        "n"
      ],
      [
        "TE",
        "XT"
      ],
      [
        "u",
        "p"
      ],
      [
        "re",
        "s"
      ],
      [
        "D",
        "E"
      ],
      [
        "in",
        "i"
      ],
      [
        "4",
        "4"
      ],
      [
        "3",
        "0"
      ],
      [
        "sc",
        "reen"
      ],
      [
        "re",
        "g"
      ],
      [
        "l",
        "i"
      ],
      [
        "1",
        "00"
      ],
      [
        "ti",
        "al"
      ],
      [
        "BL",
        "T"
      ],
      [
        "0x",
        "5"
      ],
      [
        "0x",
        "00"
      ],
      [
        "col",
        "or"
      ],
      [
        "k",
        "e"
      ],
      [
        "4",
        "0"
      ],
      [
        "RE",
        "CT"
      ],
      [
        "G",
        "e"
      ],
      [
        "g",
        "e"
      ],
      [
        "0x",
        "6"
      ],
      [
        "A",
        "ND"
      ],
      [
        "l",
        "ine"
      ],
      [
        "25",
        "6"
      ],
      [
        "tial",
        "iz"
      ],
      [
        "is",
        "ter"
      ],
      [
        "================",
        "================"
      ],
      [
        "RECT",
        "F"
      ],
      [
        "R",
        "I"
      ],
      [
        "2",
        "0"
      ],
      [
        "x",
        "el"
      ],
      [
        "g",
        "ra"
      ],
      [
        "ma",
        "in"
      ],
      [
        "b",
        "o"
      ],
      [
        "0x",
        "0"
      ],
      [
        "ri",
        "te"
      ],
      [
        "v",
        "al"
      ],
      [
        "RE",
        "T"
      ],
      [
        "f",
        "ra"
      ],
      [
        "G",
        "E"
      ],
      [
        "o",
        "f"
      ],
      [
        "p",
        "ut"
      ],
      [
        "y",
        "_"
      ],
      [
        "d",
        "o"
      ],
      [
        "4",
        "8"
      ],
      [
        "p",
        "lay"
      ],
      [
        "c",
        "ur"
      ],
      [
        "O",
        "S"
      ],
      [
        "================================",
        "========"
      ],
      [
        "se",
        "m"
      ],
      [
        "reg",
        "ister"
      ],
      [
        "c",
        "le"
      ],
      [
        "l",
        "l"
      ],
      [
        "pi",
        "xel"
      ],
      [
        "d",
        "er"
      ],
      [
        "ini",
        "tializ"
      ],
      [
        "I",
        "N"
      ],
      [
        "CO",
        "L"
      ],
      [
        "ST",
        "RO"
      ],
      [
        "as",
        "sem"
      ],
      [
        "t",
        "r"
      ],
      [
        "ff",
        "er"
      ],
      [
        "i",
        "p"
      ],
      [
        "re",
        "d"
      ],
      [
        "c",
        "t"
      ],
      [
        "========================================",
        "="
      ],
      [
        "gh",
        "t"
      ],
      [
        "a",
        "p"
      ],
      [
        "val",
        "u"
      ],
      [
        "se",
        "t"
      ],
      [
        "════════════════",
        "════════════════"
      ],
      [
        "bu",
        "ffer"
      ],
      [
        "O",
        "N"
      ],
      [
        "c",
        "tion"
      ],
      [
        "B",
        "GE"
      ],
      [
        "c",
        "_"
      ],
      [
        "e",
        "x"
      ],
      [
        "5",
        "0"
      ],
      [
        "st",
        "ar"
      ],
      [
        "assem",
        "bl"
      ],
      [
        "p",
        "er"
      ],
      [
        "FF",
        "FF"
      ],
      [
        "_",
        "BUF"
      ],
      [
        "f",
        "t"
      ],
      [
        "T",
        "he"
      ],
      [
        "P",
        "SE"
      ],
      [
        "t",
        "y"
      ],
      [
        "f",
        "ro"
      ],
      [
        "assembl",
        "y"
      ],
      [
        "s",
        "a"
      ],
      [
        "w",
        "or"
      ],
      [
        "r2",
        "6"
      ],
      [
        "fro",
        "m"
      ],
      [
        "a",
        "ck"
      ],
      [
        "--",
        "-"
      ],
      [
        "ch",
        "ar"
      ],
      [
        "TI",
        "ON"
      ],
      [
        "r2",
        "4"
      ],
      [
        "0x",
        "1"
      ],
      [
        "8",
        "8"
      ],
      [
        "b",
        "ase"
      ],
      [
        "c",
        "heck"
      ],
      [
        "s",
        "h"
      ],
      [
        "en",
        "d"
      ],
      [
        "DE",
        "SC"
      ],
      [
        "RI",
        "P"
      ],
      [
        "DESC",
        "RIP"
      ],
      [
        "DESCRIP",
        "TION"
      ],
      [
        "o",
        "me"
      ],
      [
        "ad",
        "d"
      ],
      [
        "Ge",
        "OS"
      ],
      [
        "s",
        "or"
      ],
      [
        "fra",
        "me"
      ],
      [
        "o",
        "re"
      ],
      [
        "a",
        "c"
      ],
      [
        "L",
        "L"
      ],
      [
        "k",
        "ip"
      ],
      [
        "p",
        "at"
      ],
      [
        "w",
        "a"
      ],
      [
        "te",
        "xt"
      ],
      [
        "ke",
        "y"
      ],
      [
        "_re",
        "t"
      ],
      [
        "i",
        "f"
      ],
      [
        "L",
        "E"
      ],
      [
        "b",
        "it"
      ],
      [
        "T",
        "h"
      ],
      [
        "C",
        "H"
      ],
      [
        "r2",
        "7"
      ],
      [
        "coun",
        "t"
      ],
      [
        "b",
        "ar"
      ],
      [
        "12",
        "8"
      ],
      [
        "t",
        "ab"
      ],
      [
        "u",
        "m"
      ],
      [
        "R",
        "e"
      ],
      [
        "SH",
        "R"
      ],
      [
        "ul",
        "l"
      ],
      [
        "----",
        "----"
      ],
      [
        "r2",
        "8"
      ],
      [
        "register",
        "s"
      ],
      [
        "Th",
        "is"
      ],
      [
        "op",
        "er"
      ],
      [
        "_c",
        "heck"
      ],
      [
        "ul",
        "t"
      ],
      [
        "SH",
        "L"
      ],
      [
        "A",
        "N"
      ],
      [
        "ation",
        "s"
      ],
      [
        "v",
        "i"
      ],
      [
        "e",
        "t"
      ],
      [
        "m",
        "s"
      ],
      [
        "in",
        "put"
      ],
      [
        "draw",
        "_"
      ],
      [
        "0x",
        "3"
      ],
      [
        "s",
        "kip"
      ],
      [
        "en",
        "ter"
      ],
      [
        "A",
        "R"
      ],
      [
        "F",
        "RAM"
      ],
      [
        ")",
        ","
      ],
      [
        "i",
        "d"
      ],
      [
        "FRAM",
        "E"
      ],
      [
        "_",
        "x"
      ],
      [
        "a",
        "me"
      ],
      [
        "0x",
        "F"
      ],
      [
        "AL",
        "T"
      ],
      [
        "si",
        "tion"
      ],
      [
        "p",
        "e"
      ],
      [
        "sp",
        "a"
      ],
      [
        "q",
        "u"
      ],
      [
        "2",
        "2"
      ],
      [
        "star",
        "t"
      ],
      [
        "A",
        "A"
      ],
      [
        "te",
        "d"
      ],
      [
        "valu",
        "es"
      ],
      [
        "p",
        "b"
      ],
      [
        "1",
        "5"
      ],
      [
        "S",
        "I"
      ],
      [
        "w",
        "rite"
      ],
      [
        "_",
        "ne"
      ],
      [
        "m",
        "in"
      ],
      [
        "co",
        "mp"
      ],
      [
        "en",
        "t_"
      ],
      [
        "g",
        "it"
      ],
      [
        "un",
        "d"
      ],
      [
        "ti",
        "le"
      ],
      [
        "coun",
        "ter"
      ],
      [
        "D",
        "raw"
      ],
      [
        "C",
        "heck"
      ],
      [
        "C",
        "C"
      ],
      [
        "H",
        "ALT"
      ],
      [
        "sp",
        "ec"
      ],
      [
        "COL",
        "S"
      ],
      [
        "D",
        "RA"
      ],
      [
        "pro",
        "gra"
      ],
      [
        "6",
        "4"
      ],
      [
        "X",
        "OR"
      ],
      [
        "T",
        "CH"
      ],
      [
        "_",
        "y"
      ],
      [
        "u",
        "se"
      ],
      [
        "oper",
        "ations"
      ],
      [
        "st",
        "ore"
      ],
      [
        "is",
        "play"
      ],
      [
        "ri",
        "ght"
      ],
      [
        "s",
        "u"
      ],
      [
        "RO",
        "W"
      ],
      [
        "====",
        "="
      ],
      [
        "po",
        "sition"
      ],
      [
        "C",
        "U"
      ],
      [
        "ren",
        "der"
      ],
      [
        "bu",
        "f"
      ],
      [
        "DRA",
        "W"
      ],
      [
        "_",
        "0"
      ],
      [
        "────────────────",
        "────────────────"
      ],
      [
        "d",
        "ow"
      ],
      [
        "i",
        "fi"
      ],
      [
        "1",
        "4"
      ],
      [
        "c",
        "l"
      ],
      [
        "f",
        "o"
      ],
      [
        "m",
        "m"
      ],
      [
        "cur",
        "sor"
      ],
      [
        "b",
        "i"
      ],
      [
        "progra",
        "m"
      ],
      [
        "ren",
        "t"
      ],
      [
        "d",
        "s"
      ],
      [
        "u",
        "e"
      ],
      [
        "00",
        "00"
      ],
      [
        "RA",
        "TCH"
      ],
      [
        "SC",
        "RATCH"
      ],
      [
        "l",
        "y"
      ],
      [
        "b",
        "e"
      ],
      [
        "c",
        "es"
      ],
      [
        "25",
        "5"
      ],
      [
        "il",
        "d"
      ],
      [
        "o",
        "ut"
      ],
      [
        "11",
        "4"
      ],
      [
        "e",
        "m"
      ],
      [
        "DRAW",
        "TEXT"
      ],
      [
        "2",
        "4"
      ],
      [
        "or",
        "y"
      ],
      [
        "a",
        "g"
      ],
      [
        "u",
        "te"
      ],
      [
        "0xFF",
        "FFFF"
      ],
      [
        "le",
        "ar"
      ],
      [
        "PSE",
        "T"
      ],
      [
        "f",
        "un"
      ],
      [
        "p",
        "_"
      ],
      [
        "ar",
        "d"
      ],
      [
        "p",
        "ar"
      ],
      [
        "I",
        "n"
      ],
      [
        "-",
        ">"
      ],
      [
        "k",
        "_"
      ],
      [
        "o",
        "l"
      ],
      [
        "spec",
        "ifi"
      ],
      [
        "l",
        "en"
      ],
      [
        "a",
        "re"
      ],
      [
        "FF",
        "00"
      ],
      [
        "CU",
        "R_"
      ],
      [
        "le",
        "ft"
      ],
      [
        "lo",
        "w"
      ],
      [
        "re",
        "ad"
      ],
      [
        "mo",
        "ve"
      ],
      [
        "2",
        "00"
      ],
      [
        "initializ",
        "es"
      ],
      [
        "g",
        "reen"
      ],
      [
        "w",
        "in"
      ],
      [
        "main",
        "_loop"
      ],
      [
        "F",
        "I"
      ],
      [
        "i",
        "r"
      ],
      [
        "══",
        "═"
      ],
      [
        "r",
        "_"
      ],
      [
        "v",
        "is"
      ],
      [
        "r2",
        "9"
      ],
      [
        "P",
        "_"
      ],
      [
        "de",
        "x"
      ],
      [
        "9",
        "9"
      ],
      [
        "d",
        "isplay"
      ],
      [
        "ter",
        "n"
      ],
      [
        "no",
        "_"
      ],
      [
        "sa",
        "ve"
      ],
      [
        "N",
        "E"
      ],
      [
        "b",
        "ack"
      ],
      [
        "MO",
        "D"
      ],
      [
        "in",
        "dex"
      ],
      [
        "initializ",
        "ation"
      ],
      [
        "ex",
        "ec"
      ],
      [
        "1",
        "3"
      ],
      [
        "ro",
        "ll"
      ],
      [
        "c",
        "re"
      ],
      [
        "cle",
        "ar"
      ],
      [
        "a",
        "ch"
      ],
      [
        "specifi",
        "c"
      ],
      [
        "n",
        "ull"
      ],
      [
        "te",
        "n"
      ],
      [
        "_",
        "o"
      ],
      [
        "s",
        "hi"
      ],
      [
        "us",
        "ing"
      ],
      [
        "mo",
        "de"
      ],
      [
        "E",
        "L"
      ],
      [
        "do",
        "_"
      ],
      [
        "════",
        "═══"
      ],
      [
        "K",
        "E"
      ],
      [
        "an",
        "g"
      ],
      [
        "P",
        "I"
      ],
      [
        "co",
        "p"
      ],
      [
        "════════",
        "═══════"
      ],
      [
        "6",
        "0"
      ],
      [
        "P",
        "A"
      ],
      [
        "DI",
        "V"
      ],
      [
        "as",
        "h"
      ],
      [
        "in",
        "es"
      ],
      [
        "a",
        "m"
      ],
      [
        "per",
        "for"
      ],
      [
        "3",
        "3"
      ],
      [
        "st",
        "ate"
      ],
      [
        "po",
        "in"
      ],
      [
        "B",
        "A"
      ],
      [
        "KE",
        "Y"
      ],
      [
        "th",
        "en"
      ],
      [
        "4",
        "9"
      ],
      [
        "c",
        "al"
      ],
      [
        "as",
        "m"
      ],
      [
        "0x7",
        "80"
      ],
      [
        "ter",
        "min"
      ],
      [
        "wor",
        "l"
      ],
      [
        "se",
        "s"
      ],
      [
        "ap",
        "p"
      ],
      [
        "str",
        "u"
      ],
      [
        "G",
        "_"
      ],
      [
        "bi",
        "ome"
      ],
      [
        "t",
        "op"
      ],
      [
        "w",
        "n"
      ],
      [
        "SI",
        "_"
      ],
      [
        "I",
        "t"
      ],
      [
        "s",
        "o"
      ],
      [
        "sc",
        "roll"
      ],
      [
        "m",
        "ent"
      ],
      [
        "at",
        "us"
      ],
      [
        "bl",
        "ue"
      ],
      [
        "w",
        "e"
      ],
      [
        "d",
        "ate"
      ],
      [
        "7",
        "0"
      ],
      [
        "s",
        "er"
      ],
      [
        "res",
        "s"
      ],
      [
        "f",
        "ter"
      ],
      [
        "i",
        "on"
      ],
      [
        "r3",
        "0"
      ],
      [
        "════════════════",
        "═══════════════"
      ],
      [
        "════════════════════════════════",
        "═══════════════════════════════"
      ],
      [
        "6",
        "8"
      ],
      [
        "t",
        "a"
      ],
      [
        "ar",
        "k"
      ],
      [
        "o",
        "ff"
      ],
      [
        "T",
        "Y"
      ],
      [
        "h",
        "al"
      ],
      [
        "h",
        "ase"
      ],
      [
        "di",
        "git"
      ],
      [
        "2",
        "8"
      ],
      [
        "b",
        "er"
      ],
      [
        "mp",
        "le"
      ],
      [
        "0x4",
        "0"
      ],
      [
        "FI",
        "LL"
      ],
      [
        "s",
        "g"
      ],
      [
        "fi",
        "le"
      ],
      [
        "str",
        "ing"
      ],
      [
        "spa",
        "ce"
      ],
      [
        "di",
        "tion"
      ],
      [
        "base",
        "d"
      ],
      [
        "S",
        "_"
      ],
      [
        "c",
        "el"
      ],
      [
        "p",
        "re"
      ],
      [
        "ST",
        "A"
      ],
      [
        "to",
        "_"
      ],
      [
        "me",
        "m"
      ],
      [
        "6",
        "6"
      ],
      [
        "i",
        "m"
      ],
      [
        "perfor",
        "ms"
      ],
      [
        "l",
        "ines"
      ],
      [
        "o",
        "m"
      ],
      [
        "cur",
        "rent"
      ],
      [
        "s",
        "te"
      ],
      [
        "0x",
        "8"
      ],
      [
        "a",
        "fter"
      ],
      [
        "h",
        "and"
      ],
      [
        "pat",
        "tern"
      ],
      [
        "5",
        "5"
      ],
      [
        "10",
        "1"
      ],
      [
        "ang",
        "le"
      ],
      [
        "worl",
        "d_"
      ],
      [
        "pixel",
        "s"
      ],
      [
        "cl",
        "u"
      ],
      [
        "at",
        "or"
      ],
      [
        "play",
        "er"
      ],
      [
        "3",
        "1"
      ],
      [
        "b",
        "or"
      ],
      [
        "en",
        "d_"
      ],
      [
        "bo",
        "ard"
      ],
      [
        "C",
        "o"
      ],
      [
        "ti",
        "ve"
      ],
      [
        "no",
        "t_"
      ],
      [
        "f",
        "a"
      ],
      [
        "7",
        "6"
      ],
      [
        "m",
        "es"
      ],
      [
        "op",
        "code"
      ],
      [
        "0x",
        "30"
      ],
      [
        "tab",
        "le"
      ],
      [
        "p",
        "a"
      ],
      [
        "R_",
        "BUF"
      ],
      [
        "tr",
        "y_"
      ],
      [
        "_ne",
        "xt"
      ],
      [
        "ces",
        "s"
      ],
      [
        "C",
        "lear"
      ],
      [
        "p",
        "or"
      ],
      [
        "st",
        "atus"
      ],
      [
        "at",
        "a"
      ],
      [
        "PSE",
        "TI"
      ],
      [
        "--------",
        "--------"
      ],
      [
        "X",
        "X"
      ],
      [
        "r",
        "un"
      ],
      [
        "an",
        "ce"
      ],
      [
        "0x7",
        "8"
      ],
      [
        "tr",
        "y"
      ],
      [
        "BA",
        "SE"
      ],
      [
        "b",
        "le"
      ],
      [
        "I",
        "KEY"
      ],
      [
        "c",
        "m"
      ],
      [
        "sh",
        "ow"
      ],
      [
        "h",
        "ash"
      ],
      [
        "_d",
        "i"
      ],
      [
        "su",
        "b"
      ],
      [
        "in",
        "clu"
      ],
      [
        "w",
        "hi"
      ],
      [
        ")",
        ":"
      ],
      [
        "c",
        "all"
      ],
      [
        "o",
        "t"
      ],
      [
        "re",
        "ct"
      ],
      [
        "t",
        "t"
      ],
      [
        "fun",
        "c_"
      ],
      [
        "a",
        "y"
      ],
      [
        "main",
        "_0"
      ],
      [
        "6",
        "5"
      ],
      [
        "i",
        "gh"
      ],
      [
        "co",
        "mm"
      ],
      [
        "3",
        "8"
      ],
      [
        "D",
        "_"
      ],
      [
        "M",
        "A"
      ],
      [
        "t",
        "in"
      ],
      [
        "ne",
        "w"
      ],
      [
        "CO",
        "LO"
      ],
      [
        "AN",
        "DI"
      ],
      [
        "1",
        "8"
      ],
      [
        "H",
        "I"
      ],
      [
        "M",
        "E"
      ],
      [
        "c",
        "y"
      ],
      [
        "c",
        "an"
      ],
      [
        "l",
        "p"
      ],
      [
        "p",
        "x"
      ],
      [
        "off",
        "set"
      ],
      [
        "C",
        "SI_"
      ],
      [
        "add",
        "ress"
      ],
      [
        "B",
        "B"
      ],
      [
        "C",
        "on"
      ],
      [
        "M",
        "_"
      ],
      [
        "it",
        "_"
      ],
      [
        "cel",
        "l"
      ],
      [
        "e",
        "ce"
      ],
      [
        "s",
        "y"
      ],
      [
        "z",
        "er"
      ],
      [
        "te",
        "st"
      ],
      [
        "SUB",
        "I"
      ],
      [
        "zer",
        "o"
      ],
      [
        "1",
        "9"
      ],
      [
        "S",
        "AR"
      ],
      [
        "ow",
        "n"
      ],
      [
        "c",
        "enter"
      ],
      [
        "r",
        "y"
      ],
      [
        "pro",
        "mp"
      ],
      [
        "valu",
        "e"
      ],
      [
        "lo",
        "ad"
      ],
      [
        "no",
        "t"
      ],
      [
        "E",
        "N"
      ],
      [
        "e",
        "ach"
      ],
      [
        "n",
        "um"
      ],
      [
        "0x",
        "9"
      ],
      [
        "stru",
        "ction"
      ],
      [
        "_",
        "1"
      ],
      [
        "_",
        "to_"
      ],
      [
        "i",
        "c"
      ],
      [
        "m",
        "at"
      ],
      [
        "ti",
        "c"
      ],
      [
        "row",
        "s"
      ],
      [
        "_re",
        "g"
      ],
      [
        "0x00",
        "FF00"
      ],
      [
        "cop",
        "y"
      ],
      [
        "mem",
        "ory"
      ],
      [
        "en",
        "ts"
      ],
      [
        "ti",
        "t"
      ],
      [
        "ro",
        "t"
      ],
      [
        "in",
        "struction"
      ],
      [
        "0x00",
        "00"
      ],
      [
        "0x6",
        "A"
      ],
      [
        "fi",
        "r"
      ],
      [
        "char",
        "s"
      ],
      [
        "X",
        "EL"
      ],
      [
        "t",
        "ra"
      ],
      [
        "u",
        "la"
      ],
      [
        "he",
        "x"
      ],
      [
        "0x2",
        "000"
      ],
      [
        "write",
        "_"
      ],
      [
        "PI",
        "XEL"
      ],
      [
        "U",
        "N"
      ],
      [
        "12",
        "0"
      ],
      [
        "x",
        "t_"
      ],
      [
        "IN",
        "E"
      ],
      [
        "9",
        "7"
      ],
      [
        "ne",
        "xt"
      ],
      [
        "se",
        "ver"
      ],
      [
        "draw",
        "ing"
      ],
      [
        "sever",
        "al"
      ],
      [
        "`",
        ","
      ],
      [
        "s",
        "s"
      ],
      [
        "2",
        "7"
      ],
      [
        "add",
        "r"
      ],
      [
        "C",
        "_"
      ],
      [
        "P",
        "TY"
      ],
      [
        "to",
        "m"
      ],
      [
        "ty",
        "pe"
      ],
      [
        "CUR_",
        "ROW"
      ],
      [
        "_d",
        "raw"
      ],
      [
        "SE",
        "ND"
      ],
      [
        ")",
        "."
      ],
      [
        "L",
        "o"
      ],
      [
        "b",
        "_"
      ],
      [
        "w",
        "i"
      ],
      [
        "in",
        "to"
      ],
      [
        "shi",
        "ft"
      ],
      [
        "promp",
        "t"
      ],
      [
        "5",
        "8"
      ],
      [
        "d",
        "ata"
      ],
      [
        "_check",
        "_"
      ],
      [
        "1",
        "7"
      ],
      [
        "con",
        "dition"
      ],
      [
        "0x40",
        "D"
      ],
      [
        "hand",
        "le"
      ],
      [
        "comm",
        "and"
      ],
      [
        ">",
        ">"
      ],
      [
        "up",
        "date"
      ],
      [
        "dow",
        "n"
      ],
      [
        "i",
        "es"
      ],
      [
        "l",
        "_"
      ],
      [
        "ma",
        "p"
      ],
      [
        "ate",
        "d"
      ],
      [
        "3",
        "6"
      ],
      [
        "S",
        "t"
      ],
      [
        "se",
        "_"
      ],
      [
        "he",
        "re"
      ],
      [
        "check",
        "_"
      ],
      [
        "num",
        "ber"
      ],
      [
        "o",
        "ver"
      ],
      [
        "si",
        "_"
      ],
      [
        "draw",
        "s"
      ],
      [
        "win",
        "dow"
      ],
      [
        "T",
        "A"
      ],
      [
        "_re",
        "s"
      ],
      [
        "V",
        "E"
      ],
      [
        "i",
        "ma"
      ],
      [
        "v",
        "ar"
      ],
      [
        "v",
        "ance"
      ],
      [
        "all",
        "y"
      ],
      [
        "PA",
        "RAM"
      ],
      [
        "wa",
        "ter"
      ],
      [
        "CSI_",
        "PARAM"
      ],
      [
        "g",
        "ame"
      ],
      [
        "z",
        "e"
      ],
      [
        "fir",
        "st"
      ],
      [
        "4",
        "00"
      ],
      [
        "C",
        "E"
      ],
      [
        "t",
        "ing"
      ],
      [
        "v",
        "es"
      ],
      [
        "fi",
        "ll"
      ],
      [
        "pi",
        "ece"
      ],
      [
        "4",
        "2"
      ],
      [
        "A",
        "1"
      ],
      [
        "p",
        "la"
      ],
      [
        "ro",
        "und"
      ],
      [
        "_d",
        "own"
      ],
      [
        "0x4",
        "E"
      ],
      [
        "por",
        "t"
      ],
      [
        "tit",
        "le"
      ],
      [
        "_res",
        "ult"
      ],
      [
        "B",
        "u"
      ],
      [
        "o",
        "us"
      ],
      [
        "I",
        "f"
      ],
      [
        "W",
        "rite"
      ],
      [
        "ur",
        "sor"
      ],
      [
        "W",
        "IN"
      ],
      [
        "po",
        "s"
      ],
      [
        "9",
        "0"
      ],
      [
        "sp",
        "on"
      ],
      [
        "C",
        "L"
      ],
      [
        "E",
        "E"
      ],
      [
        "u",
        "tion"
      ],
      [
        "Re",
        "ad"
      ],
      [
        "0xFFFFFF",
        "FF"
      ],
      [
        "cm",
        "d_"
      ],
      [
        "ul",
        "ti"
      ],
      [
        "SEND",
        "_BUF"
      ],
      [
        "di",
        "f"
      ],
      [
        "_check",
        "_result"
      ],
      [
        "A",
        "0"
      ],
      [
        "o",
        "k"
      ],
      [
        "w",
        "here"
      ],
      [
        "ti",
        "me"
      ],
      [
        "it",
        "y"
      ],
      [
        "bl",
        "end"
      ],
      [
        "ST",
        "R_BUF"
      ],
      [
        "bu",
        "ild"
      ],
      [
        "def",
        "a"
      ],
      [
        "CUR_",
        "COL"
      ],
      [
        "var",
        "i"
      ],
      [
        "W",
        "PIXEL"
      ],
      [
        "c",
        "lo"
      ],
      [
        "v",
        "_"
      ],
      [
        "me",
        "tic"
      ],
      [
        "ch",
        "an"
      ],
      [
        "ri",
        "d"
      ],
      [
        "ith",
        "metic"
      ],
      [
        "vi",
        "a"
      ],
      [
        "p",
        "al"
      ],
      [
        "ar",
        "ithmetic"
      ],
      [
        "bo",
        "t"
      ],
      [
        "pb",
        "_ret"
      ],
      [
        "ROW",
        "S"
      ],
      [
        "defa",
        "ult"
      ],
      [
        "7",
        "3"
      ],
      [
        "T",
        "U"
      ],
      [
        "m",
        "an"
      ],
      [
        "==",
        "="
      ],
      [
        "te",
        "s"
      ],
      [
        "10",
        "8"
      ],
      [
        "igh",
        "bor"
      ],
      [
        "wi",
        "se"
      ],
      [
        "3",
        "00"
      ],
      [
        "L",
        "INE"
      ],
      [
        "d",
        "ark"
      ],
      [
        "th",
        "at"
      ],
      [
        "..",
        ".."
      ],
      [
        "spa",
        "wn"
      ],
      [
        "i",
        "ght"
      ],
      [
        "SHL",
        "I"
      ],
      [
        "exec",
        "ution"
      ],
      [
        "_o",
        "k"
      ],
      [
        "P",
        "hase"
      ],
      [
        "re",
        "spon"
      ],
      [
        "fun",
        "ction"
      ],
      [
        "A",
        "I"
      ],
      [
        "d",
        "ing"
      ],
      [
        "g",
        "round"
      ],
      [
        "st",
        "an"
      ],
      [
        "ne",
        "ighbor"
      ],
      [
        "0xFF",
        "B"
      ],
      [
        "ir",
        "cle"
      ],
      [
        "g",
        "_"
      ],
      [
        "ar",
        "ch"
      ],
      [
        "0x2",
        "00"
      ],
      [
        "li",
        "ck"
      ],
      [
        "pla",
        "ce"
      ],
      [
        "E",
        "X"
      ],
      [
        "c",
        "am"
      ],
      [
        "m",
        "ents"
      ],
      [
        "s",
        "in"
      ],
      [
        "cre",
        "ment"
      ],
      [
        "_di",
        "git"
      ],
      [
        "bot",
        "tom"
      ],
      [
        "1",
        "10"
      ],
      [
        "11",
        "1"
      ],
      [
        "0x5",
        "000"
      ],
      [
        "Bu",
        "ild"
      ],
      [
        "n",
        "el"
      ],
      [
        "pat",
        "h"
      ],
      [
        "6",
        "9"
      ],
      [
        "d",
        "y"
      ],
      [
        "e",
        "xt"
      ],
      [
        "t",
        "ur"
      ],
      [
        "ch",
        "k_"
      ],
      [
        "SE",
        "T"
      ],
      [
        "ate",
        "s"
      ],
      [
        "enter",
        "s"
      ],
      [
        "STA",
        "TU"
      ],
      [
        "7",
        "5"
      ],
      [
        "de",
        "d"
      ],
      [
        "RA",
        "ND"
      ],
      [
        "_c",
        "lear"
      ],
      [
        "um",
        "n"
      ],
      [
        "et",
        "te"
      ],
      [
        ">",
        "="
      ],
      [
        "m",
        "c"
      ],
      [
        "se",
        "d"
      ],
      [
        "el",
        "low"
      ],
      [
        "col",
        "umn"
      ],
      [
        "out",
        "put"
      ],
      [
        "i",
        "x"
      ],
      [
        "o",
        "st"
      ],
      [
        "u",
        "st"
      ],
      [
        "0x",
        "D"
      ],
      [
        "si",
        "on"
      ],
      [
        "wor",
        "ds"
      ],
      [
        "Lo",
        "ad"
      ],
      [
        "w",
        "all"
      ],
      [
        "ra",
        "in"
      ],
      [
        "pb",
        "_c"
      ],
      [
        "app",
        "end_"
      ],
      [
        "2",
        "9"
      ],
      [
        "D",
        "e"
      ],
      [
        "a",
        "ge"
      ],
      [
        "m",
        "on"
      ],
      [
        "t",
        "ri"
      ],
      [
        "0x",
        "E"
      ],
      [
        "an",
        "ima"
      ],
      [
        "it",
        "s"
      ],
      [
        "si",
        "ze"
      ],
      [
        "hi",
        "st"
      ],
      [
        "+",
        "+"
      ],
      [
        "e",
        "w"
      ],
      [
        "in",
        "di"
      ],
      [
        "0x",
        "C"
      ],
      [
        "lo",
        "g"
      ],
      [
        "res",
        "ult"
      ],
      [
        "skip",
        "_"
      ],
      [
        "i",
        "le"
      ],
      [
        "t",
        "al"
      ],
      [
        "er",
        "a"
      ],
      [
        "se",
        "ts"
      ],
      [
        "ad",
        "vance"
      ],
      [
        "C",
        "K"
      ],
      [
        "R",
        "ow"
      ],
      [
        "d",
        "u"
      ],
      [
        "re",
        "store"
      ],
      [
        "en",
        "ti"
      ],
      [
        "en",
        "dif"
      ],
      [
        "are",
        "a"
      ],
      [
        "c",
        "or"
      ],
      [
        "n",
        "ing"
      ],
      [
        "de",
        "s"
      ],
      [
        "bu",
        "tt"
      ],
      [
        "ma",
        "x"
      ],
      [
        "bit",
        "s"
      ],
      [
        "bit",
        "wise"
      ],
      [
        "0x3",
        "000"
      ],
      [
        "butt",
        "on"
      ],
      [
        "2",
        "40"
      ],
      [
        "3",
        "5"
      ],
      [
        "i",
        "mple"
      ],
      [
        "si",
        "g"
      ],
      [
        "pro",
        "cess"
      ],
      [
        "wa",
        "ve"
      ],
      [
        "S",
        "h"
      ],
      [
        "f",
        "ore"
      ],
      [
        "o",
        "ve"
      ],
      [
        "id",
        "th"
      ],
      [
        "a",
        "ve"
      ],
      [
        "l",
        "s"
      ],
      [
        "n",
        "ame"
      ],
      [
        "0x4",
        "4"
      ],
      [
        "0xFF",
        "0000"
      ],
      [
        "buf",
        "_"
      ],
      [
        "back",
        "ground"
      ],
      [
        "HI",
        "T"
      ],
      [
        "pal",
        "ette"
      ],
      [
        "7",
        "7"
      ],
      [
        "f",
        "la"
      ],
      [
        "w",
        "idth"
      ],
      [
        "ge",
        "t_"
      ],
      [
        "em",
        "it"
      ],
      [
        "Co",
        "mp"
      ],
      [
        "whi",
        "te"
      ],
      [
        "cam",
        "era"
      ],
      [
        "lo",
        "ck"
      ],
      [
        "byte",
        "s"
      ],
      [
        "world_",
        "y"
      ],
      [
        "chan",
        "nel"
      ],
      [
        "m",
        "ix"
      ],
      [
        "u",
        "gh"
      ],
      [
        "la",
        "mp"
      ],
      [
        "comp",
        "ute"
      ],
      [
        "world_",
        "x"
      ],
      [
        "respon",
        "se"
      ],
      [
        "8",
        "3"
      ],
      [
        "r",
        "an"
      ],
      [
        "s",
        "w"
      ],
      [
        "co",
        "or"
      ],
      [
        "11",
        "5"
      ],
      [
        "ver",
        "t"
      ],
      [
        "fra",
        "mes"
      ],
      [
        "7",
        "2"
      ],
      [
        "A",
        "2"
      ],
      [
        "c",
        "t_"
      ],
      [
        "c",
        "ircle"
      ],
      [
        "or",
        "iz"
      ],
      [
        "lo",
        "c"
      ],
      [
        "0x4",
        "000"
      ],
      [
        "ke",
        "y_"
      ],
      [
        "ome",
        "try"
      ],
      [
        "0x4E",
        "0"
      ],
      [
        "fla",
        "g"
      ],
      [
        "S",
        "to"
      ],
      [
        "0x",
        "88"
      ],
      [
        "se",
        "con"
      ],
      [
        "sg",
        "r_"
      ],
      [
        "8",
        "4"
      ],
      [
        "e",
        "mp"
      ],
      [
        "k",
        "_ret"
      ],
      [
        "he",
        "s"
      ],
      [
        "Ge",
        "ometry"
      ],
      [
        "8",
        "2"
      ],
      [
        "Y",
        "S"
      ],
      [
        "f",
        "in"
      ],
      [
        "p",
        "hase"
      ],
      [
        "t",
        "k_"
      ],
      [
        "0x",
        "B"
      ],
      [
        "ro",
        "ut"
      ],
      [
        "as",
        "s"
      ],
      [
        "poin",
        "ter"
      ],
      [
        "termin",
        "ate"
      ],
      [
        "fa",
        "il"
      ],
      [
        "3",
        "4"
      ],
      [
        "P",
        "ro"
      ],
      [
        "U",
        "p"
      ],
      [
        "o",
        "th"
      ],
      [
        "p",
        "res"
      ],
      [
        "in",
        "k"
      ],
      [
        "st",
        "ra"
      ],
      [
        "st",
        "ack"
      ],
      [
        "LE",
        "N"
      ],
      [
        "E",
        "n"
      ],
      [
        "g",
        "rid"
      ],
      [
        "le",
        "v"
      ],
      [
        "12",
        "7"
      ],
      [
        "sp",
        "rite"
      ],
      [
        "th",
        "ro"
      ],
      [
        "ent",
        "ry"
      ],
      [
        "pb_c",
        "si_"
      ],
      [
        "Sto",
        "re"
      ],
      [
        "f",
        "e"
      ],
      [
        "m",
        "ulti"
      ],
      [
        "w",
        "o"
      ],
      [
        "11",
        "2"
      ],
      [
        "color",
        "s"
      ],
      [
        "use",
        "s"
      ],
      [
        "COLO",
        "R"
      ],
      [
        "Sh",
        "ow"
      ],
      [
        "C",
        "LE"
      ],
      [
        "S",
        "YS"
      ],
      [
        "b",
        "el"
      ],
      [
        "st",
        "o"
      ],
      [
        "is",
        "ion"
      ],
      [
        "ne",
        "xt_"
      ],
      [
        "CO",
        "UN"
      ],
      [
        "key",
        "board"
      ],
      [
        "AN",
        "S_"
      ],
      [
        "tile",
        "s"
      ],
      [
        "hal",
        "ts"
      ],
      [
        "call",
        "s"
      ],
      [
        "indi",
        "c"
      ],
      [
        "T",
        "XT"
      ],
      [
        "a",
        "in"
      ],
      [
        "u",
        "re"
      ],
      [
        "se",
        "t_"
      ],
      [
        "se",
        "arch"
      ],
      [
        "co",
        "re"
      ],
      [
        "la",
        "bel"
      ],
      [
        "mo",
        "use"
      ],
      [
        "con",
        "ten"
      ],
      [
        "COUN",
        "T"
      ],
      [
        "d",
        "x"
      ],
      [
        "v",
        "as"
      ],
      [
        "er",
        "r"
      ],
      [
        "st",
        "ri"
      ],
      [
        "11",
        "6"
      ],
      [
        "cop",
        "y_"
      ],
      [
        "ta",
        "il"
      ],
      [
        "thro",
        "ugh"
      ],
      [
        "y",
        "ellow"
      ],
      [
        "te",
        "ra"
      ],
      [
        "co",
        "lo"
      ],
      [
        "de",
        "bu"
      ],
      [
        "de",
        "mo"
      ],
      [
        "L",
        "ay"
      ],
      [
        "_",
        "TA"
      ],
      [
        "c",
        "d"
      ],
      [
        "h",
        "oriz"
      ],
      [
        "t",
        "ar"
      ],
      [
        "bl",
        "d"
      ],
      [
        "ag",
        "ent_"
      ],
      [
        "ser",
        "ies"
      ],
      [
        "im",
        "al"
      ],
      [
        "2",
        "6"
      ],
      [
        "C",
        "0"
      ],
      [
        "E",
        "SC"
      ],
      [
        "I",
        "R"
      ],
      [
        "T",
        "it"
      ],
      [
        "b",
        "ri"
      ],
      [
        "e",
        "st"
      ],
      [
        "v",
        "en"
      ],
      [
        "_c",
        "ursor"
      ],
      [
        "SC",
        "RO"
      ],
      [
        "us",
        "h"
      ],
      [
        "ver",
        "y"
      ],
      [
        "can",
        "vas"
      ],
      [
        "Tit",
        "le"
      ],
      [
        "SCRO",
        "LL"
      ],
      [
        "7",
        "9"
      ],
      [
        "<",
        "<"
      ],
      [
        "g",
        "g"
      ],
      [
        "t",
        "ro"
      ],
      [
        "in",
        "it"
      ],
      [
        "0x",
        "AA"
      ],
      [
        "ar",
        "row"
      ],
      [
        "de",
        "c"
      ],
      [
        "op",
        "y"
      ],
      [
        "as",
        "k"
      ],
      [
        "0xFF",
        "FF00"
      ],
      [
        "th",
        "is"
      ],
      [
        "str",
        "_"
      ],
      [
        "ent",
        "ri"
      ],
      [
        "wa",
        "it"
      ],
      [
        "LE",
        "_"
      ],
      [
        "6",
        "00"
      ],
      [
        "P",
        "i"
      ],
      [
        "_",
        "lp"
      ],
      [
        "n",
        "_"
      ],
      [
        "s",
        "r"
      ],
      [
        "ra",
        "t"
      ],
      [
        "0xFF",
        "FF"
      ],
      [
        "ste",
        "p"
      ],
      [
        "emp",
        "ty"
      ],
      [
        "colo",
        "red"
      ],
      [
        "2",
        "3"
      ],
      [
        "C",
        "M"
      ],
      [
        "L",
        "A"
      ],
      [
        "c",
        "us"
      ],
      [
        "m",
        "c_"
      ],
      [
        "re",
        "e"
      ],
      [
        "frame",
        "_"
      ],
      [
        "inclu",
        "ding"
      ],
      [
        "l",
        "er"
      ],
      [
        "u",
        "al"
      ],
      [
        "and",
        "om"
      ],
      [
        "la",
        "p"
      ],
      [
        "la",
        "st"
      ],
      [
        "di",
        "r"
      ],
      [
        "ne",
        "d"
      ],
      [
        "ac",
        "c"
      ],
      [
        "S",
        "A"
      ],
      [
        "S",
        "c"
      ],
      [
        "w",
        "h"
      ],
      [
        "el",
        "se"
      ],
      [
        "li",
        "c"
      ],
      [
        "ste",
        "m"
      ],
      [
        "condition",
        "al"
      ],
      [
        "tur",
        "n"
      ],
      [
        "append_",
        "byte"
      ],
      [
        "Comp",
        "ute"
      ],
      [
        "6",
        "7"
      ],
      [
        "S",
        "M"
      ],
      [
        "d",
        "in"
      ],
      [
        "d",
        "ri"
      ],
      [
        "l",
        "ision"
      ],
      [
        "s",
        "core"
      ],
      [
        "in",
        "it_"
      ],
      [
        "he",
        "ad"
      ],
      [
        "col",
        "lision"
      ],
      [
        "il",
        "l"
      ],
      [
        "ac",
        "tive"
      ],
      [
        "func_",
        "0"
      ],
      [
        "anima",
        "tion"
      ],
      [
        "F",
        "G_"
      ],
      [
        "c",
        "no"
      ],
      [
        "f",
        "ull"
      ],
      [
        "i",
        "b"
      ],
      [
        "0x2",
        "0"
      ],
      [
        "Ge",
        "t"
      ],
      [
        "vis",
        "or"
      ],
      [
        "clear",
        "_"
      ],
      [
        "rat",
        "ch"
      ],
      [
        "FG_",
        "COLOR"
      ],
      [
        "N",
        "O"
      ],
      [
        "S",
        "G"
      ],
      [
        "S",
        "et"
      ],
      [
        "f",
        "d"
      ],
      [
        "n",
        "on"
      ],
      [
        "ADD",
        "R"
      ],
      [
        "ur",
        "ce"
      ],
      [
        "HIT",
        "SET"
      ],
      [
        "C",
        "opy"
      ],
      [
        "S",
        "P"
      ],
      [
        "c",
        "ted"
      ],
      [
        "p",
        "le"
      ],
      [
        "in",
        "t"
      ],
      [
        "he",
        "l"
      ],
      [
        "10",
        "4"
      ],
      [
        "fi",
        "len"
      ],
      [
        "BL",
        "E"
      ],
      [
        "0x2",
        "40"
      ],
      [
        "STA",
        "TE"
      ],
      [
        "build",
        "ing"
      ],
      [
        "5",
        "1"
      ],
      [
        ":",
        "\""
      ],
      [
        "P",
        "RO"
      ],
      [
        "_",
        "BASE"
      ],
      [
        "g",
        "en"
      ],
      [
        "p",
        "an"
      ],
      [
        "as",
        "c"
      ],
      [
        "0xFF",
        "00"
      ],
      [
        "ab",
        "le"
      ],
      [
        "vi",
        "ew"
      ],
      [
        "fo",
        "cus"
      ],
      [
        "PI",
        "D"
      ],
      [
        "stan",
        "t"
      ],
      [
        "TXT",
        "_BUF"
      ],
      [
        "H",
        "el"
      ],
      [
        "_",
        "3"
      ],
      [
        "b",
        "lock"
      ],
      [
        "g",
        "th"
      ],
      [
        "u",
        "t_"
      ],
      [
        "u",
        "32"
      ],
      [
        "te",
        "mp"
      ],
      [
        "ar",
        "y"
      ],
      [
        "sh",
        "o"
      ],
      [
        "qu",
        "en"
      ],
      [
        "render",
        "_"
      ],
      [
        "mat",
        "ch"
      ],
      [
        "C",
        "IR"
      ],
      [
        "c",
        "ap"
      ],
      [
        "d",
        "d"
      ],
      [
        "10",
        "5"
      ],
      [
        "sc",
        "an"
      ],
      [
        "no",
        "w"
      ],
      [
        "li",
        "ght"
      ],
      [
        "ent_",
        "agent_"
      ],
      [
        "len",
        "gth"
      ],
      [
        "vis",
        "i"
      ],
      [
        "poin",
        "t"
      ],
      [
        "rect",
        "angle"
      ],
      [
        "WIN",
        "SYS"
      ],
      [
        "entri",
        "es"
      ],
      [
        "CIR",
        "CLE"
      ],
      [
        "h",
        "it"
      ],
      [
        "0x",
        "80"
      ],
      [
        "ti",
        "l"
      ],
      [
        "at",
        "ing"
      ],
      [
        "0x7",
        "000"
      ],
      [
        "ge",
        "t"
      ],
      [
        "LL",
        "M"
      ],
      [
        "exec",
        "ute"
      ],
      [
        "shi",
        "f"
      ],
      [
        "----------------",
        "----------------"
      ],
      [
        "imple",
        "ments"
      ],
      [
        "rout",
        "ine"
      ],
      [
        "C",
        "ol"
      ],
      [
        "b",
        "all"
      ],
      [
        "h",
        "_"
      ],
      [
        "n",
        "er"
      ],
      [
        "ro",
        "ss"
      ],
      [
        "ul",
        "d"
      ],
      [
        "str",
        "len"
      ],
      [
        "li",
        "b"
      ],
      [
        "check",
        "s"
      ],
      [
        "_ne",
        "w"
      ],
      [
        "display",
        "s"
      ],
      [
        "c",
        "p"
      ],
      [
        "en",
        "der"
      ],
      [
        "st",
        "op"
      ],
      [
        "ar",
        "g"
      ],
      [
        "di",
        "re"
      ],
      [
        "di",
        "ff"
      ],
      [
        "cal",
        "c"
      ],
      [
        "sy",
        "stem"
      ],
      [
        "filen",
        "ame"
      ],
      [
        "5",
        "6"
      ],
      [
        "5",
        "00"
      ],
      [
        "E",
        "R"
      ],
      [
        "_",
        "up"
      ],
      [
        "m",
        "al"
      ],
      [
        "r",
        "andom"
      ],
      [
        "ne",
        "g"
      ],
      [
        "sc",
        "ratch"
      ],
      [
        "qu",
        "it"
      ],
      [
        "be",
        "fore"
      ],
      [
        "ag",
        "ent"
      ],
      [
        "horiz",
        "on"
      ],
      [
        "sr",
        "c"
      ],
      [
        "c",
        "s"
      ],
      [
        "e",
        "rent"
      ],
      [
        "h",
        "ost"
      ],
      [
        "p",
        "r"
      ],
      [
        "w",
        "r"
      ],
      [
        "ti",
        "m"
      ],
      [
        "OP",
        "EN"
      ],
      [
        "pi",
        "pe"
      ],
      [
        "0x0",
        "40"
      ],
      [
        "────────────────────────────────",
        "────────"
      ],
      [
        "In",
        "i"
      ],
      [
        "_to_",
        "buf"
      ],
      [
        "hist",
        "ory"
      ],
      [
        "SA",
        "VE"
      ],
      [
        "2",
        "1"
      ],
      [
        "T",
        "_"
      ],
      [
        "_",
        "hash"
      ],
      [
        "b",
        "la"
      ],
      [
        "ar",
        "t"
      ],
      [
        "_d",
        "o"
      ],
      [
        "DE",
        "BU"
      ],
      [
        "reg",
        "ion"
      ],
      [
        "0x0",
        "A0"
      ],
      [
        "sub",
        "tra"
      ],
      [
        "vari",
        "ous"
      ],
      [
        "ib",
        "ble"
      ],
      [
        "diff",
        "erent"
      ],
      [
        "bla",
        "ck"
      ],
      [
        "(",
        "`"
      ],
      [
        "4",
        "7"
      ],
      [
        "C",
        "P"
      ],
      [
        "D",
        "00"
      ],
      [
        "F",
        "S"
      ],
      [
        "I",
        "P_"
      ],
      [
        "T",
        "est"
      ],
      [
        "U",
        "ses"
      ],
      [
        "c",
        "lick"
      ],
      [
        "d",
        "one"
      ],
      [
        "g",
        "re"
      ],
      [
        "j",
        "ust"
      ],
      [
        "p",
        "end"
      ],
      [
        "p",
        "ass"
      ],
      [
        "de",
        "st"
      ],
      [
        "SE",
        "L"
      ],
      [
        "0x1",
        "A1"
      ],
      [
        "render",
        "ing"
      ],
      [
        "NE",
        "G"
      ],
      [
        "sg",
        "r"
      ],
      [
        "DEBU",
        "G_"
      ],
      [
        "F",
        "8"
      ],
      [
        "R",
        "ender"
      ],
      [
        "V",
        "M"
      ],
      [
        "s",
        "qu"
      ],
      [
        "SC",
        "I"
      ],
      [
        "si",
        "mple"
      ],
      [
        "bor",
        "der"
      ],
      [
        "ula",
        "tion"
      ],
      [
        "A2",
        "E"
      ],
      [
        "oth",
        "er"
      ],
      [
        "_new",
        "line"
      ],
      [
        "*",
        "*"
      ],
      [
        "4",
        "5"
      ],
      [
        "7",
        "1"
      ],
      [
        "A",
        "SCI"
      ],
      [
        "c",
        "c"
      ],
      [
        "i",
        "g"
      ],
      [
        "n",
        "a"
      ],
      [
        "v",
        "y"
      ],
      [
        "RE",
        "AD"
      ],
      [
        "0x",
        "000"
      ],
      [
        "00",
        "1"
      ],
      [
        "_d",
        "ir"
      ],
      [
        "read",
        "y"
      ],
      [
        "tin",
        "t"
      ],
      [
        "coor",
        "din"
      ],
      [
        "stra",
        "tes"
      ],
      [
        "indic",
        "ator"
      ],
      [
        "Hel",
        "lo"
      ],
      [
        "ASCI",
        "I"
      ],
      [
        "S",
        "ave"
      ],
      [
        "a",
        "red"
      ],
      [
        "g",
        "o"
      ],
      [
        "re",
        "set"
      ],
      [
        "10",
        "3"
      ],
      [
        "loop",
        "_0"
      ],
      [
        "0x6",
        "000"
      ],
      [
        "digit",
        "s"
      ],
      [
        "bld",
        "g"
      ],
      [
        "Ini",
        "tializ"
      ],
      [
        "D",
        "O"
      ],
      [
        "e",
        "very"
      ],
      [
        "h",
        "y"
      ],
      [
        "i",
        "ve"
      ],
      [
        "k",
        "no"
      ],
      [
        "..",
        "."
      ],
      [
        "con",
        "tin"
      ],
      [
        "ab",
        "ove"
      ],
      [
        "wor",
        "d"
      ],
      [
        "mc",
        "_ret"
      ],
      [
        "mc_",
        "25"
      ],
      [
        "kno",
        "wn"
      ],
      [
        "8",
        "7"
      ],
      [
        "9",
        "3"
      ],
      [
        "B",
        "O"
      ],
      [
        "N",
        "ull"
      ],
      [
        "_",
        "2"
      ],
      [
        "s",
        "ine"
      ],
      [
        "0x",
        "120"
      ],
      [
        "en",
        "em"
      ],
      [
        "se",
        "le"
      ],
      [
        "ar",
        "m"
      ],
      [
        "ed",
        "ge"
      ],
      [
        "ini",
        "te"
      ],
      [
        "AN",
        "SI_"
      ],
      [
        "sto",
        "red"
      ],
      [
        "Col",
        "or"
      ],
      [
        "0x1A1",
        "A2E"
      ],
      [
        "F",
        "E"
      ],
      [
        "O",
        "SC"
      ],
      [
        "b",
        "et"
      ],
      [
        "m",
        "d"
      ],
      [
        "p",
        "l"
      ],
      [
        "v",
        "a"
      ],
      [
        "an",
        "s"
      ],
      [
        "se",
        "quen"
      ],
      [
        "do",
        "_re"
      ],
      [
        "STATU",
        "S_"
      ],
      [
        "frame_",
        "counter"
      ],
      [
        "5",
        "3"
      ],
      [
        "DI",
        "R"
      ],
      [
        "re",
        "pe"
      ],
      [
        "st",
        "or"
      ],
      [
        "un",
        "til"
      ],
      [
        "ch",
        "ild"
      ],
      [
        "fi",
        "x"
      ],
      [
        "0x5",
        "0"
      ],
      [
        "0x0",
        "20"
      ],
      [
        "per",
        "visor"
      ],
      [
        "Re",
        "g"
      ],
      [
        "so",
        "urce"
      ],
      [
        "run",
        "ning"
      ],
      [
        "COLO",
        "R_BUF"
      ],
      [
        "err",
        "or"
      ],
      [
        "dri",
        "ven"
      ],
      [
        "NO",
        "TE"
      ],
      [
        "_",
        "col"
      ],
      [
        "di",
        "m"
      ],
      [
        "sp",
        "ac"
      ],
      [
        "con",
        "stant"
      ],
      [
        "0x00",
        "0000"
      ],
      [
        "gra",
        "ss"
      ],
      [
        "COL",
        "_"
      ],
      [
        "Re",
        "set"
      ],
      [
        "we",
        "en"
      ],
      [
        "new",
        "line"
      ],
      [
        "Up",
        "date"
      ],
      [
        "lev",
        "el"
      ],
      [
        "conten",
        "t"
      ],
      [
        "F",
        "B"
      ],
      [
        "_",
        "id"
      ],
      [
        "R_",
        "B"
      ],
      [
        "li",
        "ke"
      ],
      [
        "bo",
        "x"
      ],
      [
        "multi",
        "p"
      ],
      [
        "gen",
        "er"
      ],
      [
        "Initializ",
        "e"
      ],
      [
        "hy",
        "pervisor"
      ],
      [
        "bet",
        "ween"
      ],
      [
        "1",
        "50"
      ],
      [
        "9",
        "1"
      ],
      [
        "9",
        "6"
      ],
      [
        "L",
        "D"
      ],
      [
        "R",
        "L"
      ],
      [
        "in",
        "crement"
      ],
      [
        "re",
        "start"
      ],
      [
        "ti",
        "cle"
      ],
      [
        "0x1",
        "000"
      ],
      [
        "ses",
        "sion"
      ],
      [
        "inclu",
        "des"
      ],
      [
        "Lay",
        "out"
      ],
      [
        "8",
        "5"
      ],
      [
        "W",
        "e"
      ],
      [
        "W",
        "OR"
      ],
      [
        "h",
        "tt"
      ],
      [
        "_c",
        "md"
      ],
      [
        "ul",
        "ts"
      ],
      [
        "us",
        "er"
      ],
      [
        "TI",
        "CK"
      ],
      [
        "_o",
        "ver"
      ],
      [
        "man",
        "ip"
      ],
      [
        "dire",
        "ction"
      ],
      [
        "8",
        "00"
      ],
      [
        "R",
        "UN"
      ],
      [
        "S",
        "kip"
      ],
      [
        "W",
        "N"
      ],
      [
        "f",
        "l"
      ],
      [
        "s",
        "lo"
      ],
      [
        "s",
        "256"
      ],
      [
        "t",
        "k_ret"
      ],
      [
        "u",
        "ally"
      ],
      [
        "in",
        "ter"
      ],
      [
        "al",
        "so"
      ],
      [
        "the",
        "m"
      ],
      [
        "bu",
        "il"
      ],
      [
        "0x4",
        "44"
      ],
      [
        "0x00",
        "FF"
      ],
      [
        "0x00",
        "FFFF"
      ],
      [
        "line",
        "_to_buf"
      ],
      [
        "draw_",
        "frame"
      ],
      [
        "write",
        "s"
      ],
      [
        "par",
        "ticle"
      ],
      [
        "ta",
        "in"
      ],
      [
        "cell",
        "s"
      ],
      [
        "write_",
        "line_to_buf"
      ],
      [
        "CL",
        "IP_"
      ],
      [
        "ANSI_",
        "STATE"
      ],
      [
        "M",
        "em"
      ],
      [
        "c",
        "lamp"
      ],
      [
        "p",
        "op"
      ],
      [
        "r",
        "on"
      ],
      [
        "0x",
        "CC"
      ],
      [
        "di",
        "st"
      ],
      [
        "_c",
        "l"
      ],
      [
        "_c",
        "on"
      ],
      [
        "ap",
        "pro"
      ],
      [
        "ms",
        "g"
      ],
      [
        "em",
        "on"
      ],
      [
        "par",
        "se"
      ],
      [
        "cy",
        "an"
      ],
      [
        "EE",
        "P"
      ],
      [
        "_TA",
        "BLE"
      ],
      [
        "SCROLL",
        "_"
      ],
      [
        "dec",
        "imal"
      ],
      [
        "coordin",
        "ates"
      ],
      [
        "3",
        "7"
      ],
      [
        "B",
        "EEP"
      ],
      [
        "H",
        "T"
      ],
      [
        "_",
        "b"
      ],
      [
        "h",
        "as"
      ],
      [
        "p",
        "ack"
      ],
      [
        "an",
        "ge"
      ],
      [
        "ad",
        "dition"
      ],
      [
        "R_",
        "SC"
      ],
      [
        "tab",
        "_"
      ],
      [
        "fo",
        "und"
      ],
      [
        "read",
        "s"
      ],
      [
        "EL",
        "LO"
      ],
      [
        "0x78",
        "00"
      ],
      [
        "update",
        "s"
      ],
      [
        "log",
        "ic"
      ],
      [
        "lic",
        "ation"
      ],
      [
        "Reg",
        "ister"
      ],
      [
        "WOR",
        "LD"
      ],
      [
        "D",
        "isplay"
      ],
      [
        "i",
        "st"
      ],
      [
        "p",
        "ush"
      ],
      [
        "s",
        "_"
      ],
      [
        "v",
        "x"
      ],
      [
        "v",
        "ol"
      ],
      [
        "in",
        "t_"
      ],
      [
        "0x",
        "A"
      ],
      [
        "re",
        "main"
      ],
      [
        "ti",
        "ck"
      ],
      [
        "al",
        "ready"
      ],
      [
        "ed",
        "it"
      ],
      [
        "star",
        "ts"
      ],
      [
        "comp",
        "ar"
      ],
      [
        "su",
        "ch"
      ],
      [
        "save",
        "d"
      ],
      [
        "sub",
        "routine"
      ],
      [
        "load",
        "ing"
      ],
      [
        "advance",
        "_to_"
      ],
      [
        "mix",
        "ed"
      ],
      [
        "contin",
        "u"
      ],
      [
        "DIR",
        "TY"
      ],
      [
        "6",
        "2"
      ],
      [
        "9",
        "5"
      ],
      [
        "C",
        "lo"
      ],
      [
        "F",
        "or"
      ],
      [
        "h",
        "ome"
      ],
      [
        "p",
        "s"
      ],
      [
        "t",
        "wo"
      ],
      [
        "or",
        "g"
      ],
      [
        "he",
        "lp"
      ],
      [
        "le",
        "te"
      ],
      [
        "ra",
        "g"
      ],
      [
        "is",
        "on"
      ],
      [
        "10",
        "2"
      ],
      [
        "si",
        "de"
      ],
      [
        "do",
        "_newline"
      ],
      [
        "ac",
        "ter"
      ],
      [
        "mm",
        "_"
      ],
      [
        "instruction",
        "s"
      ],
      [
        "endif",
        "_1"
      ],
      [
        "sig",
        "ned"
      ],
      [
        "secon",
        "ds"
      ],
      [
        "dir",
        "ty"
      ],
      [
        "else",
        "_0"
      ],
      [
        "spac",
        "es"
      ],
      [
        "1",
        "000"
      ],
      [
        "E",
        "ach"
      ],
      [
        "M",
        "M"
      ],
      [
        "P",
        "lay"
      ],
      [
        "d",
        "st"
      ],
      [
        "g",
        "u"
      ],
      [
        "p",
        "v"
      ],
      [
        "p",
        "ing"
      ],
      [
        "────",
        "──"
      ],
      [
        "ar",
        "se"
      ],
      [
        "the",
        "se"
      ],
      [
        "ne",
        "ed"
      ],
      [
        "0x7",
        "00"
      ],
      [
        "100",
        "00"
      ],
      [
        "bo",
        "un"
      ],
      [
        "key",
        "s"
      ],
      [
        "after",
        "_"
      ],
      [
        "whi",
        "ch"
      ],
      [
        "camera",
        "_x"
      ],
      [
        "hel",
        "lo"
      ],
      [
        "sho",
        "uld"
      ],
      [
        "execute",
        "s"
      ],
      [
        "compar",
        "ison"
      ],
      [
        "d",
        "a"
      ],
      [
        "m",
        "_"
      ],
      [
        "s",
        "x"
      ],
      [
        "w",
        "al"
      ],
      [
        "or",
        "ange"
      ],
      [
        "se",
        "l"
      ],
      [
        "MO",
        "DE"
      ],
      [
        "sc",
        "al"
      ],
      [
        "li",
        "st"
      ],
      [
        "char",
        "acter"
      ],
      [
        "pb",
        "_"
      ],
      [
        "vis",
        "ion"
      ],
      [
        "STATU",
        "S"
      ],
      [
        "sig",
        "n"
      ],
      [
        "sgr",
        "_ret"
      ],
      [
        "1",
        "40"
      ],
      [
        "5",
        "4"
      ],
      [
        "L",
        "S"
      ],
      [
        "M",
        "ain"
      ],
      [
        "N",
        "o"
      ],
      [
        "R",
        "Y"
      ],
      [
        "S",
        "pa"
      ],
      [
        "e",
        "qu"
      ],
      [
        "s",
        "up"
      ],
      [
        "v",
        "ing"
      ],
      [
        "w",
        "ra"
      ],
      [
        "10",
        "9"
      ],
      [
        "ab",
        "s"
      ],
      [
        "show",
        "_"
      ],
      [
        "func_",
        "1"
      ],
      [
        "En",
        "ter"
      ],
      [
        "shif",
        "ts"
      ],
      [
        "tim",
        "er"
      ],
      [
        "squ",
        "are"
      ],
      [
        "\"",
        ")"
      ],
      [
        "+",
        "="
      ],
      [
        "5",
        "2"
      ],
      [
        "6",
        "3"
      ],
      [
        "A",
        "p"
      ],
      [
        "E",
        "D"
      ],
      [
        "f",
        "on"
      ],
      [
        "l",
        "le"
      ],
      [
        "m",
        "ask"
      ],
      [
        "n",
        "ibble"
      ],
      [
        "o",
        "om"
      ],
      [
        "0x",
        "11"
      ],
      [
        "it",
        "ch"
      ],
      [
        "to",
        "tal"
      ],
      [
        "t_",
        "in"
      ],
      [
        "TE",
        "R"
      ],
      [
        "sa",
        "ge"
      ],
      [
        "hal",
        "ting"
      ],
      [
        "0x8",
        "000"
      ],
      [
        "M_",
        "BASE"
      ],
      [
        "0x0000",
        "FF"
      ],
      [
        "CE",
        "LL"
      ],
      [
        "enti",
        "ty"
      ],
      [
        "debu",
        "g"
      ],
      [
        "tro",
        "ls"
      ],
      [
        "Pi",
        "xel"
      ],
      [
        "equ",
        "al"
      ],
      [
        "8",
        "1"
      ],
      [
        "U",
        "T"
      ],
      [
        "c",
        "hes"
      ],
      [
        "y",
        "s"
      ],
      [
        "on",
        "al"
      ],
      [
        "con",
        "ne"
      ],
      [
        "res",
        "ses"
      ],
      [
        "bo",
        "dy"
      ],
      [
        "IN",
        "K"
      ],
      [
        "tr",
        "l"
      ],
      [
        "add",
        "resses"
      ],
      [
        "ag",
        "onal"
      ],
      [
        "poin",
        "t_in"
      ],
      [
        "KEY",
        "_"
      ],
      [
        "termin",
        "al"
      ],
      [
        "cm",
        "d"
      ],
      [
        "slo",
        "t"
      ],
      [
        "advance_to_",
        "null"
      ],
      [
        "(",
        "\""
      ],
      [
        "3",
        "9"
      ],
      [
        "4",
        "6"
      ],
      [
        "5",
        "7"
      ],
      [
        "A",
        "d"
      ],
      [
        "D",
        "D"
      ],
      [
        "L",
        "I"
      ],
      [
        "W",
        "a"
      ],
      [
        "_",
        "s"
      ],
      [
        "a",
        "u"
      ],
      [
        "f",
        "ine"
      ],
      [
        "f",
        "low"
      ],
      [
        "f",
        "inite"
      ],
      [
        "l",
        "d"
      ],
      [
        "w",
        "ard"
      ],
      [
        "z",
        "oom"
      ],
      [
        "ro",
        "p"
      ],
      [
        "at",
        "ure"
      ],
      [
        "loop",
        "_1"
      ],
      [
        "0x7",
        "0"
      ],
      [
        "TI",
        "ME"
      ],
      [
        "In",
        "it"
      ],
      [
        "termin",
        "ator"
      ],
      [
        "stru",
        "ct_"
      ],
      [
        "cd",
        "l"
      ],
      [
        "CM",
        "D_"
      ],
      [
        "4",
        "x"
      ],
      [
        "C",
        "A"
      ],
      [
        "E",
        "x"
      ],
      [
        "H",
        "ELLO"
      ],
      [
        "R",
        "G"
      ],
      [
        "U",
        "RL"
      ],
      [
        "`",
        "."
      ],
      [
        "b",
        "t"
      ],
      [
        "b",
        "ber"
      ],
      [
        "h",
        "u"
      ],
      [
        "m",
        "ar"
      ],
      [
        "he",
        "ll"
      ],
      [
        "sa",
        "me"
      ],
      [
        "0x1",
        "F"
      ],
      [
        "par",
        "se_"
      ],
      [
        "In",
        "put"
      ],
      [
        "hal",
        "f"
      ],
      [
        "tar",
        "get_"
      ],
      [
        "wh",
        "en"
      ],
      [
        "subtra",
        "ction"
      ],
      [
        "buil",
        "d_"
      ],
      [
        "Mem",
        "ory"
      ],
      [
        "4",
        "3"
      ],
      [
        "7",
        "8"
      ],
      [
        "C",
        "ursor"
      ],
      [
        "F",
        "G"
      ],
      [
        "S",
        "e"
      ],
      [
        "U",
        "SE"
      ],
      [
        "d",
        "ay"
      ],
      [
        "i",
        "te"
      ],
      [
        "p",
        "ur"
      ],
      [
        "r",
        "u"
      ],
      [
        "r",
        "h_"
      ],
      [
        "or",
        "mal"
      ],
      [
        "ti",
        "cal"
      ],
      [
        "ra",
        "ct"
      ],
      [
        "el",
        "se_"
      ],
      [
        "col",
        "s"
      ],
      [
        "11",
        "7"
      ],
      [
        "res",
        "ults"
      ],
      [
        "0x6",
        "0"
      ],
      [
        "do",
        "t"
      ],
      [
        "pre",
        "v"
      ],
      [
        "command",
        "s"
      ],
      [
        "ok",
        "up"
      ],
      [
        "function",
        "s"
      ],
      [
        "Build",
        "ing"
      ],
      [
        "_dir",
        "ty"
      ],
      [
        "s256",
        "_"
      ],
      [
        "1",
        "30"
      ],
      [
        "Z",
        "E"
      ],
      [
        "_",
        "row"
      ],
      [
        "_",
        "store"
      ],
      [
        "m",
        "ark"
      ],
      [
        "o",
        "und"
      ],
      [
        "u",
        "b"
      ],
      [
        "u",
        "mp"
      ],
      [
        "RE",
        "EN"
      ],
      [
        "in",
        "finite"
      ],
      [
        "he",
        "ight"
      ],
      [
        "as",
        "te"
      ],
      [
        "ff",
        "ec"
      ],
      [
        "CO",
        "N"
      ],
      [
        "lay",
        "out"
      ],
      [
        "0x5",
        "3"
      ],
      [
        "GE",
        "T"
      ],
      [
        "store",
        "_"
      ],
      [
        "────────────────────────────────",
        "─"
      ],
      [
        "spawn",
        "_"
      ],
      [
        "_digit",
        "_"
      ],
      [
        "0x88",
        "88"
      ],
      [
        "pan",
        "el"
      ],
      [
        "wal",
        "k"
      ],
      [
        "!",
        "\""
      ],
      [
        "B",
        "l"
      ],
      [
        "C",
        "V"
      ],
      [
        "D",
        "4"
      ],
      [
        "H",
        "EX"
      ],
      [
        "I",
        "T"
      ],
      [
        "P",
        "C"
      ],
      [
        "V",
        "I"
      ],
      [
        "i",
        "i"
      ],
      [
        "i",
        "cal"
      ],
      [
        "s",
        "ing"
      ],
      [
        "u",
        "res"
      ],
      [
        "w",
        "as"
      ],
      [
        "re",
        "place"
      ],
      [
        "0x4",
        "30"
      ],
      [
        "BL",
        "INK"
      ],
      [
        "0x2",
        "100"
      ],
      [
        "vis",
        "ual"
      ],
      [
        "biome",
        "_"
      ],
      [
        "opcode",
        "s"
      ],
      [
        "ME",
        "M"
      ],
      [
        "log",
        "ical"
      ],
      [
        "secon",
        "d"
      ],
      [
        "gg",
        "le"
      ],
      [
        "non",
        "zero"
      ],
      [
        "asc",
        "iz"
      ],
      [
        "visi",
        "ble"
      ],
      [
        "cp",
        "y"
      ],
      [
        "scal",
        "e"
      ],
      [
        "S",
        "P_"
      ],
      [
        "a",
        "tive"
      ],
      [
        "b",
        "right"
      ],
      [
        "s",
        "end"
      ],
      [
        "on",
        "ly"
      ],
      [
        "co",
        "s"
      ],
      [
        "LO",
        "OP"
      ],
      [
        "AL",
        "AR"
      ],
      [
        "MO",
        "USE"
      ],
      [
        "us",
        "age"
      ],
      [
        "RI",
        "TE"
      ],
      [
        "wor",
        "k"
      ],
      [
        "22",
        "4"
      ],
      [
        "SI",
        "ZE"
      ],
      [
        "save",
        "_"
      ],
      [
        "app",
        "end"
      ],
      [
        "sw",
        "itch"
      ],
      [
        "horizon",
        "tal"
      ],
      [
        "wr",
        "it"
      ],
      [
        "sequen",
        "ce"
      ],
      [
        "multip",
        "lication"
      ],
      [
        "R_SC",
        "R"
      ],
      [
        "1",
        "80"
      ],
      [
        "E",
        "ND"
      ],
      [
        "`",
        ")"
      ],
      [
        "c",
        "ts"
      ],
      [
        "e",
        "ffec"
      ],
      [
        "j",
        "ec"
      ],
      [
        "x",
        "8"
      ],
      [
        "RE",
        "CV"
      ],
      [
        "an",
        "y"
      ],
      [
        "se",
        "ed"
      ],
      [
        "de",
        "mon"
      ],
      [
        "di",
        "rect"
      ],
      [
        "di",
        "agonal"
      ],
      [
        "ne",
        "ar"
      ],
      [
        "ma",
        "g"
      ],
      [
        "RO",
        "O"
      ],
      [
        "r25",
        "6"
      ],
      [
        "256",
        "x"
      ],
      [
        "ex",
        "p"
      ],
      [
        "AR",
        "T"
      ],
      [
        "In",
        "crement"
      ],
      [
        "no_",
        "input"
      ],
      [
        "NE",
        "M"
      ],
      [
        "sg",
        "r256"
      ],
      [
        "St",
        "atus"
      ],
      [
        "stan",
        "ts"
      ],
      [
        "stor",
        "ing"
      ],
      [
        "mar",
        "k_"
      ],
      [
        "pur",
        "ple"
      ],
      [
        "E",
        "C"
      ],
      [
        "F",
        "in"
      ],
      [
        "M",
        "AL"
      ],
      [
        "N",
        "U"
      ],
      [
        "N",
        "OR"
      ],
      [
        "S",
        "PA"
      ],
      [
        "T",
        "er"
      ],
      [
        "W",
        "A"
      ],
      [
        "b",
        "ran"
      ],
      [
        "c",
        "ross"
      ],
      [
        "e",
        "t_"
      ],
      [
        "j",
        "ump"
      ],
      [
        "u",
        "x"
      ],
      [
        "u",
        "ted"
      ],
      [
        "and",
        "s"
      ],
      [
        "un",
        "known"
      ],
      [
        "di",
        "ent"
      ],
      [
        "12",
        "4"
      ],
      [
        "ct",
        "ually"
      ],
      [
        "string",
        "s"
      ],
      [
        "ile",
        "d"
      ],
      [
        "bri",
        "ck"
      ],
      [
        "bri",
        "gh"
      ],
      [
        "str_",
        "hello"
      ],
      [
        "turn",
        "s"
      ],
      [
        "TICK",
        "S"
      ],
      [
        "DIRTY",
        "_"
      ],
      [
        "fon",
        "t"
      ],
      [
        "256x",
        "256"
      ],
      [
        "NOR",
        "MAL"
      ],
      [
        "\"",
        ","
      ],
      [
        "2",
        "48"
      ],
      [
        "4",
        "FF"
      ],
      [
        "A",
        "C"
      ],
      [
        "E",
        "NEM"
      ],
      [
        "I",
        "D"
      ],
      [
        "M",
        "S"
      ],
      [
        "S",
        "S"
      ],
      [
        "U",
        "P"
      ],
      [
        "_",
        "pos"
      ],
      [
        "e",
        "q"
      ],
      [
        "f",
        "w"
      ],
      [
        "o",
        "d"
      ],
      [
        "te",
        "p"
      ],
      [
        "er",
        "s"
      ],
      [
        "de",
        "l"
      ],
      [
        "LO",
        "SE"
      ],
      [
        "op",
        "en"
      ],
      [
        "is",
        "_"
      ],
      [
        "to",
        "ur"
      ],
      [
        "ch",
        "k"
      ],
      [
        "di",
        "vision"
      ],
      [
        "12",
        "6"
      ],
      [
        "TI",
        "T"
      ],
      [
        "mo",
        "d"
      ],
      [
        "con",
        "tour"
      ],
      [
        "cre",
        "ate"
      ],
      [
        "ten",
        "s"
      ],
      [
        "pa",
        "st"
      ],
      [
        "pa",
        "int"
      ],
      [
        "BB",
        "BB"
      ],
      [
        "clo",
        "se"
      ],
      [
        "Sc",
        "reen"
      ],
      [
        "CP",
        "Y"
      ],
      [
        "0x120",
        "1"
      ],
      [
        "after_",
        "input"
      ],
      [
        "fine",
        "_hash"
      ],
      [
        "RG",
        "B"
      ],
      [
        "B",
        "ack"
      ],
      [
        "N",
        "T"
      ],
      [
        "V",
        "FS"
      ],
      [
        "W",
        "in"
      ],
      [
        "a",
        "st"
      ],
      [
        "f",
        "le"
      ],
      [
        "h",
        "k_ret"
      ],
      [
        "n",
        "x"
      ],
      [
        "p",
        "h"
      ],
      [
        "s",
        "hell"
      ],
      [
        "al",
        "arm"
      ],
      [
        "he",
        "d"
      ],
      [
        "11",
        "8"
      ],
      [
        "ul",
        "ator"
      ],
      [
        "TI",
        "LE"
      ],
      [
        "TI",
        "LE_"
      ],
      [
        "coun",
        "ted"
      ],
      [
        "line",
        "_"
      ],
      [
        "ap",
        "e"
      ],
      [
        "set",
        "ting"
      ],
      [
        "0x1",
        "70"
      ],
      [
        "_ne",
        "xt_"
      ],
      [
        "no_",
        "key"
      ],
      [
        "MA",
        "IN"
      ],
      [
        "Con",
        "trols"
      ],
      [
        "ANS_",
        "NORMAL"
      ],
      [
        "acc",
        "ent"
      ],
      [
        "SG",
        "R"
      ],
      [
        "remain",
        "ing"
      ],
      [
        "1",
        "F"
      ],
      [
        "7",
        "4"
      ],
      [
        "9",
        "8"
      ],
      [
        "E",
        "4"
      ],
      [
        "F",
        "O"
      ],
      [
        "H",
        "and"
      ],
      [
        "L",
        "e"
      ],
      [
        "M",
        "o"
      ],
      [
        "M",
        "ove"
      ],
      [
        "O",
        "p"
      ],
      [
        "R",
        "S"
      ],
      [
        "X",
        "_"
      ],
      [
        "_",
        "left"
      ],
      [
        "a",
        "i"
      ],
      [
        "a",
        "res"
      ],
      [
        "c",
        "il"
      ],
      [
        "e",
        "y"
      ],
      [
        "n",
        "ormal"
      ],
      [
        "RE",
        "SP"
      ],
      [
        "in",
        "tera"
      ],
      [
        "on",
        "es"
      ],
      [
        "me",
        "ans"
      ],
      [
        "ch",
        "o"
      ],
      [
        "with",
        "in"
      ],
      [
        "li",
        "p"
      ],
      [
        "gra",
        "y"
      ],
      [
        "gra",
        "dient"
      ],
      [
        "AN",
        "SI"
      ],
      [
        "su",
        "c"
      ],
      [
        "ol",
        "d"
      ],
      [
        "MA",
        "P_"
      ],
      [
        "....",
        ")"
      ],
      [
        "mc",
        "_check_"
      ],
      [
        "0xAA",
        "AA"
      ],
      [
        "repe",
        "ated"
      ],
      [
        "htt",
        "p_"
      ],
      [
        "pb_",
        "es"
      ],
      [
        "bber",
        "s"
      ],
      [
        "\"",
        "/"
      ],
      [
        "P",
        "E"
      ],
      [
        "W",
        "_"
      ],
      [
        "W",
        "RITE"
      ],
      [
        "_",
        "color"
      ],
      [
        "_",
        "skip"
      ],
      [
        "c",
        "at"
      ],
      [
        "h",
        "l_"
      ],
      [
        "s",
        "n"
      ],
      [
        "s",
        "now"
      ],
      [
        "t",
        "ree"
      ],
      [
        "w",
        "u"
      ],
      [
        "0x",
        "10"
      ],
      [
        "ro",
        "om"
      ],
      [
        "lo",
        "okup"
      ],
      [
        "11",
        "9"
      ],
      [
        "no",
        "_c"
      ],
      [
        "0x4",
        "1"
      ],
      [
        "0x4",
        "00"
      ],
      [
        "0x7",
        "6"
      ],
      [
        "16",
        "x"
      ],
      [
        "0x2",
        "200"
      ],
      [
        "hi",
        "_done"
      ],
      [
        "screen",
        "_x"
      ],
      [
        "assem",
        "ble"
      ],
      [
        "id",
        "le"
      ],
      [
        "22",
        "2"
      ],
      [
        "mes",
        "sage"
      ],
      [
        "_reg",
        "s"
      ],
      [
        "tri",
        "angle"
      ],
      [
        "Pro",
        "cess"
      ],
      [
        "0x0A0",
        "A1"
      ],
      [
        "ulation",
        "s"
      ],
      [
        "Play",
        "er"
      ],
      [
        "boun",
        "ce"
      ],
      [
        "ENEM",
        "Y"
      ],
      [
        "V",
        "_"
      ],
      [
        "c",
        "x"
      ],
      [
        "c",
        "si"
      ],
      [
        "d",
        "ur"
      ],
      [
        "e",
        "cho"
      ],
      [
        "g",
        "es"
      ],
      [
        "h",
        "er"
      ],
      [
        "p",
        "_done"
      ],
      [
        "s",
        "k"
      ],
      [
        "FF",
        "44"
      ],
      [
        "es",
        "cap"
      ],
      [
        "t_",
        "loop"
      ],
      [
        "0xFF",
        "44"
      ],
      [
        "0xFF",
        "88"
      ],
      [
        "bl",
        "ink"
      ],
      [
        "16",
        "0"
      ],
      [
        "0x2",
        "20"
      ],
      [
        "0x5",
        "50"
      ],
      [
        "0x6",
        "100"
      ],
      [
        "tile",
        "_"
      ],
      [
        "────────────────────────────────",
        "────────────────"
      ],
      [
        "ag",
        "es"
      ],
      [
        "ser",
        "vi"
      ],
      [
        "hand",
        "ler"
      ],
      [
        "ula",
        "te"
      ],
      [
        "circle",
        "s"
      ],
      [
        "CM",
        "D"
      ],
      [
        "acc",
        "um"
      ],
      [
        "csi",
        "_cursor"
      ],
      [
        ")",
        "->"
      ],
      [
        "A",
        "l"
      ],
      [
        "D",
        "emon"
      ],
      [
        "E",
        "A"
      ],
      [
        "P",
        "o"
      ],
      [
        "V",
        "AL"
      ],
      [
        "b",
        "g"
      ],
      [
        "c",
        "tive"
      ],
      [
        "d",
        "is"
      ],
      [
        "l",
        "ing"
      ],
      [
        "n",
        "es"
      ],
      [
        "p",
        "ut_"
      ],
      [
        "r",
        "ary"
      ],
      [
        "s",
        "q"
      ],
      [
        "DI",
        "SP_"
      ],
      [
        "in",
        "fo"
      ],
      [
        "de",
        "tail"
      ],
      [
        "ter",
        "m"
      ],
      [
        "di",
        "r_"
      ],
      [
        "code",
        "s"
      ],
      [
        "screen",
        "_y"
      ],
      [
        "0x5",
        "100"
      ],
      [
        "0x00",
        "44"
      ],
      [
        "0xF",
        "D00"
      ],
      [
        "ten",
        "ded"
      ],
      [
        "0x780",
        "1"
      ],
      [
        "worl",
        "d"
      ],
      [
        "Con",
        "vert"
      ],
      [
        "handle",
        "s"
      ],
      [
        "St",
        "ate"
      ],
      [
        "0x44",
        "FF44"
      ],
      [
        "ran",
        "ge"
      ],
      [
        "key_",
        "1"
      ],
      [
        "stri",
        "pe"
      ],
      [
        "do_re",
        "ct"
      ],
      [
        "fix",
        "ed"
      ],
      [
        "wra",
        "p"
      ],
      [
        "Ter",
        "min"
      ],
      [
        "8",
        "9"
      ],
      [
        "8",
        "x8"
      ],
      [
        "A",
        "ctually"
      ],
      [
        "C",
        "SI"
      ],
      [
        "D",
        "0"
      ],
      [
        "S",
        "LI"
      ],
      [
        "T",
        "RA"
      ],
      [
        "U",
        "TI"
      ],
      [
        "_",
        "right"
      ],
      [
        "c",
        "b_"
      ],
      [
        "c",
        "si_"
      ],
      [
        "d",
        "b"
      ],
      [
        "e",
        "p"
      ],
      [
        "m",
        "y"
      ],
      [
        "at",
        "ures"
      ],
      [
        "to",
        "ggle"
      ],
      [
        "0x4",
        "2"
      ],
      [
        "pi",
        "ck"
      ],
      [
        "DE",
        "R_"
      ],
      [
        "0x5",
        "00"
      ],
      [
        "gra",
        "du"
      ],
      [
        "IN",
        "G"
      ],
      [
        "tr",
        "an"
      ],
      [
        "buffer",
        "s"
      ],
      [
        "pat",
        "_"
      ],
      [
        "pat",
        "ch"
      ],
      [
        "comp",
        "uted"
      ],
      [
        "perfor",
        "m"
      ],
      [
        "ser",
        "t"
      ],
      [
        "Co",
        "un"
      ],
      [
        "_di",
        "v"
      ],
      [
        "cy",
        "cle"
      ],
      [
        "ula",
        "tes"
      ],
      [
        "TA",
        "B"
      ],
      [
        "vari",
        "ation"
      ],
      [
        "wall",
        "s"
      ],
      [
        "camera",
        "_y"
      ],
      [
        "mix",
        "er"
      ],
      [
        "debu",
        "g_"
      ],
      [
        "_do",
        "_"
      ],
      [
        "sel",
        "f"
      ],
      [
        "UT",
        "F8"
      ],
      [
        "MEM",
        "CPY"
      ],
      [
        "sgr256",
        "_ret"
      ],
      [
        "Le",
        "ft"
      ],
      [
        "16x",
        "16"
      ],
      [
        "0xFF88",
        "00"
      ],
      [
        "Demon",
        "strates"
      ],
      [
        "SLI",
        "DER_"
      ],
      [
        "gradu",
        "ated"
      ],
      [
        "8",
        "6"
      ],
      [
        "9",
        "00"
      ],
      [
        "B",
        "ar"
      ],
      [
        "C",
        "4"
      ],
      [
        "C",
        "trl"
      ],
      [
        "D",
        "1"
      ],
      [
        "N",
        "A"
      ],
      [
        "P",
        "at"
      ],
      [
        "R",
        "ight"
      ],
      [
        "_",
        "LEN"
      ],
      [
        "d",
        "f"
      ],
      [
        "i",
        "tera"
      ],
      [
        "o",
        "i"
      ],
      [
        "p",
        "ri"
      ],
      [
        "p",
        "ress"
      ],
      [
        "p",
        "v_"
      ],
      [
        "r",
        "ing"
      ],
      [
        "ST",
        "E"
      ],
      [
        "ST",
        "_"
      ],
      [
        "at",
        "oi"
      ],
      [
        "0xFF",
        "E"
      ],
      [
        "th",
        "ing"
      ],
      [
        "bo",
        "und"
      ],
      [
        "0x0",
        "600"
      ],
      [
        "use",
        "d"
      ],
      [
        "exec",
        "_done"
      ],
      [
        "player",
        "_x"
      ],
      [
        "inclu",
        "de"
      ],
      [
        "tra",
        "ce"
      ],
      [
        "buf_",
        "a"
      ],
      [
        "get_",
        "tab_"
      ],
      [
        "focus",
        "_"
      ],
      [
        "neg",
        "ative"
      ],
      [
        "gre",
        "p_"
      ],
      [
        "SEL",
        "_"
      ],
      [
        "pl",
        "an"
      ],
      [
        "fl",
        "at"
      ],
      [
        "Termin",
        "al"
      ],
      [
        "'",
        ","
      ],
      [
        "'",
        "/"
      ],
      [
        "A",
        "r"
      ],
      [
        "B",
        "AR"
      ],
      [
        "B",
        "ot"
      ],
      [
        "O",
        "ut"
      ],
      [
        "T",
        "H"
      ],
      [
        "T",
        "ile"
      ],
      [
        "U",
        "se"
      ],
      [
        "W",
        "or"
      ],
      [
        "d",
        "_done"
      ],
      [
        "m",
        "ini"
      ],
      [
        "p",
        "es"
      ],
      [
        "p",
        "add"
      ],
      [
        "in",
        "c"
      ],
      [
        "re",
        "ac"
      ],
      [
        "de",
        "te"
      ],
      [
        "ALL",
        "TEXT"
      ],
      [
        "si",
        "m"
      ],
      [
        "con",
        "fi"
      ],
      [
        "0x2",
        "2"
      ],
      [
        "hi",
        "gh"
      ],
      [
        "bo",
        "ot"
      ],
      [
        "0x0",
        "C0"
      ],
      [
        "────────────────────────────────",
        "─────────────────────────────────"
      ],
      [
        "0x780",
        "8"
      ],
      [
        "St",
        "art"
      ],
      [
        "loc",
        "ations"
      ],
      [
        "fin",
        "d_"
      ],
      [
        "SM",
        "ALLTEXT"
      ],
      [
        "0xFF00",
        "FF"
      ],
      [
        "_cl",
        "r"
      ],
      [
        "ru",
        "le"
      ],
      [
        "ALAR",
        "M_"
      ],
      [
        "demon",
        "strates"
      ],
      [
        "Win",
        "dow"
      ],
      [
        "suc",
        "cess"
      ],
      [
        "repeated",
        "ly"
      ],
      [
        "escap",
        "e"
      ],
      [
        "CMD",
        "_BUF"
      ],
      [
        "'/",
        "'"
      ],
      [
        "Bot",
        "tom"
      ],
      [
        "Out",
        "put"
      ],
      [
        "7",
        "00"
      ],
      [
        "A",
        "n"
      ],
      [
        "B",
        "0"
      ],
      [
        "C",
        "W"
      ],
      [
        "C",
        "LOSE"
      ],
      [
        "F",
        "C"
      ],
      [
        "G",
        "reen"
      ],
      [
        "G",
        "REEN"
      ],
      [
        "a",
        "x"
      ],
      [
        "c",
        "v"
      ],
      [
        "c",
        "c_"
      ],
      [
        "d",
        "c"
      ],
      [
        "e",
        "ar"
      ],
      [
        "f",
        "g"
      ],
      [
        "p",
        "ed"
      ],
      [
        "in",
        "side"
      ],
      [
        "on",
        "g"
      ],
      [
        "it",
        "or"
      ],
      [
        "at",
        "ch"
      ],
      [
        "la",
        "va"
      ],
      [
        "bl",
        "end_"
      ],
      [
        "th",
        "ree"
      ],
      [
        "0x7",
        "4"
      ],
      [
        "con",
        "vert"
      ],
      [
        "con",
        "tro"
      ],
      [
        "0x2",
        "400"
      ],
      [
        "red",
        "s"
      ],
      [
        "sa",
        "mple"
      ],
      [
        "bit",
        "mask"
      ],
      [
        "start",
        "up"
      ],
      [
        "und",
        "reds"
      ],
      [
        "am",
        "on"
      ],
      [
        "func_",
        "2"
      ],
      [
        "sy",
        "s"
      ],
      [
        "test",
        "s"
      ],
      [
        "De",
        "mo"
      ],
      [
        "mon",
        "th"
      ],
      [
        "cor",
        "ner"
      ],
      [
        "lev",
        "ation"
      ],
      [
        "PRO",
        "MP"
      ],
      [
        "...",
        "\""
      ],
      [
        "Ad",
        "vance"
      ],
      [
        "ROO",
        "M_BASE"
      ],
      [
        "DISP_",
        "VAL"
      ],
      [
        "!",
        "="
      ],
      [
        "F",
        "ill"
      ],
      [
        "S",
        "tep"
      ],
      [
        "T",
        "ry"
      ],
      [
        "_",
        "tab"
      ],
      [
        "_",
        "buf"
      ],
      [
        "c",
        "lip"
      ],
      [
        "m",
        "x"
      ],
      [
        "o",
        "a"
      ],
      [
        "s",
        "b"
      ],
      [
        "s",
        "end_"
      ],
      [
        "RE",
        "ND"
      ],
      [
        "in",
        "ux"
      ],
      [
        "re",
        "ver"
      ],
      [
        "it",
        "oa"
      ],
      [
        "ter",
        "rain"
      ],
      [
        "SH",
        "RI"
      ],
      [
        "ad",
        "j"
      ],
      [
        "bu",
        "t"
      ],
      [
        "TE",
        "MP"
      ],
      [
        "RO",
        "UTI"
      ],
      [
        "ver",
        "tical"
      ],
      [
        "0x5",
        "30"
      ],
      [
        "0x5",
        "300"
      ],
      [
        "ex",
        "it"
      ],
      [
        "star",
        "t_"
      ],
      [
        "sh",
        "ot"
      ],
      [
        "um",
        "ent"
      ],
      [
        "0000",
        "000"
      ],
      [
        "ag",
        "ain"
      ],
      [
        "ol",
        "ti"
      ],
      [
        "copy",
        "_done"
      ],
      [
        "sgr_",
        "brigh"
      ],
      [
        "tk_",
        "arrow"
      ],
      [
        "pres",
        "sed"
      ],
      [
        "tar",
        "get"
      ],
      [
        "Pi",
        "ece"
      ],
      [
        "SG",
        "R_"
      ],
      [
        "lib",
        "rary"
      ],
      [
        "DO",
        "WN"
      ],
      [
        "Clo",
        "bbers"
      ],
      [
        "Spa",
        "ce"
      ],
      [
        "TIME",
        "R"
      ],
      [
        "bran",
        "ch"
      ],
      [
        "Hand",
        "le"
      ],
      [
        "TRA",
        "CE"
      ],
      [
        "PROMP",
        "T"
      ],
      [
        "ROUTI",
        "NE"
      ],
      [
        "sgr_brigh",
        "t_"
      ],
      [
        "1",
        "44"
      ],
      [
        "9",
        "4"
      ],
      [
        "B",
        "2"
      ],
      [
        "H",
        "O"
      ],
      [
        "I",
        "TE"
      ],
      [
        "O",
        "ra"
      ],
      [
        "U",
        "I"
      ],
      [
        "d",
        "p"
      ],
      [
        "d",
        "r_"
      ],
      [
        "s",
        "and"
      ],
      [
        "re",
        "r"
      ],
      [
        "or",
        "ig"
      ],
      [
        "co",
        "pi"
      ],
      [
        "ra",
        "di"
      ],
      [
        "de",
        "ad"
      ],
      [
        "lo",
        "cal"
      ],
      [
        "loop",
        "s"
      ],
      [
        "ne",
        "t"
      ],
      [
        "col",
        "on"
      ],
      [
        "SUB",
        "ROUTINE"
      ],
      [
        "fi",
        "el"
      ],
      [
        "po",
        "ll"
      ],
      [
        "0x00",
        "CC"
      ],
      [
        "IN",
        "IT"
      ],
      [
        "ac",
        "ross"
      ],
      [
        "0xF",
        "A"
      ],
      [
        "start",
        "ing"
      ],
      [
        "comp",
        "ut"
      ],
      [
        "CU",
        "RS"
      ],
      [
        "0x780",
        "9"
      ],
      [
        "so",
        "und"
      ],
      [
        "fa",
        "iled"
      ],
      [
        "0x9",
        "000"
      ],
      [
        "update",
        "_"
      ],
      [
        "over",
        "lap"
      ],
      [
        "conten",
        "ts"
      ],
      [
        "visi",
        "ted"
      ],
      [
        "STATUS_",
        "CW"
      ],
      [
        "CON",
        "NE"
      ],
      [
        "RECV",
        "_BUF"
      ],
      [
        "MS",
        "G_"
      ],
      [
        "RESP",
        "_BUF"
      ],
      [
        "sq",
        "r"
      ],
      [
        "padd",
        "le"
      ],
      [
        "Ora",
        "cle"
      ],
      [
        ")",
        "\""
      ],
      [
        "A",
        "SM"
      ],
      [
        "D",
        "U"
      ],
      [
        "H",
        "P"
      ],
      [
        "V",
        "er"
      ],
      [
        "W",
        "1"
      ],
      [
        "_",
        "T"
      ],
      [
        "_",
        "screen"
      ],
      [
        "a",
        "cle"
      ],
      [
        "a",
        "ction"
      ],
      [
        "c",
        "mp"
      ],
      [
        "d",
        "n_"
      ],
      [
        "h",
        "ave"
      ],
      [
        "p",
        "hi"
      ],
      [
        "v",
        "1"
      ],
      [
        "te",
        "g"
      ],
      [
        "te",
        "ly"
      ],
      [
        "ti",
        "es"
      ],
      [
        "ti",
        "ll"
      ],
      [
        "ro",
        "id"
      ],
      [
        "me",
        "di"
      ],
      [
        "_c",
        "re"
      ],
      [
        "TE",
        "ND"
      ],
      [
        "0x7",
        "5"
      ],
      [
        "R_",
        "CL"
      ],
      [
        "str",
        "cmp"
      ],
      [
        "0x0",
        "3"
      ],
      [
        "════════════════════════════════",
        "═══════════════"
      ],
      [
        "ex",
        "ist"
      ],
      [
        "sh",
        "ared"
      ],
      [
        "bi",
        "as"
      ],
      [
        "specifi",
        "ed"
      ],
      [
        "13",
        "6"
      ],
      [
        "ten",
        "t"
      ],
      [
        "_o",
        "sc"
      ],
      [
        "to_",
        "str"
      ],
      [
        "0x8",
        "0000000"
      ],
      [
        "CSI_PARAM",
        "2"
      ],
      [
        "game",
        "_over"
      ],
      [
        "ous",
        "ly"
      ],
      [
        "EX",
        "TEND"
      ],
      [
        "endif",
        "_3"
      ],
      [
        "fore",
        "st"
      ],
      [
        "Sc",
        "roll"
      ],
      [
        "calc",
        "ulations"
      ],
      [
        "pr",
        "int_"
      ],
      [
        "SAVE",
        "D_"
      ],
      [
        "**",
        ":"
      ],
      [
        "0x444",
        "4FF"
      ],
      [
        "lle",
        "d"
      ],
      [
        "else_",
        "2"
      ],
      [
        "jump",
        "s"
      ],
      [
        "ai",
        "_"
      ],
      [
        "Pat",
        "tern"
      ],
      [
        "SGR_",
        "EXTEND"
      ],
      [
        "SGR_EXTEND",
        "ED"
      ],
      [
        "2",
        "20"
      ],
      [
        "C",
        "re"
      ],
      [
        "S",
        "o"
      ],
      [
        "S",
        "ub"
      ],
      [
        "T",
        "ext"
      ],
      [
        "_",
        "count"
      ],
      [
        "c",
        "ase"
      ],
      [
        "f",
        "all"
      ],
      [
        "n",
        "one"
      ],
      [
        "p",
        "y"
      ],
      [
        "p",
        "ty"
      ],
      [
        "w",
        "d"
      ],
      [
        "w",
        "c_"
      ],
      [
        "STO",
        "RY"
      ],
      [
        "re",
        "al"
      ],
      [
        "re",
        "ce"
      ],
      [
        "an",
        "im"
      ],
      [
        "me",
        "t"
      ],
      [
        "ce",
        "p"
      ],
      [
        "0x4",
        "3"
      ],
      [
        "R_",
        "CC"
      ],
      [
        "TI",
        "VE"
      ],
      [
        "li",
        "m"
      ],
      [
        "y_",
        "hash"
      ],
      [
        "oper",
        "ation"
      ],
      [
        "0x3",
        "00"
      ],
      [
        "comp",
        "le"
      ],
      [
        "render",
        "s"
      ],
      [
        "buf",
        "_c"
      ],
      [
        "HI",
        "STORY"
      ],
      [
        "Con",
        "stants"
      ],
      [
        "tra",
        "ck"
      ],
      [
        "_check_",
        "eq"
      ],
      [
        "sin",
        "_"
      ],
      [
        "cor",
        "rect"
      ],
      [
        "pres",
        "er"
      ],
      [
        "sto",
        "res"
      ],
      [
        "Lay",
        "er"
      ],
      [
        "_TA",
        "B"
      ],
      [
        "rectangle",
        "s"
      ],
      [
        "region",
        "s"
      ],
      [
        "pend",
        "ing"
      ],
      [
        "0xCC",
        "CC"
      ],
      [
        "appro",
        "x"
      ],
      [
        "au",
        "to"
      ],
      [
        "NU",
        "M"
      ],
      [
        "Wor",
        "ld"
      ],
      [
        "orig",
        "in"
      ],
      [
        "2",
        "30"
      ],
      [
        "A",
        "B"
      ],
      [
        "F",
        "ra"
      ],
      [
        "M",
        "ark"
      ],
      [
        "P",
        "RE"
      ],
      [
        "P",
        "V_"
      ],
      [
        "R",
        "0"
      ],
      [
        "R",
        "es"
      ],
      [
        "S",
        "hi"
      ],
      [
        "]",
        "["
      ],
      [
        "_",
        "set"
      ],
      [
        "c",
        "n"
      ],
      [
        "c",
        "ac"
      ],
      [
        "d",
        "rag"
      ],
      [
        "f",
        "re"
      ],
      [
        "o",
        "id"
      ],
      [
        "y",
        "es"
      ],
      [
        "RE",
        "Q"
      ],
      [
        "ST",
        "R"
      ],
      [
        "0x",
        "25"
      ],
      [
        "st",
        "al"
      ],
      [
        "de",
        "v"
      ],
      [
        "at",
        "t_"
      ],
      [
        "to",
        "olti"
      ],
      [
        "_d",
        "rain"
      ],
      [
        "ma",
        "tely"
      ],
      [
        "0x4",
        "100"
      ],
      [
        "0x4",
        "28"
      ],
      [
        "0x4",
        "18"
      ],
      [
        "row",
        "_dirty"
      ],
      [
        "draw",
        "n"
      ],
      [
        "gh",
        "ost"
      ],
      [
        "gra",
        "v"
      ],
      [
        "0x1",
        "4"
      ],
      [
        "wa",
        "ys"
      ],
      [
        "if",
        "y"
      ],
      [
        "CH",
        "A"
      ],
      [
        "_ne",
        "g"
      ],
      [
        "position",
        "s"
      ],
      [
        "hal",
        "t"
      ],
      [
        "MA",
        "T"
      ],
      [
        "tin",
        "ue"
      ],
      [
        "hex",
        "_"
      ],
      [
        "handle",
        "_"
      ],
      [
        "cmd_",
        "is_"
      ],
      [
        "ulti",
        "mately"
      ],
      [
        "coor",
        "ds"
      ],
      [
        "asc",
        "ii"
      ],
      [
        "sele",
        "cted"
      ],
      [
        "pv",
        "_regs"
      ],
      [
        "4x",
        "4"
      ],
      [
        "MOUSE",
        "Q"
      ],
      [
        "mark_",
        "row_dirty"
      ],
      [
        "SPA",
        "WN"
      ],
      [
        "reac",
        "hes"
      ],
      [
        "DU",
        "R_"
      ],
      [
        "\"",
        "["
      ],
      [
        "'",
        "."
      ],
      [
        "C",
        "D"
      ],
      [
        "D",
        "A"
      ],
      [
        "F",
        "0"
      ],
      [
        "F",
        "o"
      ],
      [
        "H",
        "AND"
      ],
      [
        "L",
        "U"
      ],
      [
        "N",
        "G"
      ],
      [
        "N",
        "ING"
      ],
      [
        "O",
        "K"
      ],
      [
        "P",
        "re"
      ],
      [
        "P",
        "EE"
      ],
      [
        "P",
        "arse"
      ],
      [
        "T",
        "op"
      ],
      [
        "T",
        "ab"
      ],
      [
        "_",
        "not_"
      ],
      [
        "c",
        "p_"
      ],
      [
        "h",
        "undreds"
      ],
      [
        "p",
        "n"
      ],
      [
        "s",
        "till"
      ],
      [
        "x",
        "32"
      ],
      [
        "in",
        "cre"
      ],
      [
        "0x",
        "100"
      ],
      [
        "────",
        "─"
      ],
      [
        "en",
        "tit"
      ],
      [
        "an",
        "imal"
      ],
      [
        "ra",
        "m"
      ],
      [
        "================",
        "========"
      ],
      [
        "di",
        "amon"
      ],
      [
        "_c",
        "lo"
      ],
      [
        "ve",
        "loc"
      ],
      [
        "pro",
        "ces"
      ],
      [
        "hi",
        "dd"
      ],
      [
        "ent",
        "a"
      ],
      [
        "ren",
        "de"
      ],
      [
        "0x5",
        "200"
      ],
      [
        "0x6",
        "200"
      ],
      [
        "================================",
        "========================"
      ],
      [
        "gra",
        "phi"
      ],
      [
        "0x0",
        "400"
      ],
      [
        "0x1",
        "A"
      ],
      [
        "vi",
        "ron"
      ],
      [
        "0x3",
        "3"
      ],
      [
        "id",
        "x"
      ],
      [
        "ds",
        "b"
      ],
      [
        "24",
        "2"
      ],
      [
        "24",
        "5"
      ],
      [
        "FI",
        "LE"
      ],
      [
        "termin",
        "ated"
      ],
      [
        "19",
        "2"
      ],
      [
        "write_",
        "prompt"
      ],
      [
        "RUN",
        "NING"
      ],
      [
        "continu",
        "ously"
      ],
      [
        "Ap",
        "pend"
      ],
      [
        "CMD_",
        "HI"
      ],
      [
        "aste",
        "roid"
      ],
      [
        "mag",
        "enta"
      ],
      [
        "AC",
        "TIVE"
      ],
      [
        "0x0A0A1",
        "E"
      ],
      [
        "lim",
        "it"
      ],
      [
        "PEE",
        "K"
      ],
      [
        "entit",
        "y_"
      ],
      [
        "hidd",
        "en"
      ],
      [
        "viron",
        "ment"
      ],
      [
        ".",
        "\""
      ],
      [
        "1",
        "px"
      ],
      [
        "C",
        "3"
      ],
      [
        "E",
        "5"
      ],
      [
        "E",
        "sc"
      ],
      [
        "K",
        "ey"
      ],
      [
        "L",
        "inux"
      ],
      [
        "_",
        "fail"
      ],
      [
        "b",
        "row"
      ],
      [
        "c",
        "ro"
      ],
      [
        "h",
        "p_"
      ],
      [
        "i",
        "ck"
      ],
      [
        "m",
        "id"
      ],
      [
        "s",
        "m"
      ],
      [
        "v",
        "oid"
      ],
      [
        "x",
        "_loop"
      ],
      [
        "in",
        "put_"
      ],
      [
        "en",
        "vironment"
      ],
      [
        "st",
        "one"
      ],
      [
        "al",
        "ways"
      ],
      [
        "de",
        "cre"
      ],
      [
        "de",
        "lete"
      ],
      [
        "_d",
        "rop"
      ],
      [
        "as",
        "ic"
      ],
      [
        "11",
        "11"
      ],
      [
        "ve",
        "d"
      ],
      [
        "ma",
        "ze"
      ],
      [
        "sp",
        "e"
      ],
      [
        "0x7",
        "F"
      ],
      [
        "0x7",
        "600"
      ],
      [
        "d_",
        "loop"
      ],
      [
        "sa",
        "fe"
      ],
      [
        "wor",
        "d_"
      ],
      [
        "0x1",
        "B"
      ],
      [
        "vi",
        "g"
      ],
      [
        "0x3",
        "100"
      ],
      [
        "comp",
        "ares"
      ],
      [
        "progra",
        "ms"
      ],
      [
        "ROW",
        "_"
      ],
      [
        "stru",
        "ct"
      ],
      [
        "file",
        "s"
      ],
      [
        "pre",
        "v_"
      ],
      [
        "player",
        "_y"
      ],
      [
        "Co",
        "mm"
      ],
      [
        "run",
        "s"
      ],
      [
        "rot",
        "0"
      ],
      [
        "shift",
        "ing"
      ],
      [
        "condition",
        "s"
      ],
      [
        "0x40D",
        "1"
      ],
      [
        "0x40D",
        "2"
      ],
      [
        "over",
        "flow"
      ],
      [
        "man",
        "ages"
      ],
      [
        "tri",
        "c"
      ],
      [
        "enti",
        "re"
      ],
      [
        "Pro",
        "ves"
      ],
      [
        "_con",
        "tinue"
      ],
      [
        "Bl",
        "ue"
      ],
      [
        "writ",
        "ten"
      ],
      [
        "pb_es",
        "c_"
      ],
      [
        "ENEMY",
        "_BASE"
      ],
      [
        "Po",
        "sition"
      ],
      [
        "Coun",
        "t"
      ],
      [
        "PROMPT",
        "_BUF"
      ],
      [
        "'",
        ")"
      ],
      [
        "1",
        "32"
      ],
      [
        "7",
        "F"
      ],
      [
        "D",
        "Y"
      ],
      [
        "D",
        "i"
      ],
      [
        "F",
        "T"
      ],
      [
        "F",
        "ile"
      ],
      [
        "H",
        "A"
      ],
      [
        "N",
        "ext"
      ],
      [
        "P",
        "S"
      ],
      [
        "S",
        "D"
      ],
      [
        "c",
        "i"
      ],
      [
        "c",
        "v_"
      ],
      [
        "e",
        "levation"
      ],
      [
        "n",
        "ight"
      ],
      [
        "s",
        "of"
      ],
      [
        "w",
        "an"
      ],
      [
        "w",
        "ill"
      ],
      [
        "RE",
        "D_"
      ],
      [
        "FF",
        "F"
      ],
      [
        "to",
        "w"
      ],
      [
        "ch",
        "ang"
      ],
      [
        "si",
        "mp"
      ],
      [
        "ur",
        "l_"
      ],
      [
        "ec",
        "ted"
      ],
      [
        "ini",
        "tial"
      ],
      [
        "0x0",
        "C"
      ],
      [
        "0x0",
        "30"
      ],
      [
        "LE",
        "FT"
      ],
      [
        "input",
        "s"
      ],
      [
        "fo",
        "am"
      ],
      [
        "move",
        "ment"
      ],
      [
        "NE",
        "XT"
      ],
      [
        "0x780",
        "7"
      ],
      [
        "scroll",
        "ing"
      ],
      [
        "scroll",
        "_up"
      ],
      [
        "pattern",
        "s"
      ],
      [
        "ry",
        "stal"
      ],
      [
        "mat",
        "h"
      ],
      [
        "tail",
        "_"
      ],
      [
        "wait",
        "ing"
      ],
      [
        "wh",
        "o"
      ],
      [
        "na",
        "vig"
      ],
      [
        "BO",
        "DY"
      ],
      [
        "comparison",
        "s"
      ],
      [
        "Wa",
        "ter"
      ],
      [
        "near",
        "by"
      ],
      [
        "sk",
        "y"
      ],
      [
        "servi",
        "ce"
      ],
      [
        "accum",
        "ulator"
      ],
      [
        "0x0044",
        "FF"
      ],
      [
        "fiel",
        "d"
      ],
      [
        "Fra",
        "me"
      ],
      [
        "2",
        "32"
      ],
      [
        "3",
        "A"
      ],
      [
        "3",
        "D"
      ],
      [
        "4",
        "1"
      ],
      [
        "5",
        "9"
      ],
      [
        "9",
        "2"
      ],
      [
        "<",
        "="
      ],
      [
        "A",
        "CC"
      ],
      [
        "A",
        "dd"
      ],
      [
        "E",
        "xt"
      ],
      [
        "L",
        "ine"
      ],
      [
        "P",
        "OR"
      ],
      [
        "S",
        "AND"
      ],
      [
        "]",
        "\""
      ],
      [
        "_",
        "t"
      ],
      [
        "_",
        "copy"
      ],
      [
        "d",
        "rop"
      ],
      [
        "n",
        "ts"
      ],
      [
        "o",
        "ter"
      ],
      [
        "s",
        "ome"
      ],
      [
        "t",
        "le"
      ],
      [
        "x",
        "blend_"
      ],
      [
        "y",
        "_loop"
      ],
      [
        "y",
        "pre"
      ],
      [
        "re",
        "turns"
      ],
      [
        "he",
        "al"
      ],
      [
        "le",
        "t"
      ],
      [
        "is",
        "h"
      ],
      [
        "_d",
        "rag"
      ],
      [
        "ad",
        "v"
      ],
      [
        "el",
        "y"
      ],
      [
        "loop",
        "_2"
      ],
      [
        "di",
        "o"
      ],
      [
        "_c",
        "lamp"
      ],
      [
        "32",
        "x32"
      ],
      [
        "12",
        "1"
      ],
      [
        "_re",
        "ad"
      ],
      [
        "────────────────",
        "────────"
      ],
      [
        "0x6",
        "00"
      ],
      [
        "assembl",
        "er"
      ],
      [
        "enter",
        "_digit_"
      ],
      [
        "ALT",
        "_"
      ],
      [
        "qu",
        "o"
      ],
      [
        "fo",
        "l"
      ],
      [
        "mm",
        "er"
      ],
      [
        "win",
        "_y"
      ],
      [
        "cal",
        "c_"
      ],
      [
        "fa",
        "ce"
      ],
      [
        "por",
        "ts"
      ],
      [
        "0x78",
        "14"
      ],
      [
        "whi",
        "le"
      ],
      [
        "igh",
        "ts"
      ],
      [
        "19",
        "6"
      ],
      [
        "rot",
        "1"
      ],
      [
        "rot",
        "2"
      ],
      [
        "rot",
        "3"
      ],
      [
        "PTY",
        "_"
      ],
      [
        "over",
        "lay"
      ],
      [
        "function",
        "al"
      ],
      [
        "_digit",
        "s"
      ],
      [
        "name",
        "_done"
      ],
      [
        "fe",
        "atures"
      ],
      [
        "set_",
        "state"
      ],
      [
        "cc",
        "p_"
      ],
      [
        "ive",
        "d"
      ],
      [
        "enem",
        "ies"
      ],
      [
        "R_B",
        "S"
      ],
      [
        "appro",
        "ach"
      ],
      [
        "int_",
        "to_str"
      ],
      [
        "bt",
        "n_"
      ],
      [
        "effec",
        "t"
      ],
      [
        "Fin",
        "d"
      ],
      [
        "TIT",
        "LE_"
      ],
      [
        "0xAAAA",
        "AA"
      ],
      [
        "contro",
        "l"
      ],
      [
        "radi",
        "us"
      ],
      [
        "========================================================",
        "===="
      ],
      [
        "2",
        "16"
      ],
      [
        "6",
        "1"
      ],
      [
        "B",
        "i"
      ],
      [
        "C",
        "B"
      ],
      [
        "G",
        "HT"
      ],
      [
        "R",
        "ed"
      ],
      [
        "S",
        "tr"
      ],
      [
        "]",
        ","
      ],
      [
        "_",
        "ADDR"
      ],
      [
        "_",
        "END"
      ],
      [
        "a",
        "ir"
      ],
      [
        "c",
        "rystal"
      ],
      [
        "e",
        "ded"
      ],
      [
        "0x",
        "BBBB"
      ],
      [
        "me",
        "ta"
      ],
      [
        "ch",
        "r"
      ],
      [
        "la",
        "im"
      ],
      [
        "0xFF",
        "AA"
      ],
      [
        "OP",
        "_TABLE"
      ],
      [
        "th",
        "er"
      ],
      [
        "0x7",
        "97"
      ],
      [
        "mo",
        "st"
      ],
      [
        "mo",
        "du"
      ],
      [
        "ver",
        "ifi"
      ],
      [
        "il",
        "ity"
      ],
      [
        "0x0",
        "200"
      ],
      [
        "do",
        "ts"
      ],
      [
        "sh",
        "r"
      ],
      [
        "bar",
        "s"
      ],
      [
        "FRAME",
        "_"
      ],
      [
        "ent_",
        "render"
      ],
      [
        "win",
        "_id"
      ],
      [
        "back",
        "space"
      ],
      [
        "0x780",
        "3"
      ],
      [
        "0x780",
        "A"
      ],
      [
        "pre",
        "computed"
      ],
      [
        "mem",
        "chr"
      ],
      [
        "show",
        "s"
      ],
      [
        "38",
        "4"
      ],
      [
        "game",
        "_loop"
      ],
      [
        "clo",
        "ck"
      ],
      [
        "EX",
        "EC"
      ],
      [
        "ext",
        "ract"
      ],
      [
        "bld",
        "g_"
      ],
      [
        "ler",
        "p"
      ],
      [
        "arg",
        "ument"
      ],
      [
        "0x0A0",
        "A"
      ],
      [
        "enem",
        "y"
      ],
      [
        "parse",
        "_done"
      ],
      [
        "Clo",
        "se"
      ],
      [
        "Wa",
        "it"
      ],
      [
        "bt",
        "n"
      ],
      [
        "WA",
        "SD"
      ],
      [
        "del",
        "ta"
      ],
      [
        "no_c",
        "lick"
      ],
      [
        "Shi",
        "ft"
      ],
      [
        "veloc",
        "ity"
      ],
      [
        "fol",
        "low"
      ],
      [
        "\"",
        ">"
      ],
      [
        "(",
        "."
      ],
      [
        "1",
        "70"
      ],
      [
        "1",
        "76"
      ],
      [
        "A",
        "RE"
      ],
      [
        "C",
        "TE"
      ],
      [
        "C",
        "lamp"
      ],
      [
        "D",
        "2"
      ],
      [
        "D",
        "own"
      ],
      [
        "F",
        "D"
      ],
      [
        "F",
        "REQ"
      ],
      [
        "N",
        "L"
      ],
      [
        "O",
        "FF"
      ],
      [
        "Q",
        "U"
      ],
      [
        "R",
        "ing"
      ],
      [
        "_",
        "label"
      ],
      [
        "a",
        "ded"
      ],
      [
        "b",
        "be"
      ],
      [
        "c",
        "er"
      ],
      [
        "c",
        "ing"
      ],
      [
        "p",
        "ul"
      ],
      [
        "t",
        "x"
      ],
      [
        "in",
        "ts"
      ],
      [
        "in",
        "vol"
      ],
      [
        "0x",
        "10000"
      ],
      [
        "00",
        "7"
      ],
      [
        "ti",
        "v"
      ],
      [
        "al",
        "low"
      ],
      [
        "lo",
        "aded"
      ]
    ]
  }
}