{
  "version": "1.0",
  "truncation": null,
  "padding": null,
  "added_tokens": [
    {
      "id": 0,
      "content": "<UNK>",
      "single_word": false,
      "lstrip": false,
      "rstrip": false,
      "normalized": false,
      "special": true
    },
    {
      "id": 1,
      "content": "<PAD>",
      "single_word": false,
      "lstrip": false,
      "rstrip": false,
      "normalized": false,
      "special": true
    },
    {
      "id": 2,
      "content": "<BOS>",
      "single_word": false,
      "lstrip": false,
      "rstrip": false,
      "normalized": false,
      "special": true
    },
    {
      "id": 3,
      "content": "<EOS>",
      "single_word": false,
      "lstrip": false,
      "rstrip": false,
      "normalized": false,
      "special": true
    },
    {
      "id": 4,
      "content": "<NL>",
      "single_word": false,
      "lstrip": false,
      "rstrip": false,
      "normalized": false,
      "special": true
    }
  ],
  "normalizer": null,
  "pre_tokenizer": {
    "type": "Whitespace"
  },
  "post_processor": null,
  "decoder": {
    "type": "ByteLevel",
    "add_prefix_space": true,
    "trim_offsets": true,
    "use_regex": true
  },
  "model": {
    "type": "BPE",
    "dropout": null,
    "unk_token": "<UNK>",
    "continuing_subword_prefix": null,
    "end_of_word_suffix": null,
    "fuse_unk": false,
    "byte_fallback": false,
    "ignore_merges": false,
    "vocab": {
      "<UNK>": 0,
      "<PAD>": 1,
      "<BOS>": 2,
      "<EOS>": 3,
      "<NL>": 4,
      "!": 5,
      "\"": 6,
      "#": 7,
      "$": 8,
      "%": 9,
      "&": 10,
      "'": 11,
      "(": 12,
      ")": 13,
      "*": 14,
      "+": 15,
      ",": 16,
      "-": 17,
      ".": 18,
      "/": 19,
      "0": 20,
      "1": 21,
      "2": 22,
      "3": 23,
      "4": 24,
      "5": 25,
      "6": 26,
      "7": 27,
      "8": 28,
      "9": 29,
      ":": 30,
      ";": 31,
      "<": 32,
      "=": 33,
      ">": 34,
      "?": 35,
      "@": 36,
      "A": 37,
      "B": 38,
      "C": 39,
      "D": 40,
      "E": 41,
      "F": 42,
      "G": 43,
      "H": 44,
      "I": 45,
      "J": 46,
      "K": 47,
      "L": 48,
      "M": 49,
      "N": 50,
      "O": 51,
      "P": 52,
      "Q": 53,
      "R": 54,
      "S": 55,
      "T": 56,
      "U": 57,
      "V": 58,
      "W": 59,
      "X": 60,
      "Y": 61,
      "Z": 62,
      "[": 63,
      "\\": 64,
      "]": 65,
      "^": 66,
      "_": 67,
      "`": 68,
      "a": 69,
      "b": 70,
      "c": 71,
      "d": 72,
      "e": 73,
      "f": 74,
      "g": 75,
      "h": 76,
      "i": 77,
      "j": 78,
      "k": 79,
      "l": 80,
      "m": 81,
      "n": 82,
      "o": 83,
      "p": 84,
      "q": 85,
      "r": 86,
      "s": 87,
      "t": 88,
      "u": 89,
      "v": 90,
      "w": 91,
      "x": 92,
      "y": 93,
      "z": 94,
      "{": 95,
      "|": 96,
      "}": 97,
      "~": 98,
      "±": 99,
      "—": 100,
      "→": 101,
      "≈": 102,
      "─": 103,
      "═": 104,
      "✓": 105,
      "r1": 106,
      "r2": 107,
      "==": 108,
      "DI": 109,
      "LDI": 110,
      "══": 111,
      "====": 112,
      "AD": 113,
      "──": 114,
      "RE": 115,
      "ST": 116,
      "in": 117,
      "STO": 118,
      "0x": 119,
      "STORE": 120,
      "r20": 121,
      "════": 122,
      "ADD": 123,
      "re": 124,
      "r3": 125,
      "r0": 126,
      "r4": 127,
      "te": 128,
      "00": 129,
      "r7": 130,
      "MP": 131,
      "========": 132,
      "────": 133,
      "on": 134,
      "le": 135,
      "or": 136,
      "st": 137,
      "en": 138,
      "--": 139,
      "er": 140,
      "ar": 141,
      "════════": 142,
      "co": 143,
      "FF": 144,
      "it": 145,
      "an": 146,
      "r10": 147,
      "r5": 148,
      "se": 149,
      "at": 150,
      "ro": 151,
      "he": 152,
      "CMP": 153,
      "r6": 154,
      "de": 155,
      "ra": 156,
      "r17": 157,
      "LO": 158,
      "al": 159,
      "r11": 160,
      "LOAD": 161,
      "to": 162,
      "================": 163,
      "────────": 164,
      "lo": 165,
      "r18": 166,
      "r9": 167,
      "r12": 168,
      "LL": 169,
      "r21": 170,
      "JMP": 171,
      "ck": 172,
      "ter": 173,
      "10": 174,
      "MO": 175,
      "me": 176,
      "_d": 177,
      "ing": 178,
      "r22": 179,
      "ine": 180,
      "un": 181,
      "CA": 182,
      "op": 183,
      "ce": 184,
      "ch": 185,
      "CALL": 186,
      "MOV": 187,
      "as": 188,
      "is": 189,
      "r15": 190,
      "t_": 191,
      "RA": 192,
      "r14": 193,
      "════════════════": 194,
      "and": 195,
      "ion": 196,
      "ri": 197,
      "la": 198,
      "ad": 199,
      "ne": 200,
      "JZ": 201,
      "ve": 202,
      "CMPI": 203,
      "r13": 204,
      "_c": 205,
      "ll": 206,
      "bu": 207,
      "JN": 208,
      "JNZ": 209,
      "one": 210,
      "sc": 211,
      "11": 212,
      "raw": 213,
      "the": 214,
      "no": 215,
      "r16": 216,
      "BU": 217,
      "col": 218,
      "heck": 219,
      "32": 220,
      "mp": 221,
      "RO": 222,
      "ur": 223,
      "SH": 224,
      "by": 225,
      "ct": 226,
      "row": 227,
      "loop": 228,
      "TE": 229,
      "BUF": 230,
      "_re": 231,
      "SE": 232,
      "0x4": 233,
      "ADDI": 234,
      "ent": 235,
      "_done": 236,
      "25": 237,
      "r25": 238,
      "0xFF": 239,
      "R_": 240,
      "ut": 241,
      "ate": 242,
      "────────────────": 243,
      "12": 244,
      "SU": 245,
      "ig": 246,
      "000": 247,
      "reen": 248,
      "SUB": 249,
      "el": 250,
      "----": 251,
      "r8": 252,
      "0x7": 253,
      "OP": 254,
      "for": 255,
      "SC": 256,
      "mo": 257,
      "d_": 258,
      "ow": 259,
      "xt": 260,
      "CO": 261,
      "r23": 262,
      "ti": 263,
      "ff": 264,
      "LT": 265,
      "def": 266,
      "r19": 267,
      "sp": 268,
      "byte": 269,
      "th": 270,
      "..": 271,
      "_loop": 272,
      "us": 273,
      "RAM": 274,
      "pi": 275,
      "line": 276,
      "ma": 277,
      "po": 278,
      "XT": 279,
      "r31": 280,
      "ND": 281,
      "fi": 282,
      "coun": 283,
      "16": 284,
      "di": 285,
      "POP": 286,
      "ab": 287,
      "0x2": 288,
      "str": 289,
      "define": 290,
      "80": 291,
      "ul": 292,
      "draw": 293,
      "ase": 294,
      "PU": 295,
      "ge": 296,
      "lay": 297,
      "CT": 298,
      "ss": 299,
      "PUSH": 300,
      "ren": 301,
      "il": 302,
      "BLT": 303,
      "TEXT": 304,
      "100": 305,
      "UL": 306,
      "MUL": 307,
      "screen": 308,
      "hi": 309,
      "bl": 310,
      "30": 311,
      "================================": 312,
      "pro": 313,
      "ver": 314,
      "up": 315,
      "all": 316,
      "TI": 317,
      "con": 318,
      "ht": 319,
      "code": 320,
      "40": 321,
      "ed": 322,
      "0x5": 323,
      "bo": 324,
      "color": 325,
      "rite": 326,
      "GE": 327,
      "do": 328,
      "RECT": 329,
      "cur": 330,
      "20": 331,
      "wit": 332,
      "========================================": 333,
      "lear": 334,
      "RECTF": 335,
      "_s": 336,
      "der": 337,
      "0x0": 338,
      "48": 339,
      "0x6": 340,
      "COL": 341,
      "STRO": 342,
      "44": 343,
      "fra": 344,
      "xel": 345,
      "ue": 346,
      "set": 347,
      "red": 348,
      "ffer": 349,
      "ry": 350,
      "=========================================": 351,
      "ip": 352,
      "play": 353,
      "RET": 354,
      "0x00": 355,
      "════════════════════════════════": 356,
      "256": 357,
      "buffer": 358,
      "BGE": 359,
      "with": 360,
      "ke": 361,
      "ap": 362,
      "frame": 363,
      "50": 364,
      "_BUF": 365,
      "star": 366,
      "IN": 367,
      "pixel": 368,
      "put": 369,
      "wor": 370,
      "FFFF": 371,
      "si": 372,
      "---": 373,
      "char": 374,
      "len": 375,
      "rom": 376,
      "li": 377,
      "from": 378,
      "ave": 379,
      "ft": 380,
      "ation": 381,
      "LE": 382,
      "pos": 383,
      "Re": 384,
      "sor": 385,
      "r26": 386,
      "ult": 387,
      "kip": 388,
      "_ret": 389,
      "count": 390,
      "ome": 391,
      "pat": 392,
      "add": 393,
      "ty": 394,
      "DE": 395,
      "CH": 396,
      "spa": 397,
      "0x1": 398,
      "ame": 399,
      "nu": 400,
      "of": 401,
      "r24": 402,
      "bar": 403,
      "if": 404,
      "tab": 405,
      "ack": 406,
      "check": 407,
      "_ne": 408,
      "--------": 409,
      "base": 410,
      "key": 411,
      "sh": 412,
      "start": 413,
      "sto": 414,
      "_check": 415,
      "ition": 416,
      "text": 417,
      "main": 418,
      "rig": 419,
      "_x": 420,
      "pe": 421,
      "Ge": 422,
      "gra": 423,
      "id": 424,
      "r28": 425,
      "try": 426,
      "PSE": 427,
      "_y": 428,
      "RI": 429,
      "res": 430,
      "ex": 431,
      "SI": 432,
      "AND": 433,
      "fo": 434,
      "ment": 435,
      "pb": 436,
      "r27": 437,
      "AN": 438,
      "min": 439,
      "ds": 440,
      "write": 441,
      "draw_": 442,
      "ent_": 443,
      "tile": 444,
      "Draw": 445,
      "iz": 446,
      "vi": 447,
      "Check": 448,
      "COLS": 449,
      "CU": 450,
      "igit": 451,
      "ction": 452,
      "TCH": 453,
      "es": 454,
      "0x3": 455,
      "88": 456,
      "ROW": 457,
      "=====": 458,
      "),": 459,
      "128": 460,
      "buf": 461,
      "py": 462,
      "counter": 463,
      "und": 464,
      "────────────────────────────────": 465,
      "render": 466,
      "_o": 467,
      "dow": 468,
      "0xF": 469,
      "right": 470,
      "qu": 471,
      "wa": 472,
      "cursor": 473,
      "sem": 474,
      "ild": 475,
      "position": 476,
      "15": 477,
      "22": 478,
      "bi": 479,
      "use": 480,
      "RATCH": 481,
      "SCRATCH": 482,
      "im": 483,
      "OS": 484,
      "bit": 485,
      "store": 486,
      "em": 487,
      "CC": 488,
      "DRA": 489,
      "114": 490,
      "be": 491,
      "move": 492,
      "AR": 493,
      "ts": 494,
      "input": 495,
      "ac": 496,
      "The": 497,
      "ive": 498,
      "assem": 499,
      "->": 500,
      "ute": 501,
      "end": 502,
      "ard": 503,
      "isplay": 504,
      "0xFFFFFF": 505,
      "In": 506,
      "per": 507,
      "CUR_": 508,
      "DRAW": 509,
      "read": 510,
      "enter": 511,
      "out": 512,
      "rent": 513,
      "0000": 514,
      "sg": 515,
      "par": 516,
      "green": 517,
      "win": 518,
      "main_loop": 519,
      "mm": 520,
      "200": 521,
      "OR": 522,
      "k_": 523,
      "skip": 524,
      "Co": 525,
      "═══": 526,
      "p_": 527,
      "ON": 528,
      "P_": 529,
      "left": 530,
      "low": 531,
      "FRAM": 532,
      "dex": 533,
      "space": 534,
      "FRAME": 535,
      "14": 536,
      "NE": 537,
      "DRAWTEXT": 538,
      "index": 539,
      "roll": 540,
      "are": 541,
      "clear": 542,
      "val": 543,
      "tern": 544,
      "c_": 545,
      "null": 546,
      "PA": 547,
      "ag": 548,
      "r_": 549,
      "mode": 550,
      "═══════": 551,
      "═══════════════": 552,
      "no_": 553,
      "copy": 554,
      "24": 555,
      "ash": 556,
      "init": 557,
      "MA": 558,
      "am": 559,
      "cre": 560,
      "biome": 561,
      "ach": 562,
      "ten": 563,
      "reg": 564,
      "PSET": 565,
      "cl": 566,
      "state": 567,
      "asm": 568,
      "0x780": 569,
      "r29": 570,
      "worl": 571,
      "cle": 572,
      "FF00": 573,
      "back": 574,
      "so": 575,
      "G_": 576,
      "bly": 577,
      "wn": 578,
      "comp": 579,
      "app": 580,
      "SI_": 581,
      "FI": 582,
      "BA": 583,
      "vis": 584,
      "ted": 585,
      "ir": 586,
      "scroll": 587,
      "poin": 588,
      "ly": 589,
      "pa": 590,
      "top": 591,
      "assembly": 592,
      "termin": 593,
      "atus": 594,
      "blue": 595,
      "Th": 596,
      "pre": 597,
      "64": 598,
      "su": 599,
      "ity": 600,
      "49": 601,
      "display": 602,
      "save": 603,
      "═══════════════════════════════": 604,
      "SHR": 605,
      "ight": 606,
      "═══════════════════════════════════════════════════════════════": 607,
      "itle": 608,
      "do_": 609,
      "ark": 610,
      "ance": 611,
      "et": 612,
      "off": 613,
      "60": 614,
      "TY": 615,
      "digit": 616,
      "hase": 617,
      "gle": 618,
      "we": 619,
      "_next": 620,
      "99": 621,
      "ber": 622,
      "file": 623,
      "TION": 624,
      "to_": 625,
      "S_": 626,
      "STA": 627,
      "string": 628,
      "AA": 629,
      "ory": 630,
      "PI": 631,
      "ble": 632,
      "andle": 633,
      "current": 634,
      "13": 635,
      "0x40": 636,
      "af": 637,
      "DESC": 638,
      "mple": 639,
      "255": 640,
      "RIP": 641,
      "world_": 642,
      "This": 643,
      "_h": 644,
      "DESCRIP": 645,
      "DESCRIPTION": 646,
      "ta": 647,
      "ator": 648,
      "player": 649,
      "pattern": 650,
      "r30": 651,
      "33": 652,
      "101": 653,
      "ALT": 654,
      "bor": 655,
      "GeOS": 656,
      "ec": 657,
      "fa": 658,
      "not_": 659,
      "value": 660,
      "70": 661,
      "lines": 662,
      "age": 663,
      "om": 664,
      "board": 665,
      "date": 666,
      "run": 667,
      "ress": 668,
      "opcode": 669,
      "table": 670,
      "68": 671,
      "atch": 672,
      "R_BUF": 673,
      "um": 674,
      "using": 675,
      "Clear": 676,
      "por": 677,
      "status": 678,
      "igh": 679,
      "----------------": 680,
      "XX": 681,
      "BASE": 682,
      "KE": 683,
      "cm": 684,
      "cess": 685,
      "0x78": 686,
      "ece": 687,
      "ic": 688,
      "offset": 689,
      "28": 690,
      "ial": 691,
      "ister": 692,
      "rows": 693,
      "):": 694,
      "ys": 695,
      "ot": 696,
      "0x30": 697,
      "cy": 698,
      "EL": 699,
      "KEY": 700,
      "55": 701,
      "after": 702,
      "D_": 703,
      "handle": 704,
      "COLO": 705,
      "HI": 706,
      "ME": 707,
      "lp": 708,
      "px": 709,
      "cell": 710,
      "pixels": 711,
      "CSI_": 712,
      "St": 713,
      "ol": 714,
      "ont": 715,
      "angle": 716,
      "FILL": 717,
      "M_": 718,
      "test": 719,
      "rot": 720,
      "76": 721,
      "own": 722,
      "try_": 723,
      "31": 724,
      "AB": 725,
      "HALT": 726,
      "can": 727,
      "blen": 728,
      "DIV": 729,
      "end_": 730,
      "address": 731,
      "new": 732,
      "promp": 733,
      "LI": 734,
      "_to_": 735,
      "EN": 736,
      "center": 737,
      "MOD": 738,
      "_reg": 739,
      "int": 740,
      "type": 741,
      "num": 742,
      "tom": 743,
      "66": 744,
      "chars": 745,
      "0x2000": 746,
      "UN": 747,
      "show": 748,
      "xt_": 749,
      "hex": 750,
      "not": 751,
      "write_": 752,
      "ay": 753,
      "each": 754,
      "ull": 755,
      "whi": 756,
      "0x8": 757,
      "120": 758,
      "sult": 759,
      "vance": 760,
      "addr": 761,
      "based": 762,
      "C_": 763,
      "PTY": 764,
      "ran": 765,
      "fir": 766,
      "0x00FF00": 767,
      "CUR_ROW": 768,
      "mmand": 769,
      "chan": 770,
      "_ok": 771,
      "rect": 772,
      "_draw": 773,
      "SEND": 774,
      "Lo": 775,
      "ses": 776,
      "piece": 777,
      "prompt": 778,
      "zer": 779,
      "0x40D": 780,
      "zero": 781,
      ">>": 782,
      "BB": 783,
      "spon": 784,
      "down": 785,
      "port": 786,
      "map": 787,
      "gram": 788,
      "result": 789,
      "cal": 790,
      "window": 791,
      "dy": 792,
      "_result": 793,
      "0x6A": 794,
      "number": 795,
      "VE": 796,
      "game": 797,
      "over": 798,
      "PARAM": 799,
      "65": 800,
      "time": 801,
      "water": 802,
      "CSI_PARAM": 803,
      "97": 804,
      "_e": 805,
      "ated": 806,
      "stru": 807,
      "ANDI": 808,
      "400": 809,
      "title": 810,
      "ata": 811,
      "_down": 812,
      "but": 813,
      "hift": 814,
      "Bu": 815,
      "pla": 816,
      "round": 817,
      "crement": 818,
      ").": 819,
      "Write": 820,
      "l_": 821,
      "ursor": 822,
      "program": 823,
      "WIN": 824,
      "_T": 825,
      "s_": 826,
      "ctive": 827,
      "0x4E": 828,
      "0x0000": 829,
      "Read": 830,
      "0xFFFFFFFF": 831,
      "compute": 832,
      "cmd_": 833,
      "SEND_BUF": 834,
      "ho": 835,
      "_check_result": 836,
      "first": 837,
      "Con": 838,
      "ault": 839,
      "command": 840,
      "next": 841,
      "blend": 842,
      "A1": 843,
      "It": 844,
      "STR_BUF": 845,
      "tep": 846,
      "build": 847,
      "default": 848,
      "CUR_COL": 849,
      "clo": 850,
      "rid": 851,
      "sponse": 852,
      "place": 853,
      "_b": 854,
      "_f": 855,
      "SUBI": 856,
      "bot": 857,
      "pb_ret": 858,
      "ROWS": 859,
      "58": 860,
      "De": 861,
      "===": 862,
      "spawn": 863,
      "via": 864,
      "register": 865,
      "ighbor": 866,
      "CE": 867,
      "dark": 868,
      "how": 869,
      "_csi": 870,
      "111": 871,
      "....": 872,
      "fill": 873,
      "ializ": 874,
      "18": 875,
      "90": 876,
      "27": 877,
      "Phase": 878,
      "ill": 879,
      "anim": 880,
      "PSETI": 881,
      "AI": 882,
      "mc": 883,
      "0xFFB": 884,
      "38": 885,
      "TU": 886,
      "ground": 887,
      "ser": 888,
      "arch": 889,
      "0x200": 890,
      "lick": 891,
      "Init": 892,
      "300": 893,
      "EX": 894,
      "cam": 895,
      "ton": 896,
      "_digit": 897,
      "neighbor": 898,
      "SHL": 899,
      "bottom": 900,
      "into": 901,
      "0x5000": 902,
      "parse": 903,
      "Build": 904,
      "110": 905,
      "imple": 906,
      "v_": 907,
      "108": 908,
      "nel": 909,
      "ext": 910,
      "advance": 911,
      "SET": 912,
      "then": 913,
      "STATU": 914,
      "IKEY": 915,
      "XEL": 916,
      "rate": 917,
      "RAND": 918,
      "_clear": 919,
      "PIXEL": 920,
      "umn": 921,
      ">=": 922,
      "column": 923,
      "ellow": 924,
      "path": 925,
      "_n": 926,
      "words": 927,
      "Load": 928,
      "42": 929,
      "A0": 930,
      "wall": 931,
      "rain": 932,
      "exec": 933,
      "pb_csi": 934,
      "append_": 935,
      "sin": 936,
      "tra": 937,
      "wave": 938,
      "stan": 939,
      "update": 940,
      "_skip": 941,
      "++": 942,
      "ew": 943,
      "mon": 944,
      "ded": 945,
      "ments": 946,
      "LIN": 947,
      "ile": 948,
      "era": 949,
      "check_": 950,
      "_hash": 951,
      "CK": 952,
      "Row": 953,
      "hist": 954,
      "If": 955,
      "load": 956,
      "max": 957,
      "0x3000": 958,
      "button": 959,
      "cor": 960,
      "ove": 961,
      "sig": 962,
      "tur": 963,
      "ze": 964,
      "indi": 965,
      "output": 966,
      "area": 967,
      "idth": 968,
      "HIT": 969,
      "_p": 970,
      "response": 971,
      "get_": 972,
      "emit": 973,
      "Comp": 974,
      "background": 975,
      "white": 976,
      "camera": 977,
      "240": 978,
      "EE": 979,
      "ust": 980,
      "width": 981,
      "mem": 982,
      "chk_": 983,
      "lag": 984,
      "bug": 985,
      "bytes": 986,
      "world_y": 987,
      "channel": 988,
      "36": 989,
      "dg": 990,
      "lock": 991,
      "lamp": 992,
      "vert": 993,
      "world_x": 994,
      "ls": 995,
      "ok": 996,
      "tem": 997,
      "73": 998,
      "AL": 999,
      "ct_": 1000,
      "cted": 1001,
      "oriz": 1002,
      "0x4000": 1003,
      "ometry": 1004,
      "0x4E0": 1005,
      "Sto": 1006,
      "XOR": 1007,
      "mpty": 1008,
      "sgr_": 1009,
      "ib": 1010,
      "k_ret": 1011,
      "ning": 1012,
      "115": 1013,
      "str_": 1014,
      "process": 1015,
      "frames": 1016,
      "bits": 1017,
      "19": 1018,
      "YS": 1019,
      "data": 1020,
      "tk_": 1021,
      "wait": 1022,
      "Pro": 1023,
      "ink": 1024,
      "LEN": 1025,
      "Geometry": 1026,
      "fail": 1027,
      "En": 1028,
      "grid": 1029,
      "entry": 1030,
      "sprite": 1031,
      "ally": 1032,
      "pointer": 1033,
      "COLOR": 1034,
      "Store": 1035,
      "83": 1036,
      "Show": 1037,
      "Up": 1038,
      "that": 1039,
      "terminate": 1040,
      "host": 1041,
      "SYS": 1042,
      "av": 1043,
      "du": 1044,
      "ug": 1045,
      "ision": 1046,
      "ates": 1047,
      "127": 1048,
      "COUN": 1049,
      "LE_": 1050,
      "ANS_": 1051,
      "tiles": 1052,
      "TXT": 1053,
      "ari": 1054,
      "core": 1055,
      "set_": 1056,
      "search": 1057,
      "mouse": 1058,
      "COUNT": 1059,
      "bel": 1060,
      "dx": 1061,
      "flag": 1062,
      "ure": 1063,
      "vas": 1064,
      "stri": 1065,
      "err": 1066,
      "tent": 1067,
      "tail": 1068,
      "_lp": 1069,
      "yellow": 1070,
      "0x9": 1071,
      "restore": 1072,
      "colo": 1073,
      "secon": 1074,
      "demo": 1075,
      "debug": 1076,
      "ass": 1077,
      "label": 1078,
      "Lay": 1079,
      "Sc": 1080,
      "cd": 1081,
      "tar": 1082,
      "opy": 1083,
      "ces": 1084,
      "bldg": 1085,
      "agent_": 1086,
      "indic": 1087,
      "ugh": 1088,
      "Title": 1089,
      "sed": 1090,
      "_cursor": 1091,
      "112": 1092,
      "116": 1093,
      "ROLL": 1094,
      "0x44": 1095,
      "0xFF0000": 1096,
      "SCROLL": 1097,
      "very": 1098,
      "keyboard": 1099,
      "clu": 1100,
      "canvas": 1101,
      "<<": 1102,
      "arrow": 1103,
      "ross": 1104,
      "oper": 1105,
      "llision": 1106,
      "entri": 1107,
      "frame_": 1108,
      "ations": 1109,
      "69": 1110,
      "600": 1111,
      "Pi": 1112,
      "_a": 1113,
      "_m": 1114,
      "0xFFFF": 1115,
      "colored": 1116,
      "72": 1117,
      "82": 1118,
      "CM": 1119,
      "mc_": 1120,
      "inclu": 1121,
      "dec": 1122,
      "sub": 1123,
      "_TAB": 1124,
      "A1A": 1125,
      "cus": 1126,
      "call": 1127,
      "ual": 1128,
      "strate": 1129,
      "andom": 1130,
      "lap": 1131,
      "last": 1132,
      "this": 1133,
      "dir": 1134,
      "acc": 1135,
      "ircle": 1136,
      "84": 1137,
      "LA": 1138,
      "SA": 1139,
      "SAR": 1140,
      "hal": 1141,
      "horiz": 1142,
      "phase": 1143,
      "ned": 1144,
      "lename": 1145,
      "lib": 1146,
      "append_byte": 1147,
      "Compute": 1148,
      "WPIXEL": 1149,
      "_up": 1150,
      "let": 1151,
      "collision": 1152,
      "head": 1153,
      "ffe": 1154,
      "edge": 1155,
      "ESC": 1156,
      "FG_": 1157,
      "cno": 1158,
      "ratch": 1159,
      "rough": 1160,
      "next_": 1161,
      "Get": 1162,
      "clear_": 1163,
      "visor": 1164,
      "FG_COLOR": 1165,
      "NO": 1166,
      "SG": 1167,
      "Set": 1168,
      "ain": 1169,
      "rc": 1170,
      "ADDR": 1171,
      "ary": 1172,
      "ask": 1173,
      "urce": 1174,
      "colors": 1175,
      "turn": 1176,
      "HITSET": 1177,
      "Copy": 1178,
      "SP": 1179,
      "_col": 1180,
      "full": 1181,
      "gu": 1182,
      "sys": 1183,
      "ree": 1184,
      "hel": 1185,
      "filename": 1186,
      "0x240": 1187,
      "STATE": 1188,
      "building": 1189,
      ":\"": 1190,
      "PRO": 1191,
      "_row": 1192,
      "_BASE": 1193,
      "light": 1194,
      "wo": 1195,
      "asc": 1196,
      "through": 1197,
      "size": 1198,
      "view": 1199,
      "PID": 1200,
      "TXT_BUF": 1201,
      "79": 1202,
      "Hel": 1203,
      "gen": 1204,
      "name": 1205,
      "pres": 1206,
      "tr": 1207,
      "ut_": 1208,
      "u32": 1209,
      "vari": 1210,
      "loc": 1211,
      "pipe": 1212,
      "able": 1213,
      "focus": 1214,
      "75": 1215,
      "cc": 1216,
      "da": 1217,
      "gth": 1218,
      "ist": 1219,
      "temp": 1220,
      "its": 1221,
      "104": 1222,
      "scan": 1223,
      "now": 1224,
      "entity": 1225,
      "ush": 1226,
      "_new": 1227,
      "ent_agent_": 1228,
      "visi": 1229,
      "WINSYS": 1230,
      "history": 1231,
      "entries": 1232,
      "D00": 1233,
      "ies": 1234,
      "match": 1235,
      "pan": 1236,
      "LLM": 1237,
      "ves": 1238,
      "0x7000": 1239,
      "get": 1240,
      "edit": 1241,
      "length": 1242,
      "ctions": 1243,
      "agent": 1244,
      "--------------------------------": 1245,
      "77": 1246,
      "Te": 1247,
      "hash": 1248,
      "non": 1249,
      "0x20": 1250,
      "strlen": 1251,
      "uld": 1252,
      "skip_": 1253,
      "Col": 1254,
      "implements": 1255,
      "stant": 1256,
      "ER": 1257,
      "ner": 1258,
      "score": 1259,
      "ender": 1260,
      "arm": 1261,
      "`,": 1262,
      "ball": 1263,
      "fd": 1264,
      "random": 1265,
      "stop": 1266,
      "art": 1267,
      "105": 1268,
      "scratch": 1269,
      "0xFFFF00": 1270,
      "form": 1271,
      "ape": 1272,
      "sho": 1273,
      "quit": 1274,
      "67": 1275,
      "C0": 1276,
      "csi": 1277,
      "rag": 1278,
      "OPEN": 1279,
      "tim": 1280,
      "0x040": 1281,
      "────────────────────────────────────────": 1282,
      "ready": 1283,
      "_to_buf": 1284,
      "SAVE": 1285,
      "Ad": 1286,
      "T_": 1287,
      "go": 1288,
      "ple": 1289,
      "coor": 1290,
      "_do": 1291,
      "lack": 1292,
      "dire": 1293,
      "0x0A0": 1294,
      "DEBU": 1295,
      "uses": 1296,
      "ibble": 1297,
      "23": 1298,
      "CP": 1299,
      "FS": 1300,
      "Uses": 1301,
      "ale": 1302,
      "click": 1303,
      "done": 1304,
      "gre": 1305,
      "just": 1306,
      "0x88": 1307,
      "des": 1308,
      "dest": 1309,
      "SEL": 1310,
      "NEG": 1311,
      "init_": 1312,
      "Test": 1313,
      "DEBUG_": 1314,
      "CLI": 1315,
      "Render": 1316,
      "VM": 1317,
      "_id": 1318,
      "black": 1319,
      "hit": 1320,
      "ix": 1321,
      "ifi": 1322,
      "shift": 1323,
      "tri": 1324,
      "increment": 1325,
      "reset": 1326,
      "region": 1327,
      "border": 1328,
      "_newline": 1329,
      "**": 1330,
      "2E": 1331,
      "Save": 1332,
      "_store": 1333,
      "fun": 1334,
      "mal": 1335,
      "tint": 1336,
      "wr": 1337,
      "READ": 1338,
      "001": 1339,
      "_dir": 1340,
      "0x1A1A": 1341,
      "imal": 1342,
      "point": 1343,
      "indicator": 1344,
      "strates": 1345,
      "Hello": 1346,
      "500": 1347,
      "ared": 1348,
      "empty": 1349,
      "0x000": 1350,
      "0x6000": 1351,
      "0x1F": 1352,
      "_check_": 1353,
      "digits": 1354,
      "Initializ": 1355,
      "DO": 1356,
      "every": 1357,
      "fe": 1358,
      "kno": 1359,
      "sn": 1360,
      "0xFF00": 1361,
      "...": 1362,
      "above": 1363,
      "draws": 1364,
      "word": 1365,
      "quen": 1366,
      "values": 1367,
      "mc_ret": 1368,
      "mc_25": 1369,
      "known": 1370,
      "BO": 1371,
      "Null": 1372,
      "active": 1373,
      "hy": 1374,
      "src": 1375,
      "0x120": 1376,
      "enem": 1377,
      "sele": 1378,
      "neg": 1379,
      "boun": 1380,
      "ANSI_": 1381,
      "rendering": 1382,
      "Color": 1383,
      "0x1A1A2E": 1384,
      "51": 1385,
      "OSC": 1386,
      "man": 1387,
      "ous": 1388,
      "sa": 1389,
      "arse": 1390,
      "here": 1391,
      "SCI": 1392,
      "ssion": 1393,
      "do_re": 1394,
      "stored": 1395,
      "sgr": 1396,
      "STATUS_": 1397,
      "frame_counter": 1398,
      "17": 1399,
      "AS": 1400,
      "ASCI": 1401,
      "circle": 1402,
      "pr": 1403,
      "sine": 1404,
      "squ": 1405,
      "DIR": 1406,
      "103": 1407,
      "child": 1408,
      "vel": 1409,
      "_cm": 1410,
      "cont": 1411,
      "0x020": 1412,
      "Reg": 1413,
      "fore": 1414,
      "pervisor": 1415,
      "displays": 1416,
      "running": 1417,
      "COLOR_BUF": 1418,
      "error": 1419,
      "NOTE": 1420,
      "ASCII": 1421,
      "_start": 1422,
      "block": 1423,
      "mul": 1424,
      "pl": 1425,
      "step": 1426,
      "restart": 1427,
      "content": 1428,
      "COL_": 1429,
      "Reset": 1430,
      "grass": 1431,
      "newline": 1432,
      "memory": 1433,
      "Update": 1434,
      "_copy": 1435,
      "b_": 1436,
      "fin": 1437,
      "pend": 1438,
      "instru": 1439,
      "R_B": 1440,
      "fix": 1441,
      "box": 1442,
      "_over": 1443,
      "assemble": 1444,
      "source": 1445,
      "system": 1446,
      "Initialize": 1447,
      "26": 1448,
      "BEE": 1449,
      "RL": 1450,
      "We": 1451,
      "vy": 1452,
      "0x80": 1453,
      "session": 1454,
      "ating": 1455,
      "hes": 1456,
      "ticle": 1457,
      "dim": 1458,
      "0x1000": 1459,
      "Layout": 1460,
      "gener": 1461,
      "34": 1462,
      "_pos": 1463,
      "cs": 1464,
      "oth": 1465,
      "pv": 1466,
      "sy": 1467,
      "int_": 1468,
      "level": 1469,
      "already": 1470,
      "TICK": 1471,
      "htt": 1472,
      "hypervisor": 1473,
      "_cmd": 1474,
      "1000": 1475,
      "150": 1476,
      "800": 1477,
      "RUN": 1478,
      "Skip": 1479,
      "WN": 1480,
      "_count": 1481,
      "rh": 1482,
      "slo": 1483,
      "s256": 1484,
      "tk_ret": 1485,
      "_di": 1486,
      "buil": 1487,
      "line_to_buf": 1488,
      "constant": 1489,
      "draw_frame": 1490,
      "particle": 1491,
      "cells": 1492,
      "write_line_to_buf": 1493,
      "LINE": 1494,
      "direction": 1495,
      "CLIP_": 1496,
      "ANSI_STATE": 1497,
      "s256_": 1498,
      "Mem": 1499,
      "Se": 1500,
      "clamp": 1501,
      "tal": 1502,
      "ub": 1503,
      "_cl": 1504,
      "spe": 1505,
      "dist": 1506,
      "appro": 1507,
      "emon": 1508,
      "cyan": 1509,
      "_esc": 1510,
      "_TABLE": 1511,
      "35": 1512,
      "HT": 1513,
      "ually": 1514,
      "stack": 1515,
      "ers": 1516,
      "ange": 1517,
      "late": 1518,
      "R_SC": 1519,
      "found": 1520,
      "reads": 1521,
      "initializ": 1522,
      "0x7800": 1523,
      "Register": 1524,
      "BEEP": 1525,
      "29": 1526,
      "Display": 1527,
      "LS": 1528,
      "msg": 1529,
      "mix": 1530,
      "vx": 1531,
      "inter": 1532,
      "remain": 1533,
      "CCCC": 1534,
      "advance_to_": 1535,
      "decimal": 1536,
      "dirty": 1537,
      "DIRTY": 1538,
      "Clo": 1539,
      "For": 1540,
      "cross": 1541,
      "home": 1542,
      "mar": 1543,
      "ring": 1544,
      "org": 1545,
      "help": 1546,
      "102": 1547,
      "chk": 1548,
      "cts": 1549,
      "tick": 1550,
      "spec": 1551,
      "do_newline": 1552,
      "acter": 1553,
      "signed": 1554,
      "seconds": 1555,
      "cdl": 1556,
      "56": 1557,
      "MM": 1558,
      "Play": 1559,
      "_type": 1560,
      "dst": 1561,
      "0xAA": 1562,
      "──────": 1563,
      "need": 1564,
      "10000": 1565,
      "side": 1566,
      "writes": 1567,
      "saved": 1568,
      "ontal": 1569,
      "camera_x": 1570,
      "hello": 1571,
      "should": 1572,
      "87": 1573,
      "din": 1574,
      "hen": 1575,
      "ite": 1576,
      "pack": 1577,
      "sx": 1578,
      "tran": 1579,
      "wal": 1580,
      "0xC": 1581,
      "orange": 1582,
      "sequen": 1583,
      "rols": 1584,
      "rap": 1585,
      "MODE": 1586,
      "body": 1587,
      "character": 1588,
      "list": 1589,
      "STATUS": 1590,
      "pb_csi_": 1591,
      "sgr_ret": 1592,
      "21": 1593,
      "45": 1594,
      "FE": 1595,
      "Main": 1596,
      "No": 1597,
      "RY": 1598,
      "Spa": 1599,
      "_input": 1600,
      "sup": 1601,
      "lete": 1602,
      "rop": 1603,
      "strc": 1604,
      "0x00FFFF": 1605,
      "_next_": 1606,
      "keys": 1607,
      "registers": 1608,
      "sign": 1609,
      "Enter": 1610,
      "stripe": 1611,
      "+=": 1612,
      "8_": 1613,
      "Ap": 1614,
      "oom": 1615,
      "inte": 1616,
      "ative": 1617,
      "total": 1618,
      "aste": 1619,
      "t_in": 1620,
      "rick": 1621,
      "scale": 1622,
      "TER": 1623,
      "0x700": 1624,
      "witch": 1625,
      "M_BASE": 1626,
      "CELL": 1627,
      "Pixel": 1628,
      "timer": 1629,
      "\")": 1630,
      "CL": 1631,
      "UT": 1632,
      "mask": 1633,
      "ins": 1634,
      "replace": 1635,
      "onal": 1636,
      "sel": 1637,
      "ract": 1638,
      "109": 1639,
      "scape": 1640,
      "0x444": 1641,
      "tip": 1642,
      "conne": 1643,
      "agonal": 1644,
      "point_in": 1645,
      "terminal": 1646,
      "prev": 1647,
      "cmd": 1648,
      "KEY_": 1649,
      "0x8000": 1650,
      "LINK": 1651,
      "trl": 1652,
      "slot": 1653,
      "advance_to_null": 1654,
      "140": 1655,
      "47": 1656,
      "91": 1657,
      "Each": 1658,
      "RS": 1659,
      "ai": 1660,
      "fine": 1661,
      "has": 1662,
      "ru": 1663,
      "where": 1664,
      "zoom": 1665,
      "ature": 1666,
      "rout": 1667,
      "TIME": 1668,
      "0x000000": 1669,
      "righ": 1670,
      "terminator": 1671,
      "struct_": 1672,
      "CMD_": 1673,
      "(\"": 1674,
      "4x": 1675,
      "53": 1676,
      "URL": 1677,
      "bber": 1678,
      "od": 1679,
      "pass": 1680,
      "same": 1681,
      "tn": 1682,
      "ures": 1683,
      "hell": 1684,
      "0x50": 1685,
      "lic": 1686,
      "Input": 1687,
      "target_": 1688,
      "SCROLL_": 1689,
      "half": 1690,
      "build_": 1691,
      "Memory": 1692,
      "Cursor": 1693,
      "Ex": 1694,
      "FG": 1695,
      "USE": 1696,
      "Wa": 1697,
      "va": 1698,
      "inu": 1699,
      "ler": 1700,
      "ormal": 1701,
      "height": 1702,
      "mess": 1703,
      "cols": 1704,
      "dot": 1705,
      "simple": 1706,
      "ize": 1707,
      "spaces": 1708,
      "paint": 1709,
      "Building": 1710,
      "okup": 1711,
      "_dirty": 1712,
      "routine": 1713,
      "message": 1714,
      "62": 1715,
      "71": 1716,
      "85": 1717,
      "ZE": 1718,
      "btn": 1719,
      "ding": 1720,
      "hu": 1721,
      "ward": 1722,
      "REEN": 1723,
      "0x11": 1724,
      "117": 1725,
      "them": 1726,
      "CON": 1727,
      "layout": 1728,
      "GET": 1729,
      "_shift": 1730,
      "tab_": 1731,
      "─────────────────────────────────": 1732,
      "render_": 1733,
      "spawn_": 1734,
      "square": 1735,
      "walk": 1736,
      "!\"": 1737,
      "BLINK": 1738,
      "CV": 1739,
      "HEX": 1740,
      "PC": 1741,
      "PE": 1742,
      "VI": 1743,
      "cu": 1744,
      "dn": 1745,
      "drag": 1746,
      "flow": 1747,
      "ggle": 1748,
      "ii": 1749,
      "mat": 1750,
      "pur": 1751,
      "ron": 1752,
      "sb": 1753,
      "was": 1754,
      "ans": 1755,
      "0x430": 1756,
      "NDE": 1757,
      "direct": 1758,
      "0x2100": 1759,
      "0x53": 1760,
      "tens": 1761,
      "opcodes": 1762,
      "MEM": 1763,
      "change": 1764,
      "close": 1765,
      "asciz": 1766,
      "visible": 1767,
      "96": 1768,
      "DD": 1769,
      "SP_": 1770,
      "au": 1771,
      "bright": 1772,
      "fl": 1773,
      "when": 1774,
      "only": 1775,
      "arg": 1776,
      "cos": 1777,
      "ith": 1778,
      "room": 1779,
      "LOOP": 1780,
      "MOUSE": 1781,
      "usage": 1782,
      "work": 1783,
      "RITE": 1784,
      "SIZE": 1785,
      "Increment": 1786,
      "append": 1787,
      "rectangle": 1788,
      "ALAR": 1789,
      "horizontal": 1790,
      "ific": 1791,
      "R_SCR": 1792,
      "130": 1793,
      "52": 1794,
      "Bl": 1795,
      "Cont": 1796,
      "FB": 1797,
      "_left": 1798,
      "db": 1799,
      "nav": 1800,
      "sing": 1801,
      "wrap": 1802,
      "x8": 1803,
      "RECV": 1804,
      "seed": 1805,
      "ROO": 1806,
      "r256": 1807,
      "ution": 1808,
      "mag": 1809,
      "dient": 1810,
      "diagonal": 1811,
      "drawing": 1812,
      "256x": 1813,
      "224": 1814,
      "ART": 1815,
      "sgr256": 1816,
      "NEM": 1817,
      "no_input": 1818,
      "Status": 1819,
      "panel": 1820,
      "mark_": 1821,
      "UTF": 1822,
      "purple": 1823,
      "Fo": 1824,
      "NU": 1825,
      "NOR": 1826,
      "Op": 1827,
      "RG": 1828,
      "SPA": 1829,
      "Ter": 1830,
      "brigh": 1831,
      "den": 1832,
      "et_": 1833,
      "font": 1834,
      "mine": 1835,
      "ph": 1836,
      "sition": 1837,
      "demon": 1838,
      "unknown": 1839,
      "SHLI": 1840,
      "ctually": 1841,
      "0x41": 1842,
      "diffe": 1843,
      "MAL": 1844,
      "visual": 1845,
      "strings": 1846,
      "range": 1847,
      "parse_": 1848,
      "iled": 1849,
      "str_hello": 1850,
      "lette": 1851,
      "enemy": 1852,
      "manage": 1853,
      "TICKS": 1854,
      "initializes": 1855,
      "DIRTY_": 1856,
      "256x256": 1857,
      "NORMAL": 1858,
      "63": 1859,
      "93": 1860,
      "ENEM": 1861,
      "ID": 1862,
      "IT": 1863,
      "MS": 1864,
      "SS": 1865,
      "UP": 1866,
      "dri": 1867,
      "pop": 1868,
      "push": 1869,
      "shi": 1870,
      "any": 1871,
      "del": 1872,
      "LOSE": 1873,
      "alarm": 1874,
      "tour": 1875,
      "open": 1876,
      "126": 1877,
      "TIT": 1878,
      "contour": 1879,
      "_neg": 1880,
      "starts": 1881,
      "store_": 1882,
      "bet": 1883,
      "copy_": 1884,
      "past": 1885,
      "after_input": 1886,
      "BBBB": 1887,
      "0x0000FF": 1888,
      "animation": 1889,
      "Screen": 1890,
      "operations": 1891,
      "CPY": 1892,
      "0x1201": 1893,
      "fine_hash": 1894,
      "different": 1895,
      "4FF": 1896,
      "Back": 1897,
      "Mo": 1898,
      "NT": 1899,
      "VFS": 1900,
      "Win": 1901,
      "fle": 1902,
      "hk_ret": 1903,
      "ld": 1904,
      "mark": 1905,
      "nibble": 1906,
      "inue": 1907,
      "FF44": 1908,
      "enti": 1909,
      "0x70": 1910,
      "ulator": 1911,
      "TILE": 1912,
      "TILE_": 1913,
      "0x170": 1914,
      "gradient": 1915,
      "no_key": 1916,
      "MAIN": 1917,
      "_regs": 1918,
      "ANS_NORMAL": 1919,
      "accent": 1920,
      "SGR": 1921,
      "writ": 1922,
      "remaining": 1923,
      "Controls": 1924,
      "180": 1925,
      "248": 1926,
      "FO": 1927,
      "LU": 1928,
      "Le": 1929,
      "Move": 1930,
      "_right": 1931,
      "cil": 1932,
      "cap": 1933,
      "ccess": 1934,
      "ches": 1935,
      "day": 1936,
      "ey": 1937,
      "two": 1938,
      "vation": 1939,
      "RESP": 1940,
      "means": 1941,
      "cho": 1942,
      "near": 1943,
      "ones": 1944,
      "utput": 1945,
      "124": 1946,
      "user": 1947,
      "like": 1948,
      "gray": 1949,
      "pb_esc": 1950,
      "ANSI": 1951,
      "MAP_": 1952,
      "ween": 1953,
      "....)": 1954,
      "nonzero": 1955,
      "0x8888": 1956,
      "function": 1957,
      "bbers": 1958,
      "\",": 1959,
      "\"/": 1960,
      "TAB": 1961,
      "W_": 1962,
      "WRITE": 1963,
      "_r": 1964,
      "_screen": 1965,
      "ast": 1966,
      "ep": 1967,
      "fig": 1968,
      "shell": 1969,
      "tree": 1970,
      "wu": 1971,
      "lookup": 1972,
      "cep": 1973,
      "no_c": 1974,
      "0x400": 1975,
      "tical": 1976,
      "16x": 1977,
      "abs": 1978,
      "0x2200": 1979,
      "screen_x": 1980,
      "hi_done": 1981,
      "ING": 1982,
      "idle": 1983,
      "create": 1984,
      "_eq": 1985,
      "sert": 1986,
      "Process": 1987,
      "Advance": 1988,
      "coordin": 1989,
      "triangle": 1990,
      "bounce": 1991,
      "_clr": 1992,
      "Player": 1993,
      "ENEMY": 1994,
      "between": 1995,
      "54": 1996,
      "END": 1997,
      "V_": 1998,
      "_color": 1999,
      "cx": 2000,
      "d_done": 2001,
      "equ": 2002,
      "effe": 2003,
      "fw": 2004,
      "my": 2005,
      "send": 2006,
      "t_loop": 2007,
      "118": 2008,
      "119": 2009,
      "blink": 2010,
      "0x550": 2011,
      "do_s": 2012,
      "0x6100": 2013,
      "────────────────────────────────────────────────": 2014,
      "222": 2015,
      "ache": 2016,
      "mm_": 2017,
      "handler": 2018,
      "old": 2019,
      "mc_check": 2020,
      "stants": 2021,
      "CMD": 2022,
      "accum": 2023,
      "turns": 2024,
      "csi_cursor": 2025,
      "sequence": 2026,
      ")->": 2027,
      "74": 2028,
      "78": 2029,
      "Al": 2030,
      "Demon": 2031,
      "HE": 2032,
      "Po": 2033,
      "VAL": 2034,
      "_buf": 2035,
      "bg": 2036,
      "brick": 2037,
      "dp": 2038,
      "dis": 2039,
      "hl_": 2040,
      "je": 2041,
      "ms": 2042,
      "ping": 2043,
      "put_": 2044,
      "rary": 2045,
      "sion": 2046,
      "switch": 2047,
      "vol": 2048,
      "DISP_": 2049,
      "info": 2050,
      "led": 2051,
      "stor": 2052,
      "detail": 2053,
      "_cp": 2054,
      "dir_": 2055,
      "0x220": 2056,
      "screen_y": 2057,
      "0x5100": 2058,
      "exit": 2059,
      "0xFD00": 2060,
      "tended": 2061,
      "0x7801": 2062,
      "world": 2063,
      "State": 2064,
      "Convert": 2065,
      "servi": 2066,
      "execute": 2067,
      "second": 2068,
      "0x44FF44": 2069,
      "do_rect": 2070,
      "Termin": 2071,
      "equal": 2072,
      "8x8": 2073,
      "95": 2074,
      "Actually": 2075,
      "CSI": 2076,
      "SLI": 2077,
      "TRA": 2078,
      "UTI": 2079,
      "echo": 2080,
      "ky": 2081,
      "ling": 2082,
      "wi": 2083,
      "0x10": 2084,
      "atures": 2085,
      "rol": 2086,
      "toggle": 2087,
      "ands": 2088,
      "pick": 2089,
      "verse": 2090,
      "buffers": 2091,
      "patch": 2092,
      "DER_": 2093,
      "gradu": 2094,
      "Coun": 2095,
      "Start": 2096,
      "which": 2097,
      "results": 2098,
      "computed": 2099,
      "cmd_is": 2100,
      "commands": 2101,
      "walls": 2102,
      "camera_y": 2103,
      "includes": 2104,
      "variation": 2105,
      "csi_": 2106,
      "instruction": 2107,
      "fixed": 2108,
      "_div": 2109,
      "MEMCPY": 2110,
      "sgr256_ret": 2111,
      "UTF8_": 2112,
      "RGB": 2113,
      "Left": 2114,
      "16x16": 2115,
      "Demonstrates": 2116,
      "SLIDER_": 2117,
      "graduated": 2118,
      "57": 2119,
      "Bar": 2120,
      "Ctrl": 2121,
      "Fill": 2122,
      "NA": 2123,
      "Pat": 2124,
      "Right": 2125,
      "So": 2126,
      "X_": 2127,
      "_A": 2128,
      "_LEN": 2129,
      "_fail": 2130,
      "bran": 2131,
      "dc": 2132,
      "df": 2133,
      "dur": 2134,
      "oi": 2135,
      "ven": 2136,
      "STE": 2137,
      "ST_": 2138,
      "atoi": 2139,
      "unti": 2140,
      "0x42": 2141,
      "thing": 2142,
      "codes": 2143,
      "0x0600": 2144,
      "INE": 2145,
      "buf_a": 2146,
      "player_x": 2147,
      "cycle": 2148,
      "_fin": 2149,
      "exec_done": 2150,
      "execution": 2151,
      "trace": 2152,
      "grep_": 2153,
      "SEL_": 2154,
      "negative": 2155,
      "plan": 2156,
      "mixer": 2157,
      "intera": 2158,
      "self": 2159,
      "coordinates": 2160,
      "Terminal": 2161,
      "'/": 2162,
      "Ar": 2163,
      "BAR": 2164,
      "Bot": 2165,
      "D4": 2166,
      "Output": 2167,
      "SMA": 2168,
      "Tile": 2169,
      "Use": 2170,
      "Wor": 2171,
      "cat": 2172,
      "fg": 2173,
      "padd": 2174,
      "sq": 2175,
      "sw": 2176,
      "ting": 2177,
      "inc": 2178,
      "0xE": 2179,
      "ong": 2180,
      "ral": 2181,
      "LLTEXT": 2182,
      "0xFFE": 2183,
      "0x76": 2184,
      "160": 2185,
      "CTI": 2186,
      "boot": 2187,
      "_size": 2188,
      "0x0C0": 2189,
      "sets": 2190,
      "─────────────────────────────────────────────────────────────────": 2191,
      "used": 2192,
      "0x7808": 2193,
      "success": 2194,
      "rule": 2195,
      "ALARM_": 2196,
      "demonstrates": 2197,
      "Window": 2198,
      "CMD_BUF": 2199,
      "'/'": 2200,
      "Bottom": 2201,
      "SMALLTEXT": 2202,
      "',": 2203,
      "700": 2204,
      "An": 2205,
      "CW": 2206,
      "CLOSE": 2207,
      "Green": 2208,
      "GREEN": 2209,
      "Handle": 2210,
      "Step": 2211,
      "_len": 2212,
      "_not_": 2213,
      "cv": 2214,
      "ear": 2215,
      "ped": 2216,
      "snow": 2217,
      "inside": 2218,
      "levation": 2219,
      "itor": 2220,
      "ceive": 2221,
      "lava": 2222,
      "0x2400": 2223,
      "convert": 2224,
      "config": 2225,
      "reds": 2226,
      "startup": 2227,
      "dsb": 2228,
      "undreds": 2229,
      "bitmask": 2230,
      "amon": 2231,
      "clip": 2232,
      "save_": 2233,
      "handles": 2234,
      "tests": 2235,
      "blend_": 2236,
      "Demo": 2237,
      "month": 2238,
      "corner": 2239,
      "clear_buf": 2240,
      "PROMP": 2241,
      "...\"": 2242,
      "sample": 2243,
      "http": 2244,
      "ROOM_BASE": 2245,
      "DISP_VAL": 2246,
      "!=": 2247,
      "46": 2248,
      "81": 2249,
      "900": 2250,
      "E4": 2251,
      "Fin": 2252,
      "HO": 2253,
      "Try": 2254,
      "cp": 2255,
      "escape": 2256,
      "imap": 2257,
      "mx": 2258,
      "oa": 2259,
      "pri": 2260,
      "coarse": 2261,
      "itoa": 2262,
      "terrain": 2263,
      "adj": 2264,
      "ROUTI": 2265,
      "SHRI": 2266,
      "TEMP": 2267,
      "0x74": 2268,
      "vertical": 2269,
      "0x500": 2270,
      "0x5300": 2271,
      "start_": 2272,
      "0000000": 2273,
      "palette": 2274,
      "sgr_brigh": 2275,
      "tk_arrow": 2276,
      "target": 2277,
      "Piece": 2278,
      "include": 2279,
      "library": 2280,
      "SGR_": 2281,
      "gument": 2282,
      "DOWN": 2283,
      "Clobbers": 2284,
      "Space": 2285,
      "TIMER": 2286,
      "inux": 2287,
      "NDED": 2288,
      "TRACE": 2289,
      "PROMPT": 2290,
      "ROUTINE": 2291,
      "sgr_bright_": 2292,
      "220": 2293,
      "ITE": 2294,
      "Ora": 2295,
      "Sub": 2296,
      "UI": 2297,
      "ax": 2298,
      "act": 2299,
      "fre": 2300,
      "iter": 2301,
      "ving": 2302,
      "wd": 2303,
      "STR": 2304,
      "rer": 2305,
      "orig": 2306,
      "com": 2307,
      "copi": 2308,
      "dead": 2309,
      "tool": 2310,
      "local": 2311,
      "net": 2312,
      "_con": 2313,
      "colon": 2314,
      "SUBROUTINE": 2315,
      "poll": 2316,
      "fiel": 2317,
      "0x530": 2318,
      "0x60": 2319,
      "INIT": 2320,
      "CURS": 2321,
      "before": 2322,
      "across": 2323,
      "0x7809": 2324,
      "failed": 2325,
      "overlap": 2326,
      "0x9000": 2327,
      "visited": 2328,
      "STATUS_CW": 2329,
      "CONNE": 2330,
      "RECV_BUF": 2331,
      "MSG_": 2332,
      "RESP_BUF": 2333,
      "paddle": 2334,
      "Oracle": 2335,
      ")\"": 2336,
      "43": 2337,
      "AT": 2338,
      "DU": 2339,
      "HP": 2340,
      "W1": 2341,
      "_l": 2342,
      "cb": 2343,
      "cing": 2344,
      "have": 2345,
      "high": 2346,
      "normal": 2347,
      "saf": 2348,
      "tle": 2349,
      "v1": 2350,
      "roid": 2351,
      "_cre": 2352,
      "TENDED": 2353,
      "R_CL": 2354,
      "ility": 2355,
      "0x03": 2356,
      "═══════════════════════════════════════════════": 2357,
      "within": 2358,
      "shared": 2359,
      "exist": 2360,
      "_osc": 2361,
      "bias": 2362,
      "acle": 2363,
      "sound": 2364,
      "to_str": 2365,
      "0x80000000": 2366,
      "game_over": 2367,
      "CSI_PARAM2": 2368,
      "EXTENDED": 2369,
      "_name": 2370,
      "Scroll": 2371,
      "horizon": 2372,
      "focus_": 2373,
      "SAVED_": 2374,
      "_do_": 2375,
      "**:": 2376,
      "functions": 2377,
      "ASM": 2378,
      "forest": 2379,
      "strcmp": 2380,
      "0x4444FF": 2381,
      "ai_": 2382,
      "Pattern": 2383,
      "SGR_EXTENDED": 2384,
      "Cre": 2385,
      "Text": 2386,
      "WA": 2387,
      "_t": 2388,
      "_line": 2389,
      "case": 2390,
      "fall": 2391,
      "none": 2392,
      "pv_": 2393,
      "STORY": 2394,
      "0xCCCC": 2395,
      "real": 2396,
      "ram": 2397,
      "R_CC": 2398,
      "0x75": 2399,
      "lim": 2400,
      "shot": 2401,
      "_check_eq": 2402,
      "buf_c": 2403,
      "renders": 2404,
      "0xFA": 2405,
      "tain": 2406,
      "HISTORY": 2407,
      "calc": 2408,
      "Constants": 2409,
      "sin_": 2410,
      "track": 2411,
      "correct": 2412,
      "Layer": 2413,
      "preser": 2414,
      "Add": 2415,
      "approx": 2416,
      "0xAAAA": 2417,
      "NUM": 2418,
      "branch": 2419,
      "World": 2420,
      "sqr": 2421,
      "origin": 2422,
      "144": 2423,
      "86": 2424,
      "EC": 2425,
      "Fra": 2426,
      "Line": 2427,
      "Mark": 2428,
      "PRE": 2429,
      "PV_": 2430,
      "R0": 2431,
      "Ver": 2432,
      "][": 2433,
      "_set": 2434,
      "cn": 2435,
      "cache": 2436,
      "ger": 2437,
      "ghost": 2438,
      "nc": 2439,
      "oid": 2440,
      "que": 2441,
      "vity": 2442,
      "x_loop": 2443,
      "REQ": 2444,
      "ath": 2445,
      "att_": 2446,
      "dev": 2447,
      "dete": 2448,
      "also": 2449,
      "_drain": 2450,
      "note": 2451,
      "row_dirty": 2452,
      "0x4100": 2453,
      "0x428": 2454,
      "0x418": 2455,
      "R_S": 2456,
      "0x22": 2457,
      "cond": 2458,
      "addres": 2459,
      "CHA": 2460,
      "ify": 2461,
      "0x300": 2462,
      "ways": 2463,
      "MAT": 2464,
      "debug_": 2465,
      "ascii": 2466,
      "coords": 2467,
      "regions": 2468,
      "selected": 2469,
      "other": 2470,
      "pv_regs": 2471,
      "http_": 2472,
      "specific": 2473,
      "4x4": 2474,
      "flat": 2475,
      "MOUSEQ": 2476,
      "mark_row_dirty": 2477,
      "SPAWN": 2478,
      "DUR_": 2479,
      "addresses": 2480,
      "\"[": 2481,
      "HAND": 2482,
      "NING": 2483,
      "OK": 2484,
      "Pre": 2485,
      "PEE": 2486,
      "Parse": 2487,
      "Top": 2488,
      "Tab": 2489,
      "dr_": 2490,
      "dden": 2491,
      "hundreds": 2492,
      "ick": 2493,
      "sky": 2494,
      "x32": 2495,
      "0x100": 2496,
      "─────": 2497,
      "still": 2498,
      "it_": 2499,
      "ities": 2500,
      "dep": 2501,
      "radi": 2502,
      "========================": 2503,
      "lose": 2504,
      "_dy": 2505,
      "veloc": 2506,
      "enta": 2507,
      "three": 2508,
      "diamon": 2509,
      "draw_s": 2510,
      "rende": 2511,
      "hidden": 2512,
      "========================================================": 2513,
      "0x5200": 2514,
      "_save": 2515,
      "0x0400": 2516,
      "0x6200": 2517,
      "frac": 2518,
      "0xF9": 2519,
      "again": 2520,
      "FILE": 2521,
      "terminated": 2522,
      "136": 2523,
      "write_prompt": 2524,
      "A1E": 2525,
      "animal": 2526,
      "subtra": 2527,
      "0x0A0A1E": 2528,
      "print_": 2529,
      "instructions": 2530,
      "RUNNING": 2531,
      "Append": 2532,
      "asteroid": 2533,
      "CMD_HI": 2534,
      "magenta": 2535,
      "until": 2536,
      "CTIVE": 2537,
      "limit": 2538,
      "Frame": 2539,
      "PEEK": 2540,
      "(`": 2541,
      ".\"": 2542,
      "1px": 2543,
      "230": 2544,
      "Bo": 2545,
      "Key": 2546,
      "Linux": 2547,
      "Pa": 2548,
      "_1": 2549,
      "_and": 2550,
      "_init": 2551,
      "_label": 2552,
      "mu": 2553,
      "input_": 2554,
      "stone": 2555,
      "delete": 2556,
      "always": 2557,
      "log": 2558,
      "_drop": 2559,
      "ved": 2560,
      "_cont": 2561,
      "bul": 2562,
      "1111": 2563,
      "0x424": 2564,
      "0x7600": 2565,
      "d_loop": 2566,
      "maze": 2567,
      "0x00FF": 2568,
      "word_": 2569,
      "0x14": 2570,
      "0x1A": 2571,
      "starting": 2572,
      "0x3100": 2573,
      "ROW_": 2574,
      "enter_digit": 2575,
      "apply": 2576,
      "sum": 2577,
      "files": 2578,
      "player_y": 2579,
      "runs": 2580,
      "rot0": 2581,
      "0x40D1": 2582,
      "0x40D2": 2583,
      "overflow": 2584,
      "programs": 2585,
      "updates": 2586,
      "get_tab_": 2587,
      "Proves": 2588,
      "multi": 2589,
      "Blue": 2590,
      "entire": 2591,
      "written": 2592,
      "ENEMY_BASE": 2593,
      "Position": 2594,
      "Count": 2595,
      "PROMPT_BUF": 2596,
      "safe": 2597,
      "_continue": 2598,
      "')": 2599,
      "'.": 2600,
      "DY": 2601,
      "FT": 2602,
      "File": 2603,
      "HA": 2604,
      "Next": 2605,
      "PS": 2606,
      "_addr": 2607,
      "cv_": 2608,
      "drop": 2609,
      "kill": 2610,
      "sm": 2611,
      "tb": 2612,
      "wan": 2613,
      "wc_": 2614,
      "who": 2615,
      "will": 2616,
      "RED_": 2617,
      "0xD": 2618,
      "0x25": 2619,
      "receive": 2620,
      "stal": 2621,
      "FFF": 2622,
      "tow": 2623,
      "asic": 2624,
      "andling": 2625,
      "url_": 2626,
      "0x43": 2627,
      "drawn": 2628,
      "_sh": 2629,
      "0x0D": 2630,
      "0x030": 2631,
      "rystal": 2632,
      "LEFT": 2633,
      "checks": 2634,
      "pected": 2635,
      "gravity": 2636,
      "foam": 2637,
      "movement": 2638,
      "NEXT": 2639,
      "0x7807": 2640,
      "scrolling": 2641,
      "scroll_up": 2642,
      "weight": 2643,
      "patterns": 2644,
      "struct": 2645,
      "192": 2646,
      "waiting": 2647,
      "BODY": 2648,
      "Water": 2649,
      "navig": 2650,
      "accumulator": 2651,
      "field": 2652,
      "1F": 2653,
      "39": 2654,
      "<=": 2655,
      "ATE": 2656,
      "Ext": 2657,
      "POR": 2658,
      "SAND": 2659,
      "Simple": 2660,
      "]\"": 2661,
      "_tab": 2662,
      "cr": 2663,
      "cc_": 2664,
      "gy": 2665,
      "ha": 2666,
      "m_": 2667,
      "nts": 2668,
      "oter": 2669,
      "wc": 2670,
      "xblend_": 2671,
      "ypre": 2672,
      "sts": 2673,
      "heal": 2674,
      "mes": 2675,
      "_drag": 2676,
      "ish": 2677,
      "_clamp": 2678,
      "32x32": 2679,
      "ctc": 2680,
      "_read": 2681,
      "0xFF44": 2682,
      "0xFF88": 2683,
      "────────────────────────": 2684,
      "dio": 2685,
      "0x600": 2686,
      "0x33": 2687,
      "_off": 2688,
      "quo": 2689,
      "positions": 2690,
      "0xFFFFFFF": 2691,
      "win_y": 2692,
      "mmer": 2693,
      "Command": 2694,
      "sol": 2695,
      "such": 2696,
      "ports": 2697,
      "0x7814": 2698,
      "rot1": 2699,
      "rot2": 2700,
      "rot3": 2701,
      "PTY_": 2702,
      "_empty": 2703,
      "_digits": 2704,
      "_nx": 2705,
      "set_state": 2706,
      "ccp_": 2707,
      "features": 2708,
      "enemies": 2709,
      "R_BS": 2710,
      "assembler": 2711,
      "int_to_str": 2712,
      "approach": 2713,
      "0x41C": 2714,
      "TITLE_": 2715,
      "functional": 2716,
      "service": 2717,
      "Find": 2718,
      "============================================================": 2719,
      "Bi": 2720,
      "GHT": 2721,
      "NG": 2722,
      "Red": 2723,
      "Shift": 2724,
      "WAS": 2725,
      "],": 2726,
      "_move": 2727,
      "_index": 2728,
      "_demo": 2729,
      "_ADDR": 2730,
      "_END": 2731,
      "crystal": 2732,
      "eded": 2733,
      "hl": 2734,
      "item": 2735,
      "night": 2736,
      "sand": 2737,
      "vent": 2738,
      "yes": 2739,
      "y_hash": 2740,
      "0xB": 2741,
      "0xBBBB": 2742,
      "argument": 2743,
      "meta": 2744,
      "chr": 2745,
      "laim": 2746,
      "ctor": 2747,
      "0x797": 2748,
      "OP_TABLE": 2749,
      "mod": 2750,
      "most": 2751,
      "bound": 2752,
      "dots": 2753,
      "0x0200": 2754,
      "bars": 2755,
      "exp": 2756,
      "ent_render": 2757,
      "win_id": 2758,
      "0x7803": 2759,
      "0x780A": 2760,
      "backspace": 2761,
      "prev_": 2762,
      "precomputed": 2763,
      "face": 2764,
      "shows": 2765,
      "game_loop": 2766,
      "clock": 2767,
      "EXEC": 2768,
      "parse_done": 2769,
      "extract": 2770,
      "memchr": 2771,
      "subroutine": 2772,
      "calls": 2773,
      "0x0A0A": 2774,
      "circles": 2775,
      "pending": 2776,
      "Close": 2777,
      "_next_row": 2778,
      "Wait": 2779,
      "lerp": 2780,
      "delta": 2781,
      "no_click": 2782,
      "velocity": 2783,
      "WASD": 2784,
      "\">": 2785,
      "(.": 2786,
      "132": 2787,
      "232": 2788,
      "3A": 2789,
      "89": 2790,
      "98": 2791,
      "B2": 2792,
      "Ch": 2793,
      "CTE": 2794,
      "Clamp": 2795,
      "Down": 2796,
      "FREQ": 2797,
      "IR": 2798,
      "NL": 2799,
      "OFF": 2800,
      "QU": 2801,
      "Ring": 2802,
      "_byte": 2803,
      "_frame": 2804,
      "_key": 2805,
      "_COUNT": 2806,
      "bbe": 2807,
      "hp_": 2808,
      "ise": 2809,
      "ound": 2810,
      "pul": 2811,
      "tx": 2812,
      "y_loop": 2813,
      "0xCC": 2814,
      "0x10000": 2815,
      "007": 2816,
      "121": 2817,
      "else": 2818,
      "0x7500": 2819,
      "forward": 2820,
      "1638": 2821,
      "proces": 2822,
      "uptime": 2823,
      "do_draw": 2824,
      "_step": 2825,
      "Restore": 2826,
      "_neq": 2827,
      "0xF00": 2828,
      "bitmap": 2829,
      "below": 2830,
      "utes": 2831,
      "242": 2832,
      "245": 2833,
      "MAX": 2834,
      "biome_type": 2835,
      "apple": 2836,
      "points": 2837,
      "show_": 2838,
      "Loop": 2839,
      "calc_": 2840,
      "windows": 2841,
      "overlay": 2842,
      "clobbe": 2843,
      "fill_": 2844,
      "HITQ": 2845,
      "sprites": 2846,
      "cdc": 2847,
      "PROC": 2848,
      "79007": 2849,
      "present": 2850,
      "editor": 2851,
      "---------------------------------": 2852,
      "-----------------------------------------------------------------": 2853,
      "snap": 2854,
      "OSC_BUF": 2855,
      "control": 2856,
      "ticks": 2857,
      "characters": 2858,
      "connected": 2859,
      "HEX_TABLE": 2860,
      "VIS": 2861,
      "culate": 2862,
      "directly": 2863,
      "driven": 2864,
      "MAP_BASE": 2865,
      "clipboard": 2866,
      "Subroutine": 2867,
      "quest": 2868,
      "DUR_Q": 2869,
      "HANDLE": 2870,
      "0x1414": 2871,
      "Extract": 2872,
      "0xFF8800": 2873,
      "CTED": 2874,
      "FREQ_": 2875,
      "16384": 2876,
      "clobbered": 2877,
      "655": 2878,
      "BG": 2879,
      "CLE": 2880,
      "MR_": 2881,
      "Nibble": 2882,
      "PHA": 2883,
      "TP": 2884,
      "TMR_": 2885,
      "Un": 2886,
      "YE": 2887,
      "_char": 2888,
      "_test": 2889,
      "_triangle": 2890,
      "bash": 2891,
      "cra": 2892,
      "cip": 2893,
      "cp_": 2894,
      "cb_": 2895,
      "ging": 2896,
      "rm": 2897,
      "rw": 2898,
      "ris": 2899,
      "rc_": 2900,
      "tion": 2901,
      "txt": 2902,
      "repe": 2903,
      "reload": 2904,
      "tead": 2905,
      "oracle": 2906,
      "ends": 2907,
      "erase": 2908,
      "hed": 2909,
      "alph": 2910,
      "termine": 2911,
      "MON": 2912,
      "med": 2913,
      "_dx": 2914,
      "_data": 2915,
      "undo": 2916,
      "laun": 2917,
      "ness": 2918,
      "_circle": 2919,
      "nore": 2920,
      "0x7F": 2921,
      "tic": 2922,
      "strnc": 2923,
      "rent_": 2924,
      "probe": 2925,
      "coded": 2926,
      "0x0C": 2927,
      "0x6AD": 2928,
      "INT": 2929,
      "0x1B": 2930,
      "RIGHT": 2931,
      "expected": 2932,
      "vious": 2933,
      "beat": 2934,
      "input_done": 2935,
      "perform": 2936,
      "P_X": 2937,
      "PAT": 2938,
      "initial": 2939,
      "crease": 2940,
      "FILE_": 2941,
      "page": 2942,
      "ancel": 2943,
      "333": 2944,
      "ELLO": 2945,
      "String": 2946,
      "showing": 2947,
      "C_BAR": 2948,
      "Reads": 2949,
      "compute_": 2950,
      "_skip_": 2951,
      "196": 2952,
      "Ent": 2953,
      "lapsed": 2954,
      "various": 2955,
      "tempo": 2956,
      "goto": 2957,
      "grep": 2958,
      "_idx": 2959,
      "0xFF00FF": 2960,
      "finite": 2961,
      "speed": 2962,
      "distance": 2963,
      "HTTP": 2964,
      "support": 2965,
      "VIE": 2966,
      "manages": 2967,
      "store_pixel": 2968,
      "nearby": 2969,
      "ject": 2970,
      "dir_seed": 2971,
      "TEMP_BASE": 2972,
      "TRACE_": 2973,
      "CONNECTED": 2974,
      "sqrt_": 2975,
      "original": 2976,
      "ather": 2977,
      "radius": 2978,
      "0xFF4444": 2979,
      "0x141428": 2980,
      "PHASE": 2981,
      "strncpy": 2982,
      "(-": 2983,
      ")*": 2984,
      "1x": 2985,
      "170": 2986,
      "2x": 2987,
      "512": 2988,
      "As": 2989,
      "BLE": 2990,
      "C4": 2991,
      "Call": 2992,
      "Dis": 2993,
      "FAI": 2994,
      "GRI": 2995,
      "Ne": 2996,
      "OR_": 2997,
      "VM_": 2998,
      "[(": 2999
    },
    "merges": [
      [
        "r",
        "1"
      ],
      [
        "r",
        "2"
      ],
      [
        "=",
        "="
      ],
      [
        "D",
        "I"
      ],
      [
        "L",
        "DI"
      ],
      [
        "═",
        "═"
      ],
      [
        "==",
        "=="
      ],
      [
        "A",
        "D"
      ],
      [
        "─",
        "─"
      ],
      [
        "R",
        "E"
      ],
      [
        "S",
        "T"
      ],
      [
        "i",
        "n"
      ],
      [
        "ST",
        "O"
      ],
      [
        "0",
        "x"
      ],
      [
        "STO",
        "RE"
      ],
      [
        "r2",
        "0"
      ],
      [
        "══",
        "══"
      ],
      [
        "AD",
        "D"
      ],
      [
        "r",
        "e"
      ],
      [
        "r",
        "3"
      ],
      [
        "r",
        "0"
      ],
      [
        "r",
        "4"
      ],
      [
        "t",
        "e"
      ],
      [
        "0",
        "0"
      ],
      [
        "r",
        "7"
      ],
      [
        "M",
        "P"
      ],
      [
        "====",
        "===="
      ],
      [
        "──",
        "──"
      ],
      [
        "o",
        "n"
      ],
      [
        "l",
        "e"
      ],
      [
        "o",
        "r"
      ],
      [
        "s",
        "t"
      ],
      [
        "e",
        "n"
      ],
      [
        "-",
        "-"
      ],
      [
        "e",
        "r"
      ],
      [
        "a",
        "r"
      ],
      [
        "════",
        "════"
      ],
      [
        "c",
        "o"
      ],
      [
        "F",
        "F"
      ],
      [
        "i",
        "t"
      ],
      [
        "a",
        "n"
      ],
      [
        "r1",
        "0"
      ],
      [
        "r",
        "5"
      ],
      [
        "s",
        "e"
      ],
      [
        "a",
        "t"
      ],
      [
        "r",
        "o"
      ],
      [
        "h",
        "e"
      ],
      [
        "C",
        "MP"
      ],
      [
        "r",
        "6"
      ],
      [
        "d",
        "e"
      ],
      [
        "r",
        "a"
      ],
      [
        "r1",
        "7"
      ],
      [
        "L",
        "O"
      ],
      [
        "a",
        "l"
      ],
      [
        "r1",
        "1"
      ],
      [
        "LO",
        "AD"
      ],
      [
        "t",
        "o"
      ],
      [
        "========",
        "========"
      ],
      [
        "────",
        "────"
      ],
      [
        "l",
        "o"
      ],
      [
        "r1",
        "8"
      ],
      [
        "r",
        "9"
      ],
      [
        "r1",
        "2"
      ],
      [
        "L",
        "L"
      ],
      [
        "r2",
        "1"
      ],
      [
        "J",
        "MP"
      ],
      [
        "c",
        "k"
      ],
      [
        "te",
        "r"
      ],
      [
        "1",
        "0"
      ],
      [
        "M",
        "O"
      ],
      [
        "m",
        "e"
      ],
      [
        "_",
        "d"
      ],
      [
        "in",
        "g"
      ],
      [
        "r2",
        "2"
      ],
      [
        "in",
        "e"
      ],
      [
        "u",
        "n"
      ],
      [
        "C",
        "A"
      ],
      [
        "o",
        "p"
      ],
      [
        "c",
        "e"
      ],
      [
        "c",
        "h"
      ],
      [
        "CA",
        "LL"
      ],
      [
        "MO",
        "V"
      ],
      [
        "a",
        "s"
      ],
      [
        "i",
        "s"
      ],
      [
        "r1",
        "5"
      ],
      [
        "t",
        "_"
      ],
      [
        "R",
        "A"
      ],
      [
        "r1",
        "4"
      ],
      [
        "════════",
        "════════"
      ],
      [
        "an",
        "d"
      ],
      [
        "i",
        "on"
      ],
      [
        "r",
        "i"
      ],
      [
        "l",
        "a"
      ],
      [
        "a",
        "d"
      ],
      [
        "n",
        "e"
      ],
      [
        "J",
        "Z"
      ],
      [
        "v",
        "e"
      ],
      [
        "CMP",
        "I"
      ],
      [
        "r1",
        "3"
      ],
      [
        "_",
        "c"
      ],
      [
        "l",
        "l"
      ],
      [
        "b",
        "u"
      ],
      [
        "J",
        "N"
      ],
      [
        "JN",
        "Z"
      ],
      [
        "on",
        "e"
      ],
      [
        "s",
        "c"
      ],
      [
        "1",
        "1"
      ],
      [
        "ra",
        "w"
      ],
      [
        "t",
        "he"
      ],
      [
        "n",
        "o"
      ],
      [
        "r1",
        "6"
      ],
      [
        "B",
        "U"
      ],
      [
        "co",
        "l"
      ],
      [
        "he",
        "ck"
      ],
      [
        "3",
        "2"
      ],
      [
        "m",
        "p"
      ],
      [
        "R",
        "O"
      ],
      [
        "u",
        "r"
      ],
      [
        "S",
        "H"
      ],
      [
        "b",
        "y"
      ],
      [
        "c",
        "t"
      ],
      [
        "ro",
        "w"
      ],
      [
        "lo",
        "op"
      ],
      [
        "T",
        "E"
      ],
      [
        "BU",
        "F"
      ],
      [
        "_",
        "re"
      ],
      [
        "S",
        "E"
      ],
      [
        "0x",
        "4"
      ],
      [
        "AD",
        "DI"
      ],
      [
        "en",
        "t"
      ],
      [
        "_d",
        "one"
      ],
      [
        "2",
        "5"
      ],
      [
        "r2",
        "5"
      ],
      [
        "0x",
        "FF"
      ],
      [
        "R",
        "_"
      ],
      [
        "u",
        "t"
      ],
      [
        "a",
        "te"
      ],
      [
        "────────",
        "────────"
      ],
      [
        "1",
        "2"
      ],
      [
        "S",
        "U"
      ],
      [
        "i",
        "g"
      ],
      [
        "00",
        "0"
      ],
      [
        "re",
        "en"
      ],
      [
        "SU",
        "B"
      ],
      [
        "e",
        "l"
      ],
      [
        "--",
        "--"
      ],
      [
        "r",
        "8"
      ],
      [
        "0x",
        "7"
      ],
      [
        "O",
        "P"
      ],
      [
        "f",
        "or"
      ],
      [
        "S",
        "C"
      ],
      [
        "m",
        "o"
      ],
      [
        "d",
        "_"
      ],
      [
        "o",
        "w"
      ],
      [
        "x",
        "t"
      ],
      [
        "C",
        "O"
      ],
      [
        "r2",
        "3"
      ],
      [
        "t",
        "i"
      ],
      [
        "f",
        "f"
      ],
      [
        "L",
        "T"
      ],
      [
        "de",
        "f"
      ],
      [
        "r1",
        "9"
      ],
      [
        "s",
        "p"
      ],
      [
        "by",
        "te"
      ],
      [
        "t",
        "h"
      ],
      [
        ".",
        "."
      ],
      [
        "_",
        "loop"
      ],
      [
        "u",
        "s"
      ],
      [
        "RA",
        "M"
      ],
      [
        "p",
        "i"
      ],
      [
        "l",
        "ine"
      ],
      [
        "m",
        "a"
      ],
      [
        "p",
        "o"
      ],
      [
        "X",
        "T"
      ],
      [
        "r3",
        "1"
      ],
      [
        "N",
        "D"
      ],
      [
        "f",
        "i"
      ],
      [
        "co",
        "un"
      ],
      [
        "1",
        "6"
      ],
      [
        "d",
        "i"
      ],
      [
        "P",
        "OP"
      ],
      [
        "a",
        "b"
      ],
      [
        "0x",
        "2"
      ],
      [
        "st",
        "r"
      ],
      [
        "def",
        "ine"
      ],
      [
        "8",
        "0"
      ],
      [
        "u",
        "l"
      ],
      [
        "d",
        "raw"
      ],
      [
        "a",
        "se"
      ],
      [
        "P",
        "U"
      ],
      [
        "g",
        "e"
      ],
      [
        "la",
        "y"
      ],
      [
        "C",
        "T"
      ],
      [
        "s",
        "s"
      ],
      [
        "PU",
        "SH"
      ],
      [
        "re",
        "n"
      ],
      [
        "i",
        "l"
      ],
      [
        "B",
        "LT"
      ],
      [
        "TE",
        "XT"
      ],
      [
        "1",
        "00"
      ],
      [
        "U",
        "L"
      ],
      [
        "M",
        "UL"
      ],
      [
        "sc",
        "reen"
      ],
      [
        "h",
        "i"
      ],
      [
        "b",
        "l"
      ],
      [
        "3",
        "0"
      ],
      [
        "================",
        "================"
      ],
      [
        "p",
        "ro"
      ],
      [
        "v",
        "er"
      ],
      [
        "u",
        "p"
      ],
      [
        "al",
        "l"
      ],
      [
        "T",
        "I"
      ],
      [
        "c",
        "on"
      ],
      [
        "h",
        "t"
      ],
      [
        "co",
        "de"
      ],
      [
        "4",
        "0"
      ],
      [
        "e",
        "d"
      ],
      [
        "0x",
        "5"
      ],
      [
        "b",
        "o"
      ],
      [
        "col",
        "or"
      ],
      [
        "ri",
        "te"
      ],
      [
        "G",
        "E"
      ],
      [
        "d",
        "o"
      ],
      [
        "RE",
        "CT"
      ],
      [
        "c",
        "ur"
      ],
      [
        "2",
        "0"
      ],
      [
        "w",
        "it"
      ],
      [
        "================================",
        "========"
      ],
      [
        "le",
        "ar"
      ],
      [
        "RECT",
        "F"
      ],
      [
        "_",
        "s"
      ],
      [
        "d",
        "er"
      ],
      [
        "0x",
        "0"
      ],
      [
        "4",
        "8"
      ],
      [
        "0x",
        "6"
      ],
      [
        "CO",
        "L"
      ],
      [
        "ST",
        "RO"
      ],
      [
        "4",
        "4"
      ],
      [
        "f",
        "ra"
      ],
      [
        "x",
        "el"
      ],
      [
        "u",
        "e"
      ],
      [
        "se",
        "t"
      ],
      [
        "re",
        "d"
      ],
      [
        "ff",
        "er"
      ],
      [
        "r",
        "y"
      ],
      [
        "========================================",
        "="
      ],
      [
        "i",
        "p"
      ],
      [
        "p",
        "lay"
      ],
      [
        "RE",
        "T"
      ],
      [
        "0x",
        "00"
      ],
      [
        "════════════════",
        "════════════════"
      ],
      [
        "25",
        "6"
      ],
      [
        "bu",
        "ffer"
      ],
      [
        "B",
        "GE"
      ],
      [
        "wit",
        "h"
      ],
      [
        "k",
        "e"
      ],
      [
        "a",
        "p"
      ],
      [
        "fra",
        "me"
      ],
      [
        "5",
        "0"
      ],
      [
        "_",
        "BUF"
      ],
      [
        "st",
        "ar"
      ],
      [
        "I",
        "N"
      ],
      [
        "pi",
        "xel"
      ],
      [
        "p",
        "ut"
      ],
      [
        "w",
        "or"
      ],
      [
        "FF",
        "FF"
      ],
      [
        "s",
        "i"
      ],
      [
        "--",
        "-"
      ],
      [
        "ch",
        "ar"
      ],
      [
        "le",
        "n"
      ],
      [
        "ro",
        "m"
      ],
      [
        "l",
        "i"
      ],
      [
        "f",
        "rom"
      ],
      [
        "a",
        "ve"
      ],
      [
        "f",
        "t"
      ],
      [
        "at",
        "ion"
      ],
      [
        "L",
        "E"
      ],
      [
        "po",
        "s"
      ],
      [
        "R",
        "e"
      ],
      [
        "s",
        "or"
      ],
      [
        "r2",
        "6"
      ],
      [
        "ul",
        "t"
      ],
      [
        "k",
        "ip"
      ],
      [
        "_re",
        "t"
      ],
      [
        "coun",
        "t"
      ],
      [
        "o",
        "me"
      ],
      [
        "p",
        "at"
      ],
      [
        "ad",
        "d"
      ],
      [
        "t",
        "y"
      ],
      [
        "D",
        "E"
      ],
      [
        "C",
        "H"
      ],
      [
        "sp",
        "a"
      ],
      [
        "0x",
        "1"
      ],
      [
        "a",
        "me"
      ],
      [
        "n",
        "u"
      ],
      [
        "o",
        "f"
      ],
      [
        "r2",
        "4"
      ],
      [
        "b",
        "ar"
      ],
      [
        "i",
        "f"
      ],
      [
        "t",
        "ab"
      ],
      [
        "a",
        "ck"
      ],
      [
        "c",
        "heck"
      ],
      [
        "_",
        "ne"
      ],
      [
        "----",
        "----"
      ],
      [
        "b",
        "ase"
      ],
      [
        "ke",
        "y"
      ],
      [
        "s",
        "h"
      ],
      [
        "star",
        "t"
      ],
      [
        "st",
        "o"
      ],
      [
        "_c",
        "heck"
      ],
      [
        "it",
        "ion"
      ],
      [
        "te",
        "xt"
      ],
      [
        "ma",
        "in"
      ],
      [
        "ri",
        "g"
      ],
      [
        "_",
        "x"
      ],
      [
        "p",
        "e"
      ],
      [
        "G",
        "e"
      ],
      [
        "g",
        "ra"
      ],
      [
        "i",
        "d"
      ],
      [
        "r2",
        "8"
      ],
      [
        "t",
        "ry"
      ],
      [
        "P",
        "SE"
      ],
      [
        "_",
        "y"
      ],
      [
        "R",
        "I"
      ],
      [
        "re",
        "s"
      ],
      [
        "e",
        "x"
      ],
      [
        "S",
        "I"
      ],
      [
        "A",
        "ND"
      ],
      [
        "f",
        "o"
      ],
      [
        "m",
        "ent"
      ],
      [
        "p",
        "b"
      ],
      [
        "r2",
        "7"
      ],
      [
        "A",
        "N"
      ],
      [
        "m",
        "in"
      ],
      [
        "d",
        "s"
      ],
      [
        "w",
        "rite"
      ],
      [
        "draw",
        "_"
      ],
      [
        "en",
        "t_"
      ],
      [
        "ti",
        "le"
      ],
      [
        "D",
        "raw"
      ],
      [
        "i",
        "z"
      ],
      [
        "v",
        "i"
      ],
      [
        "C",
        "heck"
      ],
      [
        "COL",
        "S"
      ],
      [
        "C",
        "U"
      ],
      [
        "ig",
        "it"
      ],
      [
        "ct",
        "ion"
      ],
      [
        "T",
        "CH"
      ],
      [
        "e",
        "s"
      ],
      [
        "0x",
        "3"
      ],
      [
        "8",
        "8"
      ],
      [
        "RO",
        "W"
      ],
      [
        "====",
        "="
      ],
      [
        ")",
        ","
      ],
      [
        "12",
        "8"
      ],
      [
        "bu",
        "f"
      ],
      [
        "p",
        "y"
      ],
      [
        "coun",
        "ter"
      ],
      [
        "un",
        "d"
      ],
      [
        "────────────────",
        "────────────────"
      ],
      [
        "ren",
        "der"
      ],
      [
        "_",
        "o"
      ],
      [
        "d",
        "ow"
      ],
      [
        "0x",
        "F"
      ],
      [
        "rig",
        "ht"
      ],
      [
        "q",
        "u"
      ],
      [
        "w",
        "a"
      ],
      [
        "cur",
        "sor"
      ],
      [
        "se",
        "m"
      ],
      [
        "il",
        "d"
      ],
      [
        "pos",
        "ition"
      ],
      [
        "1",
        "5"
      ],
      [
        "2",
        "2"
      ],
      [
        "b",
        "i"
      ],
      [
        "u",
        "se"
      ],
      [
        "RA",
        "TCH"
      ],
      [
        "SC",
        "RATCH"
      ],
      [
        "i",
        "m"
      ],
      [
        "O",
        "S"
      ],
      [
        "b",
        "it"
      ],
      [
        "sto",
        "re"
      ],
      [
        "e",
        "m"
      ],
      [
        "C",
        "C"
      ],
      [
        "D",
        "RA"
      ],
      [
        "11",
        "4"
      ],
      [
        "b",
        "e"
      ],
      [
        "mo",
        "ve"
      ],
      [
        "A",
        "R"
      ],
      [
        "t",
        "s"
      ],
      [
        "in",
        "put"
      ],
      [
        "a",
        "c"
      ],
      [
        "T",
        "he"
      ],
      [
        "i",
        "ve"
      ],
      [
        "as",
        "sem"
      ],
      [
        "-",
        ">"
      ],
      [
        "u",
        "te"
      ],
      [
        "en",
        "d"
      ],
      [
        "ar",
        "d"
      ],
      [
        "is",
        "play"
      ],
      [
        "0xFF",
        "FFFF"
      ],
      [
        "I",
        "n"
      ],
      [
        "p",
        "er"
      ],
      [
        "CU",
        "R_"
      ],
      [
        "DRA",
        "W"
      ],
      [
        "re",
        "ad"
      ],
      [
        "en",
        "ter"
      ],
      [
        "o",
        "ut"
      ],
      [
        "ren",
        "t"
      ],
      [
        "00",
        "00"
      ],
      [
        "s",
        "g"
      ],
      [
        "p",
        "ar"
      ],
      [
        "g",
        "reen"
      ],
      [
        "w",
        "in"
      ],
      [
        "main",
        "_loop"
      ],
      [
        "m",
        "m"
      ],
      [
        "2",
        "00"
      ],
      [
        "O",
        "R"
      ],
      [
        "k",
        "_"
      ],
      [
        "s",
        "kip"
      ],
      [
        "C",
        "o"
      ],
      [
        "══",
        "═"
      ],
      [
        "p",
        "_"
      ],
      [
        "O",
        "N"
      ],
      [
        "P",
        "_"
      ],
      [
        "le",
        "ft"
      ],
      [
        "lo",
        "w"
      ],
      [
        "F",
        "RAM"
      ],
      [
        "de",
        "x"
      ],
      [
        "spa",
        "ce"
      ],
      [
        "FRAM",
        "E"
      ],
      [
        "1",
        "4"
      ],
      [
        "N",
        "E"
      ],
      [
        "DRAW",
        "TEXT"
      ],
      [
        "in",
        "dex"
      ],
      [
        "ro",
        "ll"
      ],
      [
        "a",
        "re"
      ],
      [
        "c",
        "lear"
      ],
      [
        "v",
        "al"
      ],
      [
        "ter",
        "n"
      ],
      [
        "c",
        "_"
      ],
      [
        "nu",
        "ll"
      ],
      [
        "P",
        "A"
      ],
      [
        "a",
        "g"
      ],
      [
        "r",
        "_"
      ],
      [
        "mo",
        "de"
      ],
      [
        "════",
        "═══"
      ],
      [
        "════════",
        "═══════"
      ],
      [
        "no",
        "_"
      ],
      [
        "co",
        "py"
      ],
      [
        "2",
        "4"
      ],
      [
        "as",
        "h"
      ],
      [
        "in",
        "it"
      ],
      [
        "M",
        "A"
      ],
      [
        "a",
        "m"
      ],
      [
        "c",
        "re"
      ],
      [
        "bi",
        "ome"
      ],
      [
        "a",
        "ch"
      ],
      [
        "te",
        "n"
      ],
      [
        "re",
        "g"
      ],
      [
        "PSE",
        "T"
      ],
      [
        "c",
        "l"
      ],
      [
        "st",
        "ate"
      ],
      [
        "as",
        "m"
      ],
      [
        "0x7",
        "80"
      ],
      [
        "r2",
        "9"
      ],
      [
        "wor",
        "l"
      ],
      [
        "c",
        "le"
      ],
      [
        "FF",
        "00"
      ],
      [
        "b",
        "ack"
      ],
      [
        "s",
        "o"
      ],
      [
        "G",
        "_"
      ],
      [
        "bl",
        "y"
      ],
      [
        "w",
        "n"
      ],
      [
        "co",
        "mp"
      ],
      [
        "ap",
        "p"
      ],
      [
        "SI",
        "_"
      ],
      [
        "F",
        "I"
      ],
      [
        "B",
        "A"
      ],
      [
        "v",
        "is"
      ],
      [
        "te",
        "d"
      ],
      [
        "i",
        "r"
      ],
      [
        "sc",
        "roll"
      ],
      [
        "po",
        "in"
      ],
      [
        "l",
        "y"
      ],
      [
        "p",
        "a"
      ],
      [
        "to",
        "p"
      ],
      [
        "assem",
        "bly"
      ],
      [
        "ter",
        "min"
      ],
      [
        "at",
        "us"
      ],
      [
        "bl",
        "ue"
      ],
      [
        "T",
        "h"
      ],
      [
        "p",
        "re"
      ],
      [
        "6",
        "4"
      ],
      [
        "s",
        "u"
      ],
      [
        "it",
        "y"
      ],
      [
        "4",
        "9"
      ],
      [
        "d",
        "isplay"
      ],
      [
        "s",
        "ave"
      ],
      [
        "════════════════",
        "═══════════════"
      ],
      [
        "SH",
        "R"
      ],
      [
        "ig",
        "ht"
      ],
      [
        "════════════════════════════════",
        "═══════════════════════════════"
      ],
      [
        "it",
        "le"
      ],
      [
        "do",
        "_"
      ],
      [
        "ar",
        "k"
      ],
      [
        "an",
        "ce"
      ],
      [
        "e",
        "t"
      ],
      [
        "o",
        "ff"
      ],
      [
        "6",
        "0"
      ],
      [
        "T",
        "Y"
      ],
      [
        "d",
        "igit"
      ],
      [
        "h",
        "ase"
      ],
      [
        "g",
        "le"
      ],
      [
        "w",
        "e"
      ],
      [
        "_ne",
        "xt"
      ],
      [
        "9",
        "9"
      ],
      [
        "b",
        "er"
      ],
      [
        "fi",
        "le"
      ],
      [
        "TI",
        "ON"
      ],
      [
        "to",
        "_"
      ],
      [
        "S",
        "_"
      ],
      [
        "ST",
        "A"
      ],
      [
        "str",
        "ing"
      ],
      [
        "A",
        "A"
      ],
      [
        "or",
        "y"
      ],
      [
        "P",
        "I"
      ],
      [
        "b",
        "le"
      ],
      [
        "and",
        "le"
      ],
      [
        "cur",
        "rent"
      ],
      [
        "1",
        "3"
      ],
      [
        "0x4",
        "0"
      ],
      [
        "a",
        "f"
      ],
      [
        "DE",
        "SC"
      ],
      [
        "mp",
        "le"
      ],
      [
        "25",
        "5"
      ],
      [
        "RI",
        "P"
      ],
      [
        "worl",
        "d_"
      ],
      [
        "Th",
        "is"
      ],
      [
        "_",
        "h"
      ],
      [
        "DESC",
        "RIP"
      ],
      [
        "DESCRIP",
        "TION"
      ],
      [
        "t",
        "a"
      ],
      [
        "at",
        "or"
      ],
      [
        "play",
        "er"
      ],
      [
        "pat",
        "tern"
      ],
      [
        "r3",
        "0"
      ],
      [
        "3",
        "3"
      ],
      [
        "10",
        "1"
      ],
      [
        "A",
        "LT"
      ],
      [
        "b",
        "or"
      ],
      [
        "Ge",
        "OS"
      ],
      [
        "e",
        "c"
      ],
      [
        "f",
        "a"
      ],
      [
        "no",
        "t_"
      ],
      [
        "val",
        "ue"
      ],
      [
        "7",
        "0"
      ],
      [
        "line",
        "s"
      ],
      [
        "a",
        "ge"
      ],
      [
        "o",
        "m"
      ],
      [
        "bo",
        "ard"
      ],
      [
        "d",
        "ate"
      ],
      [
        "r",
        "un"
      ],
      [
        "re",
        "ss"
      ],
      [
        "op",
        "code"
      ],
      [
        "tab",
        "le"
      ],
      [
        "6",
        "8"
      ],
      [
        "at",
        "ch"
      ],
      [
        "R_",
        "BUF"
      ],
      [
        "u",
        "m"
      ],
      [
        "us",
        "ing"
      ],
      [
        "C",
        "lear"
      ],
      [
        "p",
        "or"
      ],
      [
        "st",
        "atus"
      ],
      [
        "ig",
        "h"
      ],
      [
        "--------",
        "--------"
      ],
      [
        "X",
        "X"
      ],
      [
        "BA",
        "SE"
      ],
      [
        "K",
        "E"
      ],
      [
        "c",
        "m"
      ],
      [
        "ce",
        "ss"
      ],
      [
        "0x7",
        "8"
      ],
      [
        "e",
        "ce"
      ],
      [
        "i",
        "c"
      ],
      [
        "off",
        "set"
      ],
      [
        "2",
        "8"
      ],
      [
        "i",
        "al"
      ],
      [
        "is",
        "ter"
      ],
      [
        "row",
        "s"
      ],
      [
        ")",
        ":"
      ],
      [
        "y",
        "s"
      ],
      [
        "o",
        "t"
      ],
      [
        "0x",
        "30"
      ],
      [
        "c",
        "y"
      ],
      [
        "E",
        "L"
      ],
      [
        "KE",
        "Y"
      ],
      [
        "5",
        "5"
      ],
      [
        "af",
        "ter"
      ],
      [
        "D",
        "_"
      ],
      [
        "h",
        "andle"
      ],
      [
        "CO",
        "LO"
      ],
      [
        "H",
        "I"
      ],
      [
        "M",
        "E"
      ],
      [
        "l",
        "p"
      ],
      [
        "p",
        "x"
      ],
      [
        "ce",
        "ll"
      ],
      [
        "pixel",
        "s"
      ],
      [
        "C",
        "SI_"
      ],
      [
        "S",
        "t"
      ],
      [
        "o",
        "l"
      ],
      [
        "on",
        "t"
      ],
      [
        "an",
        "gle"
      ],
      [
        "FI",
        "LL"
      ],
      [
        "M",
        "_"
      ],
      [
        "te",
        "st"
      ],
      [
        "ro",
        "t"
      ],
      [
        "7",
        "6"
      ],
      [
        "ow",
        "n"
      ],
      [
        "try",
        "_"
      ],
      [
        "3",
        "1"
      ],
      [
        "A",
        "B"
      ],
      [
        "H",
        "ALT"
      ],
      [
        "c",
        "an"
      ],
      [
        "b",
        "len"
      ],
      [
        "DI",
        "V"
      ],
      [
        "en",
        "d_"
      ],
      [
        "add",
        "ress"
      ],
      [
        "ne",
        "w"
      ],
      [
        "pro",
        "mp"
      ],
      [
        "L",
        "I"
      ],
      [
        "_",
        "to_"
      ],
      [
        "E",
        "N"
      ],
      [
        "c",
        "enter"
      ],
      [
        "MO",
        "D"
      ],
      [
        "_re",
        "g"
      ],
      [
        "in",
        "t"
      ],
      [
        "ty",
        "pe"
      ],
      [
        "nu",
        "m"
      ],
      [
        "to",
        "m"
      ],
      [
        "6",
        "6"
      ],
      [
        "char",
        "s"
      ],
      [
        "0x2",
        "000"
      ],
      [
        "U",
        "N"
      ],
      [
        "sh",
        "ow"
      ],
      [
        "x",
        "t_"
      ],
      [
        "he",
        "x"
      ],
      [
        "no",
        "t"
      ],
      [
        "write",
        "_"
      ],
      [
        "a",
        "y"
      ],
      [
        "e",
        "ach"
      ],
      [
        "u",
        "ll"
      ],
      [
        "w",
        "hi"
      ],
      [
        "0x",
        "8"
      ],
      [
        "12",
        "0"
      ],
      [
        "s",
        "ult"
      ],
      [
        "v",
        "ance"
      ],
      [
        "add",
        "r"
      ],
      [
        "base",
        "d"
      ],
      [
        "C",
        "_"
      ],
      [
        "P",
        "TY"
      ],
      [
        "r",
        "an"
      ],
      [
        "fi",
        "r"
      ],
      [
        "0x00",
        "FF00"
      ],
      [
        "CUR_",
        "ROW"
      ],
      [
        "mm",
        "and"
      ],
      [
        "ch",
        "an"
      ],
      [
        "_o",
        "k"
      ],
      [
        "re",
        "ct"
      ],
      [
        "_d",
        "raw"
      ],
      [
        "SE",
        "ND"
      ],
      [
        "L",
        "o"
      ],
      [
        "se",
        "s"
      ],
      [
        "pi",
        "ece"
      ],
      [
        "promp",
        "t"
      ],
      [
        "z",
        "er"
      ],
      [
        "0x40",
        "D"
      ],
      [
        "zer",
        "o"
      ],
      [
        ">",
        ">"
      ],
      [
        "B",
        "B"
      ],
      [
        "sp",
        "on"
      ],
      [
        "dow",
        "n"
      ],
      [
        "por",
        "t"
      ],
      [
        "ma",
        "p"
      ],
      [
        "gra",
        "m"
      ],
      [
        "res",
        "ult"
      ],
      [
        "c",
        "al"
      ],
      [
        "win",
        "dow"
      ],
      [
        "d",
        "y"
      ],
      [
        "_re",
        "sult"
      ],
      [
        "0x6",
        "A"
      ],
      [
        "num",
        "ber"
      ],
      [
        "V",
        "E"
      ],
      [
        "g",
        "ame"
      ],
      [
        "o",
        "ver"
      ],
      [
        "PA",
        "RAM"
      ],
      [
        "6",
        "5"
      ],
      [
        "ti",
        "me"
      ],
      [
        "wa",
        "ter"
      ],
      [
        "CSI_",
        "PARAM"
      ],
      [
        "9",
        "7"
      ],
      [
        "_",
        "e"
      ],
      [
        "ate",
        "d"
      ],
      [
        "str",
        "u"
      ],
      [
        "AN",
        "DI"
      ],
      [
        "4",
        "00"
      ],
      [
        "t",
        "itle"
      ],
      [
        "at",
        "a"
      ],
      [
        "_d",
        "own"
      ],
      [
        "bu",
        "t"
      ],
      [
        "hi",
        "ft"
      ],
      [
        "B",
        "u"
      ],
      [
        "p",
        "la"
      ],
      [
        "ro",
        "und"
      ],
      [
        "cre",
        "ment"
      ],
      [
        ")",
        "."
      ],
      [
        "W",
        "rite"
      ],
      [
        "l",
        "_"
      ],
      [
        "ur",
        "sor"
      ],
      [
        "pro",
        "gram"
      ],
      [
        "W",
        "IN"
      ],
      [
        "_",
        "T"
      ],
      [
        "s",
        "_"
      ],
      [
        "ct",
        "ive"
      ],
      [
        "0x4",
        "E"
      ],
      [
        "0x00",
        "00"
      ],
      [
        "Re",
        "ad"
      ],
      [
        "0xFFFFFF",
        "FF"
      ],
      [
        "comp",
        "ute"
      ],
      [
        "cm",
        "d_"
      ],
      [
        "SEND",
        "_BUF"
      ],
      [
        "h",
        "o"
      ],
      [
        "_check",
        "_result"
      ],
      [
        "fir",
        "st"
      ],
      [
        "C",
        "on"
      ],
      [
        "a",
        "ult"
      ],
      [
        "co",
        "mmand"
      ],
      [
        "ne",
        "xt"
      ],
      [
        "blen",
        "d"
      ],
      [
        "A",
        "1"
      ],
      [
        "I",
        "t"
      ],
      [
        "ST",
        "R_BUF"
      ],
      [
        "te",
        "p"
      ],
      [
        "bu",
        "ild"
      ],
      [
        "def",
        "ault"
      ],
      [
        "CUR_",
        "COL"
      ],
      [
        "c",
        "lo"
      ],
      [
        "ri",
        "d"
      ],
      [
        "spon",
        "se"
      ],
      [
        "pla",
        "ce"
      ],
      [
        "_",
        "b"
      ],
      [
        "_",
        "f"
      ],
      [
        "SUB",
        "I"
      ],
      [
        "bo",
        "t"
      ],
      [
        "pb",
        "_ret"
      ],
      [
        "ROW",
        "S"
      ],
      [
        "5",
        "8"
      ],
      [
        "D",
        "e"
      ],
      [
        "==",
        "="
      ],
      [
        "spa",
        "wn"
      ],
      [
        "vi",
        "a"
      ],
      [
        "reg",
        "ister"
      ],
      [
        "igh",
        "bor"
      ],
      [
        "C",
        "E"
      ],
      [
        "d",
        "ark"
      ],
      [
        "h",
        "ow"
      ],
      [
        "_c",
        "si"
      ],
      [
        "11",
        "1"
      ],
      [
        "..",
        ".."
      ],
      [
        "fi",
        "ll"
      ],
      [
        "ial",
        "iz"
      ],
      [
        "1",
        "8"
      ],
      [
        "9",
        "0"
      ],
      [
        "2",
        "7"
      ],
      [
        "P",
        "hase"
      ],
      [
        "i",
        "ll"
      ],
      [
        "an",
        "im"
      ],
      [
        "PSE",
        "TI"
      ],
      [
        "A",
        "I"
      ],
      [
        "m",
        "c"
      ],
      [
        "0xFF",
        "B"
      ],
      [
        "3",
        "8"
      ],
      [
        "T",
        "U"
      ],
      [
        "g",
        "round"
      ],
      [
        "s",
        "er"
      ],
      [
        "ar",
        "ch"
      ],
      [
        "0x2",
        "00"
      ],
      [
        "li",
        "ck"
      ],
      [
        "In",
        "it"
      ],
      [
        "3",
        "00"
      ],
      [
        "E",
        "X"
      ],
      [
        "c",
        "am"
      ],
      [
        "t",
        "on"
      ],
      [
        "_d",
        "igit"
      ],
      [
        "ne",
        "ighbor"
      ],
      [
        "SH",
        "L"
      ],
      [
        "bot",
        "tom"
      ],
      [
        "in",
        "to"
      ],
      [
        "0x5",
        "000"
      ],
      [
        "par",
        "se"
      ],
      [
        "Bu",
        "ild"
      ],
      [
        "1",
        "10"
      ],
      [
        "i",
        "mple"
      ],
      [
        "v",
        "_"
      ],
      [
        "10",
        "8"
      ],
      [
        "ne",
        "l"
      ],
      [
        "e",
        "xt"
      ],
      [
        "ad",
        "vance"
      ],
      [
        "SE",
        "T"
      ],
      [
        "th",
        "en"
      ],
      [
        "STA",
        "TU"
      ],
      [
        "I",
        "KEY"
      ],
      [
        "X",
        "EL"
      ],
      [
        "ra",
        "te"
      ],
      [
        "RA",
        "ND"
      ],
      [
        "_c",
        "lear"
      ],
      [
        "PI",
        "XEL"
      ],
      [
        "um",
        "n"
      ],
      [
        ">",
        "="
      ],
      [
        "col",
        "umn"
      ],
      [
        "el",
        "low"
      ],
      [
        "pat",
        "h"
      ],
      [
        "_",
        "n"
      ],
      [
        "wor",
        "ds"
      ],
      [
        "Lo",
        "ad"
      ],
      [
        "4",
        "2"
      ],
      [
        "A",
        "0"
      ],
      [
        "w",
        "all"
      ],
      [
        "ra",
        "in"
      ],
      [
        "ex",
        "ec"
      ],
      [
        "pb",
        "_csi"
      ],
      [
        "app",
        "end_"
      ],
      [
        "s",
        "in"
      ],
      [
        "t",
        "ra"
      ],
      [
        "w",
        "ave"
      ],
      [
        "st",
        "an"
      ],
      [
        "up",
        "date"
      ],
      [
        "_s",
        "kip"
      ],
      [
        "+",
        "+"
      ],
      [
        "e",
        "w"
      ],
      [
        "m",
        "on"
      ],
      [
        "de",
        "d"
      ],
      [
        "ment",
        "s"
      ],
      [
        "L",
        "IN"
      ],
      [
        "i",
        "le"
      ],
      [
        "er",
        "a"
      ],
      [
        "check",
        "_"
      ],
      [
        "_h",
        "ash"
      ],
      [
        "C",
        "K"
      ],
      [
        "R",
        "ow"
      ],
      [
        "hi",
        "st"
      ],
      [
        "I",
        "f"
      ],
      [
        "lo",
        "ad"
      ],
      [
        "ma",
        "x"
      ],
      [
        "0x3",
        "000"
      ],
      [
        "but",
        "ton"
      ],
      [
        "c",
        "or"
      ],
      [
        "o",
        "ve"
      ],
      [
        "s",
        "ig"
      ],
      [
        "t",
        "ur"
      ],
      [
        "z",
        "e"
      ],
      [
        "in",
        "di"
      ],
      [
        "out",
        "put"
      ],
      [
        "are",
        "a"
      ],
      [
        "id",
        "th"
      ],
      [
        "HI",
        "T"
      ],
      [
        "_",
        "p"
      ],
      [
        "re",
        "sponse"
      ],
      [
        "ge",
        "t_"
      ],
      [
        "em",
        "it"
      ],
      [
        "Co",
        "mp"
      ],
      [
        "back",
        "ground"
      ],
      [
        "whi",
        "te"
      ],
      [
        "cam",
        "era"
      ],
      [
        "2",
        "40"
      ],
      [
        "E",
        "E"
      ],
      [
        "u",
        "st"
      ],
      [
        "w",
        "idth"
      ],
      [
        "me",
        "m"
      ],
      [
        "ch",
        "k_"
      ],
      [
        "la",
        "g"
      ],
      [
        "bu",
        "g"
      ],
      [
        "byte",
        "s"
      ],
      [
        "world_",
        "y"
      ],
      [
        "chan",
        "nel"
      ],
      [
        "3",
        "6"
      ],
      [
        "d",
        "g"
      ],
      [
        "lo",
        "ck"
      ],
      [
        "la",
        "mp"
      ],
      [
        "ver",
        "t"
      ],
      [
        "world_",
        "x"
      ],
      [
        "l",
        "s"
      ],
      [
        "o",
        "k"
      ],
      [
        "te",
        "m"
      ],
      [
        "7",
        "3"
      ],
      [
        "A",
        "L"
      ],
      [
        "c",
        "t_"
      ],
      [
        "c",
        "ted"
      ],
      [
        "or",
        "iz"
      ],
      [
        "0x4",
        "000"
      ],
      [
        "ome",
        "try"
      ],
      [
        "0x4E",
        "0"
      ],
      [
        "S",
        "to"
      ],
      [
        "X",
        "OR"
      ],
      [
        "mp",
        "ty"
      ],
      [
        "sg",
        "r_"
      ],
      [
        "i",
        "b"
      ],
      [
        "k",
        "_ret"
      ],
      [
        "n",
        "ing"
      ],
      [
        "11",
        "5"
      ],
      [
        "str",
        "_"
      ],
      [
        "pro",
        "cess"
      ],
      [
        "frame",
        "s"
      ],
      [
        "bit",
        "s"
      ],
      [
        "1",
        "9"
      ],
      [
        "Y",
        "S"
      ],
      [
        "d",
        "ata"
      ],
      [
        "t",
        "k_"
      ],
      [
        "wa",
        "it"
      ],
      [
        "P",
        "ro"
      ],
      [
        "in",
        "k"
      ],
      [
        "LE",
        "N"
      ],
      [
        "Ge",
        "ometry"
      ],
      [
        "fa",
        "il"
      ],
      [
        "E",
        "n"
      ],
      [
        "g",
        "rid"
      ],
      [
        "ent",
        "ry"
      ],
      [
        "sp",
        "rite"
      ],
      [
        "all",
        "y"
      ],
      [
        "poin",
        "ter"
      ],
      [
        "COLO",
        "R"
      ],
      [
        "Sto",
        "re"
      ],
      [
        "8",
        "3"
      ],
      [
        "S",
        "how"
      ],
      [
        "U",
        "p"
      ],
      [
        "th",
        "at"
      ],
      [
        "termin",
        "ate"
      ],
      [
        "ho",
        "st"
      ],
      [
        "S",
        "YS"
      ],
      [
        "a",
        "v"
      ],
      [
        "d",
        "u"
      ],
      [
        "u",
        "g"
      ],
      [
        "is",
        "ion"
      ],
      [
        "ate",
        "s"
      ],
      [
        "12",
        "7"
      ],
      [
        "CO",
        "UN"
      ],
      [
        "LE",
        "_"
      ],
      [
        "AN",
        "S_"
      ],
      [
        "tile",
        "s"
      ],
      [
        "T",
        "XT"
      ],
      [
        "ar",
        "i"
      ],
      [
        "co",
        "re"
      ],
      [
        "se",
        "t_"
      ],
      [
        "se",
        "arch"
      ],
      [
        "mo",
        "use"
      ],
      [
        "COUN",
        "T"
      ],
      [
        "b",
        "el"
      ],
      [
        "d",
        "x"
      ],
      [
        "f",
        "lag"
      ],
      [
        "u",
        "re"
      ],
      [
        "v",
        "as"
      ],
      [
        "st",
        "ri"
      ],
      [
        "er",
        "r"
      ],
      [
        "ten",
        "t"
      ],
      [
        "ta",
        "il"
      ],
      [
        "_",
        "lp"
      ],
      [
        "y",
        "ellow"
      ],
      [
        "0x",
        "9"
      ],
      [
        "re",
        "store"
      ],
      [
        "co",
        "lo"
      ],
      [
        "se",
        "con"
      ],
      [
        "de",
        "mo"
      ],
      [
        "de",
        "bug"
      ],
      [
        "as",
        "s"
      ],
      [
        "la",
        "bel"
      ],
      [
        "L",
        "ay"
      ],
      [
        "S",
        "c"
      ],
      [
        "c",
        "d"
      ],
      [
        "t",
        "ar"
      ],
      [
        "op",
        "y"
      ],
      [
        "ce",
        "s"
      ],
      [
        "bl",
        "dg"
      ],
      [
        "ag",
        "ent_"
      ],
      [
        "indi",
        "c"
      ],
      [
        "ug",
        "h"
      ],
      [
        "T",
        "itle"
      ],
      [
        "se",
        "d"
      ],
      [
        "_c",
        "ursor"
      ],
      [
        "11",
        "2"
      ],
      [
        "11",
        "6"
      ],
      [
        "RO",
        "LL"
      ],
      [
        "0x4",
        "4"
      ],
      [
        "0xFF",
        "0000"
      ],
      [
        "SC",
        "ROLL"
      ],
      [
        "ver",
        "y"
      ],
      [
        "key",
        "board"
      ],
      [
        "cl",
        "u"
      ],
      [
        "can",
        "vas"
      ],
      [
        "<",
        "<"
      ],
      [
        "ar",
        "row"
      ],
      [
        "ro",
        "ss"
      ],
      [
        "op",
        "er"
      ],
      [
        "ll",
        "ision"
      ],
      [
        "ent",
        "ri"
      ],
      [
        "frame",
        "_"
      ],
      [
        "ation",
        "s"
      ],
      [
        "6",
        "9"
      ],
      [
        "6",
        "00"
      ],
      [
        "P",
        "i"
      ],
      [
        "_",
        "a"
      ],
      [
        "_",
        "m"
      ],
      [
        "0xFF",
        "FF"
      ],
      [
        "colo",
        "red"
      ],
      [
        "7",
        "2"
      ],
      [
        "8",
        "2"
      ],
      [
        "C",
        "M"
      ],
      [
        "m",
        "c_"
      ],
      [
        "in",
        "clu"
      ],
      [
        "de",
        "c"
      ],
      [
        "su",
        "b"
      ],
      [
        "_T",
        "AB"
      ],
      [
        "A1",
        "A"
      ],
      [
        "c",
        "us"
      ],
      [
        "c",
        "all"
      ],
      [
        "u",
        "al"
      ],
      [
        "st",
        "rate"
      ],
      [
        "and",
        "om"
      ],
      [
        "la",
        "p"
      ],
      [
        "la",
        "st"
      ],
      [
        "th",
        "is"
      ],
      [
        "di",
        "r"
      ],
      [
        "ac",
        "c"
      ],
      [
        "ir",
        "cle"
      ],
      [
        "8",
        "4"
      ],
      [
        "L",
        "A"
      ],
      [
        "S",
        "A"
      ],
      [
        "S",
        "AR"
      ],
      [
        "h",
        "al"
      ],
      [
        "h",
        "oriz"
      ],
      [
        "p",
        "hase"
      ],
      [
        "ne",
        "d"
      ],
      [
        "len",
        "ame"
      ],
      [
        "li",
        "b"
      ],
      [
        "append_",
        "byte"
      ],
      [
        "Comp",
        "ute"
      ],
      [
        "W",
        "PIXEL"
      ],
      [
        "_",
        "up"
      ],
      [
        "le",
        "t"
      ],
      [
        "co",
        "llision"
      ],
      [
        "he",
        "ad"
      ],
      [
        "ff",
        "e"
      ],
      [
        "ed",
        "ge"
      ],
      [
        "E",
        "SC"
      ],
      [
        "F",
        "G_"
      ],
      [
        "c",
        "no"
      ],
      [
        "r",
        "atch"
      ],
      [
        "ro",
        "ugh"
      ],
      [
        "ne",
        "xt_"
      ],
      [
        "Ge",
        "t"
      ],
      [
        "clear",
        "_"
      ],
      [
        "vis",
        "or"
      ],
      [
        "FG_",
        "COLOR"
      ],
      [
        "N",
        "O"
      ],
      [
        "S",
        "G"
      ],
      [
        "S",
        "et"
      ],
      [
        "a",
        "in"
      ],
      [
        "r",
        "c"
      ],
      [
        "ADD",
        "R"
      ],
      [
        "ar",
        "y"
      ],
      [
        "as",
        "k"
      ],
      [
        "ur",
        "ce"
      ],
      [
        "color",
        "s"
      ],
      [
        "tur",
        "n"
      ],
      [
        "HIT",
        "SET"
      ],
      [
        "C",
        "opy"
      ],
      [
        "S",
        "P"
      ],
      [
        "_",
        "col"
      ],
      [
        "f",
        "ull"
      ],
      [
        "g",
        "u"
      ],
      [
        "s",
        "ys"
      ],
      [
        "re",
        "e"
      ],
      [
        "he",
        "l"
      ],
      [
        "fi",
        "lename"
      ],
      [
        "0x2",
        "40"
      ],
      [
        "STA",
        "TE"
      ],
      [
        "build",
        "ing"
      ],
      [
        ":",
        "\""
      ],
      [
        "P",
        "RO"
      ],
      [
        "_",
        "row"
      ],
      [
        "_",
        "BASE"
      ],
      [
        "l",
        "ight"
      ],
      [
        "w",
        "o"
      ],
      [
        "as",
        "c"
      ],
      [
        "th",
        "rough"
      ],
      [
        "si",
        "ze"
      ],
      [
        "vi",
        "ew"
      ],
      [
        "PI",
        "D"
      ],
      [
        "TXT",
        "_BUF"
      ],
      [
        "7",
        "9"
      ],
      [
        "H",
        "el"
      ],
      [
        "g",
        "en"
      ],
      [
        "n",
        "ame"
      ],
      [
        "p",
        "res"
      ],
      [
        "t",
        "r"
      ],
      [
        "u",
        "t_"
      ],
      [
        "u",
        "32"
      ],
      [
        "v",
        "ari"
      ],
      [
        "lo",
        "c"
      ],
      [
        "pi",
        "pe"
      ],
      [
        "ab",
        "le"
      ],
      [
        "fo",
        "cus"
      ],
      [
        "7",
        "5"
      ],
      [
        "c",
        "c"
      ],
      [
        "d",
        "a"
      ],
      [
        "g",
        "th"
      ],
      [
        "i",
        "st"
      ],
      [
        "te",
        "mp"
      ],
      [
        "it",
        "s"
      ],
      [
        "10",
        "4"
      ],
      [
        "sc",
        "an"
      ],
      [
        "no",
        "w"
      ],
      [
        "ent",
        "ity"
      ],
      [
        "us",
        "h"
      ],
      [
        "_ne",
        "w"
      ],
      [
        "ent_",
        "agent_"
      ],
      [
        "vis",
        "i"
      ],
      [
        "WIN",
        "SYS"
      ],
      [
        "hist",
        "ory"
      ],
      [
        "entri",
        "es"
      ],
      [
        "D",
        "00"
      ],
      [
        "i",
        "es"
      ],
      [
        "m",
        "atch"
      ],
      [
        "p",
        "an"
      ],
      [
        "LL",
        "M"
      ],
      [
        "ve",
        "s"
      ],
      [
        "0x7",
        "000"
      ],
      [
        "ge",
        "t"
      ],
      [
        "ed",
        "it"
      ],
      [
        "len",
        "gth"
      ],
      [
        "ction",
        "s"
      ],
      [
        "ag",
        "ent"
      ],
      [
        "----------------",
        "----------------"
      ],
      [
        "7",
        "7"
      ],
      [
        "T",
        "e"
      ],
      [
        "h",
        "ash"
      ],
      [
        "n",
        "on"
      ],
      [
        "0x2",
        "0"
      ],
      [
        "str",
        "len"
      ],
      [
        "ul",
        "d"
      ],
      [
        "skip",
        "_"
      ],
      [
        "Co",
        "l"
      ],
      [
        "imple",
        "ments"
      ],
      [
        "stan",
        "t"
      ],
      [
        "E",
        "R"
      ],
      [
        "n",
        "er"
      ],
      [
        "s",
        "core"
      ],
      [
        "en",
        "der"
      ],
      [
        "ar",
        "m"
      ],
      [
        "`",
        ","
      ],
      [
        "b",
        "all"
      ],
      [
        "f",
        "d"
      ],
      [
        "r",
        "andom"
      ],
      [
        "st",
        "op"
      ],
      [
        "ar",
        "t"
      ],
      [
        "10",
        "5"
      ],
      [
        "sc",
        "ratch"
      ],
      [
        "0xFF",
        "FF00"
      ],
      [
        "for",
        "m"
      ],
      [
        "ap",
        "e"
      ],
      [
        "sh",
        "o"
      ],
      [
        "qu",
        "it"
      ],
      [
        "6",
        "7"
      ],
      [
        "C",
        "0"
      ],
      [
        "c",
        "si"
      ],
      [
        "ra",
        "g"
      ],
      [
        "OP",
        "EN"
      ],
      [
        "ti",
        "m"
      ],
      [
        "0x0",
        "40"
      ],
      [
        "────────────────────────────────",
        "────────"
      ],
      [
        "read",
        "y"
      ],
      [
        "_to_",
        "buf"
      ],
      [
        "SA",
        "VE"
      ],
      [
        "A",
        "d"
      ],
      [
        "T",
        "_"
      ],
      [
        "g",
        "o"
      ],
      [
        "p",
        "le"
      ],
      [
        "co",
        "or"
      ],
      [
        "_d",
        "o"
      ],
      [
        "la",
        "ck"
      ],
      [
        "di",
        "re"
      ],
      [
        "0x0",
        "A0"
      ],
      [
        "DE",
        "BU"
      ],
      [
        "use",
        "s"
      ],
      [
        "ib",
        "ble"
      ],
      [
        "2",
        "3"
      ],
      [
        "C",
        "P"
      ],
      [
        "F",
        "S"
      ],
      [
        "U",
        "ses"
      ],
      [
        "a",
        "le"
      ],
      [
        "c",
        "lick"
      ],
      [
        "d",
        "one"
      ],
      [
        "g",
        "re"
      ],
      [
        "j",
        "ust"
      ],
      [
        "0x",
        "88"
      ],
      [
        "de",
        "s"
      ],
      [
        "de",
        "st"
      ],
      [
        "SE",
        "L"
      ],
      [
        "NE",
        "G"
      ],
      [
        "init",
        "_"
      ],
      [
        "Te",
        "st"
      ],
      [
        "DEBU",
        "G_"
      ],
      [
        "C",
        "LI"
      ],
      [
        "R",
        "ender"
      ],
      [
        "V",
        "M"
      ],
      [
        "_",
        "id"
      ],
      [
        "b",
        "lack"
      ],
      [
        "h",
        "it"
      ],
      [
        "i",
        "x"
      ],
      [
        "i",
        "fi"
      ],
      [
        "s",
        "hift"
      ],
      [
        "t",
        "ri"
      ],
      [
        "in",
        "crement"
      ],
      [
        "re",
        "set"
      ],
      [
        "reg",
        "ion"
      ],
      [
        "bor",
        "der"
      ],
      [
        "_new",
        "line"
      ],
      [
        "*",
        "*"
      ],
      [
        "2",
        "E"
      ],
      [
        "S",
        "ave"
      ],
      [
        "_",
        "store"
      ],
      [
        "f",
        "un"
      ],
      [
        "m",
        "al"
      ],
      [
        "t",
        "int"
      ],
      [
        "w",
        "r"
      ],
      [
        "RE",
        "AD"
      ],
      [
        "00",
        "1"
      ],
      [
        "_d",
        "ir"
      ],
      [
        "0x1",
        "A1A"
      ],
      [
        "im",
        "al"
      ],
      [
        "poin",
        "t"
      ],
      [
        "indic",
        "ator"
      ],
      [
        "strate",
        "s"
      ],
      [
        "Hel",
        "lo"
      ],
      [
        "5",
        "00"
      ],
      [
        "a",
        "red"
      ],
      [
        "e",
        "mpty"
      ],
      [
        "0x",
        "000"
      ],
      [
        "0x6",
        "000"
      ],
      [
        "0x1",
        "F"
      ],
      [
        "_check",
        "_"
      ],
      [
        "digit",
        "s"
      ],
      [
        "Init",
        "ializ"
      ],
      [
        "D",
        "O"
      ],
      [
        "e",
        "very"
      ],
      [
        "f",
        "e"
      ],
      [
        "k",
        "no"
      ],
      [
        "s",
        "n"
      ],
      [
        "0xFF",
        "00"
      ],
      [
        "..",
        "."
      ],
      [
        "ab",
        "ove"
      ],
      [
        "draw",
        "s"
      ],
      [
        "wor",
        "d"
      ],
      [
        "qu",
        "en"
      ],
      [
        "value",
        "s"
      ],
      [
        "mc",
        "_ret"
      ],
      [
        "mc_",
        "25"
      ],
      [
        "kno",
        "wn"
      ],
      [
        "B",
        "O"
      ],
      [
        "N",
        "ull"
      ],
      [
        "a",
        "ctive"
      ],
      [
        "h",
        "y"
      ],
      [
        "s",
        "rc"
      ],
      [
        "0x",
        "120"
      ],
      [
        "en",
        "em"
      ],
      [
        "se",
        "le"
      ],
      [
        "ne",
        "g"
      ],
      [
        "bo",
        "un"
      ],
      [
        "AN",
        "SI_"
      ],
      [
        "render",
        "ing"
      ],
      [
        "Col",
        "or"
      ],
      [
        "0x1A1A",
        "2E"
      ],
      [
        "5",
        "1"
      ],
      [
        "O",
        "SC"
      ],
      [
        "m",
        "an"
      ],
      [
        "o",
        "us"
      ],
      [
        "s",
        "a"
      ],
      [
        "ar",
        "se"
      ],
      [
        "he",
        "re"
      ],
      [
        "SC",
        "I"
      ],
      [
        "ss",
        "ion"
      ],
      [
        "do",
        "_re"
      ],
      [
        "sto",
        "red"
      ],
      [
        "sg",
        "r"
      ],
      [
        "STATU",
        "S_"
      ],
      [
        "frame_",
        "counter"
      ],
      [
        "1",
        "7"
      ],
      [
        "A",
        "S"
      ],
      [
        "A",
        "SCI"
      ],
      [
        "c",
        "ircle"
      ],
      [
        "p",
        "r"
      ],
      [
        "s",
        "ine"
      ],
      [
        "s",
        "qu"
      ],
      [
        "DI",
        "R"
      ],
      [
        "10",
        "3"
      ],
      [
        "ch",
        "ild"
      ],
      [
        "ve",
        "l"
      ],
      [
        "_c",
        "m"
      ],
      [
        "con",
        "t"
      ],
      [
        "0x0",
        "20"
      ],
      [
        "Re",
        "g"
      ],
      [
        "fo",
        "re"
      ],
      [
        "per",
        "visor"
      ],
      [
        "display",
        "s"
      ],
      [
        "run",
        "ning"
      ],
      [
        "COLO",
        "R_BUF"
      ],
      [
        "err",
        "or"
      ],
      [
        "NO",
        "TE"
      ],
      [
        "ASCI",
        "I"
      ],
      [
        "_",
        "start"
      ],
      [
        "b",
        "lock"
      ],
      [
        "m",
        "ul"
      ],
      [
        "p",
        "l"
      ],
      [
        "s",
        "tep"
      ],
      [
        "re",
        "start"
      ],
      [
        "con",
        "tent"
      ],
      [
        "COL",
        "_"
      ],
      [
        "Re",
        "set"
      ],
      [
        "gra",
        "ss"
      ],
      [
        "new",
        "line"
      ],
      [
        "mem",
        "ory"
      ],
      [
        "Up",
        "date"
      ],
      [
        "_",
        "copy"
      ],
      [
        "b",
        "_"
      ],
      [
        "f",
        "in"
      ],
      [
        "p",
        "end"
      ],
      [
        "in",
        "stru"
      ],
      [
        "R_",
        "B"
      ],
      [
        "fi",
        "x"
      ],
      [
        "bo",
        "x"
      ],
      [
        "_o",
        "ver"
      ],
      [
        "assem",
        "ble"
      ],
      [
        "so",
        "urce"
      ],
      [
        "sys",
        "tem"
      ],
      [
        "Initializ",
        "e"
      ],
      [
        "2",
        "6"
      ],
      [
        "B",
        "EE"
      ],
      [
        "R",
        "L"
      ],
      [
        "W",
        "e"
      ],
      [
        "v",
        "y"
      ],
      [
        "0x",
        "80"
      ],
      [
        "se",
        "ssion"
      ],
      [
        "at",
        "ing"
      ],
      [
        "he",
        "s"
      ],
      [
        "ti",
        "cle"
      ],
      [
        "di",
        "m"
      ],
      [
        "0x1",
        "000"
      ],
      [
        "Lay",
        "out"
      ],
      [
        "gen",
        "er"
      ],
      [
        "3",
        "4"
      ],
      [
        "_",
        "pos"
      ],
      [
        "c",
        "s"
      ],
      [
        "o",
        "th"
      ],
      [
        "p",
        "v"
      ],
      [
        "s",
        "y"
      ],
      [
        "in",
        "t_"
      ],
      [
        "le",
        "vel"
      ],
      [
        "al",
        "ready"
      ],
      [
        "TI",
        "CK"
      ],
      [
        "ht",
        "t"
      ],
      [
        "hy",
        "pervisor"
      ],
      [
        "_cm",
        "d"
      ],
      [
        "1",
        "000"
      ],
      [
        "1",
        "50"
      ],
      [
        "8",
        "00"
      ],
      [
        "R",
        "UN"
      ],
      [
        "S",
        "kip"
      ],
      [
        "W",
        "N"
      ],
      [
        "_",
        "count"
      ],
      [
        "r",
        "h"
      ],
      [
        "s",
        "lo"
      ],
      [
        "s",
        "256"
      ],
      [
        "t",
        "k_ret"
      ],
      [
        "_d",
        "i"
      ],
      [
        "bu",
        "il"
      ],
      [
        "line",
        "_to_buf"
      ],
      [
        "con",
        "stant"
      ],
      [
        "draw_",
        "frame"
      ],
      [
        "par",
        "ticle"
      ],
      [
        "cell",
        "s"
      ],
      [
        "write_",
        "line_to_buf"
      ],
      [
        "LIN",
        "E"
      ],
      [
        "dire",
        "ction"
      ],
      [
        "CLI",
        "P_"
      ],
      [
        "ANSI_",
        "STATE"
      ],
      [
        "s256",
        "_"
      ],
      [
        "M",
        "em"
      ],
      [
        "S",
        "e"
      ],
      [
        "c",
        "lamp"
      ],
      [
        "t",
        "al"
      ],
      [
        "u",
        "b"
      ],
      [
        "_c",
        "l"
      ],
      [
        "sp",
        "e"
      ],
      [
        "di",
        "st"
      ],
      [
        "ap",
        "pro"
      ],
      [
        "em",
        "on"
      ],
      [
        "cy",
        "an"
      ],
      [
        "_e",
        "sc"
      ],
      [
        "_TAB",
        "LE"
      ],
      [
        "3",
        "5"
      ],
      [
        "H",
        "T"
      ],
      [
        "u",
        "ally"
      ],
      [
        "st",
        "ack"
      ],
      [
        "er",
        "s"
      ],
      [
        "an",
        "ge"
      ],
      [
        "la",
        "te"
      ],
      [
        "R_",
        "SC"
      ],
      [
        "fo",
        "und"
      ],
      [
        "read",
        "s"
      ],
      [
        "init",
        "ializ"
      ],
      [
        "0x78",
        "00"
      ],
      [
        "Reg",
        "ister"
      ],
      [
        "BEE",
        "P"
      ],
      [
        "2",
        "9"
      ],
      [
        "D",
        "isplay"
      ],
      [
        "L",
        "S"
      ],
      [
        "m",
        "sg"
      ],
      [
        "m",
        "ix"
      ],
      [
        "v",
        "x"
      ],
      [
        "in",
        "ter"
      ],
      [
        "re",
        "main"
      ],
      [
        "CC",
        "CC"
      ],
      [
        "advance",
        "_to_"
      ],
      [
        "dec",
        "imal"
      ],
      [
        "dir",
        "ty"
      ],
      [
        "DIR",
        "TY"
      ],
      [
        "C",
        "lo"
      ],
      [
        "F",
        "or"
      ],
      [
        "c",
        "ross"
      ],
      [
        "h",
        "ome"
      ],
      [
        "m",
        "ar"
      ],
      [
        "r",
        "ing"
      ],
      [
        "or",
        "g"
      ],
      [
        "he",
        "lp"
      ],
      [
        "10",
        "2"
      ],
      [
        "ch",
        "k"
      ],
      [
        "ct",
        "s"
      ],
      [
        "ti",
        "ck"
      ],
      [
        "sp",
        "ec"
      ],
      [
        "do",
        "_newline"
      ],
      [
        "ac",
        "ter"
      ],
      [
        "sig",
        "ned"
      ],
      [
        "secon",
        "ds"
      ],
      [
        "cd",
        "l"
      ],
      [
        "5",
        "6"
      ],
      [
        "M",
        "M"
      ],
      [
        "P",
        "lay"
      ],
      [
        "_",
        "type"
      ],
      [
        "d",
        "st"
      ],
      [
        "0x",
        "AA"
      ],
      [
        "────",
        "──"
      ],
      [
        "ne",
        "ed"
      ],
      [
        "100",
        "00"
      ],
      [
        "si",
        "de"
      ],
      [
        "write",
        "s"
      ],
      [
        "save",
        "d"
      ],
      [
        "ont",
        "al"
      ],
      [
        "camera",
        "_x"
      ],
      [
        "hel",
        "lo"
      ],
      [
        "sho",
        "uld"
      ],
      [
        "8",
        "7"
      ],
      [
        "d",
        "in"
      ],
      [
        "h",
        "en"
      ],
      [
        "i",
        "te"
      ],
      [
        "p",
        "ack"
      ],
      [
        "s",
        "x"
      ],
      [
        "t",
        "ran"
      ],
      [
        "w",
        "al"
      ],
      [
        "0x",
        "C"
      ],
      [
        "or",
        "ange"
      ],
      [
        "se",
        "quen"
      ],
      [
        "ro",
        "ls"
      ],
      [
        "ra",
        "p"
      ],
      [
        "MO",
        "DE"
      ],
      [
        "bo",
        "dy"
      ],
      [
        "char",
        "acter"
      ],
      [
        "li",
        "st"
      ],
      [
        "STATU",
        "S"
      ],
      [
        "pb_csi",
        "_"
      ],
      [
        "sgr",
        "_ret"
      ],
      [
        "2",
        "1"
      ],
      [
        "4",
        "5"
      ],
      [
        "F",
        "E"
      ],
      [
        "M",
        "ain"
      ],
      [
        "N",
        "o"
      ],
      [
        "R",
        "Y"
      ],
      [
        "S",
        "pa"
      ],
      [
        "_",
        "input"
      ],
      [
        "s",
        "up"
      ],
      [
        "le",
        "te"
      ],
      [
        "ro",
        "p"
      ],
      [
        "str",
        "c"
      ],
      [
        "0x00",
        "FFFF"
      ],
      [
        "_ne",
        "xt_"
      ],
      [
        "key",
        "s"
      ],
      [
        "register",
        "s"
      ],
      [
        "sig",
        "n"
      ],
      [
        "En",
        "ter"
      ],
      [
        "stri",
        "pe"
      ],
      [
        "+",
        "="
      ],
      [
        "8",
        "_"
      ],
      [
        "A",
        "p"
      ],
      [
        "o",
        "om"
      ],
      [
        "in",
        "te"
      ],
      [
        "at",
        "ive"
      ],
      [
        "to",
        "tal"
      ],
      [
        "as",
        "te"
      ],
      [
        "t_",
        "in"
      ],
      [
        "ri",
        "ck"
      ],
      [
        "sc",
        "ale"
      ],
      [
        "TE",
        "R"
      ],
      [
        "0x7",
        "00"
      ],
      [
        "wit",
        "ch"
      ],
      [
        "M_",
        "BASE"
      ],
      [
        "CE",
        "LL"
      ],
      [
        "Pi",
        "xel"
      ],
      [
        "tim",
        "er"
      ],
      [
        "\"",
        ")"
      ],
      [
        "C",
        "L"
      ],
      [
        "U",
        "T"
      ],
      [
        "m",
        "ask"
      ],
      [
        "in",
        "s"
      ],
      [
        "re",
        "place"
      ],
      [
        "on",
        "al"
      ],
      [
        "se",
        "l"
      ],
      [
        "ra",
        "ct"
      ],
      [
        "10",
        "9"
      ],
      [
        "sc",
        "ape"
      ],
      [
        "0x4",
        "44"
      ],
      [
        "ti",
        "p"
      ],
      [
        "con",
        "ne"
      ],
      [
        "ag",
        "onal"
      ],
      [
        "poin",
        "t_in"
      ],
      [
        "termin",
        "al"
      ],
      [
        "pre",
        "v"
      ],
      [
        "cm",
        "d"
      ],
      [
        "KEY",
        "_"
      ],
      [
        "0x8",
        "000"
      ],
      [
        "LIN",
        "K"
      ],
      [
        "tr",
        "l"
      ],
      [
        "slo",
        "t"
      ],
      [
        "advance_to_",
        "null"
      ],
      [
        "1",
        "40"
      ],
      [
        "4",
        "7"
      ],
      [
        "9",
        "1"
      ],
      [
        "E",
        "ach"
      ],
      [
        "R",
        "S"
      ],
      [
        "a",
        "i"
      ],
      [
        "f",
        "ine"
      ],
      [
        "h",
        "as"
      ],
      [
        "r",
        "u"
      ],
      [
        "w",
        "here"
      ],
      [
        "z",
        "oom"
      ],
      [
        "at",
        "ure"
      ],
      [
        "ro",
        "ut"
      ],
      [
        "TI",
        "ME"
      ],
      [
        "0x00",
        "0000"
      ],
      [
        "rig",
        "h"
      ],
      [
        "termin",
        "ator"
      ],
      [
        "stru",
        "ct_"
      ],
      [
        "CM",
        "D_"
      ],
      [
        "(",
        "\""
      ],
      [
        "4",
        "x"
      ],
      [
        "5",
        "3"
      ],
      [
        "U",
        "RL"
      ],
      [
        "b",
        "ber"
      ],
      [
        "o",
        "d"
      ],
      [
        "p",
        "ass"
      ],
      [
        "s",
        "ame"
      ],
      [
        "t",
        "n"
      ],
      [
        "u",
        "res"
      ],
      [
        "he",
        "ll"
      ],
      [
        "0x5",
        "0"
      ],
      [
        "li",
        "c"
      ],
      [
        "In",
        "put"
      ],
      [
        "tar",
        "get_"
      ],
      [
        "SCROLL",
        "_"
      ],
      [
        "hal",
        "f"
      ],
      [
        "buil",
        "d_"
      ],
      [
        "Mem",
        "ory"
      ],
      [
        "C",
        "ursor"
      ],
      [
        "E",
        "x"
      ],
      [
        "F",
        "G"
      ],
      [
        "U",
        "SE"
      ],
      [
        "W",
        "a"
      ],
      [
        "v",
        "a"
      ],
      [
        "in",
        "u"
      ],
      [
        "le",
        "r"
      ],
      [
        "or",
        "mal"
      ],
      [
        "he",
        "ight"
      ],
      [
        "me",
        "ss"
      ],
      [
        "col",
        "s"
      ],
      [
        "do",
        "t"
      ],
      [
        "si",
        "mple"
      ],
      [
        "iz",
        "e"
      ],
      [
        "space",
        "s"
      ],
      [
        "pa",
        "int"
      ],
      [
        "Build",
        "ing"
      ],
      [
        "ok",
        "up"
      ],
      [
        "_dir",
        "ty"
      ],
      [
        "rout",
        "ine"
      ],
      [
        "mess",
        "age"
      ],
      [
        "6",
        "2"
      ],
      [
        "7",
        "1"
      ],
      [
        "8",
        "5"
      ],
      [
        "Z",
        "E"
      ],
      [
        "b",
        "tn"
      ],
      [
        "d",
        "ing"
      ],
      [
        "h",
        "u"
      ],
      [
        "w",
        "ard"
      ],
      [
        "RE",
        "EN"
      ],
      [
        "0x",
        "11"
      ],
      [
        "11",
        "7"
      ],
      [
        "the",
        "m"
      ],
      [
        "CO",
        "N"
      ],
      [
        "lay",
        "out"
      ],
      [
        "GE",
        "T"
      ],
      [
        "_s",
        "hift"
      ],
      [
        "tab",
        "_"
      ],
      [
        "────────────────────────────────",
        "─"
      ],
      [
        "render",
        "_"
      ],
      [
        "spawn",
        "_"
      ],
      [
        "squ",
        "are"
      ],
      [
        "wal",
        "k"
      ],
      [
        "!",
        "\""
      ],
      [
        "B",
        "LINK"
      ],
      [
        "C",
        "V"
      ],
      [
        "H",
        "EX"
      ],
      [
        "P",
        "C"
      ],
      [
        "P",
        "E"
      ],
      [
        "V",
        "I"
      ],
      [
        "c",
        "u"
      ],
      [
        "d",
        "n"
      ],
      [
        "d",
        "rag"
      ],
      [
        "f",
        "low"
      ],
      [
        "g",
        "gle"
      ],
      [
        "i",
        "i"
      ],
      [
        "m",
        "at"
      ],
      [
        "p",
        "ur"
      ],
      [
        "r",
        "on"
      ],
      [
        "s",
        "b"
      ],
      [
        "w",
        "as"
      ],
      [
        "an",
        "s"
      ],
      [
        "0x4",
        "30"
      ],
      [
        "ND",
        "E"
      ],
      [
        "di",
        "rect"
      ],
      [
        "0x2",
        "100"
      ],
      [
        "0x5",
        "3"
      ],
      [
        "ten",
        "s"
      ],
      [
        "opcode",
        "s"
      ],
      [
        "ME",
        "M"
      ],
      [
        "chan",
        "ge"
      ],
      [
        "clo",
        "se"
      ],
      [
        "asc",
        "iz"
      ],
      [
        "visi",
        "ble"
      ],
      [
        "9",
        "6"
      ],
      [
        "D",
        "D"
      ],
      [
        "S",
        "P_"
      ],
      [
        "a",
        "u"
      ],
      [
        "b",
        "right"
      ],
      [
        "f",
        "l"
      ],
      [
        "w",
        "hen"
      ],
      [
        "on",
        "ly"
      ],
      [
        "ar",
        "g"
      ],
      [
        "co",
        "s"
      ],
      [
        "it",
        "h"
      ],
      [
        "ro",
        "om"
      ],
      [
        "LO",
        "OP"
      ],
      [
        "MO",
        "USE"
      ],
      [
        "us",
        "age"
      ],
      [
        "wor",
        "k"
      ],
      [
        "RI",
        "TE"
      ],
      [
        "SI",
        "ZE"
      ],
      [
        "In",
        "crement"
      ],
      [
        "app",
        "end"
      ],
      [
        "rect",
        "angle"
      ],
      [
        "AL",
        "AR"
      ],
      [
        "horiz",
        "ontal"
      ],
      [
        "ifi",
        "c"
      ],
      [
        "R_SC",
        "R"
      ],
      [
        "1",
        "30"
      ],
      [
        "5",
        "2"
      ],
      [
        "B",
        "l"
      ],
      [
        "C",
        "ont"
      ],
      [
        "F",
        "B"
      ],
      [
        "_",
        "left"
      ],
      [
        "d",
        "b"
      ],
      [
        "n",
        "av"
      ],
      [
        "s",
        "ing"
      ],
      [
        "w",
        "rap"
      ],
      [
        "x",
        "8"
      ],
      [
        "RE",
        "CV"
      ],
      [
        "se",
        "ed"
      ],
      [
        "RO",
        "O"
      ],
      [
        "r25",
        "6"
      ],
      [
        "ut",
        "ion"
      ],
      [
        "ma",
        "g"
      ],
      [
        "di",
        "ent"
      ],
      [
        "di",
        "agonal"
      ],
      [
        "draw",
        "ing"
      ],
      [
        "256",
        "x"
      ],
      [
        "22",
        "4"
      ],
      [
        "AR",
        "T"
      ],
      [
        "sg",
        "r256"
      ],
      [
        "NE",
        "M"
      ],
      [
        "no_",
        "input"
      ],
      [
        "St",
        "atus"
      ],
      [
        "pan",
        "el"
      ],
      [
        "mar",
        "k_"
      ],
      [
        "UT",
        "F"
      ],
      [
        "pur",
        "ple"
      ],
      [
        "F",
        "o"
      ],
      [
        "N",
        "U"
      ],
      [
        "N",
        "OR"
      ],
      [
        "O",
        "p"
      ],
      [
        "R",
        "G"
      ],
      [
        "S",
        "PA"
      ],
      [
        "T",
        "er"
      ],
      [
        "b",
        "righ"
      ],
      [
        "d",
        "en"
      ],
      [
        "e",
        "t_"
      ],
      [
        "f",
        "ont"
      ],
      [
        "m",
        "ine"
      ],
      [
        "p",
        "h"
      ],
      [
        "s",
        "ition"
      ],
      [
        "de",
        "mon"
      ],
      [
        "un",
        "known"
      ],
      [
        "SH",
        "LI"
      ],
      [
        "ct",
        "ually"
      ],
      [
        "0x4",
        "1"
      ],
      [
        "di",
        "ffe"
      ],
      [
        "MA",
        "L"
      ],
      [
        "vis",
        "ual"
      ],
      [
        "string",
        "s"
      ],
      [
        "ran",
        "ge"
      ],
      [
        "parse",
        "_"
      ],
      [
        "ile",
        "d"
      ],
      [
        "str_",
        "hello"
      ],
      [
        "let",
        "te"
      ],
      [
        "enem",
        "y"
      ],
      [
        "man",
        "age"
      ],
      [
        "TICK",
        "S"
      ],
      [
        "initializ",
        "es"
      ],
      [
        "DIRTY",
        "_"
      ],
      [
        "256x",
        "256"
      ],
      [
        "NOR",
        "MAL"
      ],
      [
        "6",
        "3"
      ],
      [
        "9",
        "3"
      ],
      [
        "E",
        "NEM"
      ],
      [
        "I",
        "D"
      ],
      [
        "I",
        "T"
      ],
      [
        "M",
        "S"
      ],
      [
        "S",
        "S"
      ],
      [
        "U",
        "P"
      ],
      [
        "d",
        "ri"
      ],
      [
        "p",
        "op"
      ],
      [
        "p",
        "ush"
      ],
      [
        "s",
        "hi"
      ],
      [
        "an",
        "y"
      ],
      [
        "de",
        "l"
      ],
      [
        "LO",
        "SE"
      ],
      [
        "al",
        "arm"
      ],
      [
        "to",
        "ur"
      ],
      [
        "op",
        "en"
      ],
      [
        "12",
        "6"
      ],
      [
        "TI",
        "T"
      ],
      [
        "con",
        "tour"
      ],
      [
        "_ne",
        "g"
      ],
      [
        "start",
        "s"
      ],
      [
        "store",
        "_"
      ],
      [
        "be",
        "t"
      ],
      [
        "copy",
        "_"
      ],
      [
        "pa",
        "st"
      ],
      [
        "after",
        "_input"
      ],
      [
        "BB",
        "BB"
      ],
      [
        "0x0000",
        "FF"
      ],
      [
        "anim",
        "ation"
      ],
      [
        "Sc",
        "reen"
      ],
      [
        "oper",
        "ations"
      ],
      [
        "CP",
        "Y"
      ],
      [
        "0x120",
        "1"
      ],
      [
        "fine",
        "_hash"
      ],
      [
        "diffe",
        "rent"
      ],
      [
        "4",
        "FF"
      ],
      [
        "B",
        "ack"
      ],
      [
        "M",
        "o"
      ],
      [
        "N",
        "T"
      ],
      [
        "V",
        "FS"
      ],
      [
        "W",
        "in"
      ],
      [
        "f",
        "le"
      ],
      [
        "h",
        "k_ret"
      ],
      [
        "l",
        "d"
      ],
      [
        "m",
        "ark"
      ],
      [
        "n",
        "ibble"
      ],
      [
        "in",
        "ue"
      ],
      [
        "FF",
        "44"
      ],
      [
        "ent",
        "i"
      ],
      [
        "0x7",
        "0"
      ],
      [
        "ul",
        "ator"
      ],
      [
        "TI",
        "LE"
      ],
      [
        "TI",
        "LE_"
      ],
      [
        "0x1",
        "70"
      ],
      [
        "gra",
        "dient"
      ],
      [
        "no_",
        "key"
      ],
      [
        "MA",
        "IN"
      ],
      [
        "_reg",
        "s"
      ],
      [
        "ANS_",
        "NORMAL"
      ],
      [
        "acc",
        "ent"
      ],
      [
        "SG",
        "R"
      ],
      [
        "wr",
        "it"
      ],
      [
        "remain",
        "ing"
      ],
      [
        "Cont",
        "rols"
      ],
      [
        "1",
        "80"
      ],
      [
        "2",
        "48"
      ],
      [
        "F",
        "O"
      ],
      [
        "L",
        "U"
      ],
      [
        "L",
        "e"
      ],
      [
        "M",
        "ove"
      ],
      [
        "_",
        "right"
      ],
      [
        "c",
        "il"
      ],
      [
        "c",
        "ap"
      ],
      [
        "c",
        "cess"
      ],
      [
        "c",
        "hes"
      ],
      [
        "d",
        "ay"
      ],
      [
        "e",
        "y"
      ],
      [
        "t",
        "wo"
      ],
      [
        "v",
        "ation"
      ],
      [
        "RE",
        "SP"
      ],
      [
        "me",
        "ans"
      ],
      [
        "ch",
        "o"
      ],
      [
        "ne",
        "ar"
      ],
      [
        "one",
        "s"
      ],
      [
        "ut",
        "put"
      ],
      [
        "12",
        "4"
      ],
      [
        "us",
        "er"
      ],
      [
        "li",
        "ke"
      ],
      [
        "gra",
        "y"
      ],
      [
        "pb",
        "_esc"
      ],
      [
        "AN",
        "SI"
      ],
      [
        "MA",
        "P_"
      ],
      [
        "we",
        "en"
      ],
      [
        "....",
        ")"
      ],
      [
        "non",
        "zero"
      ],
      [
        "0x88",
        "88"
      ],
      [
        "fun",
        "ction"
      ],
      [
        "bber",
        "s"
      ],
      [
        "\"",
        ","
      ],
      [
        "\"",
        "/"
      ],
      [
        "T",
        "AB"
      ],
      [
        "W",
        "_"
      ],
      [
        "W",
        "RITE"
      ],
      [
        "_",
        "r"
      ],
      [
        "_",
        "screen"
      ],
      [
        "a",
        "st"
      ],
      [
        "e",
        "p"
      ],
      [
        "f",
        "ig"
      ],
      [
        "s",
        "hell"
      ],
      [
        "t",
        "ree"
      ],
      [
        "w",
        "u"
      ],
      [
        "lo",
        "okup"
      ],
      [
        "ce",
        "p"
      ],
      [
        "no",
        "_c"
      ],
      [
        "0x4",
        "00"
      ],
      [
        "ti",
        "cal"
      ],
      [
        "16",
        "x"
      ],
      [
        "ab",
        "s"
      ],
      [
        "0x2",
        "200"
      ],
      [
        "screen",
        "_x"
      ],
      [
        "hi",
        "_done"
      ],
      [
        "IN",
        "G"
      ],
      [
        "id",
        "le"
      ],
      [
        "cre",
        "ate"
      ],
      [
        "_e",
        "q"
      ],
      [
        "ser",
        "t"
      ],
      [
        "Pro",
        "cess"
      ],
      [
        "Ad",
        "vance"
      ],
      [
        "coor",
        "din"
      ],
      [
        "tri",
        "angle"
      ],
      [
        "boun",
        "ce"
      ],
      [
        "_cl",
        "r"
      ],
      [
        "Play",
        "er"
      ],
      [
        "ENEM",
        "Y"
      ],
      [
        "bet",
        "ween"
      ],
      [
        "5",
        "4"
      ],
      [
        "E",
        "ND"
      ],
      [
        "V",
        "_"
      ],
      [
        "_",
        "color"
      ],
      [
        "c",
        "x"
      ],
      [
        "d",
        "_done"
      ],
      [
        "e",
        "qu"
      ],
      [
        "e",
        "ffe"
      ],
      [
        "f",
        "w"
      ],
      [
        "m",
        "y"
      ],
      [
        "s",
        "end"
      ],
      [
        "t_",
        "loop"
      ],
      [
        "11",
        "8"
      ],
      [
        "11",
        "9"
      ],
      [
        "bl",
        "ink"
      ],
      [
        "0x5",
        "50"
      ],
      [
        "do",
        "_s"
      ],
      [
        "0x6",
        "100"
      ],
      [
        "────────────────────────────────",
        "────────────────"
      ],
      [
        "22",
        "2"
      ],
      [
        "ac",
        "he"
      ],
      [
        "mm",
        "_"
      ],
      [
        "handle",
        "r"
      ],
      [
        "ol",
        "d"
      ],
      [
        "mc",
        "_check"
      ],
      [
        "stan",
        "ts"
      ],
      [
        "CM",
        "D"
      ],
      [
        "acc",
        "um"
      ],
      [
        "turn",
        "s"
      ],
      [
        "csi",
        "_cursor"
      ],
      [
        "sequen",
        "ce"
      ],
      [
        ")",
        "->"
      ],
      [
        "7",
        "4"
      ],
      [
        "7",
        "8"
      ],
      [
        "A",
        "l"
      ],
      [
        "D",
        "emon"
      ],
      [
        "H",
        "E"
      ],
      [
        "P",
        "o"
      ],
      [
        "V",
        "AL"
      ],
      [
        "_",
        "buf"
      ],
      [
        "b",
        "g"
      ],
      [
        "b",
        "rick"
      ],
      [
        "d",
        "p"
      ],
      [
        "d",
        "is"
      ],
      [
        "h",
        "l_"
      ],
      [
        "j",
        "e"
      ],
      [
        "m",
        "s"
      ],
      [
        "p",
        "ing"
      ],
      [
        "p",
        "ut_"
      ],
      [
        "r",
        "ary"
      ],
      [
        "s",
        "ion"
      ],
      [
        "s",
        "witch"
      ],
      [
        "v",
        "ol"
      ],
      [
        "DI",
        "SP_"
      ],
      [
        "in",
        "fo"
      ],
      [
        "le",
        "d"
      ],
      [
        "st",
        "or"
      ],
      [
        "de",
        "tail"
      ],
      [
        "_c",
        "p"
      ],
      [
        "di",
        "r_"
      ],
      [
        "0x2",
        "20"
      ],
      [
        "screen",
        "_y"
      ],
      [
        "0x5",
        "100"
      ],
      [
        "ex",
        "it"
      ],
      [
        "0xF",
        "D00"
      ],
      [
        "ten",
        "ded"
      ],
      [
        "0x780",
        "1"
      ],
      [
        "worl",
        "d"
      ],
      [
        "St",
        "ate"
      ],
      [
        "Con",
        "vert"
      ],
      [
        "ser",
        "vi"
      ],
      [
        "exec",
        "ute"
      ],
      [
        "secon",
        "d"
      ],
      [
        "0x44",
        "FF44"
      ],
      [
        "do_re",
        "ct"
      ],
      [
        "Ter",
        "min"
      ],
      [
        "equ",
        "al"
      ],
      [
        "8",
        "x8"
      ],
      [
        "9",
        "5"
      ],
      [
        "A",
        "ctually"
      ],
      [
        "C",
        "SI"
      ],
      [
        "S",
        "LI"
      ],
      [
        "T",
        "RA"
      ],
      [
        "U",
        "TI"
      ],
      [
        "e",
        "cho"
      ],
      [
        "k",
        "y"
      ],
      [
        "l",
        "ing"
      ],
      [
        "w",
        "i"
      ],
      [
        "0x",
        "10"
      ],
      [
        "at",
        "ures"
      ],
      [
        "ro",
        "l"
      ],
      [
        "to",
        "ggle"
      ],
      [
        "and",
        "s"
      ],
      [
        "pi",
        "ck"
      ],
      [
        "ver",
        "se"
      ],
      [
        "buffer",
        "s"
      ],
      [
        "pat",
        "ch"
      ],
      [
        "DE",
        "R_"
      ],
      [
        "gra",
        "du"
      ],
      [
        "Co",
        "un"
      ],
      [
        "St",
        "art"
      ],
      [
        "whi",
        "ch"
      ],
      [
        "result",
        "s"
      ],
      [
        "compute",
        "d"
      ],
      [
        "cmd_",
        "is"
      ],
      [
        "command",
        "s"
      ],
      [
        "wall",
        "s"
      ],
      [
        "camera",
        "_y"
      ],
      [
        "inclu",
        "des"
      ],
      [
        "vari",
        "ation"
      ],
      [
        "csi",
        "_"
      ],
      [
        "instru",
        "ction"
      ],
      [
        "fix",
        "ed"
      ],
      [
        "_di",
        "v"
      ],
      [
        "MEM",
        "CPY"
      ],
      [
        "sgr256",
        "_ret"
      ],
      [
        "UTF",
        "8_"
      ],
      [
        "RG",
        "B"
      ],
      [
        "Le",
        "ft"
      ],
      [
        "16x",
        "16"
      ],
      [
        "Demon",
        "strates"
      ],
      [
        "SLI",
        "DER_"
      ],
      [
        "gradu",
        "ated"
      ],
      [
        "5",
        "7"
      ],
      [
        "B",
        "ar"
      ],
      [
        "C",
        "trl"
      ],
      [
        "F",
        "ill"
      ],
      [
        "N",
        "A"
      ],
      [
        "P",
        "at"
      ],
      [
        "R",
        "ight"
      ],
      [
        "S",
        "o"
      ],
      [
        "X",
        "_"
      ],
      [
        "_",
        "A"
      ],
      [
        "_",
        "LEN"
      ],
      [
        "_",
        "fail"
      ],
      [
        "b",
        "ran"
      ],
      [
        "d",
        "c"
      ],
      [
        "d",
        "f"
      ],
      [
        "d",
        "ur"
      ],
      [
        "o",
        "i"
      ],
      [
        "v",
        "en"
      ],
      [
        "ST",
        "E"
      ],
      [
        "ST",
        "_"
      ],
      [
        "at",
        "oi"
      ],
      [
        "un",
        "ti"
      ],
      [
        "0x4",
        "2"
      ],
      [
        "th",
        "ing"
      ],
      [
        "code",
        "s"
      ],
      [
        "0x0",
        "600"
      ],
      [
        "IN",
        "E"
      ],
      [
        "buf",
        "_a"
      ],
      [
        "player",
        "_x"
      ],
      [
        "cy",
        "cle"
      ],
      [
        "_f",
        "in"
      ],
      [
        "exec",
        "_done"
      ],
      [
        "exec",
        "ution"
      ],
      [
        "tra",
        "ce"
      ],
      [
        "gre",
        "p_"
      ],
      [
        "SEL",
        "_"
      ],
      [
        "neg",
        "ative"
      ],
      [
        "pl",
        "an"
      ],
      [
        "mix",
        "er"
      ],
      [
        "inte",
        "ra"
      ],
      [
        "sel",
        "f"
      ],
      [
        "coordin",
        "ates"
      ],
      [
        "Termin",
        "al"
      ],
      [
        "'",
        "/"
      ],
      [
        "A",
        "r"
      ],
      [
        "B",
        "AR"
      ],
      [
        "B",
        "ot"
      ],
      [
        "D",
        "4"
      ],
      [
        "O",
        "utput"
      ],
      [
        "S",
        "MA"
      ],
      [
        "T",
        "ile"
      ],
      [
        "U",
        "se"
      ],
      [
        "W",
        "or"
      ],
      [
        "c",
        "at"
      ],
      [
        "f",
        "g"
      ],
      [
        "p",
        "add"
      ],
      [
        "s",
        "q"
      ],
      [
        "s",
        "w"
      ],
      [
        "t",
        "ing"
      ],
      [
        "in",
        "c"
      ],
      [
        "0x",
        "E"
      ],
      [
        "on",
        "g"
      ],
      [
        "ra",
        "l"
      ],
      [
        "LL",
        "TEXT"
      ],
      [
        "0xFF",
        "E"
      ],
      [
        "0x7",
        "6"
      ],
      [
        "16",
        "0"
      ],
      [
        "CT",
        "I"
      ],
      [
        "bo",
        "ot"
      ],
      [
        "_s",
        "ize"
      ],
      [
        "0x0",
        "C0"
      ],
      [
        "set",
        "s"
      ],
      [
        "────────────────────────────────",
        "─────────────────────────────────"
      ],
      [
        "use",
        "d"
      ],
      [
        "0x780",
        "8"
      ],
      [
        "su",
        "ccess"
      ],
      [
        "ru",
        "le"
      ],
      [
        "ALAR",
        "M_"
      ],
      [
        "demon",
        "strates"
      ],
      [
        "Win",
        "dow"
      ],
      [
        "CMD",
        "_BUF"
      ],
      [
        "'/",
        "'"
      ],
      [
        "Bot",
        "tom"
      ],
      [
        "SMA",
        "LLTEXT"
      ],
      [
        "'",
        ","
      ],
      [
        "7",
        "00"
      ],
      [
        "A",
        "n"
      ],
      [
        "C",
        "W"
      ],
      [
        "C",
        "LOSE"
      ],
      [
        "G",
        "reen"
      ],
      [
        "G",
        "REEN"
      ],
      [
        "H",
        "andle"
      ],
      [
        "S",
        "tep"
      ],
      [
        "_",
        "len"
      ],
      [
        "_",
        "not_"
      ],
      [
        "c",
        "v"
      ],
      [
        "e",
        "ar"
      ],
      [
        "p",
        "ed"
      ],
      [
        "s",
        "now"
      ],
      [
        "in",
        "side"
      ],
      [
        "le",
        "vation"
      ],
      [
        "it",
        "or"
      ],
      [
        "ce",
        "ive"
      ],
      [
        "la",
        "va"
      ],
      [
        "0x2",
        "400"
      ],
      [
        "con",
        "vert"
      ],
      [
        "con",
        "fig"
      ],
      [
        "red",
        "s"
      ],
      [
        "start",
        "up"
      ],
      [
        "ds",
        "b"
      ],
      [
        "und",
        "reds"
      ],
      [
        "bit",
        "mask"
      ],
      [
        "am",
        "on"
      ],
      [
        "cl",
        "ip"
      ],
      [
        "save",
        "_"
      ],
      [
        "handle",
        "s"
      ],
      [
        "test",
        "s"
      ],
      [
        "blen",
        "d_"
      ],
      [
        "De",
        "mo"
      ],
      [
        "mon",
        "th"
      ],
      [
        "cor",
        "ner"
      ],
      [
        "clear_",
        "buf"
      ],
      [
        "PRO",
        "MP"
      ],
      [
        "...",
        "\""
      ],
      [
        "sa",
        "mple"
      ],
      [
        "htt",
        "p"
      ],
      [
        "ROO",
        "M_BASE"
      ],
      [
        "DISP_",
        "VAL"
      ],
      [
        "!",
        "="
      ],
      [
        "4",
        "6"
      ],
      [
        "8",
        "1"
      ],
      [
        "9",
        "00"
      ],
      [
        "E",
        "4"
      ],
      [
        "F",
        "in"
      ],
      [
        "H",
        "O"
      ],
      [
        "T",
        "ry"
      ],
      [
        "c",
        "p"
      ],
      [
        "e",
        "scape"
      ],
      [
        "i",
        "map"
      ],
      [
        "m",
        "x"
      ],
      [
        "o",
        "a"
      ],
      [
        "p",
        "ri"
      ],
      [
        "co",
        "arse"
      ],
      [
        "it",
        "oa"
      ],
      [
        "ter",
        "rain"
      ],
      [
        "ad",
        "j"
      ],
      [
        "RO",
        "UTI"
      ],
      [
        "SH",
        "RI"
      ],
      [
        "TE",
        "MP"
      ],
      [
        "0x7",
        "4"
      ],
      [
        "ver",
        "tical"
      ],
      [
        "0x5",
        "00"
      ],
      [
        "0x5",
        "300"
      ],
      [
        "star",
        "t_"
      ],
      [
        "0000",
        "000"
      ],
      [
        "pa",
        "lette"
      ],
      [
        "sgr_",
        "brigh"
      ],
      [
        "tk_",
        "arrow"
      ],
      [
        "tar",
        "get"
      ],
      [
        "Pi",
        "ece"
      ],
      [
        "inclu",
        "de"
      ],
      [
        "lib",
        "rary"
      ],
      [
        "SG",
        "R_"
      ],
      [
        "gu",
        "ment"
      ],
      [
        "DO",
        "WN"
      ],
      [
        "Clo",
        "bbers"
      ],
      [
        "Spa",
        "ce"
      ],
      [
        "TIME",
        "R"
      ],
      [
        "inu",
        "x"
      ],
      [
        "NDE",
        "D"
      ],
      [
        "TRA",
        "CE"
      ],
      [
        "PROMP",
        "T"
      ],
      [
        "ROUTI",
        "NE"
      ],
      [
        "sgr_brigh",
        "t_"
      ],
      [
        "2",
        "20"
      ],
      [
        "I",
        "TE"
      ],
      [
        "O",
        "ra"
      ],
      [
        "S",
        "ub"
      ],
      [
        "U",
        "I"
      ],
      [
        "a",
        "x"
      ],
      [
        "a",
        "ct"
      ],
      [
        "f",
        "re"
      ],
      [
        "i",
        "ter"
      ],
      [
        "v",
        "ing"
      ],
      [
        "w",
        "d"
      ],
      [
        "ST",
        "R"
      ],
      [
        "re",
        "r"
      ],
      [
        "or",
        "ig"
      ],
      [
        "co",
        "m"
      ],
      [
        "co",
        "pi"
      ],
      [
        "de",
        "ad"
      ],
      [
        "to",
        "ol"
      ],
      [
        "lo",
        "cal"
      ],
      [
        "ne",
        "t"
      ],
      [
        "_c",
        "on"
      ],
      [
        "col",
        "on"
      ],
      [
        "SUB",
        "ROUTINE"
      ],
      [
        "po",
        "ll"
      ],
      [
        "fi",
        "el"
      ],
      [
        "0x5",
        "30"
      ],
      [
        "0x6",
        "0"
      ],
      [
        "IN",
        "IT"
      ],
      [
        "CU",
        "RS"
      ],
      [
        "be",
        "fore"
      ],
      [
        "ac",
        "ross"
      ],
      [
        "0x780",
        "9"
      ],
      [
        "fa",
        "iled"
      ],
      [
        "over",
        "lap"
      ],
      [
        "0x9",
        "000"
      ],
      [
        "visi",
        "ted"
      ],
      [
        "STATUS_",
        "CW"
      ],
      [
        "CON",
        "NE"
      ],
      [
        "RECV",
        "_BUF"
      ],
      [
        "MS",
        "G_"
      ],
      [
        "RESP",
        "_BUF"
      ],
      [
        "padd",
        "le"
      ],
      [
        "Ora",
        "cle"
      ],
      [
        ")",
        "\""
      ],
      [
        "4",
        "3"
      ],
      [
        "A",
        "T"
      ],
      [
        "D",
        "U"
      ],
      [
        "H",
        "P"
      ],
      [
        "W",
        "1"
      ],
      [
        "_",
        "l"
      ],
      [
        "c",
        "b"
      ],
      [
        "c",
        "ing"
      ],
      [
        "h",
        "ave"
      ],
      [
        "h",
        "igh"
      ],
      [
        "n",
        "ormal"
      ],
      [
        "s",
        "af"
      ],
      [
        "t",
        "le"
      ],
      [
        "v",
        "1"
      ],
      [
        "ro",
        "id"
      ],
      [
        "_c",
        "re"
      ],
      [
        "TE",
        "NDED"
      ],
      [
        "R_",
        "CL"
      ],
      [
        "il",
        "ity"
      ],
      [
        "0x0",
        "3"
      ],
      [
        "════════════════════════════════",
        "═══════════════"
      ],
      [
        "with",
        "in"
      ],
      [
        "sh",
        "ared"
      ],
      [
        "ex",
        "ist"
      ],
      [
        "_o",
        "sc"
      ],
      [
        "bi",
        "as"
      ],
      [
        "ac",
        "le"
      ],
      [
        "so",
        "und"
      ],
      [
        "to_",
        "str"
      ],
      [
        "0x8",
        "0000000"
      ],
      [
        "game",
        "_over"
      ],
      [
        "CSI_PARAM",
        "2"
      ],
      [
        "EX",
        "TENDED"
      ],
      [
        "_n",
        "ame"
      ],
      [
        "Sc",
        "roll"
      ],
      [
        "horiz",
        "on"
      ],
      [
        "focus",
        "_"
      ],
      [
        "SAVE",
        "D_"
      ],
      [
        "_do",
        "_"
      ],
      [
        "**",
        ":"
      ],
      [
        "fun",
        "ctions"
      ],
      [
        "AS",
        "M"
      ],
      [
        "fore",
        "st"
      ],
      [
        "strc",
        "mp"
      ],
      [
        "0x444",
        "4FF"
      ],
      [
        "ai",
        "_"
      ],
      [
        "Pat",
        "tern"
      ],
      [
        "SGR_",
        "EXTENDED"
      ],
      [
        "C",
        "re"
      ],
      [
        "T",
        "ext"
      ],
      [
        "W",
        "A"
      ],
      [
        "_",
        "t"
      ],
      [
        "_",
        "line"
      ],
      [
        "c",
        "ase"
      ],
      [
        "f",
        "all"
      ],
      [
        "n",
        "one"
      ],
      [
        "p",
        "v_"
      ],
      [
        "STO",
        "RY"
      ],
      [
        "0x",
        "CCCC"
      ],
      [
        "re",
        "al"
      ],
      [
        "ra",
        "m"
      ],
      [
        "R_",
        "CC"
      ],
      [
        "0x7",
        "5"
      ],
      [
        "li",
        "m"
      ],
      [
        "sh",
        "ot"
      ],
      [
        "_check",
        "_eq"
      ],
      [
        "buf",
        "_c"
      ],
      [
        "render",
        "s"
      ],
      [
        "0xF",
        "A"
      ],
      [
        "ta",
        "in"
      ],
      [
        "HI",
        "STORY"
      ],
      [
        "cal",
        "c"
      ],
      [
        "Con",
        "stants"
      ],
      [
        "sin",
        "_"
      ],
      [
        "tra",
        "ck"
      ],
      [
        "cor",
        "rect"
      ],
      [
        "Lay",
        "er"
      ],
      [
        "pres",
        "er"
      ],
      [
        "Ad",
        "d"
      ],
      [
        "appro",
        "x"
      ],
      [
        "0xAA",
        "AA"
      ],
      [
        "NU",
        "M"
      ],
      [
        "bran",
        "ch"
      ],
      [
        "Wor",
        "ld"
      ],
      [
        "sq",
        "r"
      ],
      [
        "orig",
        "in"
      ],
      [
        "1",
        "44"
      ],
      [
        "8",
        "6"
      ],
      [
        "E",
        "C"
      ],
      [
        "F",
        "ra"
      ],
      [
        "L",
        "ine"
      ],
      [
        "M",
        "ark"
      ],
      [
        "P",
        "RE"
      ],
      [
        "P",
        "V_"
      ],
      [
        "R",
        "0"
      ],
      [
        "V",
        "er"
      ],
      [
        "]",
        "["
      ],
      [
        "_",
        "set"
      ],
      [
        "c",
        "n"
      ],
      [
        "c",
        "ache"
      ],
      [
        "g",
        "er"
      ],
      [
        "g",
        "host"
      ],
      [
        "n",
        "c"
      ],
      [
        "o",
        "id"
      ],
      [
        "q",
        "ue"
      ],
      [
        "v",
        "ity"
      ],
      [
        "x",
        "_loop"
      ],
      [
        "RE",
        "Q"
      ],
      [
        "at",
        "h"
      ],
      [
        "at",
        "t_"
      ],
      [
        "de",
        "v"
      ],
      [
        "de",
        "te"
      ],
      [
        "al",
        "so"
      ],
      [
        "_d",
        "rain"
      ],
      [
        "no",
        "te"
      ],
      [
        "row",
        "_dirty"
      ],
      [
        "0x4",
        "100"
      ],
      [
        "0x4",
        "28"
      ],
      [
        "0x4",
        "18"
      ],
      [
        "R_",
        "S"
      ],
      [
        "0x2",
        "2"
      ],
      [
        "con",
        "d"
      ],
      [
        "add",
        "res"
      ],
      [
        "CH",
        "A"
      ],
      [
        "if",
        "y"
      ],
      [
        "0x3",
        "00"
      ],
      [
        "wa",
        "ys"
      ],
      [
        "MA",
        "T"
      ],
      [
        "debug",
        "_"
      ],
      [
        "asc",
        "ii"
      ],
      [
        "coor",
        "ds"
      ],
      [
        "region",
        "s"
      ],
      [
        "sele",
        "cted"
      ],
      [
        "oth",
        "er"
      ],
      [
        "pv",
        "_regs"
      ],
      [
        "htt",
        "p_"
      ],
      [
        "spec",
        "ific"
      ],
      [
        "4x",
        "4"
      ],
      [
        "fl",
        "at"
      ],
      [
        "MOUSE",
        "Q"
      ],
      [
        "mark_",
        "row_dirty"
      ],
      [
        "SPA",
        "WN"
      ],
      [
        "DU",
        "R_"
      ],
      [
        "addres",
        "ses"
      ],
      [
        "\"",
        "["
      ],
      [
        "H",
        "AND"
      ],
      [
        "N",
        "ING"
      ],
      [
        "O",
        "K"
      ],
      [
        "P",
        "re"
      ],
      [
        "P",
        "EE"
      ],
      [
        "P",
        "arse"
      ],
      [
        "T",
        "op"
      ],
      [
        "T",
        "ab"
      ],
      [
        "d",
        "r_"
      ],
      [
        "d",
        "den"
      ],
      [
        "h",
        "undreds"
      ],
      [
        "i",
        "ck"
      ],
      [
        "s",
        "ky"
      ],
      [
        "x",
        "32"
      ],
      [
        "0x",
        "100"
      ],
      [
        "────",
        "─"
      ],
      [
        "st",
        "ill"
      ],
      [
        "it",
        "_"
      ],
      [
        "it",
        "ies"
      ],
      [
        "de",
        "p"
      ],
      [
        "ra",
        "di"
      ],
      [
        "================",
        "========"
      ],
      [
        "lo",
        "se"
      ],
      [
        "_d",
        "y"
      ],
      [
        "ve",
        "loc"
      ],
      [
        "ent",
        "a"
      ],
      [
        "th",
        "ree"
      ],
      [
        "di",
        "amon"
      ],
      [
        "draw",
        "_s"
      ],
      [
        "ren",
        "de"
      ],
      [
        "hi",
        "dden"
      ],
      [
        "================================",
        "========================"
      ],
      [
        "0x5",
        "200"
      ],
      [
        "_s",
        "ave"
      ],
      [
        "0x0",
        "400"
      ],
      [
        "0x6",
        "200"
      ],
      [
        "fra",
        "c"
      ],
      [
        "0xF",
        "9"
      ],
      [
        "ag",
        "ain"
      ],
      [
        "FI",
        "LE"
      ],
      [
        "termin",
        "ated"
      ],
      [
        "13",
        "6"
      ],
      [
        "write_",
        "prompt"
      ],
      [
        "A1",
        "E"
      ],
      [
        "anim",
        "al"
      ],
      [
        "sub",
        "tra"
      ],
      [
        "0x0A0",
        "A1E"
      ],
      [
        "pr",
        "int_"
      ],
      [
        "instru",
        "ctions"
      ],
      [
        "RUN",
        "NING"
      ],
      [
        "Ap",
        "pend"
      ],
      [
        "aste",
        "roid"
      ],
      [
        "CMD_",
        "HI"
      ],
      [
        "mag",
        "enta"
      ],
      [
        "unti",
        "l"
      ],
      [
        "CTI",
        "VE"
      ],
      [
        "lim",
        "it"
      ],
      [
        "Fra",
        "me"
      ],
      [
        "PEE",
        "K"
      ],
      [
        "(",
        "`"
      ],
      [
        ".",
        "\""
      ],
      [
        "1",
        "px"
      ],
      [
        "2",
        "30"
      ],
      [
        "B",
        "o"
      ],
      [
        "K",
        "ey"
      ],
      [
        "L",
        "inux"
      ],
      [
        "P",
        "a"
      ],
      [
        "_",
        "1"
      ],
      [
        "_",
        "and"
      ],
      [
        "_",
        "init"
      ],
      [
        "_",
        "label"
      ],
      [
        "m",
        "u"
      ],
      [
        "in",
        "put_"
      ],
      [
        "st",
        "one"
      ],
      [
        "de",
        "lete"
      ],
      [
        "al",
        "ways"
      ],
      [
        "lo",
        "g"
      ],
      [
        "_d",
        "rop"
      ],
      [
        "ve",
        "d"
      ],
      [
        "_c",
        "ont"
      ],
      [
        "bu",
        "l"
      ],
      [
        "11",
        "11"
      ],
      [
        "0x4",
        "24"
      ],
      [
        "0x7",
        "600"
      ],
      [
        "d_",
        "loop"
      ],
      [
        "ma",
        "ze"
      ],
      [
        "0x00",
        "FF"
      ],
      [
        "wor",
        "d_"
      ],
      [
        "0x1",
        "4"
      ],
      [
        "0x1",
        "A"
      ],
      [
        "start",
        "ing"
      ],
      [
        "0x3",
        "100"
      ],
      [
        "ROW",
        "_"
      ],
      [
        "enter",
        "_digit"
      ],
      [
        "app",
        "ly"
      ],
      [
        "su",
        "m"
      ],
      [
        "file",
        "s"
      ],
      [
        "player",
        "_y"
      ],
      [
        "run",
        "s"
      ],
      [
        "rot",
        "0"
      ],
      [
        "0x40D",
        "1"
      ],
      [
        "0x40D",
        "2"
      ],
      [
        "over",
        "flow"
      ],
      [
        "program",
        "s"
      ],
      [
        "update",
        "s"
      ],
      [
        "get_",
        "tab_"
      ],
      [
        "Pro",
        "ves"
      ],
      [
        "mul",
        "ti"
      ],
      [
        "Bl",
        "ue"
      ],
      [
        "enti",
        "re"
      ],
      [
        "writ",
        "ten"
      ],
      [
        "ENEMY",
        "_BASE"
      ],
      [
        "Po",
        "sition"
      ],
      [
        "Coun",
        "t"
      ],
      [
        "PROMPT",
        "_BUF"
      ],
      [
        "saf",
        "e"
      ],
      [
        "_cont",
        "inue"
      ],
      [
        "'",
        ")"
      ],
      [
        "'",
        "."
      ],
      [
        "D",
        "Y"
      ],
      [
        "F",
        "T"
      ],
      [
        "F",
        "ile"
      ],
      [
        "H",
        "A"
      ],
      [
        "N",
        "ext"
      ],
      [
        "P",
        "S"
      ],
      [
        "_",
        "addr"
      ],
      [
        "c",
        "v_"
      ],
      [
        "d",
        "rop"
      ],
      [
        "k",
        "ill"
      ],
      [
        "s",
        "m"
      ],
      [
        "t",
        "b"
      ],
      [
        "w",
        "an"
      ],
      [
        "w",
        "c_"
      ],
      [
        "w",
        "ho"
      ],
      [
        "w",
        "ill"
      ],
      [
        "RE",
        "D_"
      ],
      [
        "0x",
        "D"
      ],
      [
        "0x",
        "25"
      ],
      [
        "re",
        "ceive"
      ],
      [
        "st",
        "al"
      ],
      [
        "FF",
        "F"
      ],
      [
        "to",
        "w"
      ],
      [
        "as",
        "ic"
      ],
      [
        "and",
        "ling"
      ],
      [
        "ur",
        "l_"
      ],
      [
        "0x4",
        "3"
      ],
      [
        "draw",
        "n"
      ],
      [
        "_s",
        "h"
      ],
      [
        "0x0",
        "D"
      ],
      [
        "0x0",
        "30"
      ],
      [
        "ry",
        "stal"
      ],
      [
        "LE",
        "FT"
      ],
      [
        "check",
        "s"
      ],
      [
        "pe",
        "cted"
      ],
      [
        "gra",
        "vity"
      ],
      [
        "fo",
        "am"
      ],
      [
        "move",
        "ment"
      ],
      [
        "NE",
        "XT"
      ],
      [
        "0x780",
        "7"
      ],
      [
        "scroll",
        "ing"
      ],
      [
        "scroll",
        "_up"
      ],
      [
        "we",
        "ight"
      ],
      [
        "pattern",
        "s"
      ],
      [
        "stru",
        "ct"
      ],
      [
        "19",
        "2"
      ],
      [
        "wait",
        "ing"
      ],
      [
        "BO",
        "DY"
      ],
      [
        "Wa",
        "ter"
      ],
      [
        "nav",
        "ig"
      ],
      [
        "accum",
        "ulator"
      ],
      [
        "fiel",
        "d"
      ],
      [
        "1",
        "F"
      ],
      [
        "3",
        "9"
      ],
      [
        "<",
        "="
      ],
      [
        "A",
        "TE"
      ],
      [
        "E",
        "xt"
      ],
      [
        "P",
        "OR"
      ],
      [
        "S",
        "AND"
      ],
      [
        "S",
        "imple"
      ],
      [
        "]",
        "\""
      ],
      [
        "_",
        "tab"
      ],
      [
        "c",
        "r"
      ],
      [
        "c",
        "c_"
      ],
      [
        "g",
        "y"
      ],
      [
        "h",
        "a"
      ],
      [
        "m",
        "_"
      ],
      [
        "n",
        "ts"
      ],
      [
        "o",
        "ter"
      ],
      [
        "w",
        "c"
      ],
      [
        "x",
        "blend_"
      ],
      [
        "y",
        "pre"
      ],
      [
        "st",
        "s"
      ],
      [
        "he",
        "al"
      ],
      [
        "me",
        "s"
      ],
      [
        "_d",
        "rag"
      ],
      [
        "is",
        "h"
      ],
      [
        "_c",
        "lamp"
      ],
      [
        "32",
        "x32"
      ],
      [
        "ct",
        "c"
      ],
      [
        "_re",
        "ad"
      ],
      [
        "0xFF",
        "44"
      ],
      [
        "0xFF",
        "88"
      ],
      [
        "────────────────",
        "────────"
      ],
      [
        "di",
        "o"
      ],
      [
        "0x6",
        "00"
      ],
      [
        "0x3",
        "3"
      ],
      [
        "_o",
        "ff"
      ],
      [
        "qu",
        "o"
      ],
      [
        "position",
        "s"
      ],
      [
        "0xFFFFFF",
        "F"
      ],
      [
        "win",
        "_y"
      ],
      [
        "mm",
        "er"
      ],
      [
        "Co",
        "mmand"
      ],
      [
        "so",
        "l"
      ],
      [
        "su",
        "ch"
      ],
      [
        "por",
        "ts"
      ],
      [
        "0x78",
        "14"
      ],
      [
        "rot",
        "1"
      ],
      [
        "rot",
        "2"
      ],
      [
        "rot",
        "3"
      ],
      [
        "PTY",
        "_"
      ],
      [
        "_e",
        "mpty"
      ],
      [
        "_digit",
        "s"
      ],
      [
        "_n",
        "x"
      ],
      [
        "set_",
        "state"
      ],
      [
        "cc",
        "p_"
      ],
      [
        "fe",
        "atures"
      ],
      [
        "enem",
        "ies"
      ],
      [
        "R_B",
        "S"
      ],
      [
        "assemble",
        "r"
      ],
      [
        "int_",
        "to_str"
      ],
      [
        "appro",
        "ach"
      ],
      [
        "0x41",
        "C"
      ],
      [
        "TIT",
        "LE_"
      ],
      [
        "function",
        "al"
      ],
      [
        "servi",
        "ce"
      ],
      [
        "Fin",
        "d"
      ],
      [
        "========================================================",
        "===="
      ],
      [
        "B",
        "i"
      ],
      [
        "G",
        "HT"
      ],
      [
        "N",
        "G"
      ],
      [
        "R",
        "ed"
      ],
      [
        "S",
        "hift"
      ],
      [
        "W",
        "AS"
      ],
      [
        "]",
        ","
      ],
      [
        "_",
        "move"
      ],
      [
        "_",
        "index"
      ],
      [
        "_",
        "demo"
      ],
      [
        "_",
        "ADDR"
      ],
      [
        "_",
        "END"
      ],
      [
        "c",
        "rystal"
      ],
      [
        "e",
        "ded"
      ],
      [
        "h",
        "l"
      ],
      [
        "i",
        "tem"
      ],
      [
        "n",
        "ight"
      ],
      [
        "s",
        "and"
      ],
      [
        "v",
        "ent"
      ],
      [
        "y",
        "es"
      ],
      [
        "y",
        "_hash"
      ],
      [
        "0x",
        "B"
      ],
      [
        "0x",
        "BBBB"
      ],
      [
        "ar",
        "gument"
      ],
      [
        "me",
        "ta"
      ],
      [
        "ch",
        "r"
      ],
      [
        "la",
        "im"
      ],
      [
        "ct",
        "or"
      ],
      [
        "0x7",
        "97"
      ],
      [
        "OP",
        "_TABLE"
      ],
      [
        "mo",
        "d"
      ],
      [
        "mo",
        "st"
      ],
      [
        "bo",
        "und"
      ],
      [
        "do",
        "ts"
      ],
      [
        "0x0",
        "200"
      ],
      [
        "bar",
        "s"
      ],
      [
        "ex",
        "p"
      ],
      [
        "ent_",
        "render"
      ],
      [
        "win",
        "_id"
      ],
      [
        "0x780",
        "3"
      ],
      [
        "0x780",
        "A"
      ],
      [
        "back",
        "space"
      ],
      [
        "pre",
        "v_"
      ],
      [
        "pre",
        "computed"
      ],
      [
        "fa",
        "ce"
      ],
      [
        "show",
        "s"
      ],
      [
        "game",
        "_loop"
      ],
      [
        "clo",
        "ck"
      ],
      [
        "EX",
        "EC"
      ],
      [
        "parse",
        "_done"
      ],
      [
        "ext",
        "ract"
      ],
      [
        "mem",
        "chr"
      ],
      [
        "sub",
        "routine"
      ],
      [
        "call",
        "s"
      ],
      [
        "0x0A0",
        "A"
      ],
      [
        "circle",
        "s"
      ],
      [
        "pend",
        "ing"
      ],
      [
        "Clo",
        "se"
      ],
      [
        "_next_",
        "row"
      ],
      [
        "Wa",
        "it"
      ],
      [
        "ler",
        "p"
      ],
      [
        "del",
        "ta"
      ],
      [
        "no_c",
        "lick"
      ],
      [
        "veloc",
        "ity"
      ],
      [
        "WAS",
        "D"
      ],
      [
        "\"",
        ">"
      ],
      [
        "(",
        "."
      ],
      [
        "1",
        "32"
      ],
      [
        "2",
        "32"
      ],
      [
        "3",
        "A"
      ],
      [
        "8",
        "9"
      ],
      [
        "9",
        "8"
      ],
      [
        "B",
        "2"
      ],
      [
        "C",
        "h"
      ],
      [
        "C",
        "TE"
      ],
      [
        "C",
        "lamp"
      ],
      [
        "D",
        "own"
      ],
      [
        "F",
        "REQ"
      ],
      [
        "I",
        "R"
      ],
      [
        "N",
        "L"
      ],
      [
        "O",
        "FF"
      ],
      [
        "Q",
        "U"
      ],
      [
        "R",
        "ing"
      ],
      [
        "_",
        "byte"
      ],
      [
        "_",
        "frame"
      ],
      [
        "_",
        "key"
      ],
      [
        "_",
        "COUNT"
      ],
      [
        "b",
        "be"
      ],
      [
        "h",
        "p_"
      ],
      [
        "i",
        "se"
      ],
      [
        "o",
        "und"
      ],
      [
        "p",
        "ul"
      ],
      [
        "t",
        "x"
      ],
      [
        "y",
        "_loop"
      ],
      [
        "0x",
        "CC"
      ],
      [
        "0x",
        "10000"
      ],
      [
        "00",
        "7"
      ],
      [
        "12",
        "1"
      ],
      [
        "el",
        "se"
      ],
      [
        "0x7",
        "500"
      ],
      [
        "for",
        "ward"
      ],
      [
        "16",
        "38"
      ],
      [
        "pro",
        "ces"
      ],
      [
        "up",
        "time"
      ],
      [
        "do",
        "_draw"
      ],
      [
        "_s",
        "tep"
      ],
      [
        "Re",
        "store"
      ],
      [
        "_ne",
        "q"
      ],
      [
        "0xF",
        "00"
      ],
      [
        "bit",
        "map"
      ],
      [
        "be",
        "low"
      ],
      [
        "ute",
        "s"
      ],
      [
        "24",
        "2"
      ],
      [
        "24",
        "5"
      ],
      [
        "MA",
        "X"
      ],
      [
        "biome",
        "_type"
      ],
      [
        "app",
        "le"
      ],
      [
        "poin",
        "ts"
      ],
      [
        "show",
        "_"
      ],
      [
        "Lo",
        "op"
      ],
      [
        "cal",
        "c_"
      ],
      [
        "window",
        "s"
      ],
      [
        "over",
        "lay"
      ],
      [
        "clo",
        "bbe"
      ],
      [
        "fill",
        "_"
      ],
      [
        "HIT",
        "Q"
      ],
      [
        "sprite",
        "s"
      ],
      [
        "cd",
        "c"
      ],
      [
        "PRO",
        "C"
      ],
      [
        "79",
        "007"
      ],
      [
        "pres",
        "ent"
      ],
      [
        "edit",
        "or"
      ],
      [
        "--------------------------------",
        "-"
      ],
      [
        "--------------------------------",
        "---------------------------------"
      ],
      [
        "sn",
        "ap"
      ],
      [
        "OSC",
        "_BUF"
      ],
      [
        "cont",
        "rol"
      ],
      [
        "tick",
        "s"
      ],
      [
        "character",
        "s"
      ],
      [
        "conne",
        "cted"
      ],
      [
        "HEX",
        "_TABLE"
      ],
      [
        "VI",
        "S"
      ],
      [
        "cu",
        "late"
      ],
      [
        "direct",
        "ly"
      ],
      [
        "dri",
        "ven"
      ],
      [
        "MAP_",
        "BASE"
      ],
      [
        "clip",
        "board"
      ],
      [
        "Sub",
        "routine"
      ],
      [
        "que",
        "st"
      ],
      [
        "DUR_",
        "Q"
      ],
      [
        "HAND",
        "LE"
      ],
      [
        "0x14",
        "14"
      ],
      [
        "Ext",
        "ract"
      ],
      [
        "0xFF88",
        "00"
      ],
      [
        "CTE",
        "D"
      ],
      [
        "FREQ",
        "_"
      ],
      [
        "1638",
        "4"
      ],
      [
        "clobbe",
        "red"
      ],
      [
        "6",
        "55"
      ],
      [
        "B",
        "G"
      ],
      [
        "C",
        "LE"
      ],
      [
        "M",
        "R_"
      ],
      [
        "N",
        "ibble"
      ],
      [
        "P",
        "HA"
      ],
      [
        "T",
        "P"
      ],
      [
        "T",
        "MR_"
      ],
      [
        "U",
        "n"
      ],
      [
        "Y",
        "E"
      ],
      [
        "_",
        "char"
      ],
      [
        "_",
        "test"
      ],
      [
        "_",
        "triangle"
      ],
      [
        "b",
        "ash"
      ],
      [
        "c",
        "ra"
      ],
      [
        "c",
        "ip"
      ],
      [
        "c",
        "p_"
      ],
      [
        "c",
        "b_"
      ],
      [
        "g",
        "ing"
      ],
      [
        "r",
        "m"
      ],
      [
        "r",
        "w"
      ],
      [
        "r",
        "is"
      ],
      [
        "r",
        "c_"
      ],
      [
        "t",
        "ion"
      ],
      [
        "t",
        "xt"
      ],
      [
        "re",
        "pe"
      ],
      [
        "re",
        "load"
      ],
      [
        "te",
        "ad"
      ],
      [
        "or",
        "acle"
      ],
      [
        "en",
        "ds"
      ],
      [
        "er",
        "ase"
      ],
      [
        "he",
        "d"
      ],
      [
        "al",
        "ph"
      ],
      [
        "ter",
        "mine"
      ],
      [
        "MO",
        "N"
      ],
      [
        "me",
        "d"
      ],
      [
        "_d",
        "x"
      ],
      [
        "_d",
        "ata"
      ],
      [
        "un",
        "do"
      ],
      [
        "la",
        "un"
      ],
      [
        "ne",
        "ss"
      ],
      [
        "_c",
        "ircle"
      ],
      [
        "no",
        "re"
      ],
      [
        "0x7",
        "F"
      ],
      [
        "ti",
        "c"
      ],
      [
        "str",
        "nc"
      ],
      [
        "ren",
        "t_"
      ],
      [
        "pro",
        "be"
      ],
      [
        "code",
        "d"
      ],
      [
        "0x0",
        "C"
      ],
      [
        "0x6",
        "AD"
      ],
      [
        "IN",
        "T"
      ],
      [
        "0x1",
        "B"
      ],
      [
        "RI",
        "GHT"
      ],
      [
        "ex",
        "pected"
      ],
      [
        "vi",
        "ous"
      ],
      [
        "be",
        "at"
      ],
      [
        "input",
        "_done"
      ],
      [
        "per",
        "form"
      ],
      [
        "P_",
        "X"
      ],
      [
        "PA",
        "T"
      ],
      [
        "init",
        "ial"
      ],
      [
        "cre",
        "ase"
      ],
      [
        "FI",
        "LE_"
      ],
      [
        "pa",
        "ge"
      ],
      [
        "ance",
        "l"
      ],
      [
        "33",
        "3"
      ],
      [
        "EL",
        "LO"
      ],
      [
        "St",
        "ring"
      ],
      [
        "show",
        "ing"
      ],
      [
        "C_",
        "BAR"
      ],
      [
        "Read",
        "s"
      ],
      [
        "compute",
        "_"
      ],
      [
        "_skip",
        "_"
      ],
      [
        "19",
        "6"
      ],
      [
        "En",
        "t"
      ],
      [
        "lap",
        "sed"
      ],
      [
        "vari",
        "ous"
      ],
      [
        "temp",
        "o"
      ],
      [
        "go",
        "to"
      ],
      [
        "gre",
        "p"
      ],
      [
        "_id",
        "x"
      ],
      [
        "0xFF00",
        "FF"
      ],
      [
        "fin",
        "ite"
      ],
      [
        "spe",
        "ed"
      ],
      [
        "dist",
        "ance"
      ],
      [
        "HT",
        "TP"
      ],
      [
        "sup",
        "port"
      ],
      [
        "VI",
        "E"
      ],
      [
        "manage",
        "s"
      ],
      [
        "store_",
        "pixel"
      ],
      [
        "near",
        "by"
      ],
      [
        "je",
        "ct"
      ],
      [
        "dir_",
        "seed"
      ],
      [
        "TEMP",
        "_BASE"
      ],
      [
        "TRACE",
        "_"
      ],
      [
        "CONNE",
        "CTED"
      ],
      [
        "sqr",
        "t_"
      ],
      [
        "origin",
        "al"
      ],
      [
        "ath",
        "er"
      ],
      [
        "radi",
        "us"
      ],
      [
        "0xFF44",
        "44"
      ],
      [
        "0x1414",
        "28"
      ],
      [
        "PHA",
        "SE"
      ],
      [
        "strnc",
        "py"
      ],
      [
        "(",
        "-"
      ],
      [
        ")",
        "*"
      ],
      [
        "1",
        "x"
      ],
      [
        "1",
        "70"
      ],
      [
        "2",
        "x"
      ],
      [
        "5",
        "12"
      ],
      [
        "A",
        "s"
      ],
      [
        "B",
        "LE"
      ],
      [
        "C",
        "4"
      ],
      [
        "C",
        "all"
      ],
      [
        "D",
        "is"
      ],
      [
        "F",
        "AI"
      ],
      [
        "G",
        "RI"
      ],
      [
        "N",
        "e"
      ],
      [
        "O",
        "R_"
      ],
      [
        "V",
        "M_"
      ],
      [
        "[",
        "("
      ]
    ]
  }
}