{
  "version": "1.0",
  "truncation": null,
  "padding": null,
  "added_tokens": [
    {
      "id": 0,
      "content": "<UNK>",
      "single_word": false,
      "lstrip": false,
      "rstrip": false,
      "normalized": false,
      "special": true
    },
    {
      "id": 1,
      "content": "<PAD>",
      "single_word": false,
      "lstrip": false,
      "rstrip": false,
      "normalized": false,
      "special": true
    },
    {
      "id": 2,
      "content": "<BOS>",
      "single_word": false,
      "lstrip": false,
      "rstrip": false,
      "normalized": false,
      "special": true
    },
    {
      "id": 3,
      "content": "<EOS>",
      "single_word": false,
      "lstrip": false,
      "rstrip": false,
      "normalized": false,
      "special": true
    },
    {
      "id": 4,
      "content": "<NL>",
      "single_word": false,
      "lstrip": false,
      "rstrip": false,
      "normalized": false,
      "special": true
    }
  ],
  "normalizer": null,
  "pre_tokenizer": {
    "type": "Whitespace"
  },
  "post_processor": null,
  "decoder": null,
  "model": {
    "type": "BPE",
    "dropout": null,
    "unk_token": "<UNK>",
    "continuing_subword_prefix": null,
    "end_of_word_suffix": null,
    "fuse_unk": false,
    "byte_fallback": false,
    "ignore_merges": false,
    "vocab": {
      "<UNK>": 0,
      "<PAD>": 1,
      "<BOS>": 2,
      "<EOS>": 3,
      "<NL>": 4,
      "!": 5,
      "\"": 6,
      "'": 7,
      "(": 8,
      ")": 9,
      "*": 10,
      "+": 11,
      ",": 12,
      "-": 13,
      ".": 14,
      "/": 15,
      "0": 16,
      "1": 17,
      "2": 18,
      "3": 19,
      "4": 20,
      "5": 21,
      "6": 22,
      "7": 23,
      "8": 24,
      "9": 25,
      ":": 26,
      ";": 27,
      "<": 28,
      "=": 29,
      ">": 30,
      "A": 31,
      "B": 32,
      "C": 33,
      "D": 34,
      "E": 35,
      "F": 36,
      "G": 37,
      "H": 38,
      "I": 39,
      "J": 40,
      "K": 41,
      "L": 42,
      "M": 43,
      "N": 44,
      "O": 45,
      "P": 46,
      "R": 47,
      "S": 48,
      "T": 49,
      "U": 50,
      "V": 51,
      "W": 52,
      "X": 53,
      "Y": 54,
      "Z": 55,
      "_": 56,
      "a": 57,
      "b": 58,
      "c": 59,
      "d": 60,
      "e": 61,
      "f": 62,
      "g": 63,
      "h": 64,
      "i": 65,
      "j": 66,
      "k": 67,
      "l": 68,
      "m": 69,
      "n": 70,
      "o": 71,
      "p": 72,
      "q": 73,
      "r": 74,
      "s": 75,
      "t": 76,
      "u": 77,
      "v": 78,
      "w": 79,
      "x": 80,
      "y": 81,
      "z": 82,
      "─": 83,
      "──": 84,
      "r1": 85,
      "r2": 86,
      "DI": 87,
      "────": 88,
      "AD": 89,
      "r4": 90,
      "LDI": 91,
      "00": 92,
      "ADDI": 93,
      "0x": 94,
      "RE": 95,
      "ST": 96,
      "────────": 97,
      "ORE": 98,
      "STORE": 99,
      "MP": 100,
      "LO": 101,
      "LOAD": 102,
      "r22": 103,
      "ne": 104,
      "r20": 105,
      "200": 106,
      "b_": 107,
      "st": 108,
      "r23": 109,
      "0x200": 110,
      "in": 111,
      "le": 112,
      "er": 113,
      "r0": 114,
      "CMP": 115,
      "r5": 116,
      "────────────────": 117,
      "MO": 118,
      "r21": 119,
      "JMP": 120,
      "cb_": 121,
      "do": 122,
      "CMPI": 123,
      "MOV": 124,
      "JZ": 125,
      "ADD": 126,
      "25": 127,
      "si": 128,
      "r17": 129,
      "ra": 130,
      "FF": 131,
      "ast": 132,
      "r7": 133,
      "re": 134,
      "000": 135,
      "SU": 136,
      "hi": 137,
      "ve": 138,
      "SUB": 139,
      "id": 140,
      "co": 141,
      "ul": 142,
      "xt": 143,
      "an": 144,
      "oid": 145,
      "r3": 146,
      "eroid": 147,
      "on": 148,
      "done": 149,
      "a_": 150,
      "lo": 151,
      "asteroid": 152,
      "me": 153,
      "r18": 154,
      "next": 155,
      "r6": 156,
      "ti": 157,
      "r25": 158,
      "AN": 159,
      "sp": 160,
      "BL": 161,
      "he": 162,
      "lp": 163,
      "w_": 164,
      "0x4": 165,
      "at": 166,
      "r10": 167,
      "SUBI": 168,
      "BLT": 169,
      "nt": 170,
      "ro": 171,
      "256": 172,
      "ar": 173,
      "bul": 174,
      "li": 175,
      "let": 176,
      "12": 177,
      "ad": 178,
      "r8": 179,
      "r19": 180,
      "LL": 181,
      "r24": 182,
      "r26": 183,
      "0xFF": 184,
      "hip": 185,
      "_o": 186,
      "dra": 187,
      "ANDI": 188,
      "or": 189,
      "r9": 190,
      "ang": 191,
      "bullet": 192,
      "SH": 193,
      "ame": 194,
      "ck": 195,
      "ds": 196,
      "game": 197,
      "ship": 198,
      "255": 199,
      "ate": 200,
      "angle": 201,
      "di": 202,
      "ty": 203,
      "wn": 204,
      "────────────────────────────────": 205,
      "tion": 206,
      "heck": 207,
      "0x4000": 208,
      "AR": 209,
      "ALL": 210,
      "CALL": 211,
      "SAR": 212,
      "ave": 213,
      "ci": 214,
      "po": 215,
      "sw_": 216,
      "r27": 217,
      "0x3": 218,
      "asteroids": 219,
      "sp_": 220,
      "MU": 221,
      "ac": 222,
      "de": 223,
      "da_": 224,
      "to": 225,
      "wave": 226,
      "ze": 227,
      "r11": 228,
      "RET": 229,
      "_ok": 230,
      "0x3000": 231,
      "MUL": 232,
      "10": 233,
      "100": 234,
      "Check": 235,
      "LI": 236,
      "db_": 237,
      "s_": 238,
      "ub_": 239,
      "r16": 240,
      "ing": 241,
      "size": 242,
      "64": 243,
      "JN": 244,
      "Lo": 245,
      "as": 246,
      "mp": 247,
      "th": 248,
      "wa_": 249,
      "0x5": 250,
      "r31": 251,
      "draw_": 252,
      "JNZ": 253,
      "20": 254,
      "32": 255,
      "48": 256,
      "awn": 257,
      "cl": 258,
      "cle": 259,
      "cre": 260,
      "date": 261,
      "if": 262,
      "ld": 263,
      "no": 264,
      "op": 265,
      "pdate": 266,
      "sin": 267,
      "ut": 268,
      "r28": 269,
      "star": 270,
      "0x2000": 271,
      "rot": 272,
      "Load": 273,
      "start": 274,
      "),": 275,
      "for": 276,
      "put": 277,
      "slo": 278,
      "ver": 279,
      "r12": 280,
      "r14": 281,
      "r15": 282,
      "0x200C": 283,
      "input": 284,
      "cb_a": 285,
      "cb_s": 286,
      "sine": 287,
      "sion": 288,
      "ment": 289,
      "126": 290,
      "bullets": 291,
      "SHLI": 292,
      "posi": 293,
      "slot": 294,
      "NE": 295,
      "RA": 296,
      "al": 297,
      "ce": 298,
      "ch": 299,
      "cs_": 300,
      "en": 301,
      "lli": 302,
      "rcle": 303,
      "se": 304,
      "sx": 305,
      "sy": 306,
      "vx": 307,
      "vy": 308,
      "inv": 309,
      "do_": 310,
      "hild": 311,
      "and": 312,
      "loop": 313,
      "AND": 314,
      "spawn": 315,
      "0x4200": 316,
      "128": 317,
      "circle": 318,
      "acti": 319,
      "position": 320,
      "llision": 321,
      "De": 322,
      "ME": 323,
      "OP": 324,
      "RAND": 325,
      "TE": 326,
      "_done": 327,
      "_input": 328,
      "child": 329,
      "ed": 330,
      "es": 331,
      "emp": 332,
      "ft": 333,
      "ri": 334,
      "sq": 335,
      "the": 336,
      "ua_": 337,
      "wor": 338,
      "r29": 339,
      "0x2001": 340,
      "0x2002": 341,
      "velo": 342,
      "collision": 343,
      "0xFFFF": 344,
      "draw": 345,
      "────────────────────────────────────────": 346,
      "no_input": 347,
      "rot_": 348,
      "chk": 349,
      "active": 350,
      "empty": 351,
      "words": 352,
      "veloci": 353,
      "collisions": 354,
      "..": 355,
      "15": 356,
      "24": 357,
      "69": 358,
      "88": 359,
      "AA": 360,
      "CC": 361,
      "Ge": 362,
      "NN": 363,
      "PU": 364,
      "POP": 365,
      "ay": 366,
      "ext": 367,
      "fro": 368,
      "gh": 369,
      "ly": 370,
      "nd": 371,
      "of": 372,
      "ru": 373,
      "us": 374,
      "update": 375,
      "DIV": 376,
      "0x200A": 377,
      "MOD": 378,
      "cb_b": 379,
      "cb_done": 380,
      "radi": 381,
      "restart": 382,
      "hit": 383,
      "core": 384,
      "_over": 385,
      "────────────────────────────────────": 386,
      "0x50": 387,
      "0x5000": 388,
      "sin_": 389,
      "cb_anext": 390,
      "cent": 391,
      "invul": 392,
      "spawn_": 393,
      "PUSH": 394,
      "from": 395,
      "radius": 396,
      "19": 397,
      "224": 398,
      "40": 399,
      "Ad": 400,
      "AME": 401,
      "Bul": 402,
      "CI": 403,
      "CL": 404,
      "DRA": 405,
      "ER": 406,
      "GAME": 407,
      "IO": 408,
      "IP": 409,
      "OS": 410,
      "RCL": 411,
      "Sp": 412,
      "Update": 413,
      "XT": 414,
      "bi": 415,
      "cy": 416,
      "ction": 417,
      "ho": 418,
      "hu": 419,
      "it": 420,
      "mo": 421,
      "ot": 422,
      "ou": 423,
      "r_": 424,
      "scre": 425,
      "sho": 426,
      "text": 427,
      "unt": 428,
      "ws_": 429,
      "wing": 430,
      "ychk": 431,
      "nera": 432,
      "0x2007": 433,
      "ind": 434,
      "cb_hit": 435,
      "down": 436,
      "rap": 437,
      "ast_": 438,
      "ves": 439,
      "cos": 440,
      "colo": 441,
      "count": 442,
      "lity": 443,
      "ds_": 444,
      "pos": 445,
      "sw_f": 446,
      "sp_f": 447,
      "sp_s": 448,
      "da_next": 449,
      "_ok2": 450,
      "thru": 451,
      "clr_": 452,
      "crement": 453,
      "cb_sc": 454,
      "cb_sz": 455,
      "all": 456,
      "circles": 457,
      "TEXT": 458,
      "──────────────────────────────────────────": 459,
      "velocity": 460,
      "update_": 461,
      "Bullet": 462,
      "CIRCL": 463,
      "DRAW": 464,
      "ION": 465,
      "bility": 466,
      "ound": 467,
      "screen": 468,
      "shoot": 469,
      "nerability": 470,
      "color": 471,
      "thrust": 472,
      "CIRCLE": 473,
      "):": 474,
      "16": 475,
      "58": 476,
      "65": 477,
      "82": 478,
      "86": 479,
      "Ast": 480,
      "Cle": 481,
      "Dra": 482,
      "ET": 483,
      "Re": 484,
      "Ran": 485,
      "SC": 486,
      "Ship": 487,
      "The": 488,
      "TION": 489,
      "_loop": 490,
      "are": 491,
      "bu": 492,
      "cd": 493,
      "check": 494,
      "eac": 495,
      "fe": 496,
      "ge": 497,
      "ith": 498,
      "ldown": 499,
      "mb": 500,
      "oldown": 501,
      "score": 502,
      "tri": 503,
      "ugh": 504,
      "with": 505,
      "0x2003": 506,
      "0x2004": 507,
      "0x2005": 508,
      "0x2006": 509,
      "0x2008": 510,
      "0x2009": 511,
      "0x200B": 512,
      "cb_ad": 513,
      "dom": 514,
      "ramp": 515,
      "rection": 516,
      "cooldown": 517,
      "eroids": 518,
      "rough": 519,
      "lit": 520,
      "lives": 521,
      "dsc": 522,
      "game_over": 523,
      "game_loop": 524,
      "dir": 525,
      "direction": 526,
      "sw_done": 527,
      "sp_done": 528,
      "LINE": 529,
      "db_next": 530,
      "ub_next": 531,
      "rotate": 532,
      "cb_alp": 533,
      "NEG": 534,
      "cs_next": 535,
      "set": 536,
      "sx_done": 537,
      "sy_done": 538,
      "do_thrust": 539,
      "Decrement": 540,
      "rot_l": 541,
      "rot_r": 542,
      "cb_bnext": 543,
      "sin_st": 544,
      "center": 545,
      "invulnerability": 546,
      "spawn_wave": 547,
      "Add": 548,
      "move": 549,
      "───────────────────────────────────────────": 550,
      "Asteroids": 551,
      "Clear": 552,
      "Draw": 553,
      "Random": 554,
      "each": 555,
      "triangle": 556,
      "cb_addsc": 557,
      "!=": 558,
      "--": 559,
      "01": 560,
      "14": 561,
      "23": 562,
      "68": 563,
      "79": 564,
      "83": 565,
      "87": 566,
      ">=": 567,
      "AW": 568,
      "AST": 569,
      "ATE": 570,
      "BE": 571,
      "BU": 572,
      "CH": 573,
      "DE": 574,
      "DS": 575,
      "DATE": 576,
      "EP": 577,
      "EY": 578,
      "FI": 579,
      "FRA": 580,
      "Find": 581,
      "HU": 582,
      "IK": 583,
      "IN": 584,
      "In": 585,
      "IDS": 586,
      "OV": 587,
      "OIDS": 588,
      "PAW": 589,
      "PDATE": 590,
      "RIP": 591,
      "Sto": 592,
      "Score": 593,
      "Sound": 594,
      "SPAW": 595,
      "UPDATE": 596,
      "Wrap": 597,
      "_x": 598,
      "_id": 599,
      "_game": 600,
      "_ship": 601,
      "_sine": 602,
      "_empty": 603,
      "_collisions": 604,
      "ation": 605,
      "bl": 606,
      "by": 607,
      "bas": 608,
      "cs": 609,
      "ct": 610,
      "cnt": 611,
      "cad": 612,
      "ff": 613,
      "fi": 614,
      "ip": 615,
      "is": 616,
      "ine": 617,
      "ist": 618,
      "ild": 619,
      "k_empty": 620,
      "kip": 621,
      "lg": 622,
      "lar": 623,
      "lay": 624,
      "mall": 625,
      "mk_empty": 626,
      "nx": 627,
      "ncent": 628,
      "ok": 629,
      "over": 630,
      "shi": 631,
      "skip": 632,
      "small": 633,
      "ta": 634,
      "we": 635,
      "wrap": 636,
      "y_ship": 637,
      "stro": 638,
      "inde": 639,
      "incl": 640,
      "init": 641,
      "left": 642,
      "ers": 643,
      "cb_ast": 644,
      "cb_ship": 645,
      "cb_sp_": 646,
      "cb_no": 647,
      "cb_do_": 648,
      "sic": 649,
      "ren": 650,
      "res": 651,
      "code": 652,
      "concent": 653,
      "ance": 654,
      "load": 655,
      "med": 656,
      "ties": 657,
      "split": 658,
      "ark": 659,
      "arcad": 660,
      "bul_id": 661,
      "LLET": 662,
      "SHIP": 663,
      "die": 664,
      "sw_lp": 665,
      "sw_chk": 666,
      "sw_ok": 667,
      "deg": 668,
      "dead": 669,
      "da_done": 670,
      "da_lp": 671,
      "da_lar": 672,
      "da_med": 673,
      "100deg": 674,
      "db_done": 675,
      "db_lp": 676,
      "db_draw": 677,
      "db_ychk": 678,
      "ub_done": 679,
      "ub_lp": 680,
      "ub_ychk": 681,
      "ub_move": 682,
      "asm": 683,
      "asse": 684,
      "assic": 685,
      "through": 686,
      "wa_done": 687,
      "wa_next": 688,
      "wa_lp": 689,
      "wa_ay": 690,
      "wa_nx": 691,
      "draw_ship": 692,
      "draw_asteroids": 693,
      "draw_start": 694,
      "draw_bullets": 695,
      "draw_hu": 696,
      "cling": 697,
      "cs_lp": 698,
      "cs_die": 699,
      "sx_ok": 700,
      "sx_ok2": 701,
      "sy_ok": 702,
      "sy_ok2": 703,
      "inv_ok": 704,
      "do_shoot": 705,
      "children": 706,
      "ric": 707,
      "sq01": 708,
      "sq23": 709,
      "ua_done": 710,
      "ua_next": 711,
      "ua_lp": 712,
      "velocities": 713,
      "..+": 714,
      "156": 715,
      "8888": 716,
      "AAAA": 717,
      "CCCC": 718,
      "Get": 719,
      "GeOS": 720,
      "NNNN": 721,
      "ght": 722,
      "cb_blp": 723,
      "─────────────────────────────────────": 724,
      "0x5010": 725,
      "0x5020": 726,
      "sin_lp": 727,
      "invuln": 728,
      "spawn_children": 729,
      "192": 730,
      "EROIDS": 731,
      "Spawn": 732,
      "cycle": 733,
      "cycling": 734,
      "hues": 735,
      "ws_y": 736,
      "ws_done": 737,
      "ast_count": 738,
      "ast_cnt": 739,
      "ds_draw": 740,
      "ds_skip": 741,
      "sw_find": 742,
      "sw_found": 743,
      "sp_f1": 744,
      "sp_f2": 745,
      "sp_s1": 746,
      "sp_s2": 747,
      "clr_ast": 748,
      "clr_bul": 749,
      "cb_sc0": 750,
      "cb_sc1": 751,
      "cb_sz0": 752,
      "cb_sz1": 753,
      "update_asteroids": 754,
      "update_bullets": 755,
      "colors": 756,
      "SCRIP": 757,
      "build": 758,
      "cd_ok": 759,
      "check_collisions": 760,
      "mbly": 761,
      "ASTEROIDS": 762,
      "BEEP": 763,
      "BULLET": 764,
      "DESCRIP": 765,
      "FILL": 766,
      "FRAME": 767,
      "HUD": 768,
      "IKEY": 769,
      "OVER": 770,
      "Store": 771,
      "SPAWN": 772,
      "_xy_ship": 773,
      "cs_over": 774,
      "shift": 775,
      "wrap_xy_ship": 776,
      "stroy": 777,
      "index": 778,
      "inclu": 779,
      "init_game": 780,
      "cb_astlp": 781,
      "cb_sp_lg": 782,
      "cb_nosplit": 783,
      "cb_do_sp": 784,
      "concentric": 785,
      "arcade": 786,
      "bul_idx": 787,
      "da_large": 788,
      "assembly": 789,
      "draw_hud": 790,
      "build_sine": 791,
      "BULLETS": 792,
      "DESCRIPTION": 793,
      "(-": 794,
      "+=": 795,
      "->": 796,
      "02": 797,
      "0FF": 798,
      "13": 799,
      "18": 800,
      "1000": 801,
      "110": 802,
      "119": 803,
      "114": 804,
      "220": 805,
      "45": 806,
      "400": 807,
      "440": 808,
      "50": 809,
      "63": 810,
      "67": 811,
      "625": 812,
      "71": 813,
      "73": 814,
      "76": 815,
      "77": 816,
      "80": 817,
      "97": 818,
      "900": 819,
      "AL": 820,
      "AV": 821,
      "ABL": 822,
      "AIN": 823,
      "Act": 824,
      "CK": 825,
      "CO": 826,
      "Cl": 827,
      "Co": 828,
      "Con": 829,
      "Child": 830,
      "DRE": 831,
      "Dist": 832,
      "EN": 833,
      "E00": 834,
      "ECK": 835,
      "FE00": 836,
      "HAL": 837,
      "IL": 838,
      "IS": 839,
      "IT": 840,
      "It": 841,
      "INE": 842,
      "ITION": 843,
      "Le": 844,
      "Li": 845,
      "Me": 846,
      "Mo": 847,
      "Mark": 848,
      "MAIN": 849,
      "No": 850,
      "OR": 851,
      "On": 852,
      "Off": 853,
      "PS": 854,
      "POS": 855,
      "RY": 856,
      "Ri": 857,
      "Ren": 858,
      "Sc": 859,
      "Sine": 860,
      "Sta": 861,
      "SINE": 862,
      "Thi": 863,
      "Text": 864,
      "TABL": 865,
      "TRY": 866,
      "Wave": 867,
      "WRA": 868,
      "WAV": 869,
      "_wave": 870,
      "_size": 871,
      "ale": 872,
      "ali": 873,
      "aft": 874,
      "age": 875,
      "bb": 876,
      "be": 877,
      "ble": 878,
      "cu": 879,
      "cul": 880,
      "clo": 881,
      "cal": 882,
      "der": 883,
      "ding": 884,
      "ef": 885,
      "el": 886,
      "ever": 887,
      "fac": 888,
      "ges": 889,
      "git": 890,
      "gist": 891,
      "gres": 892,
      "hand": 893,
      "il": 894,
      "ir": 895,
      "iti": 896,
      "imp": 897,
      "iation": 898,
      "ju": 899,
      "ke": 900,
      "ls": 901,
      "min": 902,
      "man": 903,
      "mor": 904,
      "may": 905,
      "mine": 906,
      "mark": 907,
      "nu": 908,
      "nti": 909,
      "ome": 910,
      "out": 911,
      "pon": 912,
      "pro": 913,
      "pen": 914,
      "pare": 915,
      "play": 916,
      "ry": 917,
      "rst": 918,
      "rre": 919,
      "ring": 920,
      "sco": 921,
      "te": 922,
      "ts": 923,
      "ter": 924,
      "tro": 925,
      "tal": 926,
      "try": 927,
      "ue": 928,
      "ual": 929,
      "uare": 930,
      "ures": 931,
      "unti": 932,
      "upon": 933,
      "vul": 934,
      "var": 935,
      "vate": 936,
      "vance": 937,
      "vir": 938,
      "war": 939,
      "yth": 940,
      "──────": 941,
      "00FF": 942,
      "0x000": 943,
      "0x8888": 944,
      "0xAAAA": 945,
      "0xCCCC": 946,
      "0xFE00": 947,
      "0x00FF": 948,
      "──────────": 949,
      "──────────────": 950,
      "LOOP": 951,
      "nel": 952,
      "new": 953,
      "need": 954,
      "state": 955,
      "stru": 956,
      "stil": 957,
      "ink": 958,
      "into": 959,
      "incre": 960,
      "inactive": 961,
      "initi": 962,
      "ints": 963,
      "les": 964,
      "lement": 965,
      "ered": 966,
      "eration": 967,
      "rend": 968,
      "reload": 969,
      "regist": 970,
      "annel": 971,
      "r30": 972,
      "onment": 973,
      "0x420": 974,
      "0x402": 975,
      "atures": 976,
      "nt_wave": 977,
      "life": 978,
      "like": 979,
      "120": 980,
      "LLIS": 981,
      "drawn": 982,
      "ated": 983,
      "digit": 984,
      "─────────────────────────────────": 985,
      "────────────────────────────────────────────────": 986,
      "points": 987,
      "0x30FF": 988,
      "ace": 989,
      "des": 990,
      "destroy": 991,
      "depen": 992,
      "destru": 993,
      "total": 994,
      "towar": 995,
      "waves": 996,
      "zes": 997,
      "10000": 998,
      "100000": 999,
      "Lose": 1000,
      "ases": 1001,
      "484": 1002,
      "classic": 1003,
      "not": 1004,
      "option": 1005,
      "opposi": 1006,
      "starts": 1007,
      "slots": 1008,
      "channel": 1009,
      "envir": 1010,
      "spawns": 1011,
      "activate": 1012,
      "positions": 1013,
      "Destroy": 1014,
      "Deter": 1015,
      "Deactivate": 1016,
      "child_size": 1017,
      "edges": 1018,
      "right": 1019,
      "sq45": 1020,
      "square": 1021,
      "0xFFFFFF": 1022,
      "draws": 1023,
      "────────────────────────────────────────────": 1024,
      "240": 1025,
      "Geome": 1026,
      "off": 1027,
      "updates": 1028,
      "──────────────────────────────────────": 1029,
      "0x50FF": 1030,
      "191": 1031,
      "Advance": 1032,
      "Split": 1033,
      "Space": 1034,
      "iteration": 1035,
      "mod": 1036,
      "counter": 1037,
      "Bullets": 1038,
      "IONS": 1039,
      "shooting": 1040,
      "Read": 1041,
      "Respawn": 1042,
      "Reload": 1043,
      "SCORE": 1044,
      "buff": 1045,
      "checks": 1046,
      "fect": 1047,
      "features": 1048,
      "mber": 1049,
      "roughly": 1050,
      "centered": 1051,
      "movement": 1052,
      "CHECK": 1053,
      "CHIL": 1054,
      "INIT": 1055,
      "Increment": 1056,
      "Invul": 1057,
      "blue": 1058,
      "blink": 1059,
      "base": 1060,
      "based": 1061,
      "fiel": 1062,
      "first": 1063,
      "layout": 1064,
      "table": 1065,
      "NNNNNN": 1066,
      "cycles": 1067,
      "including": 1068,
      "includes": 1069,
      "Actual": 1070,
      "COLLIS": 1071,
      "Classic": 1072,
      "Collision": 1073,
      "Contro": 1074,
      "DREN": 1075,
      "Distance": 1076,
      "ENTRY": 1077,
      "HALT": 1078,
      "Left": 1079,
      "Lives": 1080,
      "Memor": 1081,
      "Move": 1082,
      "Nose": 1083,
      "Only": 1084,
      "PSET": 1085,
      "POSITION": 1086,
      "Right": 1087,
      "Render": 1088,
      "Scale": 1089,
      "Stack": 1090,
      "This": 1091,
      "TABLE": 1092,
      "WRAP": 1093,
      "WAVE": 1094,
      "alizes": 1095,
      "after": 1096,
      "agement": 1097,
      "bbered": 1098,
      "curre": 1099,
      "culated": 1100,
      "clobbered": 1101,
      "calculated": 1102,
      "effect": 1103,
      "everyth": 1104,
      "facing": 1105,
      "gression": 1106,
      "handles": 1107,
      "implement": 1108,
      "just": 1109,
      "management": 1110,
      "number": 1111,
      "progression": 1112,
      "parent": 1113,
      "player": 1114,
      "scoring": 1115,
      "until": 1116,
      "variation": 1117,
      "0x000100": 1118,
      "0x888888": 1119,
      "0xAAAAAA": 1120,
      "0xCCCCCC": 1121,
      "0x00FF00": 1122,
      "still": 1123,
      "increases": 1124,
      "initializes": 1125,
      "renders": 1126,
      "registers": 1127,
      "0x420F": 1128,
      "0x4027": 1129,
      "digits": 1130,
      "destroyed": 1131,
      "depends": 1132,
      "destruction": 1133,
      "toward": 1134,
      "opposite": 1135,
      "environment": 1136,
      "Determine": 1137,
      "squared": 1138,
      "Geometry": 1139,
      "buffer": 1140,
      "CHILDREN": 1141,
      "Invulnerability": 1142,
      "fields": 1143,
      "Actually": 1144,
      "COLLISIONS": 1145,
      "Controls": 1146,
      "Memory": 1147,
      "current_wave": 1148,
      "everything": 1149,
      "implements": 1150
    },
    "merges": [
      [
        "─",
        "─"
      ],
      [
        "r",
        "1"
      ],
      [
        "r",
        "2"
      ],
      [
        "D",
        "I"
      ],
      [
        "──",
        "──"
      ],
      [
        "A",
        "D"
      ],
      [
        "r",
        "4"
      ],
      [
        "L",
        "DI"
      ],
      [
        "0",
        "0"
      ],
      [
        "AD",
        "DI"
      ],
      [
        "0",
        "x"
      ],
      [
        "R",
        "E"
      ],
      [
        "S",
        "T"
      ],
      [
        "────",
        "────"
      ],
      [
        "O",
        "RE"
      ],
      [
        "ST",
        "ORE"
      ],
      [
        "M",
        "P"
      ],
      [
        "L",
        "O"
      ],
      [
        "LO",
        "AD"
      ],
      [
        "r2",
        "2"
      ],
      [
        "n",
        "e"
      ],
      [
        "r2",
        "0"
      ],
      [
        "2",
        "00"
      ],
      [
        "b",
        "_"
      ],
      [
        "s",
        "t"
      ],
      [
        "r2",
        "3"
      ],
      [
        "0x",
        "200"
      ],
      [
        "i",
        "n"
      ],
      [
        "l",
        "e"
      ],
      [
        "e",
        "r"
      ],
      [
        "r",
        "0"
      ],
      [
        "C",
        "MP"
      ],
      [
        "r",
        "5"
      ],
      [
        "────────",
        "────────"
      ],
      [
        "M",
        "O"
      ],
      [
        "r2",
        "1"
      ],
      [
        "J",
        "MP"
      ],
      [
        "c",
        "b_"
      ],
      [
        "d",
        "o"
      ],
      [
        "CMP",
        "I"
      ],
      [
        "MO",
        "V"
      ],
      [
        "J",
        "Z"
      ],
      [
        "AD",
        "D"
      ],
      [
        "2",
        "5"
      ],
      [
        "s",
        "i"
      ],
      [
        "r1",
        "7"
      ],
      [
        "r",
        "a"
      ],
      [
        "F",
        "F"
      ],
      [
        "a",
        "st"
      ],
      [
        "r",
        "7"
      ],
      [
        "r",
        "e"
      ],
      [
        "00",
        "0"
      ],
      [
        "S",
        "U"
      ],
      [
        "h",
        "i"
      ],
      [
        "v",
        "e"
      ],
      [
        "SU",
        "B"
      ],
      [
        "i",
        "d"
      ],
      [
        "c",
        "o"
      ],
      [
        "u",
        "l"
      ],
      [
        "x",
        "t"
      ],
      [
        "a",
        "n"
      ],
      [
        "o",
        "id"
      ],
      [
        "r",
        "3"
      ],
      [
        "er",
        "oid"
      ],
      [
        "o",
        "n"
      ],
      [
        "do",
        "ne"
      ],
      [
        "a",
        "_"
      ],
      [
        "l",
        "o"
      ],
      [
        "ast",
        "eroid"
      ],
      [
        "m",
        "e"
      ],
      [
        "r1",
        "8"
      ],
      [
        "ne",
        "xt"
      ],
      [
        "r",
        "6"
      ],
      [
        "t",
        "i"
      ],
      [
        "r2",
        "5"
      ],
      [
        "A",
        "N"
      ],
      [
        "s",
        "p"
      ],
      [
        "B",
        "L"
      ],
      [
        "h",
        "e"
      ],
      [
        "l",
        "p"
      ],
      [
        "w",
        "_"
      ],
      [
        "0x",
        "4"
      ],
      [
        "a",
        "t"
      ],
      [
        "r1",
        "0"
      ],
      [
        "SUB",
        "I"
      ],
      [
        "BL",
        "T"
      ],
      [
        "n",
        "t"
      ],
      [
        "r",
        "o"
      ],
      [
        "25",
        "6"
      ],
      [
        "a",
        "r"
      ],
      [
        "b",
        "ul"
      ],
      [
        "l",
        "i"
      ],
      [
        "le",
        "t"
      ],
      [
        "1",
        "2"
      ],
      [
        "a",
        "d"
      ],
      [
        "r",
        "8"
      ],
      [
        "r1",
        "9"
      ],
      [
        "L",
        "L"
      ],
      [
        "r2",
        "4"
      ],
      [
        "r2",
        "6"
      ],
      [
        "0x",
        "FF"
      ],
      [
        "hi",
        "p"
      ],
      [
        "_",
        "o"
      ],
      [
        "d",
        "ra"
      ],
      [
        "AN",
        "DI"
      ],
      [
        "o",
        "r"
      ],
      [
        "r",
        "9"
      ],
      [
        "an",
        "g"
      ],
      [
        "bul",
        "let"
      ],
      [
        "S",
        "H"
      ],
      [
        "a",
        "me"
      ],
      [
        "c",
        "k"
      ],
      [
        "d",
        "s"
      ],
      [
        "g",
        "ame"
      ],
      [
        "s",
        "hip"
      ],
      [
        "25",
        "5"
      ],
      [
        "at",
        "e"
      ],
      [
        "ang",
        "le"
      ],
      [
        "d",
        "i"
      ],
      [
        "t",
        "y"
      ],
      [
        "w",
        "n"
      ],
      [
        "────────────────",
        "────────────────"
      ],
      [
        "ti",
        "on"
      ],
      [
        "he",
        "ck"
      ],
      [
        "0x4",
        "000"
      ],
      [
        "A",
        "R"
      ],
      [
        "A",
        "LL"
      ],
      [
        "C",
        "ALL"
      ],
      [
        "S",
        "AR"
      ],
      [
        "a",
        "ve"
      ],
      [
        "c",
        "i"
      ],
      [
        "p",
        "o"
      ],
      [
        "s",
        "w_"
      ],
      [
        "r2",
        "7"
      ],
      [
        "0x",
        "3"
      ],
      [
        "asteroid",
        "s"
      ],
      [
        "sp",
        "_"
      ],
      [
        "M",
        "U"
      ],
      [
        "a",
        "c"
      ],
      [
        "d",
        "e"
      ],
      [
        "d",
        "a_"
      ],
      [
        "t",
        "o"
      ],
      [
        "w",
        "ave"
      ],
      [
        "z",
        "e"
      ],
      [
        "r1",
        "1"
      ],
      [
        "RE",
        "T"
      ],
      [
        "_o",
        "k"
      ],
      [
        "0x3",
        "000"
      ],
      [
        "MU",
        "L"
      ],
      [
        "1",
        "0"
      ],
      [
        "1",
        "00"
      ],
      [
        "C",
        "heck"
      ],
      [
        "L",
        "I"
      ],
      [
        "d",
        "b_"
      ],
      [
        "s",
        "_"
      ],
      [
        "u",
        "b_"
      ],
      [
        "r1",
        "6"
      ],
      [
        "in",
        "g"
      ],
      [
        "si",
        "ze"
      ],
      [
        "6",
        "4"
      ],
      [
        "J",
        "N"
      ],
      [
        "L",
        "o"
      ],
      [
        "a",
        "s"
      ],
      [
        "m",
        "p"
      ],
      [
        "t",
        "h"
      ],
      [
        "w",
        "a_"
      ],
      [
        "0x",
        "5"
      ],
      [
        "r3",
        "1"
      ],
      [
        "dra",
        "w_"
      ],
      [
        "JN",
        "Z"
      ],
      [
        "2",
        "0"
      ],
      [
        "3",
        "2"
      ],
      [
        "4",
        "8"
      ],
      [
        "a",
        "wn"
      ],
      [
        "c",
        "l"
      ],
      [
        "c",
        "le"
      ],
      [
        "c",
        "re"
      ],
      [
        "d",
        "ate"
      ],
      [
        "i",
        "f"
      ],
      [
        "l",
        "d"
      ],
      [
        "n",
        "o"
      ],
      [
        "o",
        "p"
      ],
      [
        "p",
        "date"
      ],
      [
        "s",
        "in"
      ],
      [
        "u",
        "t"
      ],
      [
        "r2",
        "8"
      ],
      [
        "st",
        "ar"
      ],
      [
        "0x200",
        "0"
      ],
      [
        "ro",
        "t"
      ],
      [
        "Lo",
        "ad"
      ],
      [
        "star",
        "t"
      ],
      [
        ")",
        ","
      ],
      [
        "f",
        "or"
      ],
      [
        "p",
        "ut"
      ],
      [
        "s",
        "lo"
      ],
      [
        "v",
        "er"
      ],
      [
        "r1",
        "2"
      ],
      [
        "r1",
        "4"
      ],
      [
        "r1",
        "5"
      ],
      [
        "0x200",
        "C"
      ],
      [
        "in",
        "put"
      ],
      [
        "cb_",
        "a"
      ],
      [
        "cb_",
        "s"
      ],
      [
        "si",
        "ne"
      ],
      [
        "si",
        "on"
      ],
      [
        "me",
        "nt"
      ],
      [
        "12",
        "6"
      ],
      [
        "bullet",
        "s"
      ],
      [
        "SH",
        "LI"
      ],
      [
        "po",
        "si"
      ],
      [
        "slo",
        "t"
      ],
      [
        "N",
        "E"
      ],
      [
        "R",
        "A"
      ],
      [
        "a",
        "l"
      ],
      [
        "c",
        "e"
      ],
      [
        "c",
        "h"
      ],
      [
        "c",
        "s_"
      ],
      [
        "e",
        "n"
      ],
      [
        "l",
        "li"
      ],
      [
        "r",
        "cle"
      ],
      [
        "s",
        "e"
      ],
      [
        "s",
        "x"
      ],
      [
        "s",
        "y"
      ],
      [
        "v",
        "x"
      ],
      [
        "v",
        "y"
      ],
      [
        "in",
        "v"
      ],
      [
        "do",
        "_"
      ],
      [
        "hi",
        "ld"
      ],
      [
        "an",
        "d"
      ],
      [
        "lo",
        "op"
      ],
      [
        "AN",
        "D"
      ],
      [
        "sp",
        "awn"
      ],
      [
        "0x4",
        "200"
      ],
      [
        "12",
        "8"
      ],
      [
        "ci",
        "rcle"
      ],
      [
        "ac",
        "ti"
      ],
      [
        "posi",
        "tion"
      ],
      [
        "lli",
        "sion"
      ],
      [
        "D",
        "e"
      ],
      [
        "M",
        "E"
      ],
      [
        "O",
        "P"
      ],
      [
        "R",
        "AND"
      ],
      [
        "T",
        "E"
      ],
      [
        "_",
        "done"
      ],
      [
        "_",
        "input"
      ],
      [
        "c",
        "hild"
      ],
      [
        "e",
        "d"
      ],
      [
        "e",
        "s"
      ],
      [
        "e",
        "mp"
      ],
      [
        "f",
        "t"
      ],
      [
        "r",
        "i"
      ],
      [
        "s",
        "q"
      ],
      [
        "t",
        "he"
      ],
      [
        "u",
        "a_"
      ],
      [
        "w",
        "or"
      ],
      [
        "r2",
        "9"
      ],
      [
        "0x200",
        "1"
      ],
      [
        "0x200",
        "2"
      ],
      [
        "ve",
        "lo"
      ],
      [
        "co",
        "llision"
      ],
      [
        "0xFF",
        "FF"
      ],
      [
        "dra",
        "w"
      ],
      [
        "────────────────────────────────",
        "────────"
      ],
      [
        "no",
        "_input"
      ],
      [
        "rot",
        "_"
      ],
      [
        "ch",
        "k"
      ],
      [
        "acti",
        "ve"
      ],
      [
        "emp",
        "ty"
      ],
      [
        "wor",
        "ds"
      ],
      [
        "velo",
        "ci"
      ],
      [
        "collision",
        "s"
      ],
      [
        ".",
        "."
      ],
      [
        "1",
        "5"
      ],
      [
        "2",
        "4"
      ],
      [
        "6",
        "9"
      ],
      [
        "8",
        "8"
      ],
      [
        "A",
        "A"
      ],
      [
        "C",
        "C"
      ],
      [
        "G",
        "e"
      ],
      [
        "N",
        "N"
      ],
      [
        "P",
        "U"
      ],
      [
        "P",
        "OP"
      ],
      [
        "a",
        "y"
      ],
      [
        "e",
        "xt"
      ],
      [
        "f",
        "ro"
      ],
      [
        "g",
        "h"
      ],
      [
        "l",
        "y"
      ],
      [
        "n",
        "d"
      ],
      [
        "o",
        "f"
      ],
      [
        "r",
        "u"
      ],
      [
        "u",
        "s"
      ],
      [
        "u",
        "pdate"
      ],
      [
        "DI",
        "V"
      ],
      [
        "0x200",
        "A"
      ],
      [
        "MO",
        "D"
      ],
      [
        "cb_",
        "b"
      ],
      [
        "cb_",
        "done"
      ],
      [
        "ra",
        "di"
      ],
      [
        "re",
        "start"
      ],
      [
        "hi",
        "t"
      ],
      [
        "co",
        "re"
      ],
      [
        "_o",
        "ver"
      ],
      [
        "────────────────────────────────",
        "────"
      ],
      [
        "0x5",
        "0"
      ],
      [
        "0x5",
        "000"
      ],
      [
        "sin",
        "_"
      ],
      [
        "cb_a",
        "next"
      ],
      [
        "ce",
        "nt"
      ],
      [
        "inv",
        "ul"
      ],
      [
        "spawn",
        "_"
      ],
      [
        "PU",
        "SH"
      ],
      [
        "fro",
        "m"
      ],
      [
        "radi",
        "us"
      ],
      [
        "1",
        "9"
      ],
      [
        "2",
        "24"
      ],
      [
        "4",
        "0"
      ],
      [
        "A",
        "d"
      ],
      [
        "A",
        "ME"
      ],
      [
        "B",
        "ul"
      ],
      [
        "C",
        "I"
      ],
      [
        "C",
        "L"
      ],
      [
        "D",
        "RA"
      ],
      [
        "E",
        "R"
      ],
      [
        "G",
        "AME"
      ],
      [
        "I",
        "O"
      ],
      [
        "I",
        "P"
      ],
      [
        "O",
        "S"
      ],
      [
        "R",
        "CL"
      ],
      [
        "S",
        "p"
      ],
      [
        "U",
        "pdate"
      ],
      [
        "X",
        "T"
      ],
      [
        "b",
        "i"
      ],
      [
        "c",
        "y"
      ],
      [
        "c",
        "tion"
      ],
      [
        "h",
        "o"
      ],
      [
        "h",
        "u"
      ],
      [
        "i",
        "t"
      ],
      [
        "m",
        "o"
      ],
      [
        "o",
        "t"
      ],
      [
        "o",
        "u"
      ],
      [
        "r",
        "_"
      ],
      [
        "s",
        "cre"
      ],
      [
        "s",
        "ho"
      ],
      [
        "t",
        "ext"
      ],
      [
        "u",
        "nt"
      ],
      [
        "w",
        "s_"
      ],
      [
        "w",
        "ing"
      ],
      [
        "y",
        "chk"
      ],
      [
        "ne",
        "ra"
      ],
      [
        "0x200",
        "7"
      ],
      [
        "in",
        "d"
      ],
      [
        "cb_",
        "hit"
      ],
      [
        "do",
        "wn"
      ],
      [
        "ra",
        "p"
      ],
      [
        "ast",
        "_"
      ],
      [
        "ve",
        "s"
      ],
      [
        "co",
        "s"
      ],
      [
        "co",
        "lo"
      ],
      [
        "co",
        "unt"
      ],
      [
        "li",
        "ty"
      ],
      [
        "ds",
        "_"
      ],
      [
        "po",
        "s"
      ],
      [
        "sw_",
        "f"
      ],
      [
        "sp_",
        "f"
      ],
      [
        "sp_",
        "s"
      ],
      [
        "da_",
        "next"
      ],
      [
        "_ok",
        "2"
      ],
      [
        "th",
        "ru"
      ],
      [
        "cl",
        "r_"
      ],
      [
        "cre",
        "ment"
      ],
      [
        "cb_s",
        "c"
      ],
      [
        "cb_s",
        "z"
      ],
      [
        "al",
        "l"
      ],
      [
        "circle",
        "s"
      ],
      [
        "TE",
        "XT"
      ],
      [
        "────────────────────────────────────────",
        "──"
      ],
      [
        "veloci",
        "ty"
      ],
      [
        "update",
        "_"
      ],
      [
        "Bul",
        "let"
      ],
      [
        "CI",
        "RCL"
      ],
      [
        "DRA",
        "W"
      ],
      [
        "IO",
        "N"
      ],
      [
        "bi",
        "lity"
      ],
      [
        "ou",
        "nd"
      ],
      [
        "scre",
        "en"
      ],
      [
        "sho",
        "ot"
      ],
      [
        "nera",
        "bility"
      ],
      [
        "colo",
        "r"
      ],
      [
        "thru",
        "st"
      ],
      [
        "CIRCL",
        "E"
      ],
      [
        ")",
        ":"
      ],
      [
        "1",
        "6"
      ],
      [
        "5",
        "8"
      ],
      [
        "6",
        "5"
      ],
      [
        "8",
        "2"
      ],
      [
        "8",
        "6"
      ],
      [
        "A",
        "st"
      ],
      [
        "C",
        "le"
      ],
      [
        "D",
        "ra"
      ],
      [
        "E",
        "T"
      ],
      [
        "R",
        "e"
      ],
      [
        "R",
        "an"
      ],
      [
        "S",
        "C"
      ],
      [
        "S",
        "hip"
      ],
      [
        "T",
        "he"
      ],
      [
        "T",
        "ION"
      ],
      [
        "_",
        "loop"
      ],
      [
        "a",
        "re"
      ],
      [
        "b",
        "u"
      ],
      [
        "c",
        "d"
      ],
      [
        "c",
        "heck"
      ],
      [
        "e",
        "ac"
      ],
      [
        "f",
        "e"
      ],
      [
        "g",
        "e"
      ],
      [
        "i",
        "th"
      ],
      [
        "l",
        "down"
      ],
      [
        "m",
        "b"
      ],
      [
        "o",
        "ldown"
      ],
      [
        "s",
        "core"
      ],
      [
        "t",
        "ri"
      ],
      [
        "u",
        "gh"
      ],
      [
        "w",
        "ith"
      ],
      [
        "0x200",
        "3"
      ],
      [
        "0x200",
        "4"
      ],
      [
        "0x200",
        "5"
      ],
      [
        "0x200",
        "6"
      ],
      [
        "0x200",
        "8"
      ],
      [
        "0x200",
        "9"
      ],
      [
        "0x200",
        "B"
      ],
      [
        "cb_",
        "ad"
      ],
      [
        "do",
        "m"
      ],
      [
        "ra",
        "mp"
      ],
      [
        "re",
        "ction"
      ],
      [
        "co",
        "oldown"
      ],
      [
        "eroid",
        "s"
      ],
      [
        "ro",
        "ugh"
      ],
      [
        "li",
        "t"
      ],
      [
        "li",
        "ves"
      ],
      [
        "ds",
        "c"
      ],
      [
        "game",
        "_over"
      ],
      [
        "game",
        "_loop"
      ],
      [
        "di",
        "r"
      ],
      [
        "di",
        "rection"
      ],
      [
        "sw_",
        "done"
      ],
      [
        "sp_",
        "done"
      ],
      [
        "LI",
        "NE"
      ],
      [
        "db_",
        "next"
      ],
      [
        "ub_",
        "next"
      ],
      [
        "rot",
        "ate"
      ],
      [
        "cb_a",
        "lp"
      ],
      [
        "NE",
        "G"
      ],
      [
        "cs_",
        "next"
      ],
      [
        "se",
        "t"
      ],
      [
        "sx",
        "_done"
      ],
      [
        "sy",
        "_done"
      ],
      [
        "do_",
        "thrust"
      ],
      [
        "De",
        "crement"
      ],
      [
        "rot_",
        "l"
      ],
      [
        "rot_",
        "r"
      ],
      [
        "cb_b",
        "next"
      ],
      [
        "sin_",
        "st"
      ],
      [
        "cent",
        "er"
      ],
      [
        "invul",
        "nerability"
      ],
      [
        "spawn_",
        "wave"
      ],
      [
        "Ad",
        "d"
      ],
      [
        "mo",
        "ve"
      ],
      [
        "──────────────────────────────────────────",
        "─"
      ],
      [
        "Ast",
        "eroids"
      ],
      [
        "Cle",
        "ar"
      ],
      [
        "Dra",
        "w"
      ],
      [
        "Ran",
        "dom"
      ],
      [
        "eac",
        "h"
      ],
      [
        "tri",
        "angle"
      ],
      [
        "cb_ad",
        "dsc"
      ],
      [
        "!",
        "="
      ],
      [
        "-",
        "-"
      ],
      [
        "0",
        "1"
      ],
      [
        "1",
        "4"
      ],
      [
        "2",
        "3"
      ],
      [
        "6",
        "8"
      ],
      [
        "7",
        "9"
      ],
      [
        "8",
        "3"
      ],
      [
        "8",
        "7"
      ],
      [
        ">",
        "="
      ],
      [
        "A",
        "W"
      ],
      [
        "A",
        "ST"
      ],
      [
        "A",
        "TE"
      ],
      [
        "B",
        "E"
      ],
      [
        "B",
        "U"
      ],
      [
        "C",
        "H"
      ],
      [
        "D",
        "E"
      ],
      [
        "D",
        "S"
      ],
      [
        "D",
        "ATE"
      ],
      [
        "E",
        "P"
      ],
      [
        "E",
        "Y"
      ],
      [
        "F",
        "I"
      ],
      [
        "F",
        "RA"
      ],
      [
        "F",
        "ind"
      ],
      [
        "H",
        "U"
      ],
      [
        "I",
        "K"
      ],
      [
        "I",
        "N"
      ],
      [
        "I",
        "n"
      ],
      [
        "I",
        "DS"
      ],
      [
        "O",
        "V"
      ],
      [
        "O",
        "IDS"
      ],
      [
        "P",
        "AW"
      ],
      [
        "P",
        "DATE"
      ],
      [
        "R",
        "IP"
      ],
      [
        "S",
        "to"
      ],
      [
        "S",
        "core"
      ],
      [
        "S",
        "ound"
      ],
      [
        "S",
        "PAW"
      ],
      [
        "U",
        "PDATE"
      ],
      [
        "W",
        "rap"
      ],
      [
        "_",
        "x"
      ],
      [
        "_",
        "id"
      ],
      [
        "_",
        "game"
      ],
      [
        "_",
        "ship"
      ],
      [
        "_",
        "sine"
      ],
      [
        "_",
        "empty"
      ],
      [
        "_",
        "collisions"
      ],
      [
        "a",
        "tion"
      ],
      [
        "b",
        "l"
      ],
      [
        "b",
        "y"
      ],
      [
        "b",
        "as"
      ],
      [
        "c",
        "s"
      ],
      [
        "c",
        "t"
      ],
      [
        "c",
        "nt"
      ],
      [
        "c",
        "ad"
      ],
      [
        "f",
        "f"
      ],
      [
        "f",
        "i"
      ],
      [
        "i",
        "p"
      ],
      [
        "i",
        "s"
      ],
      [
        "i",
        "ne"
      ],
      [
        "i",
        "st"
      ],
      [
        "i",
        "ld"
      ],
      [
        "k",
        "_empty"
      ],
      [
        "k",
        "ip"
      ],
      [
        "l",
        "g"
      ],
      [
        "l",
        "ar"
      ],
      [
        "l",
        "ay"
      ],
      [
        "m",
        "all"
      ],
      [
        "m",
        "k_empty"
      ],
      [
        "n",
        "x"
      ],
      [
        "n",
        "cent"
      ],
      [
        "o",
        "k"
      ],
      [
        "o",
        "ver"
      ],
      [
        "s",
        "hi"
      ],
      [
        "s",
        "kip"
      ],
      [
        "s",
        "mall"
      ],
      [
        "t",
        "a"
      ],
      [
        "w",
        "e"
      ],
      [
        "w",
        "rap"
      ],
      [
        "y",
        "_ship"
      ],
      [
        "st",
        "ro"
      ],
      [
        "in",
        "de"
      ],
      [
        "in",
        "cl"
      ],
      [
        "in",
        "it"
      ],
      [
        "le",
        "ft"
      ],
      [
        "er",
        "s"
      ],
      [
        "cb_",
        "ast"
      ],
      [
        "cb_",
        "ship"
      ],
      [
        "cb_",
        "sp_"
      ],
      [
        "cb_",
        "no"
      ],
      [
        "cb_",
        "do_"
      ],
      [
        "si",
        "c"
      ],
      [
        "re",
        "n"
      ],
      [
        "re",
        "s"
      ],
      [
        "co",
        "de"
      ],
      [
        "co",
        "ncent"
      ],
      [
        "an",
        "ce"
      ],
      [
        "lo",
        "ad"
      ],
      [
        "me",
        "d"
      ],
      [
        "ti",
        "es"
      ],
      [
        "sp",
        "lit"
      ],
      [
        "ar",
        "k"
      ],
      [
        "ar",
        "cad"
      ],
      [
        "bul",
        "_id"
      ],
      [
        "LL",
        "ET"
      ],
      [
        "SH",
        "IP"
      ],
      [
        "di",
        "e"
      ],
      [
        "sw_",
        "lp"
      ],
      [
        "sw_",
        "chk"
      ],
      [
        "sw_",
        "ok"
      ],
      [
        "de",
        "g"
      ],
      [
        "de",
        "ad"
      ],
      [
        "da_",
        "done"
      ],
      [
        "da_",
        "lp"
      ],
      [
        "da_",
        "lar"
      ],
      [
        "da_",
        "med"
      ],
      [
        "100",
        "deg"
      ],
      [
        "db_",
        "done"
      ],
      [
        "db_",
        "lp"
      ],
      [
        "db_",
        "draw"
      ],
      [
        "db_",
        "ychk"
      ],
      [
        "ub_",
        "done"
      ],
      [
        "ub_",
        "lp"
      ],
      [
        "ub_",
        "ychk"
      ],
      [
        "ub_",
        "move"
      ],
      [
        "as",
        "m"
      ],
      [
        "as",
        "se"
      ],
      [
        "as",
        "sic"
      ],
      [
        "th",
        "rough"
      ],
      [
        "wa_",
        "done"
      ],
      [
        "wa_",
        "next"
      ],
      [
        "wa_",
        "lp"
      ],
      [
        "wa_",
        "ay"
      ],
      [
        "wa_",
        "nx"
      ],
      [
        "draw_",
        "ship"
      ],
      [
        "draw_",
        "asteroids"
      ],
      [
        "draw_",
        "start"
      ],
      [
        "draw_",
        "bullets"
      ],
      [
        "draw_",
        "hu"
      ],
      [
        "cl",
        "ing"
      ],
      [
        "cs_",
        "lp"
      ],
      [
        "cs_",
        "die"
      ],
      [
        "sx",
        "_ok"
      ],
      [
        "sx",
        "_ok2"
      ],
      [
        "sy",
        "_ok"
      ],
      [
        "sy",
        "_ok2"
      ],
      [
        "inv",
        "_ok"
      ],
      [
        "do_",
        "shoot"
      ],
      [
        "child",
        "ren"
      ],
      [
        "ri",
        "c"
      ],
      [
        "sq",
        "01"
      ],
      [
        "sq",
        "23"
      ],
      [
        "ua_",
        "done"
      ],
      [
        "ua_",
        "next"
      ],
      [
        "ua_",
        "lp"
      ],
      [
        "veloci",
        "ties"
      ],
      [
        "..",
        "+"
      ],
      [
        "15",
        "6"
      ],
      [
        "88",
        "88"
      ],
      [
        "AA",
        "AA"
      ],
      [
        "CC",
        "CC"
      ],
      [
        "Ge",
        "t"
      ],
      [
        "Ge",
        "OS"
      ],
      [
        "NN",
        "NN"
      ],
      [
        "gh",
        "t"
      ],
      [
        "cb_b",
        "lp"
      ],
      [
        "────────────────────────────────────",
        "─"
      ],
      [
        "0x50",
        "10"
      ],
      [
        "0x50",
        "20"
      ],
      [
        "sin_",
        "lp"
      ],
      [
        "invul",
        "n"
      ],
      [
        "spawn_",
        "children"
      ],
      [
        "19",
        "2"
      ],
      [
        "ER",
        "OIDS"
      ],
      [
        "Sp",
        "awn"
      ],
      [
        "cy",
        "cle"
      ],
      [
        "cy",
        "cling"
      ],
      [
        "hu",
        "es"
      ],
      [
        "ws_",
        "y"
      ],
      [
        "ws_",
        "done"
      ],
      [
        "ast_",
        "count"
      ],
      [
        "ast_",
        "cnt"
      ],
      [
        "ds_",
        "draw"
      ],
      [
        "ds_",
        "skip"
      ],
      [
        "sw_f",
        "ind"
      ],
      [
        "sw_f",
        "ound"
      ],
      [
        "sp_f",
        "1"
      ],
      [
        "sp_f",
        "2"
      ],
      [
        "sp_s",
        "1"
      ],
      [
        "sp_s",
        "2"
      ],
      [
        "clr_",
        "ast"
      ],
      [
        "clr_",
        "bul"
      ],
      [
        "cb_sc",
        "0"
      ],
      [
        "cb_sc",
        "1"
      ],
      [
        "cb_sz",
        "0"
      ],
      [
        "cb_sz",
        "1"
      ],
      [
        "update_",
        "asteroids"
      ],
      [
        "update_",
        "bullets"
      ],
      [
        "color",
        "s"
      ],
      [
        "SC",
        "RIP"
      ],
      [
        "bu",
        "ild"
      ],
      [
        "cd",
        "_ok"
      ],
      [
        "check",
        "_collisions"
      ],
      [
        "mb",
        "ly"
      ],
      [
        "AST",
        "EROIDS"
      ],
      [
        "BE",
        "EP"
      ],
      [
        "BU",
        "LLET"
      ],
      [
        "DE",
        "SCRIP"
      ],
      [
        "FI",
        "LL"
      ],
      [
        "FRA",
        "ME"
      ],
      [
        "HU",
        "D"
      ],
      [
        "IK",
        "EY"
      ],
      [
        "OV",
        "ER"
      ],
      [
        "Sto",
        "re"
      ],
      [
        "SPAW",
        "N"
      ],
      [
        "_x",
        "y_ship"
      ],
      [
        "cs",
        "_over"
      ],
      [
        "shi",
        "ft"
      ],
      [
        "wrap",
        "_xy_ship"
      ],
      [
        "stro",
        "y"
      ],
      [
        "inde",
        "x"
      ],
      [
        "incl",
        "u"
      ],
      [
        "init",
        "_game"
      ],
      [
        "cb_ast",
        "lp"
      ],
      [
        "cb_sp_",
        "lg"
      ],
      [
        "cb_no",
        "split"
      ],
      [
        "cb_do_",
        "sp"
      ],
      [
        "concent",
        "ric"
      ],
      [
        "arcad",
        "e"
      ],
      [
        "bul_id",
        "x"
      ],
      [
        "da_lar",
        "ge"
      ],
      [
        "asse",
        "mbly"
      ],
      [
        "draw_hu",
        "d"
      ],
      [
        "build",
        "_sine"
      ],
      [
        "BULLET",
        "S"
      ],
      [
        "DESCRIP",
        "TION"
      ],
      [
        "(",
        "-"
      ],
      [
        "+",
        "="
      ],
      [
        "-",
        ">"
      ],
      [
        "0",
        "2"
      ],
      [
        "0",
        "FF"
      ],
      [
        "1",
        "3"
      ],
      [
        "1",
        "8"
      ],
      [
        "1",
        "000"
      ],
      [
        "1",
        "10"
      ],
      [
        "1",
        "19"
      ],
      [
        "1",
        "14"
      ],
      [
        "2",
        "20"
      ],
      [
        "4",
        "5"
      ],
      [
        "4",
        "00"
      ],
      [
        "4",
        "40"
      ],
      [
        "5",
        "0"
      ],
      [
        "6",
        "3"
      ],
      [
        "6",
        "7"
      ],
      [
        "6",
        "25"
      ],
      [
        "7",
        "1"
      ],
      [
        "7",
        "3"
      ],
      [
        "7",
        "6"
      ],
      [
        "7",
        "7"
      ],
      [
        "8",
        "0"
      ],
      [
        "9",
        "7"
      ],
      [
        "9",
        "00"
      ],
      [
        "A",
        "L"
      ],
      [
        "A",
        "V"
      ],
      [
        "A",
        "BL"
      ],
      [
        "A",
        "IN"
      ],
      [
        "A",
        "ct"
      ],
      [
        "C",
        "K"
      ],
      [
        "C",
        "O"
      ],
      [
        "C",
        "l"
      ],
      [
        "C",
        "o"
      ],
      [
        "C",
        "on"
      ],
      [
        "C",
        "hild"
      ],
      [
        "D",
        "RE"
      ],
      [
        "D",
        "ist"
      ],
      [
        "E",
        "N"
      ],
      [
        "E",
        "00"
      ],
      [
        "E",
        "CK"
      ],
      [
        "F",
        "E00"
      ],
      [
        "H",
        "AL"
      ],
      [
        "I",
        "L"
      ],
      [
        "I",
        "S"
      ],
      [
        "I",
        "T"
      ],
      [
        "I",
        "t"
      ],
      [
        "I",
        "NE"
      ],
      [
        "I",
        "TION"
      ],
      [
        "L",
        "e"
      ],
      [
        "L",
        "i"
      ],
      [
        "M",
        "e"
      ],
      [
        "M",
        "o"
      ],
      [
        "M",
        "ark"
      ],
      [
        "M",
        "AIN"
      ],
      [
        "N",
        "o"
      ],
      [
        "O",
        "R"
      ],
      [
        "O",
        "n"
      ],
      [
        "O",
        "ff"
      ],
      [
        "P",
        "S"
      ],
      [
        "P",
        "OS"
      ],
      [
        "R",
        "Y"
      ],
      [
        "R",
        "i"
      ],
      [
        "R",
        "en"
      ],
      [
        "S",
        "c"
      ],
      [
        "S",
        "ine"
      ],
      [
        "S",
        "ta"
      ],
      [
        "S",
        "INE"
      ],
      [
        "T",
        "hi"
      ],
      [
        "T",
        "ext"
      ],
      [
        "T",
        "ABL"
      ],
      [
        "T",
        "RY"
      ],
      [
        "W",
        "ave"
      ],
      [
        "W",
        "RA"
      ],
      [
        "W",
        "AV"
      ],
      [
        "_",
        "wave"
      ],
      [
        "_",
        "size"
      ],
      [
        "a",
        "le"
      ],
      [
        "a",
        "li"
      ],
      [
        "a",
        "ft"
      ],
      [
        "a",
        "ge"
      ],
      [
        "b",
        "b"
      ],
      [
        "b",
        "e"
      ],
      [
        "b",
        "le"
      ],
      [
        "c",
        "u"
      ],
      [
        "c",
        "ul"
      ],
      [
        "c",
        "lo"
      ],
      [
        "c",
        "al"
      ],
      [
        "d",
        "er"
      ],
      [
        "d",
        "ing"
      ],
      [
        "e",
        "f"
      ],
      [
        "e",
        "l"
      ],
      [
        "e",
        "ver"
      ],
      [
        "f",
        "ac"
      ],
      [
        "g",
        "es"
      ],
      [
        "g",
        "it"
      ],
      [
        "g",
        "ist"
      ],
      [
        "g",
        "res"
      ],
      [
        "h",
        "and"
      ],
      [
        "i",
        "l"
      ],
      [
        "i",
        "r"
      ],
      [
        "i",
        "ti"
      ],
      [
        "i",
        "mp"
      ],
      [
        "i",
        "ation"
      ],
      [
        "j",
        "u"
      ],
      [
        "k",
        "e"
      ],
      [
        "l",
        "s"
      ],
      [
        "m",
        "in"
      ],
      [
        "m",
        "an"
      ],
      [
        "m",
        "or"
      ],
      [
        "m",
        "ay"
      ],
      [
        "m",
        "ine"
      ],
      [
        "m",
        "ark"
      ],
      [
        "n",
        "u"
      ],
      [
        "n",
        "ti"
      ],
      [
        "o",
        "me"
      ],
      [
        "o",
        "ut"
      ],
      [
        "p",
        "on"
      ],
      [
        "p",
        "ro"
      ],
      [
        "p",
        "en"
      ],
      [
        "p",
        "are"
      ],
      [
        "p",
        "lay"
      ],
      [
        "r",
        "y"
      ],
      [
        "r",
        "st"
      ],
      [
        "r",
        "re"
      ],
      [
        "r",
        "ing"
      ],
      [
        "s",
        "co"
      ],
      [
        "t",
        "e"
      ],
      [
        "t",
        "s"
      ],
      [
        "t",
        "er"
      ],
      [
        "t",
        "ro"
      ],
      [
        "t",
        "al"
      ],
      [
        "t",
        "ry"
      ],
      [
        "u",
        "e"
      ],
      [
        "u",
        "al"
      ],
      [
        "u",
        "are"
      ],
      [
        "u",
        "res"
      ],
      [
        "u",
        "nti"
      ],
      [
        "u",
        "pon"
      ],
      [
        "v",
        "ul"
      ],
      [
        "v",
        "ar"
      ],
      [
        "v",
        "ate"
      ],
      [
        "v",
        "ance"
      ],
      [
        "v",
        "ir"
      ],
      [
        "w",
        "ar"
      ],
      [
        "y",
        "th"
      ],
      [
        "────",
        "──"
      ],
      [
        "00",
        "FF"
      ],
      [
        "0x",
        "000"
      ],
      [
        "0x",
        "8888"
      ],
      [
        "0x",
        "AAAA"
      ],
      [
        "0x",
        "CCCC"
      ],
      [
        "0x",
        "FE00"
      ],
      [
        "0x",
        "00FF"
      ],
      [
        "────────",
        "──"
      ],
      [
        "────────",
        "──────"
      ],
      [
        "LO",
        "OP"
      ],
      [
        "ne",
        "l"
      ],
      [
        "ne",
        "w"
      ],
      [
        "ne",
        "ed"
      ],
      [
        "st",
        "ate"
      ],
      [
        "st",
        "ru"
      ],
      [
        "st",
        "il"
      ],
      [
        "in",
        "k"
      ],
      [
        "in",
        "to"
      ],
      [
        "in",
        "cre"
      ],
      [
        "in",
        "active"
      ],
      [
        "in",
        "iti"
      ],
      [
        "in",
        "ts"
      ],
      [
        "le",
        "s"
      ],
      [
        "le",
        "ment"
      ],
      [
        "er",
        "ed"
      ],
      [
        "er",
        "ation"
      ],
      [
        "re",
        "nd"
      ],
      [
        "re",
        "load"
      ],
      [
        "re",
        "gist"
      ],
      [
        "an",
        "nel"
      ],
      [
        "r3",
        "0"
      ],
      [
        "on",
        "ment"
      ],
      [
        "0x4",
        "20"
      ],
      [
        "0x4",
        "02"
      ],
      [
        "at",
        "ures"
      ],
      [
        "nt",
        "_wave"
      ],
      [
        "li",
        "fe"
      ],
      [
        "li",
        "ke"
      ],
      [
        "12",
        "0"
      ],
      [
        "LL",
        "IS"
      ],
      [
        "dra",
        "wn"
      ],
      [
        "ate",
        "d"
      ],
      [
        "di",
        "git"
      ],
      [
        "────────────────────────────────",
        "─"
      ],
      [
        "────────────────────────────────",
        "────────────────"
      ],
      [
        "po",
        "ints"
      ],
      [
        "0x3",
        "0FF"
      ],
      [
        "ac",
        "e"
      ],
      [
        "de",
        "s"
      ],
      [
        "de",
        "stroy"
      ],
      [
        "de",
        "pen"
      ],
      [
        "de",
        "stru"
      ],
      [
        "to",
        "tal"
      ],
      [
        "to",
        "war"
      ],
      [
        "wave",
        "s"
      ],
      [
        "ze",
        "s"
      ],
      [
        "100",
        "00"
      ],
      [
        "100",
        "000"
      ],
      [
        "Lo",
        "se"
      ],
      [
        "as",
        "es"
      ],
      [
        "48",
        "4"
      ],
      [
        "cl",
        "assic"
      ],
      [
        "no",
        "t"
      ],
      [
        "op",
        "tion"
      ],
      [
        "op",
        "posi"
      ],
      [
        "start",
        "s"
      ],
      [
        "slot",
        "s"
      ],
      [
        "ch",
        "annel"
      ],
      [
        "en",
        "vir"
      ],
      [
        "spawn",
        "s"
      ],
      [
        "acti",
        "vate"
      ],
      [
        "position",
        "s"
      ],
      [
        "De",
        "stroy"
      ],
      [
        "De",
        "ter"
      ],
      [
        "De",
        "activate"
      ],
      [
        "child",
        "_size"
      ],
      [
        "ed",
        "ges"
      ],
      [
        "ri",
        "ght"
      ],
      [
        "sq",
        "45"
      ],
      [
        "sq",
        "uare"
      ],
      [
        "0xFFFF",
        "FF"
      ],
      [
        "draw",
        "s"
      ],
      [
        "────────────────────────────────────────",
        "────"
      ],
      [
        "24",
        "0"
      ],
      [
        "Ge",
        "ome"
      ],
      [
        "of",
        "f"
      ],
      [
        "update",
        "s"
      ],
      [
        "────────────────────────────────────",
        "──"
      ],
      [
        "0x50",
        "FF"
      ],
      [
        "19",
        "1"
      ],
      [
        "Ad",
        "vance"
      ],
      [
        "Sp",
        "lit"
      ],
      [
        "Sp",
        "ace"
      ],
      [
        "it",
        "eration"
      ],
      [
        "mo",
        "d"
      ],
      [
        "count",
        "er"
      ],
      [
        "Bullet",
        "s"
      ],
      [
        "ION",
        "S"
      ],
      [
        "shoot",
        "ing"
      ],
      [
        "Re",
        "ad"
      ],
      [
        "Re",
        "spawn"
      ],
      [
        "Re",
        "load"
      ],
      [
        "SC",
        "ORE"
      ],
      [
        "bu",
        "ff"
      ],
      [
        "check",
        "s"
      ],
      [
        "fe",
        "ct"
      ],
      [
        "fe",
        "atures"
      ],
      [
        "mb",
        "er"
      ],
      [
        "rough",
        "ly"
      ],
      [
        "center",
        "ed"
      ],
      [
        "move",
        "ment"
      ],
      [
        "CH",
        "ECK"
      ],
      [
        "CH",
        "IL"
      ],
      [
        "IN",
        "IT"
      ],
      [
        "In",
        "crement"
      ],
      [
        "In",
        "vul"
      ],
      [
        "bl",
        "ue"
      ],
      [
        "bl",
        "ink"
      ],
      [
        "bas",
        "e"
      ],
      [
        "bas",
        "ed"
      ],
      [
        "fi",
        "el"
      ],
      [
        "fi",
        "rst"
      ],
      [
        "lay",
        "out"
      ],
      [
        "ta",
        "ble"
      ],
      [
        "NNNN",
        "NN"
      ],
      [
        "cycle",
        "s"
      ],
      [
        "inclu",
        "ding"
      ],
      [
        "inclu",
        "des"
      ],
      [
        "Act",
        "ual"
      ],
      [
        "CO",
        "LLIS"
      ],
      [
        "Cl",
        "assic"
      ],
      [
        "Co",
        "llision"
      ],
      [
        "Con",
        "tro"
      ],
      [
        "DRE",
        "N"
      ],
      [
        "Dist",
        "ance"
      ],
      [
        "EN",
        "TRY"
      ],
      [
        "HAL",
        "T"
      ],
      [
        "Le",
        "ft"
      ],
      [
        "Li",
        "ves"
      ],
      [
        "Me",
        "mor"
      ],
      [
        "Mo",
        "ve"
      ],
      [
        "No",
        "se"
      ],
      [
        "On",
        "ly"
      ],
      [
        "PS",
        "ET"
      ],
      [
        "POS",
        "ITION"
      ],
      [
        "Ri",
        "ght"
      ],
      [
        "Ren",
        "der"
      ],
      [
        "Sc",
        "ale"
      ],
      [
        "Sta",
        "ck"
      ],
      [
        "Thi",
        "s"
      ],
      [
        "TABL",
        "E"
      ],
      [
        "WRA",
        "P"
      ],
      [
        "WAV",
        "E"
      ],
      [
        "ali",
        "zes"
      ],
      [
        "aft",
        "er"
      ],
      [
        "age",
        "ment"
      ],
      [
        "bb",
        "ered"
      ],
      [
        "cu",
        "rre"
      ],
      [
        "cul",
        "ated"
      ],
      [
        "clo",
        "bbered"
      ],
      [
        "cal",
        "culated"
      ],
      [
        "ef",
        "fect"
      ],
      [
        "ever",
        "yth"
      ],
      [
        "fac",
        "ing"
      ],
      [
        "gres",
        "sion"
      ],
      [
        "hand",
        "les"
      ],
      [
        "imp",
        "lement"
      ],
      [
        "ju",
        "st"
      ],
      [
        "man",
        "agement"
      ],
      [
        "nu",
        "mber"
      ],
      [
        "pro",
        "gression"
      ],
      [
        "pare",
        "nt"
      ],
      [
        "play",
        "er"
      ],
      [
        "sco",
        "ring"
      ],
      [
        "unti",
        "l"
      ],
      [
        "var",
        "iation"
      ],
      [
        "0x000",
        "100"
      ],
      [
        "0x8888",
        "88"
      ],
      [
        "0xAAAA",
        "AA"
      ],
      [
        "0xCCCC",
        "CC"
      ],
      [
        "0x00FF",
        "00"
      ],
      [
        "stil",
        "l"
      ],
      [
        "incre",
        "ases"
      ],
      [
        "initi",
        "alizes"
      ],
      [
        "rend",
        "ers"
      ],
      [
        "regist",
        "ers"
      ],
      [
        "0x420",
        "F"
      ],
      [
        "0x402",
        "7"
      ],
      [
        "digit",
        "s"
      ],
      [
        "destroy",
        "ed"
      ],
      [
        "depen",
        "ds"
      ],
      [
        "destru",
        "ction"
      ],
      [
        "towar",
        "d"
      ],
      [
        "opposi",
        "te"
      ],
      [
        "envir",
        "onment"
      ],
      [
        "Deter",
        "mine"
      ],
      [
        "square",
        "d"
      ],
      [
        "Geome",
        "try"
      ],
      [
        "buff",
        "er"
      ],
      [
        "CHIL",
        "DREN"
      ],
      [
        "Invul",
        "nerability"
      ],
      [
        "fiel",
        "ds"
      ],
      [
        "Actual",
        "ly"
      ],
      [
        "COLLIS",
        "IONS"
      ],
      [
        "Contro",
        "ls"
      ],
      [
        "Memor",
        "y"
      ],
      [
        "curre",
        "nt_wave"
      ],
      [
        "everyth",
        "ing"
      ],
      [
        "implement",
        "s"
      ]
    ]
  }
}