{
  "version": "1.0",
  "truncation": null,
  "padding": null,
  "added_tokens": [
    {
      "id": 0,
      "content": "<UNK>",
      "single_word": false,
      "lstrip": false,
      "rstrip": false,
      "normalized": false,
      "special": true
    },
    {
      "id": 1,
      "content": "<PAD>",
      "single_word": false,
      "lstrip": false,
      "rstrip": false,
      "normalized": false,
      "special": true
    },
    {
      "id": 2,
      "content": "<BOS>",
      "single_word": false,
      "lstrip": false,
      "rstrip": false,
      "normalized": false,
      "special": true
    },
    {
      "id": 3,
      "content": "<EOS>",
      "single_word": false,
      "lstrip": false,
      "rstrip": false,
      "normalized": false,
      "special": true
    },
    {
      "id": 4,
      "content": "<NL>",
      "single_word": false,
      "lstrip": false,
      "rstrip": false,
      "normalized": false,
      "special": true
    }
  ],
  "normalizer": null,
  "pre_tokenizer": {
    "type": "ByteLevel",
    "add_prefix_space": false,
    "trim_offsets": true,
    "use_regex": true
  },
  "post_processor": null,
  "decoder": {
    "type": "ByteLevel",
    "add_prefix_space": true,
    "trim_offsets": true,
    "use_regex": true
  },
  "model": {
    "type": "BPE",
    "dropout": null,
    "unk_token": "<UNK>",
    "continuing_subword_prefix": null,
    "end_of_word_suffix": null,
    "fuse_unk": false,
    "byte_fallback": false,
    "ignore_merges": false,
    "vocab": {
      "<UNK>": 0,
      "<PAD>": 1,
      "<BOS>": 2,
      "<EOS>": 3,
      "<NL>": 4,
      "!": 5,
      "\"": 6,
      "#": 7,
      "$": 8,
      "%": 9,
      "&": 10,
      "'": 11,
      "(": 12,
      ")": 13,
      "*": 14,
      "+": 15,
      ",": 16,
      "-": 17,
      ".": 18,
      "/": 19,
      "0": 20,
      "1": 21,
      "2": 22,
      "3": 23,
      "4": 24,
      "5": 25,
      "6": 26,
      "7": 27,
      "8": 28,
      "9": 29,
      ":": 30,
      ";": 31,
      "<": 32,
      "=": 33,
      ">": 34,
      "?": 35,
      "@": 36,
      "A": 37,
      "B": 38,
      "C": 39,
      "D": 40,
      "E": 41,
      "F": 42,
      "G": 43,
      "H": 44,
      "I": 45,
      "J": 46,
      "K": 47,
      "L": 48,
      "M": 49,
      "N": 50,
      "O": 51,
      "P": 52,
      "Q": 53,
      "R": 54,
      "S": 55,
      "T": 56,
      "U": 57,
      "V": 58,
      "W": 59,
      "X": 60,
      "Y": 61,
      "Z": 62,
      "[": 63,
      "\\": 64,
      "]": 65,
      "^": 66,
      "_": 67,
      "`": 68,
      "a": 69,
      "b": 70,
      "c": 71,
      "d": 72,
      "e": 73,
      "f": 74,
      "g": 75,
      "h": 76,
      "i": 77,
      "j": 78,
      "k": 79,
      "l": 80,
      "m": 81,
      "n": 82,
      "o": 83,
      "p": 84,
      "q": 85,
      "r": 86,
      "s": 87,
      "t": 88,
      "u": 89,
      "v": 90,
      "w": 91,
      "x": 92,
      "y": 93,
      "z": 94,
      "{": 95,
      "|": 96,
      "}": 97,
      "~": 98,
      "±": 99,
      "Â": 100,
      "â": 101,
      "Ċ": 102,
      "Ġ": 103,
      "Ģ": 104,
      "Ĩ": 105,
      "Ī": 106,
      "ī": 107,
      "Ĳ": 108,
      "Ĵ": 109,
      "ĵ": 110,
      "Ķ": 111,
      "ķ": 112,
      "ľ": 113,
      "Ġr": 114,
      "ĠĠ": 115,
      "DI": 116,
      "ĠL": 117,
      "ĠLDI": 118,
      "in": 119,
      "Ġa": 120,
      "ti": 121,
      "Ġ0": 122,
      "ĠĠĠ": 123,
      "er": 124,
      "on": 125,
      "ĠS": 126,
      "OR": 127,
      "al": 128,
      "es": 129,
      "AD": 130,
      "==": 131,
      "Ġc": 132,
      "Ġs": 133,
      "10": 134,
      "tion": 135,
      "th": 136,
      "12": 137,
      "11": 138,
      "nd": 139,
      "TOR": 140,
      "TORE": 141,
      "is": 142,
      "Ġin": 143,
      "14": 144,
      "15": 145,
      "13": 146,
      "or": 147,
      "Ġp": 148,
      "âķ": 149,
      "âķĲ": 150,
      "ĠĠĠĠ": 151,
      "âķĲâķĲ": 152,
      "ĠSTORE": 153,
      "ADD": 154,
      "op": 155,
      "Ġand": 156,
      "ation": 157,
      "ĠC": 158,
      "00": 159,
      "Ġ2": 160,
      "ter": 161,
      "ra": 162,
      "Ġth": 163,
      "Ġco": 164,
      "MP": 165,
      "lo": 166,
      "ĠADD": 167,
      "ing": 168,
      "Ġ1": 169,
      "Ġ;": 170,
      "ec": 171,
      "âĶ": 172,
      "âĶĢ": 173,
      "en": 174,
      "====": 175,
      "Ġd": 176,
      "âĶĢâĶĢ": 177,
      "ĠJ": 178,
      "Ġre": 179,
      "Ġm": 180,
      "Ġb": 181,
      "if": 182,
      "se": 183,
      "Ġw": 184,
      "20": 185,
      "te": 186,
      "ĠP": 187,
      "ĠT": 188,
      "iz": 189,
      "tial": 190,
      "ĠSH": 191,
      "Ġini": 192,
      "FF": 193,
      "Ġ3": 194,
      "tializ": 195,
      "Ġinitializ": 196,
      "Ġf": 197,
      "Ġlo": 198,
      "Ġthe": 199,
      "ic": 200,
      "ters": 201,
      "ro": 202,
      "de": 203,
      "it": 204,
      "Ġreg": 205,
      "ly": 206,
      "Ġregis": 207,
      "ith": 208,
      "OAD": 209,
      "âķĲâķĲâķĲâķĲ": 210,
      "ĠCMP": 211,
      "ĠLOAD": 212,
      "un": 213,
      "ĠTh": 214,
      "Ġv": 215,
      "ĠA": 216,
      "Ġe": 217,
      "Ġ(": 218,
      "ar": 219,
      "ĠD": 220,
      "ations": 221,
      "ĠM": 222,
      "AL": 223,
      "Ġregisters": 224,
      "Ġt": 225,
      "ĠAN": 226,
      "Ġop": 227,
      "TI": 228,
      "alu": 229,
      "Ġvalu": 230,
      "Ġoper": 231,
      "le": 232,
      "Ġcode": 233,
      "Ġas": 234,
      "Ġloop": 235,
      "Ġoperations": 236,
      "Ġwith": 237,
      "ram": 238,
      "ut": 239,
      "ĠSHL": 240,
      "at": 241,
      "LDI": 242,
      "et": 243,
      "========": 244,
      "CR": 245,
      "ĠR": 246,
      "for": 247,
      "ĠG": 248,
      "Ġvalues": 249,
      "mb": 250,
      "raw": 251,
      "ĠX": 252,
      "OS": 253,
      "ES": 254,
      "âĶĢâĶĢâĶĢâĶĢ": 255,
      "ĠAND": 256,
      "ON": 257,
      "ĠXOR": 258,
      "unc": 259,
      "ain": 260,
      "Ġsp": 261,
      "Ġ4": 262,
      "IP": 263,
      "semb": 264,
      "ĠGe": 265,
      "UB": 266,
      "Ġassemb": 267,
      "Ġassembly": 268,
      "TION": 269,
      "ĠJMP": 270,
      "ĠDES": 271,
      "CRIP": 272,
      "ĠDESCRIP": 273,
      "ĠDESCRIPTION": 274,
      "ĠGeOS": 275,
      "ĠSUB": 276,
      "ĠOR": 277,
      "Ġinitialization": 278,
      "Ġ25": 279,
      "ĠI": 280,
      "ul": 281,
      "re": 282,
      "Ġpro": 283,
      "ecif": 284,
      "Ġspecif": 285,
      "Ġ`": 286,
      "mp": 287,
      "Ġdraw": 288,
      "us": 289,
      "Ġper": 290,
      "NZ": 291,
      "Ġinitializes": 292,
      "ĠJNZ": 293,
      "form": 294,
      "17": 295,
      "Ġcon": 296,
      "Ġperform": 297,
      "ĠCMPI": 298,
      "Ġspecific": 299,
      "Ġto": 300,
      "Ġh": 301,
      "ĠĠĠĠĠĠĠĠ": 302,
      "el": 303,
      "Ġ10": 304,
      "Ġo": 305,
      "gram": 306,
      "ke": 307,
      "Ġprogram": 308,
      "di": 309,
      "ĠSHR": 310,
      "ĠThe": 311,
      "ts": 312,
      "--": 313,
      "18": 314,
      "ĠThis": 315,
      "ĠF": 316,
      "âķĲâķĲâķĲâķĲâķĲâķĲâķĲâķĲ": 317,
      "22": 318,
      "Ġperforms": 319,
      "OP": 320,
      "ĠMO": 321,
      "SH": 322,
      "Ġ6": 323,
      "Ġ8": 324,
      "ĠH": 325,
      "Ġon": 326,
      "RA": 327,
      "Ġ=": 328,
      "Ġst": 329,
      "st": 330,
      "ĠPOP": 331,
      "me": 332,
      "21": 333,
      "USH": 334,
      "Ġ\"": 335,
      "ĠPUSH": 336,
      "STORE": 337,
      "ĠRE": 338,
      "44": 339,
      "an": 340,
      "Ġit": 341,
      "ALT": 342,
      "Ġof": 343,
      "ac": 344,
      "ver": 345,
      "key": 346,
      "Ġse": 347,
      "ĠHALT": 348,
      "Ġ32": 349,
      "Ġ12": 350,
      "dition": 351,
      "ed": 352,
      "ALL": 353,
      "Ġkey": 354,
      "Ġex": 355,
      "25": 356,
      "Ġ16": 357,
      "88": 358,
      "AA": 359,
      "ix": 360,
      "16": 361,
      "SE": 362,
      "cl": 363,
      "Ġbit": 364,
      "ate": 365,
      "ine": 366,
      "veral": 367,
      "Ġseveral": 368,
      "ĠCALL": 369,
      "Ġexec": 370,
      "xFF": 371,
      "Ġhal": 372,
      "func": 373,
      "ls": 374,
      "UL": 375,
      "Ġsu": 376,
      "RAM": 377,
      "Ġcomp": 378,
      "tic": 379,
      "Ġen": 380,
      "================": 381,
      "ĠMUL": 382,
      "ise": 383,
      "Ġfunc": 384,
      "19": 385,
      "res": 386,
      "wise": 387,
      "âĶĢâĶĢâĶĢâĶĢâĶĢâĶĢâĶĢâĶĢ": 388,
      "23": 389,
      "em": 390,
      "ction": 391,
      "RAME": 392,
      "Ġl": 393,
      "LL": 394,
      "Ġmain": 395,
      "ud": 396,
      "Ġsh": 397,
      "ndif": 398,
      "Ġthen": 399,
      "EX": 400,
      "put": 401,
      "ĠB": 402,
      "Ġcondition": 403,
      "Ġ256": 404,
      "clud": 405,
      "pl": 406,
      "AR": 407,
      "Ġar": 408,
      "ting": 409,
      "Ġbitwise": 410,
      "30": 411,
      "ad": 412,
      "EXT": 413,
      "loop": 414,
      "Ġcol": 415,
      "24": 416,
      "ri": 417,
      "main": 418,
      "ch": 419,
      "Ġwh": 420,
      "Ġ128": 421,
      "Ġfor": 422,
      "up": 423,
      "Ġcal": 424,
      "ĠDI": 425,
      "ithme": 426,
      "ithmetic": 427,
      "Ġat": 428,
      "Ġarithmetic": 429,
      "ĠMOD": 430,
      "Ġn": 431,
      "ĠIt": 432,
      "eck": 433,
      "xt": 434,
      "Ġ64": 435,
      "Ġ255": 436,
      "ĠDIV": 437,
      "ĠFRAME": 438,
      "31": 439,
      "Ġus": 440,
      "Ġdrawing": 441,
      "Ġinclud": 442,
      "Ġch": 443,
      "Ġan": 444,
      "ĠĠĠĠĠ": 445,
      "reen": 446,
      "ADDI": 447,
      "ĠPSE": 448,
      "ĠJZ": 449,
      "ĠSAR": 450,
      "Ġsc": 451,
      "ies": 452,
      "28": 453,
      "Ġinput": 454,
      "26": 455,
      "str": 456,
      "Ġad": 457,
      "Ġshif": 458,
      "ĠRET": 459,
      "Ġexecu": 460,
      "ent": 461,
      "ory": 462,
      "ay": 463,
      "gic": 464,
      "Ġcolor": 465,
      "Ġenters": 466,
      "Ġlogic": 467,
      "ĠSHLI": 468,
      "Ġsub": 469,
      "Ġ5": 470,
      "ur": 471,
      "CT": 472,
      "27": 473,
      "0000": 474,
      "ixel": 475,
      "ĠADDI": 476,
      "Ġup": 477,
      "ack": 478,
      "emory": 479,
      "Ġset": 480,
      "Ġexecution": 481,
      "Ġmemory": 482,
      "stru": 483,
      "ates": 484,
      "ase": 485,
      "KE": 486,
      "KEY": 487,
      "29": 488,
      "ow": 489,
      "CTF": 490,
      "struction": 491,
      "Ġinstruction": 492,
      "Ġpixel": 493,
      "ip": 494,
      "Ġ'": 495,
      "âķĲâķĲâķĲâķĲâķĲâķĲâķĲâķĲâķĲâķĲâķĲâķĲâķĲâķĲâķĲâķĲ": 496,
      "Ġconditional": 497,
      "Ġser": 498,
      "ve": 499,
      "ĠMOV": 500,
      "Ġg": 501,
      "Ġseries": 502,
      "`,": 503,
      "Ġ7": 504,
      "ĠW": 505,
      "Ġregister": 506,
      "),": 507,
      "Ġscreen": 508,
      "Ġcoun": 509,
      "im": 510,
      "ere": 511,
      "gh": 512,
      "IN": 513,
      "ĠIKEY": 514,
      "LE": 515,
      "il": 516,
      "ulti": 517,
      "pe": 518,
      "Ġwhere": 519,
      "ir": 520,
      "Ġ--": 521,
      "text": 522,
      "rame": 523,
      "xF": 524,
      "xD": 525,
      "Ġdraws": 526,
      "Ġhalts": 527,
      "Ġmo": 528,
      "ous": 529,
      "Ġcalls": 530,
      "as": 531,
      "xC": 532,
      "Ġby": 533,
      "Ġtext": 534,
      "Ġcont": 535,
      "ĠRECTF": 536,
      "Ġincluding": 537,
      "Ġcompar": 538,
      "Ġusing": 539,
      "Ġbase": 540,
      "Ġpal": 541,
      "ette": 542,
      "Ġcheck": 543,
      "Ġpalette": 544,
      "xB": 545,
      "Ġ11": 546,
      "xE": 547,
      "play": 548,
      "si": 549,
      "to": 550,
      "Ġpo": 551,
      "one": 552,
      "80": 553,
      "Ġel": 554,
      "EL": 555,
      "Ġbe": 556,
      "Ġdis": 557,
      "Ġelse": 558,
      "else": 559,
      "Ġman": 560,
      "endif": 561,
      "Ġendif": 562,
      "TEXT": 563,
      "ol": 564,
      "INE": 565,
      "and": 566,
      "ress": 567,
      "40": 568,
      "ILL": 569,
      "def": 570,
      "IR": 571,
      "Ġdi": 572,
      "Ġis": 573,
      "LD": 574,
      "PI": 575,
      "CLE": 576,
      "ELL": 577,
      "fer": 578,
      "XEL": 579,
      "IRCLE": 580,
      "WOR": 581,
      "Ġdisplay": 582,
      "WORLD": 583,
      "ect": 584,
      "UF": 585,
      "ore": 586,
      "Ġ9": 587,
      "Ġframe": 588,
      "ĠANDI": 589,
      "ĠSUBI": 590,
      "ot": 591,
      "PIXEL": 592,
      "Ġmulti": 593,
      "Ġsets": 594,
      "ixed": 595,
      "ELLO": 596,
      "done": 597,
      "ĠPSET": 598,
      "Ġbased": 599,
      "xA": 600,
      "HELLO": 601,
      "Ġ-": 602,
      "Ġlogical": 603,
      "Ġload": 604,
      "ted": 605,
      "RAW": 606,
      "Ġfunction": 607,
      "ord": 608,
      "Ġvar": 609,
      "RAWTEXT": 610,
      "âĶĢâĶĢâĶĢâĶĢâĶĢâĶĢâĶĢâĶĢâĶĢâĶĢâĶĢâĶĢâĶĢâĶĢâĶĢâĶĢ": 611,
      "Ġmixed": 612,
      "ĠFILL": 613,
      "ion": 614,
      "ĠTEXT": 615,
      "ipul": 616,
      "Ġmanipul": 617,
      "Ġ.": 618,
      "66": 619,
      "rout": 620,
      "Ġvari": 621,
      "55": 622,
      "000": 623,
      "Ġsubrout": 624,
      "Ġadd": 625,
      "ang": 626,
      "Ġshifts": 627,
      "ght": 628,
      "Ġ+": 629,
      "ata": 630,
      "Ġres": 631,
      "tra": 632,
      "Ġmod": 633,
      "ite": 634,
      "uf": 635,
      "ison": 636,
      "fore": 637,
      "ĠĠĠĠĠĠĠĠĠĠ": 638,
      "Ġcomparison": 639,
      "Ġbefore": 640,
      "inu": 641,
      "ĠPSETI": 642,
      "ĠWPIXEL": 643,
      "FFFF": 644,
      "ĠLINE": 645,
      "ĠCIRCLE": 646,
      "ther": 647,
      "Ġchecks": 648,
      "Ġvarious": 649,
      "Ġdata": 650,
      "Ġ(`": 651,
      "ĠDRAWTEXT": 652,
      "77": 653,
      "RO": 654,
      "ision": 655,
      "ven": 656,
      "fter": 657,
      "Ġdiv": 658,
      "Ġor": 659,
      "Ġ15": 660,
      "qu": 661,
      "ĠĠĠĠĠĠĠĠĠĠĠĠ": 662,
      "Ġcontinu": 663,
      "Ġmultipl": 664,
      "Ġupd": 665,
      "Ġhalting": 666,
      "ated": 667,
      "rom": 668,
      "----": 669,
      "99": 670,
      "8800": 671,
      "Ġsubtra": 672,
      "ab": 673,
      "Ġrepe": 674,
      "Ġaddition": 675,
      "Ġexecut": 676,
      "50": 677,
      "ach": 678,
      "Ġstack": 679,
      "Ġif": 680,
      "70": 681,
      "Ġsubroutine": 682,
      "riven": 683,
      "art": 684,
      "ave": 685,
      "Ġ14": 686,
      "inite": 687,
      "CC": 688,
      "ĠĠĠĠĠĠĠ": 689,
      "Ġstor": 690,
      "Ġfrom": 691,
      "33": 692,
      "78": 693,
      "Ġ13": 694,
      "Ġ20": 695,
      "cle": 696,
      "Ġdivision": 697,
      "Ġmultiplic": 698,
      "ines": 699,
      "xAA": 700,
      "Ġcir": 701,
      "OL": 702,
      "Ġvalue": 703,
      "60": 704,
      "Ġrect": 705,
      "Ġthat": 706,
      "Ġback": 707,
      "Ġanim": 708,
      "ag": 709,
      "define": 710,
      "Ġ24": 711,
      "Ġbuf": 712,
      "ĠBL": 713,
      "Ġma": 714,
      "BUF": 715,
      "Ġli": 716,
      "Ġj": 717,
      "Ġrectang": 718,
      "Ġafter": 719,
      "Ġdriven": 720,
      "Ġ30": 721,
      "inal": 722,
      "ĠâĶĢâĶĢ": 723,
      "ĠĠĠĠĠĠĠĠĠ": 724,
      "by": 725,
      "til": 726,
      "..": 727,
      "76": 728,
      "`)": 729,
      "Ġmultiplication": 730,
      "75": 731,
      "ce": 732,
      "Ġinto": 733,
      "79": 734,
      "ft": 735,
      "ese": 736,
      "Ġthese": 737,
      "ump": 738,
      "Ġincludes": 739,
      "Ġfil": 740,
      "Ġcomput": 741,
      "Ġaddress": 742,
      "sition": 743,
      "ĠST": 744,
      "Ġne": 745,
      "ĠIf": 746,
      "Ġsubtraction": 747,
      "ĠBLT": 748,
      "Ġpixels": 749,
      "byte": 750,
      "EE": 751,
      "ight": 752,
      "74": 753,
      "Ġjump": 754,
      "Ġy": 755,
      "AT": 756,
      "om": 757,
      "Ġexecutes": 758,
      "Ġ19": 759,
      "ND": 760,
      "36": 761,
      "Ġcoord": 762,
      "Ġanimation": 763,
      "lso": 764,
      "================================": 765,
      "Ġare": 766,
      "Ġrow": 767,
      "38": 768,
      "ry": 769,
      "nder": 770,
      "ating": 771,
      "Ġ40": 772,
      "left": 773,
      "mple": 774,
      "Ġalso": 775,
      "Ġlike": 776,
      "0044": 777,
      "Ġun": 778,
      "Ġcounted": 779,
      "Ġ================================": 780,
      "Ġposition": 781,
      "Ġloading": 782,
      "Ġcoordin": 783,
      "32": 784,
      "ĠĠĠĠĠĠ": 785,
      "ess": 786,
      "tore": 787,
      "Ġline": 788,
      "ĠN": 789,
      "34": 790,
      "39": 791,
      "GE": 792,
      "Ġ========================================": 793,
      "Ġbuffer": 794,
      "id": 795,
      "85": 796,
      "ult": 797,
      "ents": 798,
      "ĠĠĠĠĠĠĠĠĠĠĠ": 799,
      "Ġshift": 800,
      "imple": 801,
      "Ġstr": 802,
      "Ġcomparisons": 803,
      "`.": 804,
      "90": 805,
      "rite": 806,
      "Ġuntil": 807,
      "Ġ=========================================": 808,
      "35": 809,
      "co": 810,
      "Ġsuch": 811,
      "ne": 812,
      "Ġcalc": 813,
      "âķĲâķĲâķĲâķĲâķĲâķĲâķĲâķĲâķĲâķĲâķĲâķĲâķĲâķĲâķĲâķĲâķĲâķĲâķĲâķĲâķĲâķĲâķĲâķĲâķĲâķĲâķĲâķĲâķĲâķĲâķĲâķĲ": 814,
      "Ġcoordinates": 815,
      "64": 816,
      "Ġwa": 817,
      "Ġinf": 818,
      "Ġcur": 819,
      "ap": 820,
      "ĠRA": 821,
      "84": 822,
      "Ġx": 823,
      "89": 824,
      "xFFFFFF": 825,
      "Ġcalcul": 826,
      "RE": 827,
      "Ġsave": 828,
      "ĠBGE": 829,
      "Ġgra": 830,
      "ll": 831,
      "ys": 832,
      "low": 833,
      "Ġupdates": 834,
      "its": 835,
      "Ġcounter": 836,
      "Ġrepeated": 837,
      "65": 838,
      "rou": 839,
      "zer": 840,
      "Ġinfinite": 841,
      "zero": 842,
      "Ġmath": 843,
      "Ġde": 844,
      "les": 845,
      "4444": 846,
      "AB": 847,
      "Ġuses": 848,
      "69": 849,
      "Ġrepeatedly": 850,
      "ĠE": 851,
      "check": 852,
      "row": 853,
      "Ġdif": 854,
      "etw": 855,
      "Ġcontinuous": 856,
      "Ġjumps": 857,
      "Ġdiffer": 858,
      "ard": 859,
      "Ġ---": 860,
      "cess": 861,
      "Ġ34": 862,
      "ret": 863,
      "Ġ48": 864,
      "Ġcircle": 865,
      "Ġright": 866,
      "37": 867,
      "term": 868,
      "mm": 869,
      "sh": 870,
      "Ġ35": 871,
      "Ġcontinuously": 872,
      "Ġpress": 873,
      "Ġfinal": 874,
      "ĠCOL": 875,
      "Ġdifferent": 876,
      "een": 877,
      "Ġstart": 878,
      "etween": 879,
      "Ġbetween": 880,
      "sor": 881,
      "94": 882,
      "kip": 883,
      "95": 884,
      "PSE": 885,
      "ame": 886,
      "int": 887,
      "tem": 888,
      "ST": 889,
      "ystem": 890,
      "Ġcomputation": 891,
      "BA": 892,
      "ĠU": 893,
      "rem": 894,
      "Ġaddresses": 895,
      "sed": 896,
      "Ġloc": 897,
      "Ġstoring": 898,
      "Ġcomple": 899,
      "ied": 900,
      "lear": 901,
      "ph": 902,
      "Ġti": 903,
      "Ġrender": 904,
      "Ġcomm": 905,
      "68": 906,
      "ile": 907,
      "ull": 908,
      "Ġlines": 909,
      "Ġsystem": 910,
      "ED": 911,
      "ĠRAM": 912,
      "Ġinstructions": 913,
      "Ġsimple": 914,
      "ately": 915,
      "Ġ18": 916,
      "Ġdec": 917,
      "mately": 918,
      "ty": 919,
      "Ġzero": 920,
      "Ġloops": 921,
      "Ġulti": 922,
      "Ġultimately": 923,
      "ome": 924,
      "Ġconditions": 925,
      "CH": 926,
      "Ġret": 927,
      "Ġpa": 928,
      "Ġrectangle": 929,
      "ace": 930,
      "ĠSCR": 931,
      "Ġshifting": 932,
      "urn": 933,
      "Ġcolors": 934,
      "bo": 935,
      "--------": 936,
      "Ġsetting": 937,
      "Ġcommand": 938,
      "wo": 939,
      "ĠBUF": 940,
      "ĠIn": 941,
      "Ġdo": 942,
      "ich": 943,
      "restore": 944,
      "Ġmanipulates": 945,
      "Ġ*": 946,
      "Ġap": 947,
      "Ġ28": 948,
      "98": 949,
      "ld": 950,
      "Ġwhich": 951,
      "own": 952,
      "BB": 953,
      "ĠSTRO": 954,
      "est": 955,
      "Ġleft": 956,
      "atch": 957,
      "72": 958,
      "tern": 959,
      "ild": 960,
      "Ġ100": 961,
      "Ġnot": 962,
      "Ġspecified": 963,
      "ĠCh": 964,
      "Ġ38": 965,
      "Ġhand": 966,
      "omet": 967,
      "73": 968,
      "Ġ==": 969,
      "UR": 970,
      "draw": 971,
      "Ġthrou": 972,
      "Ġno": 973,
      "Ġthrough": 974,
      "Ġprocess": 975,
      "phic": 976,
      "CALL": 977,
      "EB": 978,
      "Ġchar": 979,
      "SI": 980,
      "Ġtwo": 981,
      "EC": 982,
      "ue": 983,
      "RECTF": 984,
      "termin": 985,
      "Ġdisplays": 986,
      "Ġ====": 987,
      "ĠCheck": 988,
      "ert": 989,
      "ĠDraw": 990,
      "48": 991,
      "opy": 992,
      "xFFFF": 993,
      "Ġfunctions": 994,
      "Ġinv": 995,
      "63": 996,
      "Ġbar": 997,
      "Ġend": 998,
      "Ġ114": 999,
      "out": 1000,
      "Ġgraphic": 1001,
      "Ġreturn": 1002,
      "line": 1003,
      "ATCH": 1004,
      "Ġ29": 1005,
      "EF": 1006,
      "ĠRe": 1007,
      "ex": 1008,
      "Ġmet": 1009,
      "Ġcount": 1010,
      "45": 1011,
      "49": 1012,
      "other": 1013,
      "next": 1014,
      "Ġ=====": 1015,
      "100": 1016,
      "Ġcalculations": 1017,
      "FRAME": 1018,
      "all": 1019,
      "âĶĢâĶĢâĶĢâĶĢâĶĢâĶĢâĶĢâĶĢâĶĢâĶĢâĶĢâĶĢâĶĢâĶĢâĶĢâĶĢâĶĢâĶĢâĶĢâĶĢâĶĢâĶĢâĶĢâĶĢâĶĢâĶĢâĶĢâĶĢâĶĢâĶĢâĶĢâĶĢ": 1020,
      "ran": 1021,
      "Ġ36": 1022,
      "col": 1023,
      "Ġfinally": 1024,
      "Ġbits": 1025,
      "71": 1026,
      "Ġinvol": 1027,
      "mo": 1028,
      "no": 1029,
      "Ġ39": 1030,
      "53": 1031,
      "Ġcontinues": 1032,
      "42": 1033,
      "AC": 1034,
      "Ġoperation": 1035,
      "Ġother": 1036,
      "Ġhalt": 1037,
      "Ġanother": 1038,
      "sc": 1039,
      "DD": 1040,
      "ulo": 1041,
      "Ġpres": 1042,
      "Ġthem": 1043,
      "Ġwaits": 1044,
      "Ġreach": 1045,
      "Ġ50": 1046,
      "Ġmodulo": 1047,
      "ĠSCRATCH": 1048,
      "62": 1049,
      "ct": 1050,
      "cles": 1051,
      "quen": 1052,
      "sp": 1053,
      "59": 1054,
      "ric": 1055,
      "Ġ>": 1056,
      "Ġrectangles": 1057,
      "43": 1058,
      "ĠCUR": 1059,
      "attern": 1060,
      "Ġent": 1061,
      "Ġmodif": 1062,
      "Ġperforming": 1063,
      "ĠCOLS": 1064,
      "uild": 1065,
      "Ġsequen": 1066,
      "Ġloads": 1067,
      "Ġim": 1068,
      "xDD": 1069,
      "Ġmodul": 1070,
      "Ġcompares": 1071,
      "Ġ26": 1072,
      "medi": 1073,
      "Ġcursor": 1074,
      "58": 1075,
      "Ġdecrem": 1076,
      "lay": 1077,
      "ves": 1078,
      "ving": 1079,
      "ig": 1080,
      "ĠâķĲâķĲâķĲâķĲâķĲâķĲâķĲâķĲâķĲâķĲâķĲâķĲâķĲâķĲâķĲâķĲâķĲâķĲâķĲâķĲâķĲâķĲâķĲâķĲâķĲâķĲâķĲâķĲâķĲâķĲâķĲâķĲ": 1081,
      "mediate": 1082,
      "Ġal": 1083,
      "Ġcert": 1084,
      "qual": 1085,
      "Ġcertain": 1086,
      "set": 1087,
      "67": 1088,
      "03": 1089,
      "47": 1090,
      "Ġlocations": 1091,
      "BF": 1092,
      "Ġstring": 1093,
      "83": 1094,
      "Ġcircles": 1095,
      "ling": 1096,
      "DE": 1097,
      "Ġindef": 1098,
      "enter": 1099,
      "initely": 1100,
      "Ġindefinitely": 1101,
      "dex": 1102,
      "âķĲâķĲâķĲ": 1103,
      "61": 1104,
      "93": 1105,
      "rit": 1106,
      "pend": 1107,
      "Ġimmediate": 1108,
      "COL": 1109,
      "Ġequal": 1110,
      "Ġconclud": 1111,
      "Ġu": 1112,
      "roll": 1113,
      "780": 1114,
      "ush": 1115,
      "Ġconcludes": 1116,
      "orld": 1117,
      "Ġpressed": 1118,
      "04": 1119,
      "Ġac": 1120,
      "ark": 1121,
      ").": 1122,
      "06": 1123,
      "8888": 1124,
      "Ġresult": 1125,
      "able": 1126,
      "CF": 1127,
      "Ġconditionally": 1128,
      "Ġreaches": 1129,
      "56": 1130,
      "AF": 1131,
      "08": 1132,
      "54": 1133,
      "eomet": 1134,
      "tive": 1135,
      "01": 1136,
      "Ġpattern": 1137,
      "Ġmatch": 1138,
      "am": 1139,
      "um": 1140,
      "âķĲâķĲâķĲâķĲâķĲâķĲâķĲ": 1141,
      "asm": 1142,
      "lue": 1143,
      "stan": 1144,
      "Ġfills": 1145,
      "CE": 1146,
      "md": 1147,
      "Ġbo": 1148,
      "âķĲâķĲâķĲâķĲâķĲâķĲâķĲâķĲâķĲâķĲâķĲâķĲâķĲâķĲâķĲ": 1149,
      "52": 1150,
      "iome": 1151,
      "ok": 1152,
      "Ġwrite": 1153,
      "Ġ33": 1154,
      "Ġ80": 1155,
      "Ġpb": 1156,
      "Ġ27": 1157,
      "irst": 1158,
      "ash": 1159,
      "xAAAA": 1160,
      "Ġ/": 1161,
      "256": 1162,
      "right": 1163,
      "Ġ<": 1164,
      "CD": 1165,
      "IT": 1166,
      "96": 1167,
      "git": 1168,
      "ind": 1169,
      "CB": 1170,
      "ple": 1171,
      "board": 1172,
      "ond": 1173,
      "Ġ->": 1174,
      "51": 1175,
      "000000": 1176,
      "AE": 1177,
      "und": 1178,
      "ute": 1179,
      "Ġ17": 1180,
      "PSETI": 1181,
      "LINE": 1182,
      "rent": 1183,
      "ift": 1184,
      "46": 1185,
      "87": 1186,
      "AND": 1187,
      "ĠV": 1188,
      "Ġread": 1189,
      "ell": 1190,
      "05": 1191,
      "ont": 1192,
      "Ġeach": 1193,
      "xAAAAAA": 1194,
      "92": 1195,
      "41": 1196,
      "Ġ23": 1197,
      "loc": 1198,
      "02": 1199,
      "BE": 1200,
      "Ġgeomet": 1201,
      "FD": 1202,
      "atus": 1203,
      "ĠĠĠĠĠĠĠĠĠĠĠĠĠ": 1204,
      "age": 1205,
      "57": 1206,
      "ks": 1207,
      "BD": 1208,
      "Ġtermin": 1209,
      "Ġclear": 1210,
      "Ġpoint": 1211,
      "Ġgeometric": 1212,
      "86": 1213,
      "Ġwrit": 1214,
      "Ġstore": 1215,
      "ĠĠĠĠĠĠĠĠĠĠĠĠĠĠ": 1216,
      "gg": 1217,
      "po": 1218,
      "âķĲâķĲâķĲâķĲâķĲâķĲâķĲâķĲâķĲâķĲâķĲâķĲâķĲâķĲâķĲâķĲâķĲâķĲâķĲâķĲâķĲâķĲâķĲâķĲâķĲâķĲâķĲâķĲâķĲâķĲâķĲ": 1219,
      "ĠâķĲâķĲâķĲâķĲâķĲâķĲâķĲâķĲâķĲâķĲâķĲâķĲâķĲâķĲâķĲâķĲâķĲâķĲâķĲâķĲâķĲâķĲâķĲâķĲâķĲâķĲâķĲâķĲâķĲâķĲâķĲâķĲâķĲâķĲâķĲâķĲâķĲâķĲâķĲâķĲâķĲâķĲâķĲâķĲâķĲâķĲâķĲâķĲâķĲâķĲâķĲâķĲâķĲâķĲâķĲâķĲâķĲâķĲâķĲâķĲâķĲâķĲâķĲ": 1220,
      "do": 1221,
      "Ġstate": 1222,
      "Ġi": 1223,
      "81": 1224,
      "ĠO": 1225,
      "Ġpush": 1226,
      "FFAA": 1227,
      "AAFF": 1228,
      "Ġstores": 1229,
      "gr": 1230,
      "Ġ_": 1231,
      "xFFAA": 1232,
      "ded": 1233,
      "`),": 1234,
      "Ġcre": 1235,
      "Ġfirst": 1236,
      "000066": 1237,
      "09": 1238,
      "82": 1239,
      "ece": 1240,
      "aw": 1241,
      "ĠâĶĢâĶĢâĶĢâĶĢâĶĢâĶĢâĶĢâĶĢâĶĢâĶĢâĶĢâĶĢâĶĢâĶĢâĶĢâĶĢâĶĢâĶĢâĶĢâĶĢâĶĢâĶĢâĶĢâĶĢâĶĢâĶĢâĶĢâĶĢâĶĢâĶĢâĶĢâĶĢ": 1242,
      "Ġpre": 1243,
      "Ġ49": 1244,
      "Ġuser": 1245,
      "444444": 1246,
      "CIRCLE": 1247,
      "LOAD": 1248,
      "`).": 1249,
      "Ġ37": 1250,
      "5500": 1251,
      "ual": 1252,
      "880088": 1253,
      "Ġnew": 1254,
      "FB": 1255,
      "TY": 1256,
      "ROW": 1257,
      "Ġcurrent": 1258,
      "Ġmanipulation": 1259,
      "xAAFF": 1260,
      "Ġdef": 1261,
      "shift": 1262,
      "tes": 1263,
      "Ġindex": 1264,
      "008888": 1265,
      "ranch": 1266,
      "layer": 1267,
      "vi": 1268,
      "91": 1269,
      "Ġcl": 1270,
      "Ġconstan": 1271,
      "4400": 1272,
      "SC": 1273,
      "our": 1274,
      "Ġbiome": 1275,
      "Ġcompleting": 1276,
      "Ġparame": 1277,
      "PA": 1278,
      "Ġout": 1279,
      "BC": 1280,
      "550077": 1281,
      "ist": 1282,
      "reg": 1283,
      "Ġoff": 1284,
      "97": 1285,
      "END": 1286,
      "igh": 1287,
      "pro": 1288,
      "Ġskip": 1289,
      "Ġsec": 1290,
      "Ġparameters": 1291,
      "MO": 1292,
      "Ġmodulus": 1293,
      "FA": 1294,
      "Ġ44": 1295,
      "Ġgreen": 1296,
      "PSET": 1297,
      "Ġfol": 1298,
      "Ġcomputations": 1299,
      "ail": 1300,
      "Ġcenter": 1301,
      "Ġcontents": 1302,
      "EA": 1303,
      "ble": 1304,
      "buf": 1305,
      "dic": 1306,
      "down": 1307,
      "Ġfollow": 1308,
      "coun": 1309,
      "Ġcommands": 1310,
      "Ġbranch": 1311,
      "Ġword": 1312,
      "rol": 1313,
      "Ġvi": 1314,
      "Ġtry": 1315,
      "tical": 1316,
      "FE": 1317,
      "hase": 1318,
      "skip": 1319,
      "ults": 1320,
      "xFFEE": 1321,
      "ator": 1322,
      "ER": 1323,
      "ĠCSI": 1324,
      "mber": 1325,
      "BASE": 1326,
      "pon": 1327,
      "ping": 1328,
      "not": 1329,
      "Ġsa": 1330,
      "arg": 1331,
      "Ġopco": 1332,
      "Ġlikely": 1333,
      "Ġrendering": 1334,
      "Ġfollowed": 1335,
      "ff": 1336,
      "Ġindic": 1337,
      "ĠClear": 1338,
      "Ġpop": 1339,
      "07": 1340,
      "DF": 1341,
      "Ġnull": 1342,
      "Ġmode": 1343,
      "clear": 1344,
      "Ġdir": 1345,
      "Ġworld": 1346,
      "STRO": 1347,
      "):": 1348,
      "ined": 1349,
      "Ġbut": 1350,
      "Ġwithin": 1351,
      "Ġmanipulate": 1352,
      "Ġresults": 1353,
      "DC": 1354,
      "indow": 1355,
      "Ġhex": 1356,
      "Ġcontrol": 1357,
      "Ġmatches": 1358,
      "awn": 1359,
      "ĠRO": 1360,
      "Ġred": 1361,
      "Ġthey": 1362,
      "ick": 1363,
      "...": 1364,
      "Ġinvolving": 1365,
      "Ġwrites": 1366,
      "Ġ101": 1367,
      "Ġscroll": 1368,
      "CA": 1369,
      "ĠOS": 1370,
      "urther": 1371,
      "Ġgraphics": 1372,
      "umber": 1373,
      "Ġkeyboard": 1374,
      "888800": 1375,
      "Ġall": 1376,
      "led": 1377,
      "ance": 1378,
      "DA": 1379,
      "iece": 1380,
      "arse": 1381,
      "Ġ68": 1382,
      "200": 1383,
      "WPIXEL": 1384,
      "ĠSt": 1385,
      "Ġinter": 1386,
      "CMP": 1387,
      "Ġ200": 1388,
      "tially": 1389,
      "Ġ60": 1390,
      "Ġsubroutines": 1391,
      "Ġdecrements": 1392,
      "FC": 1393,
      "Ġfurther": 1394,
      "ars": 1395,
      "mpt": 1396,
      "imal": 1397,
      "tom": 1398,
      "Ġrepeating": 1399,
      "Ġoutput": 1400,
      "Ġ110": 1401,
      "Ġgraphical": 1402,
      "Ġplayer": 1403,
      "ĠCo": 1404,
      "Ġtop": 1405,
      "Ġarea": 1406,
      "Ġtile": 1407,
      "2000": 1408,
      "NT": 1409,
      "rames": 1410,
      "ree": 1411,
      "----------------": 1412,
      "resh": 1413,
      "Ġmultiple": 1414,
      "Ġsequence": 1415,
      "tle": 1416,
      "ursor": 1417,
      "Ġexecuting": 1418,
      "Ġnext": 1419,
      "Ġmodifies": 1420,
      "DB": 1421,
      "Ġref": 1422,
      "Ġupdating": 1423,
      "ĠEach": 1424,
      "csi": 1425,
      "Ġblue": 1426,
      "Ġreturns": 1427,
      "ort": 1428,
      "Ġpoin": 1429,
      "Ġupdate": 1430,
      "SCI": 1431,
      "Ġoffset": 1432,
      "SCII": 1433,
      "ss": 1434,
      "Ġpushing": 1435,
      "Ġrot": 1436,
      "Ġsecond": 1437,
      "sion": 1438,
      "ottom": 1439,
      "copy": 1440,
      "Ġvis": 1441,
      "Ġadditional": 1442,
      "ected": 1443,
      "ĠSTR": 1444,
      "Ġtas": 1445,
      "ize": 1446,
      "Ġframes": 1447,
      "Ġcall": 1448,
      "agent": 1449,
      "atical": 1450,
      "Ġ112": 1451,
      "Ġdet": 1452,
      "Ġvia": 1453,
      "ĠLo": 1454,
      "emon": 1455,
      "Ġmanag": 1456,
      "cmd": 1457,
      "ault": 1458,
      "ment": 1459,
      "ity": 1460,
      "Ġopcode": 1461,
      "ound": 1462,
      "ten": 1463,
      "ĠTI": 1464,
      "result": 1465,
      "Ġreturning": 1466,
      "amp": 1467,
      "Ġcomplex": 1468,
      "Ġends": 1469,
      "JMP": 1470,
      "Ġcan": 1471,
      "Ġsgr": 1472,
      "round": 1473,
      "Ġchars": 1474,
      "Ġrest": 1475,
      "ign": 1476,
      "ments": 1477,
      "Ġty": 1478,
      "ematical": 1479,
      "Ġmathematical": 1480,
      "Ġpopping": 1481,
      "frame": 1482,
      "ers": 1483,
      "Ġtable": 1484,
      "ast": 1485,
      "ection": 1486,
      "Ġhe": 1487,
      "Ġappe": 1488,
      "PARAM": 1489,
      "Ġpr": 1490,
      "Ġwe": 1491,
      "tep": 1492,
      "Ġfile": 1493,
      "Ġinputs": 1494,
      "Ġrefresh": 1495,
      "px": 1496,
      "Ġ240": 1497,
      "Ġexecute": 1498,
      "'s": 1499,
      "ĠPTY": 1500,
      "Ġfl": 1501,
      "Ġstatus": 1502,
      "XX": 1503,
      "ib": 1504,
      "Ġimple": 1505,
      "Ġthis": 1506,
      "Ġstar": 1507,
      "Ġnumber": 1508,
      "Ġmove": 1509,
      "des": 1510,
      "vance": 1511,
      "Ġrun": 1512,
      "Ġmc": 1513,
      "Ġ70": 1514,
      "OT": 1515,
      "ĠSh": 1516,
      "Ġspace": 1517,
      "SHL": 1518,
      "Ġkeys": 1519,
      "DRAWTEXT": 1520,
      "ĠSEND": 1521,
      "rid": 1522,
      "ill": 1523,
      "Ġmanipulations": 1524,
      "Ġrepeat": 1525,
      "xFFFFFFFF": 1526,
      "Ġ[": 1527,
      "Ġwindow": 1528,
      "dir": 1529,
      "ĠFinal": 1530,
      "Ġ76": 1531,
      "Ġfill": 1532,
      "EM": 1533,
      "dy": 1534,
      "use": 1535,
      "Ġ111": 1536,
      "ĠRead": 1537,
      "Ġiter": 1538,
      "tab": 1539,
      "ĠAfter": 1540,
      "lev": 1541,
      "mpute": 1542,
      "Ġhandle": 1543,
      "Ġmodify": 1544,
      "Ġacc": 1545,
      "MOV": 1546,
      "Ġshow": 1547,
      "ponse": 1548,
      "âĨ": 1549,
      "âĨĴ": 1550,
      "Ġ65": 1551,
      "uilding": 1552,
      "ĠFinally": 1553,
      "bor": 1554,
      "ved": 1555,
      "input": 1556,
      "Ġag": 1557,
      "digit": 1558,
      "xFFB": 1559,
      "abel": 1560,
      "ighbor": 1561,
      "SUB": 1562,
      "crem": 1563,
      "ann": 1564,
      "add": 1565,
      "Ġwhile": 1566,
      "Ġ----": 1567,
      "Ġsubtrac": 1568,
      "ground": 1569,
      "len": 1570,
      "red": 1571,
      "ĠWrite": 1572,
      "Ġdigit": 1573,
      "Ġrows": 1574,
      "Ġ===": 1575,
      "ĠROW": 1576,
      "hash": 1577,
      "ses": 1578,
      "Ġover": 1579,
      "Ġ58": 1580,
      "cp": 1581,
      "end": 1582,
      "Ġed": 1583,
      "ello": 1584,
      "Ġterminate": 1585,
      "5000": 1586,
      "lp": 1587,
      "Ġ&": 1588,
      "idth": 1589,
      "Ġappears": 1590,
      "ton": 1591,
      "Ġappend": 1592,
      "ĠCon": 1593,
      "Ġ22": 1594,
      "read": 1595,
      "stra": 1596,
      "XOR": 1597,
      "SET": 1598,
      "Ġenv": 1599,
      "Ġshap": 1600,
      "Ġpositions": 1601,
      "Ġotherwise": 1602,
      "Ġshapes": 1603,
      "US": 1604,
      "ward": 1605,
      "Ġ108": 1606,
      "Ġits": 1607,
      "255": 1608,
      "Ġneighbor": 1609,
      "ATUS": 1610,
      "ure": 1611,
      "Ġbloc": 1612,
      "Ġ31": 1613,
      "are": 1614,
      "arch": 1615,
      "ange": 1616,
      "umn": 1617,
      "Ġtasks": 1618,
      "cursor": 1619,
      "ost": 1620,
      "ub": 1621,
      "ellow": 1622,
      "iron": 1623,
      "Ġ....": 1624,
      "emonstra": 1625,
      "FILL": 1626,
      "date": 1627,
      "pb": 1628,
      "Ġ>>": 1629,
      "Ġenviron": 1630,
      "per": 1631,
      "Ġcam": 1632,
      "Ġeff": 1633,
      "Ġtk": 1634,
      "Ġgame": 1635,
      "ass": 1636,
      "ĠLoad": 1637,
      "render": 1638,
      "Ġwords": 1639,
      "Ġenvironment": 1640,
      "++": 1641,
      "base": 1642,
      "ew": 1643,
      "ĠâĨĴ": 1644,
      "128": 1645,
      "Ġregion": 1646,
      "start": 1647,
      "Ġcolumn": 1648,
      "color": 1649,
      "Ġ>=": 1650,
      "3000": 1651,
      "JZ": 1652,
      "era": 1653,
      "Ġ97": 1654,
      "Ġwait": 1655,
      "Ġconstant": 1656,
      "Ġrepeats": 1657,
      "oc": 1658,
      "ĠRow": 1659,
      "SHR": 1660,
      "Ġ115": 1661,
      "Ġjumping": 1662,
      "ĠNE": 1663,
      "ĠRAND": 1664,
      "Ġpresses": 1665,
      "Ġthree": 1666,
      "ATE": 1667,
      "rat": 1668,
      "load": 1669,
      "ĠRes": 1670,
      "move": 1671,
      "count": 1672,
      "EN": 1673,
      "ither": 1674,
      "ayout": 1675,
      "Ġprocessing": 1676,
      "bu": 1677,
      "Ġpar": 1678,
      "rain": 1679,
      "Ġem": 1680,
      "Ġ99": 1681,
      "Ġfilling": 1682,
      "Ġpointer": 1683,
      "Ġimplements": 1684,
      "annel": 1685,
      "HALT": 1686,
      "ge": 1687,
      "ning": 1688,
      "ply": 1689,
      "rect": 1690,
      "ĠGeomet": 1691,
      "ust": 1692,
      "Ġtitle": 1693,
      "ĠGeometry": 1694,
      "GR": 1695,
      "over": 1696,
      "Ġte": 1697,
      "esc": 1698,
      "Ġprovi": 1699,
      "new": 1700,
      "Ġpath": 1701,
      "Ġbutton": 1702,
      "adi": 1703,
      "err": 1704,
      "Ġprompt": 1705,
      "Ġbytes": 1706,
      "Ġaddr": 1707,
      "4000": 1708,
      "rac": 1709,
      "Ġcalculates": 1710,
      "Ġlocation": 1711,
      "Ġuse": 1712,
      "Ġcamera": 1713,
      "GB": 1714,
      "IKEY": 1715,
      "ms": 1716,
      "vert": 1717,
      "Ġresponse": 1718,
      "Ġbackground": 1719,
      "crement": 1720,
      "Ġprovided": 1721,
      "OU": 1722,
      "Ġradi": 1723,
      "Ġcmd": 1724,
      "oriz": 1725,
      "Ġme": 1726,
      "ĠANSI": 1727,
      "mpty": 1728,
      "store": 1729,
      "Ġ73": 1730,
      "Ġwater": 1731,
      "ĠFG": 1732,
      "Ġpoten": 1733,
      "Ġhandling": 1734,
      "Ġemit": 1735,
      "YS": 1736,
      "lend": 1737,
      "emo": 1738,
      "Ġadds": 1739,
      "screen": 1740,
      "av": 1741,
      "gits": 1742,
      "Ġcy": 1743,
      "Ġdark": 1744,
      "ĠPhase": 1745,
      "Ġ69": 1746,
      "Ġmanipulating": 1747,
      "Ġhandles": 1748,
      "Ġconstants": 1749,
      "Ġflag": 1750,
      "level": 1751,
      "ĠStore": 1752,
      "Ġpiece": 1753,
      "Ġdim": 1754,
      "Ġblend": 1755,
      "Ġinit": 1756,
      "LEN": 1757,
      "Ġ116": 1758,
      "pos": 1759,
      "Ġbranches": 1760,
      "rc": 1761,
      "enting": 1762,
      "Ġbottom": 1763,
      "ĠMA": 1764,
      "Ġspawn": 1765,
      "Ġ42": 1766,
      "Ġlen": 1767,
      "Ġwhen": 1768,
      "Ġrestore": 1769,
      "Ġmultiplies": 1770,
      "ĠShow": 1771,
      "vas": 1772,
      "ĠSc": 1773,
      "Ġcopy": 1774,
      "Ġcell": 1775,
      "Ġsel": 1776,
      "Ġpl": 1777,
      "Ġeither": 1778,
      "ĠANS": 1779,
      "ement": 1780,
      "chk": 1781,
      "tiles": 1782,
      "ĠCOLOR": 1783,
      "bug": 1784,
      "XT": 1785,
      "pa": 1786,
      "tile": 1787,
      "tity": 1788,
      "Ġcor": 1789,
      "Ġsize": 1790,
      "Ġ120": 1791,
      "ĠROWS": 1792,
      "OUNT": 1793,
      "700": 1794,
      "bar": 1795,
      "ĠY": 1796,
      "Ġ|": 1797,
      "Ġdown": 1798,
      "Ġtest": 1799,
      "Ġdefined": 1800,
      "based": 1801,
      "port": 1802,
      "Ġso": 1803,
      "ĠPro": 1804,
      "ĠRGB": 1805,
      "uld": 1806,
      "Ġlabel": 1807,
      "order": 1808,
      "ĠEn": 1809,
      "ĠUp": 1810,
      "Ġradius": 1811,
      "OLL": 1812,
      "Ġsin": 1813,
      "Ġwin": 1814,
      "ĠASCII": 1815,
      "Ġtab": 1816,
      "ries": 1817,
      "Ġbyte": 1818,
      "Ġtim": 1819,
      "ldg": 1820,
      "space": 1821,
      "Ġmodular": 1822,
      "AV": 1823,
      "vis": 1824,
      "Ġrout": 1825,
      "ink": 1826,
      "Ġsn": 1827,
      "ĠTit": 1828,
      "ĠDe": 1829,
      "Ġone": 1830,
      "Ġ127": 1831,
      "eds": 1832,
      "Ġadvance": 1833,
      "Ġgrid": 1834,
      "Ġstored": 1835,
      "ĠTitle": 1836,
      "lision": 1837,
      "lot": 1838,
      "Ġ83": 1839,
      "Ġsugg": 1840,
      "Ġcolored": 1841,
      "Ġadditions": 1842,
      "Ġmax": 1843,
      "Ġreads": 1844,
      "ID": 1845,
      "MUL": 1846,
      "TAB": 1847,
      "driven": 1848,
      "ner": 1849,
      "Ġz": 1850,
      "Ġqu": 1851,
      "ĠSet": 1852,
      "Ġtran": 1853,
      "Ġlast": 1854,
      "Ġget": 1855,
      "Ġfilled": 1856,
      "Ġvisual": 1857,
      "Ġcanvas": 1858,
      "ocus": 1859,
      "MD": 1860,
      "Ġtiles": 1861,
      "Ġ224": 1862,
      "lose": 1863,
      "ross": 1864,
      "Ġver": 1865,
      "Ġconf": 1866,
      "Ġ84": 1867,
      "Ġchannel": 1868,
      "xFA": 1869,
      "Ġagain": 1870,
      "emonstrates": 1871,
      "CK": 1872,
      "CL": 1873,
      "ces": 1874,
      "Ġsw": 1875,
      "Ġbl": 1876,
      "Ġ82": 1877,
      "istory": 1878,
      "arget": 1879,
      "Ġmanages": 1880,
      "green": 1881,
      "write": 1882,
      "ener": 1883,
      "Ġwidth": 1884,
      "ithin": 1885,
      "ESC": 1886,
      "Ġproce": 1887,
      "Ġname": 1888,
      "xFD": 1889,
      "COUNT": 1890,
      "SYS": 1891,
      "ĠAd": 1892,
      "Ġstop": 1893,
      "ĠWithin": 1894,
      "Ġdivid": 1895,
      "Ġsubtractions": 1896,
      "ource": 1897,
      "counter": 1898,
      "ĠCompute": 1899,
      "newline": 1900,
      "ext": 1901,
      "gth": 1902,
      "Ġsome": 1903,
      "001": 1904,
      "Ġ230": 1905,
      "Ġtri": 1906,
      "ĠGet": 1907,
      "ĠWIN": 1908,
      "Ġcounters": 1909,
      "Ġsequentially": 1910,
      "COLOR": 1911,
      "ratch": 1912,
      "SCR": 1913,
      "Ġcno": 1914,
      "ADDR": 1915,
      "ĠCL": 1916,
      "ĠCMD": 1917,
      "ITSET": 1918,
      "null": 1919,
      "wa": 1920,
      "Ġpart": 1921,
      "ĠCopy": 1922,
      "Ġfour": 1923,
      "elp": 1924,
      "Ġany": 1925,
      "Ġ79": 1926,
      "defined": 1927,
      "ĠNOT": 1928,
      "Ġinvolves": 1929,
      "Ġ<<": 1930,
      "Ġpredefined": 1931,
      "CMPI": 1932,
      "Ġtemp": 1933,
      "040": 1934,
      ":\"": 1935,
      "NE": 1936,
      "xAD": 1937,
      "Ġ180": 1938,
      "ĠTXT": 1939,
      "place": 1940,
      "Ġdecrementing": 1941,
      "Ġinterac": 1942,
      "Ġtype": 1943,
      "run": 1944,
      "1000": 1945,
      "ename": 1946,
      "Ġwithout": 1947,
      "Ġcompute": 1948,
      "xCC": 1949,
      "Ġmodifying": 1950,
      "Ġsubtracts": 1951,
      "Ġpotentially": 1952,
      "bit": 1953,
      "oom": 1954,
      "ĠOP": 1955,
      "ecimal": 1956,
      "Ġ104": 1957,
      "Ġentries": 1958,
      "Ġrefreshes": 1959,
      "Ġproceeds": 1960,
      "7000": 1961,
      "ape": 1962,
      "ler": 1963,
      "lines": 1964,
      "try": 1965,
      "uct": 1966,
      "Ġbuilding": 1967,
      "Ġflow": 1968,
      "side": 1969,
      "Ġroutine": 1970,
      "bb": 1971,
      "top": 1972,
      "init": 1973,
      "Ġ176": 1974,
      "ĠMo": 1975,
      "dl": 1976,
      "ive": 1977,
      "ould": 1978,
      "sb": 1979,
      "Ġ218": 1980,
      "ĠDis": 1981,
      "Ġ105": 1982,
      "ipe": 1983,
      "Ġmouse": 1984,
      "andom": 1985,
      "type": 1986,
      "Ġblock": 1987,
      "Ġlength": 1988,
      "ures": 1989,
      "Ġ216": 1990,
      "eco": 1991,
      "asc": 1992,
      "Ġdisplaying": 1993,
      "Ġentry": 1994,
      "blend": 1995,
      "visor": 1996,
      "OM": 1997,
      "UG": 1998,
      "blue": 1999,
      "kn": 2000,
      "Ġle": 2001,
      "Ġ214": 2002,
      "Ġ170": 2003,
      "Ġmark": 2004,
      "Ġtarget": 2005,
      "Ġmultiplications": 2006,
      "pending": 2007,
      "Ġcreates": 2008,
      "ĠâĶĢâĶĢâĶĢâĶĢâĶĢâĶĢâĶĢâĶĢâĶĢâĶĢâĶĢâĶĢâĶĢâĶĢâĶĢâĶĢâĶĢâĶĢâĶĢâĶĢâĶĢâĶĢâĶĢâĶĢâĶĢâĶĢâĶĢâĶĢâĶĢâĶĢâĶĢâĶĢâĶĢâĶĢâĶĢâĶĢâĶĢâĶĢâĶĢâĶĢ": 2009,
      "CP": 2010,
      "Ġ%": 2011,
      "Ġdes": 2012,
      "ĠBuild": 2013,
      "adecimal": 2014,
      "Ġ72": 2015,
      "ĠSTATUS": 2016,
      "EBUG": 2017,
      "ually": 2018,
      "Ġdefault": 2019,
      "Ġhexadecimal": 2020,
      "Ġstarting": 2021,
      "Ġiteration": 2022,
      "020": 2023,
      "ĠCol": 2024,
      "Ġ220": 2025,
      "ĠXORs": 2026,
      "Ġdrawn": 2027,
      "xCD": 2028,
      "ĠUses": 2029,
      "ĠIni": 2030,
      "6000": 2031,
      "cy": 2032,
      "index": 2033,
      "ĠSp": 2034,
      "ally": 2035,
      "Ġphase": 2036,
      "Ġ215": 2037,
      "lobb": 2038,
      "ĠAL": 2039,
      "ĠDEBUG": 2040,
      "ĠIN": 2041,
      "Ġhash": 2042,
      "aces": 2043,
      "Ġscratch": 2044,
      "Ġ75": 2045,
      "angle": 2046,
      "Ġcoordinate": 2047,
      "Ġstruct": 2048,
      "ĠRender": 2049,
      "ASCII": 2050,
      "JNZ": 2051,
      "gra": 2052,
      "sgr": 2053,
      "Ġcel": 2054,
      "Ġ222": 2055,
      "Ġmap": 2056,
      "Ġstrlen": 2057,
      "mode": 2058,
      "Ġrestor": 2059,
      "ready": 2060,
      "Ġconfig": 2061,
      "UM": 2062,
      "wh": 2063,
      "Ġ179": 2064,
      "ects": 2065,
      "very": 2066,
      "xDB": 2067,
      "Ġ90": 2068,
      "Ġreset": 2069,
      "ibble": 2070,
      "pervisor": 2071,
      "ĠNEG": 2072,
      "ative": 2073,
      "mc": 2074,
      "rop": 2075,
      "tp": 2076,
      "Ġ244": 2077,
      "Ġwal": 2078,
      "Ġwave": 2079,
      "Ġlooping": 2080,
      "ked": 2081,
      "reset": 2082,
      "ĠSCROLL": 2083,
      "Ġindicator": 2084,
      "known": 2085,
      "Hello": 2086,
      "LM": 2087,
      "bl": 2088,
      "fail": 2089,
      "ĠSave": 2090,
      "ĠSGR": 2091,
      "Ġsrc": 2092,
      "Ġpv": 2093,
      "Ġ210": 2094,
      "Ġ211": 2095,
      "Ġ239": 2096,
      "Ġtho": 2097,
      "Ġ314": 2098,
      "Ġhistory": 2099,
      "Ġnon": 2100,
      "asic": 2101,
      "Ġdigits": 2102,
      "ording": 2103,
      "Ġbranching": 2104,
      "error": 2105,
      "ĠInitializ": 2106,
      "gor": 2107,
      "oo": 2108,
      "rl": 2109,
      "ĠLLM": 2110,
      "Ġab": 2111,
      "Ġ228": 2112,
      "Ġ234": 2113,
      "Ġ300": 2114,
      "ice": 2115,
      "Ġchk": 2116,
      "Ġ51": 2117,
      "ĠNull": 2118,
      "Ġtrigg": 2119,
      "ypervisor": 2120,
      "Ġabo": 2121,
      "Ġsign": 2122,
      "Ġ213": 2123,
      "Ġ226": 2124,
      "Ġ229": 2125,
      "Ġdue": 2126,
      "itch": 2127,
      "Ġ67": 2128,
      "Ġgi": 2129,
      "ask": 2130,
      "Ġcomparing": 2131,
      "Ġsugges": 2132,
      "ĠNOTE": 2133,
      "UN": 2134,
      "tions": 2135,
      "Ġ188": 2136,
      "Ġ199": 2137,
      "Ġfd": 2138,
      "Ġhi": 2139,
      "Ġenter": 2140,
      "Ġentity": 2141,
      "Ġ56": 2142,
      "xBC": 2143,
      "old": 2144,
      "ĠĠĠĠĠĠĠĠĠĠĠĠĠĠĠ": 2145,
      "Ġfilename": 2146,
      "ĠReg": 2147,
      "Ġinvolve": 2148,
      "gorith": 2149,
      "from": 2150,
      "Ġrandom": 2151,
      "ints": 2152,
      "Ġsource": 2153,
      "Ġpan": 2154,
      "Ġ212": 2155,
      "Ġ174": 2156,
      "Ġball": 2157,
      "Ġ399": 2158,
      "rep": 2159,
      "Ġexit": 2160,
      "clr": 2161,
      "Ġwhite": 2162,
      "Ġgener": 2163,
      "xBA": 2164,
      "xBF": 2165,
      "xEF": 2166,
      "Ġpos": 2167,
      "Ġyellow": 2168,
      "Ġtime": 2169,
      "ĠVM": 2170,
      "Ġthose": 2171,
      "ĠInitialize": 2172,
      "SM": 2173,
      "dx": 2174,
      "hi": 2175,
      "map": 2176,
      "save": 2177,
      "world": 2178,
      "ĠĠĊ": 2179,
      "ĠLayout": 2180,
      "time": 2181,
      "erm": 2182,
      "orm": 2183,
      "Ġ219": 2184,
      "Ġ236": 2185,
      "Ġmin": 2186,
      "Ġborder": 2187,
      "Ġbasic": 2188,
      "ĠPRO": 2189,
      "Ġfull": 2190,
      "arm": 2191,
      "Ġhoriz": 2192,
      "rip": 2193,
      "Ġang": 2194,
      "Ġscore": 2195,
      "Ġ55": 2196,
      "Ġcontent": 2197,
      "xEC": 2198,
      "scroll": 2199,
      "prompt": 2200,
      "ĠWINSYS": 2201,
      "gorithm": 2202,
      "',": 2203,
      "he": 2204,
      "parse": 2205,
      "ttp": 2206,
      "ĠESC": 2207,
      "Ġpur": 2208,
      "ĠTest": 2209,
      "ĠAI": 2210,
      "Ġevery": 2211,
      "ary": 2212,
      "rie": 2213,
      "char": 2214,
      "Ġcalling": 2215,
      "ĠWe": 2216,
      "xFB": 2217,
      "Ġafterward": 2218,
      "Ġactive": 2219,
      "Ġeffect": 2220,
      "ĠReset": 2221,
      "Ġagainst": 2222,
      "\",": 2223,
      "430": 2224,
      "SAR": 2225,
      "WN": 2226,
      "back": 2227,
      "ep": 2228,
      "fl": 2229,
      "lap": 2230,
      "tk": 2231,
      "ĠSkip": 2232,
      "Ġ103": 2233,
      "Ġ109": 2234,
      "div": 2235,
      "Ġcha": 2236,
      "Ġ77": 2237,
      "xDA": 2238,
      "xCB": 2239,
      "xBB": 2240,
      "xEE": 2241,
      "rows": 2242,
      "STATE": 2243,
      "Ġsettings": 2244,
      "Ġstrings": 2245,
      "Ġcreating": 2246,
      "Ġvisi": 2247,
      "Ġcells": 2248,
      "Ġangle": 2249,
      "cre": 2250,
      "pixel": 2251,
      "Ġsqu": 2252,
      "Ġcodes": 2253,
      "Ġremain": 2254,
      "Ġ315": 2255,
      "Ġ360": 2256,
      "Ġ374": 2257,
      "Ġsprite": 2258,
      "7800": 2259,
      "EEP": 2260,
      "Ġdecimal": 2261,
      "Ġsaving": 2262,
      "TABLE": 2263,
      "Ġtrans": 2264,
      "Ġabove": 2265,
      "510": 2266,
      "8000": 2267,
      "oid": 2268,
      "Ġstep": 2269,
      "Ġport": 2270,
      "rap": 2271,
      "ens": 2272,
      "Ġdemo": 2273,
      "Ġmore": 2274,
      "Ġmess": 2275,
      "Ġinitial": 2276,
      "Ġtint": 2277,
      "ĠHITSET": 2278,
      "Ġ53": 2279,
      "xCF": 2280,
      "xAF": 2281,
      "show": 2282,
      "Ġalgorithm": 2283,
      "Ġcreate": 2284,
      "ĠUpdate": 2285,
      "HI": 2286,
      "RTY": 2287,
      "ĠKEY": 2288,
      "ale": 2289,
      "Ġ266": 2290,
      "Ġ299": 2291,
      "Ġ279": 2292,
      "Ġ238": 2293,
      "rag": 2294,
      "Ġ177": 2295,
      "Ġ316": 2296,
      "Ġ330": 2297,
      "Ġ366": 2298,
      "Ġ47": 2299,
      "Ġhit": 2300,
      "state": 2301,
      "ĠBEEP": 2302,
      "Ġchild": 2303,
      "default": 2304,
      "xAB": 2305,
      "Ġdivisions": 2306,
      "ĠTICK": 2307,
      "Ġaccording": 2308,
      "Ġedge": 2309,
      "ĠDisplay": 2310,
      "ĠColor": 2311,
      "SP": 2312,
      "ĠĠĠĠĊ": 2313,
      "Ġ223": 2314,
      "Ġ178": 2315,
      "Ġ185": 2316,
      "Ġ318": 2317,
      "itor": 2318,
      "Ġsend": 2319,
      "xDC": 2320,
      "xCE": 2321,
      "Ġdist": 2322,
      "Ġ150": 2323,
      "neg": 2324,
      "Ġprev": 2325,
      "sions": 2326,
      "Ġhead": 2327,
      "path": 2328,
      "ĠRegis": 2329,
      "USE": 2330,
      "WIN": 2331,
      "build": 2332,
      "cont": 2333,
      "du": 2334,
      "Ġid": 2335,
      "Ġerror": 2336,
      "org": 2337,
      "Ġ290": 2338,
      "sel": 2339,
      "âĶĢâĶĢâĶĢâĶĢâĶĢâĶĢ": 2340,
      "Ġ87": 2341,
      "status": 2342,
      "clu": 2343,
      "rest": 2344,
      "Ġcalculated": 2345,
      "ontal": 2346,
      "Ġrestart": 2347,
      "Ġheight": 2348,
      "addr": 2349,
      "300": 2350,
      "400": 2351,
      "RL": 2352,
      "be": 2353,
      "Ġincrement": 2354,
      "Ġ233": 2355,
      "Ġ175": 2356,
      "Ġdest": 2357,
      "Ġinitializing": 2358,
      "rols": 2359,
      "unt": 2360,
      "Ġ46": 2361,
      "2222": 2362,
      "ays": 2363,
      "Ġ117": 2364,
      "xEA": 2365,
      "Ġ91": 2366,
      "Ġjust": 2367,
      "--------------------------------": 2368,
      "dirty": 2369,
      "Ġdivides": 2370,
      "220": 2371,
      "AM": 2372,
      "FS": 2373,
      "con": 2374,
      "hex": 2375,
      "Ġ217": 2376,
      "Ġ288": 2377,
      "Ġdx": 2378,
      "Ġdy": 2379,
      "Ġmm": 2380,
      "Ġ344": 2381,
      "Ġ340": 2382,
      "Ġfont": 2383,
      "aint": 2384,
      "Ġ45": 2385,
      "Ġlarg": 2386,
      "240": 2387,
      "Ġ78": 2388,
      "Ġmultiply": 2389,
      "Ġneg": 2390,
      "Ġindicating": 2391,
      "Ġgiven": 2392,
      "Ġcharac": 2393,
      "->": 2394,
      "410": 2395,
      "UT": 2396,
      "cc": 2397,
      "tal": 2398,
      "ĠK": 2399,
      "ĠLO": 2400,
      "ĠCl": 2401,
      "ĠCont": 2402,
      "ech": 2403,
      "Ġdemonstrates": 2404,
      "Ġ334": 2405,
      "ication": 2406,
      "Ġ400": 2407,
      "Ġhas": 2408,
      "Ġ62": 2409,
      "Ġ124": 2410,
      "ART": 2411,
      "xDF": 2412,
      "Ġareas": 2413,
      "Ġretrie": 2414,
      "Ġdoes": 2415,
      "point": 2416,
      "ĠOSC": 2417,
      "500": 2418,
      "530": 2419,
      "empty": 2420,
      "fo": 2421,
      "hello": 2422,
      "ide": 2423,
      "name": 2424,
      "off": 2425,
      "sub": 2426,
      "Ġk": 2427,
      "Ġ~": 2428,
      "onal": 2429,
      "Ġ285": 2430,
      "Ġ184": 2431,
      "ecting": 2432,
      "ective": 2433,
      "Ġdst": 2434,
      "Ġwall": 2435,
      "Ġwell": 2436,
      "Ġev": 2437,
      "ĠMain": 2438,
      "ĠORs": 2439,
      "Ġsearch": 2440,
      "INK": 2441,
      "xDE": 2442,
      "Ġchecking": 2443,
      "Ġ130": 2444,
      "agonal": 2445,
      "idd": 2446,
      "terminal": 2447,
      "Ġprocesses": 2448,
      "Ġalready": 2449,
      "Ġnewline": 2450,
      "Ġdirty": 2451,
      "ĠTILE": 2452,
      "Ġpartic": 2453,
      "clude": 2454,
      "ILE": 2455,
      "dc": 2456,
      "gn": 2457,
      "pass": 2458,
      "ĠSAV": 2459,
      "Ġses": 2460,
      "Ġ225": 2461,
      "Ġ289": 2462,
      "Ġ380": 2463,
      "Ġ355": 2464,
      "Ġet": 2465,
      "ature": 2466,
      "ĠFor": 2467,
      "Ġ85": 2468,
      "Ġshould": 2469,
      "xAC": 2470,
      "xAE": 2471,
      "Ġadding": 2472,
      "Ġ+=": 2473,
      "Ġdebug": 2474,
      "iled": 2475,
      "ĠInit": 2476,
      "Ġclamp": 2477,
      "regs": 2478,
      "Ġcaller": 2479,
      "msg": 2480,
      "ĠCLIP": 2481,
      "bldg": 2482,
      "tn": 2483,
      "win": 2484,
      "ong": 2485,
      "Ġ280": 2486,
      "Ġ264": 2487,
      "Ġredraw": 2488,
      "Ġ388": 2489,
      "Ġ370": 2490,
      "Ġ333": 2491,
      "ĠANDs": 2492,
      "ains": 2493,
      "Ġ102": 2494,
      "Ġ66": 2495,
      "Ġcollision": 2496,
      "Ġ52": 2497,
      "xED": 2498,
      "Ġ140": 2499,
      "Ġdetermin": 2500,
      "COLS": 2501,
      "Ġterminator": 2502,
      "ĠEnter": 2503,
      "\")": 2504,
      "600": 2505,
      "file": 2506,
      "pre": 2507,
      "ested": 2508,
      "Ġsy": 2509,
      "Ġ227": 2510,
      "Ġ320": 2511,
      "Ġinitialized": 2512,
      "Ġfocus": 2513,
      "Ġtheir": 2514,
      "ĠAp": 2515,
      "ĠMemory": 2516,
      "ĠRUN": 2517,
      "ESP": 2518,
      "Ġ1000": 2519,
      "Ġexp": 2520,
      "Ġ54": 2521,
      "xFE": 2522,
      "xCA": 2523,
      "Ġ119": 2524,
      "xEB": 2525,
      "andle": 2526,
      "tract": 2527,
      "ĠNo": 2528,
      "ĠUpon": 2529,
      "okup": 2530,
      "Ġdirection": 2531,
      "Ġsubtracting": 2532,
      "Ġmean": 2533,
      "Ġsuggesting": 2534,
      "ormal": 2535,
      "ĠTICKS": 2536,
      "2100": 2537,
      "ZE": 2538,
      "ai": 2539,
      "min": 2540,
      "pop": 2541,
      "test": 2542,
      "Ġlevel": 2543,
      "Ġsine": 2544,
      "Ġsim": 2545,
      "Ġslot": 2546,
      "Ġ270": 2547,
      "Ġ265": 2548,
      "Ġ295": 2549,
      "ingle": 2550,
      "Ġbuild": 2551,
      "ĠPID": 2552,
      "Ġ312": 2553,
      "Ġtotal": 2554,
      "emy": 2555,
      "Ġlayout": 2556,
      "xFC": 2557,
      "Ġneed": 2558,
      "EEN": 2559,
      "STATUS": 2560,
      "Ġbody": 2561,
      "Ġdetected": 2562,
      "Ġmessage": 2563,
      "418": 2564,
      "BAR": 2565,
      "CV": 2566,
      "ailed": 2567,
      "cs": 2568,
      "ii": 2569,
      "ma": 2570,
      "Ġparse": 2571,
      "Ġpipe": 2572,
      "ĠCursor": 2573,
      "Ġ276": 2574,
      "Ġdur": 2575,
      "Ġdone": 2576,
      "Ġbi": 2577,
      "search": 2578,
      "Ġ335": 2579,
      "Ġ389": 2580,
      "Ġfine": 2581,
      "Ġcontext": 2582,
      "2200": 2583,
      "Ġ121": 2584,
      "Ġarrow": 2585,
      "Ġnested": 2586,
      "sign": 2587,
      "ands": 2588,
      "ĠURL": 2589,
      "rick": 2590,
      "Ġboard": 2591,
      "Ġprints": 2592,
      "cpy": 2593,
      "Ġswitch": 2594,
      "asciz": 2595,
      "Ġdesign": 2596,
      "!\"": 2597,
      "RIT": 2598,
      "SOR": 2599,
      "dec": 2600,
      "pat": 2601,
      "ĠâĶĢâĶĢâĶĢâĶĢâĶĢâĶĢâĶĢâĶĢâĶĢâĶĢâĶĢâĶĢâĶĢâĶĢâĶĢâĶĢ": 2602,
      "Ġterminal": 2603,
      "Ġbright": 2604,
      "tend": 2605,
      "Ġ313": 2606,
      "Ġ375": 2607,
      "Ġ336": 2608,
      "Ġ339": 2609,
      "Ġ384": 2610,
      "Ġ365": 2611,
      "Ġ369": 2612,
      "Ġtra": 2613,
      "Ġhost": 2614,
      "Ġhypervisor": 2615,
      "ĠBuilding": 2616,
      "ARM": 2617,
      "ĠDIRTY": 2618,
      "0000000": 2619,
      "Ġ71": 2620,
      "xBD": 2621,
      "ĠEx": 2622,
      "ĠInput": 2623,
      "Ġsequences": 2624,
      "Ġdecrement": 2625,
      "Ġpatterns": 2626,
      "Ġclick": 2627,
      "Ġdimen": 2628,
      "Ġlarger": 2629,
      "after": 2630,
      "aded": 2631,
      "li": 2632,
      "piece": 2633,
      "uted": 2634,
      "Ġunc": 2635,
      "tip": 2636,
      "ests": 2637,
      "10000": 2638,
      "Ġ275": 2639,
      "Ġmem": 2640,
      "Ġ377": 2641,
      "Ġ394": 2642,
      "Ġ395": 2643,
      "arrow": 2644,
      "unce": 2645,
      "Ġ43": 2646,
      "dient": 2647,
      "ĠHEX": 2648,
      "Ġresp": 2649,
      "Ġcontinue": 2650,
      "ĠBLINK": 2651,
      "Ġpast": 2652,
      "ĠIncrement": 2653,
      "ctually": 2654,
      "ĠOther": 2655,
      "ĠROOM": 2656,
      "Ġmanagement": 2657,
      "Ġrunning": 2658,
      "Ġtrigger": 2659,
      "Ġpanel": 2660,
      "Ġaccordingly": 2661,
      "Ġsession": 2662,
      "'t": 2663,
      "MA": 2664,
      "MAL": 2665,
      "VE": 2666,
      "ped": 2667,
      "sa": 2668,
      "sn": 2669,
      "ying": 2670,
      "Ġ:": 2671,
      "Ġtic": 2672,
      "ORMAL": 2673,
      "1201": 2674,
      "Ġpri": 2675,
      "Ġreload": 2676,
      "Ġbldg": 2677,
      "teg": 2678,
      "Ġ319": 2679,
      "Ġlow": 2680,
      "ĠMS": 2681,
      "ĠFB": 2682,
      "Ġ88": 2683,
      "Ġnav": 2684,
      "ayer": 2685,
      "ables": 2686,
      "Ġ248": 2687,
      "box": 2688,
      "scan": 2689,
      "Ġused": 2690,
      "ĠConstan": 2691,
      "ĠOtherwise": 2692,
      "428": 2693,
      "light": 2694,
      "oa": 2695,
      "wave": 2696,
      "ĠQ": 2697,
      "ĠLS": 2698,
      "Ġsame": 2699,
      "Ġpat": 2700,
      "Ġ189": 2701,
      "Ġdot": 2702,
      "ĠPixel": 2703,
      "Ġ385": 2704,
      "Ġfixed": 2705,
      "Ġvy": 2706,
      "Ġempty": 2707,
      "click": 2708,
      "Ġ118": 2709,
      "Ġanimated": 2710,
      "Ġbuffers": 2711,
      "Ġacross": 2712,
      "lock": 2713,
      "Ġdirect": 2714,
      "ava": 2715,
      "Ġblack": 2716,
      "water": 2717,
      "CPY": 2718,
      "NORMAL": 2719,
      "bright": 2720,
      "cr": 2721,
      "ccess": 2722,
      "eq": 2723,
      "flow": 2724,
      "step": 2725,
      "Ġrec": 2726,
      "Ġrece": 2727,
      "Ġ277": 2728,
      "Ġ269": 2729,
      "Ġ350": 2730,
      "OSE": 2731,
      "Ġhttp": 2732,
      "ĠĠĠĠĠĠĠĠĠĠĠĠĠĠĠĠ": 2733,
      "star": 2734,
      "216": 2735,
      "ĠWa": 2736,
      "player": 2737,
      "GET": 2738,
      "Ġcomplete": 2739,
      "terminate": 2740,
      "specif": 2741,
      "Ġview": 2742,
      "Ġsaved": 2743,
      "ĠStatus": 2744,
      "Ġpoints": 2745,
      "Ġaccent": 2746,
      "Ġblocks": 2747,
      "ĠMAIN": 2748,
      "Ġsquare": 2749,
      "ĠLOOP": 2750,
      "ĠControls": 2751,
      "Ġdetermined": 2752,
      "Ġdimensions": 2753,
      "ĠMSG": 2754,
      "110": 2755,
      "AI": 2756,
      "ENT": 2757,
      "ak": 2758,
      "help": 2759,
      "nx": 2760,
      "od": 2761,
      "sert": 2762,
      "val": 2763,
      "yellow": 2764,
      "Ġrh": 2765,
      "inc": 2766,
      "Ġ260": 2767,
      "Ġ294": 2768,
      "Ġ311": 2769,
      "Ġ378": 2770,
      "Ġ379": 2771,
      "Ġ364": 2772,
      "Ġfound": 2773,
      "Ġvx": 2774,
      "lete": 2775,
      "Ġonly": 2776,
      "Ġ160": 2777,
      "ixer": 2778,
      "xFFE": 2779,
      "Ġhalf": 2780,
      "Ġsup": 2781,
      "ading": 2782,
      "Ġchang": 2783,
      "Ġadj": 2784,
      "ING": 2785,
      "Ġ196": 2786,
      "idx": 2787,
      "Ġgrass": 2788,
      "ĠEN": 2789,
      "termine": 2790,
      "ternal": 2791,
      "Ġboth": 2792,
      "ggle": 2793,
      "view": 2794,
      "Ġopcodes": 2795,
      "Ġindicated": 2796,
      "Ġ....)": 2797,
      "ĠMAP": 2798,
      "Ġtimer": 2799,
      "lobbers": 2800,
      "white": 2801,
      "Ġhorizontal": 2802,
      "Ġmeans": 2803,
      "tended": 2804,
      "6100": 2805,
      "AS": 2806,
      "MER": 2807,
      "dark": 2808,
      "rup": 2809,
      "ties": 2810,
      "thing": 2811,
      "ract": 2812,
      "Ġdel": 2813,
      "ĠPlayer": 2814,
      "eld": 2815,
      "Ġ\"/": 2816,
      "Ġ57": 2817,
      "quit": 2818,
      "Ġstorage": 2819,
      "Ġappl": 2820,
      "Ġequals": 2821,
      "prox": 2822,
      "EMY": 2823,
      "Ġagent": 2824,
      "overlap": 2825,
      "ĠALARM": 2826,
      "Ġconfigur": 2827,
      "signed": 2828,
      "specific": 2829,
      "(\"": 2830,
      "424": 2831,
      "DO": 2832,
      "IDE": 2833,
      "sw": 2834,
      "size": 2835,
      "Ġcsi": 2836,
      "Ġpx": 2837,
      "Ġ278": 2838,
      "Ġ235": 2839,
      "Ġcols": 2840,
      "ĠTAB": 2841,
      "FFF": 2842,
      "debug": 2843,
      "ared": 2844,
      "ĠMEM": 2845,
      "Ġhk": 2846,
      "OPEN": 2847,
      "Ġ81": 2848,
      "Ġonto": 2849,
      "ditional": 2850,
      "ĠBack": 2851,
      "update": 2852,
      "ĠDISP": 2853,
      "assemb": 2854,
      "Ġdiagonal": 2855,
      "Ġvariables": 2856,
      "append": 2857,
      "READ": 2858,
      "Ġwriting": 2859,
      "ĠâĶĢâĶĢâĶĢâĶĢâĶĢâĶĢâĶĢâĶĢâĶĢâĶĢâĶĢâĶĢâĶĢâĶĢâĶĢâĶĢâĶĢâĶĢâĶĢâĶĢâĶĢâĶĢâĶĢâĶĢâĶĢâĶĢâĶĢâĶĢâĶĢâĶĢâĶĢâĶĢâĶĢâĶĢâĶĢâĶĢâĶĢâĶĢâĶĢâĶĢâĶĢâĶĢâĶĢâĶĢâĶĢâĶĢâĶĢâĶĢ": 2860,
      "ROWS": 2861,
      "Ġinterrup": 2862,
      "Ġprint": 2863,
      "Ġstarts": 2864,
      "Ġregions": 2865,
      "ĠScreen": 2866,
      "ĠProcess": 2867,
      "Ġremaining": 2868,
      "echo": 2869,
      "RITE": 2870,
      "like": 2871,
      ")->": 2872,
      "5100": 2873,
      "LA": 2874,
      "OD": 2875,
      "SL": 2876,
      "VAL": 2877,
      "cur": 2878,
      "dn": 2879,
      "lib": 2880,
      "mt": 2881,
      "vice": 2882,
      "ĠLe": 2883,
      "Ġcap": 2884,
      "Ġplot": 2885,
      "rary": 2886,
      "Ġdp": 2887,
      "Ġ317": 2888,
      "Ġ322": 2889,
      "Ġ86": 2890,
      "active": 2891,
      "SEL": 2892,
      "Ġarg": 2893,
      "ripe": 2894,
      "xBE": 2895,
      "Ġlib": 2896,
      "Ġlight": 2897,
      "7801": 2898,
      "ĠâĶĢâĶĢâĶĢâĶĢâĶĢâĶĢâĶĢâĶĢâĶĢâĶĢâĶĢâĶĢâĶĢâĶĢâĶĢâĶĢâĶĢâĶĢâĶĢâĶĢâĶĢâĶĢâĶĢâĶĢâĶĢâĶĢâĶĢâĶĢâĶĢâĶĢâĶĢâĶĢâĶĢâĶĢâĶĢâĶĢâĶĢâĶĢâĶĢâĶĢâĶĢâĶĢâĶĢâĶĢâĶĢâĶĢâĶĢâĶĢâĶĢâĶĢâĶĢâĶĢâĶĢâĶĢâĶĢâĶĢâĶĢâĶĢâĶĢâĶĢâĶĢâĶĢâĶĢâĶĢ": 2899,
      "ĠState": 2900,
      "Ġtask": 2901,
      "Ġtyp": 2902,
      "Ġruns": 2903,
      "ĠConvert": 2904,
      "ĠMove": 2905,
      "Ġvisible": 2906,
      "ĠRegister": 2907,
      "ĠENEMY": 2908,
      "030": 2909,
      "cmp": 2910,
      "found": 2911,
      "ield": 2912,
      "ky": 2913,
      "mer": 2914,
      "rt": 2915,
      "tri": 2916,
      "width": 2917,
      "DIV": 2918,
      "onth": 2919,
      "ĠSP": 2920,
      "Ġclose": 2921,
      "Ġcomb": 2922,
      "Ġ376": 2923,
      "Ġ338": 2924,
      "unknown": 2925,
      "ĠActually": 2926,
      "ĠDemonstrates": 2927,
      "atures": 2928,
      "usage": 2929,
      "Ġhl": 2930,
      "ĠFILE": 2931,
      "verse": 2932,
      "Ġscale": 2933,
      "Ġgo": 2934,
      "Ġ..": 2935,
      "5555": 2936,
      "Ġ144": 2937,
      "omm": 2938,
      "Ġ192": 2939,
      "Ġrenders": 2940,
      "SIZE": 2941,
      "collision": 2942,
      "mod": 2943,
      "ĠOp": 2944,
      "Ġdefines": 2945,
      "Ġsaves": 2946,
      "Ġcyan": 2947,
      "Ġzoom": 2948,
      "Ġquit": 2949,
      "ĠOPEN": 2950,
      "Ġwalk": 2951,
      "duated": 2952,
      "Ġmultiplying": 2953,
      "idden": 2954,
      "ĠRUNN": 2955,
      "Ġuncon": 2956,
      "Ġrecei": 2957,
      "IDER": 2958,
      "**": 2959,
      "biome": 2960,
      "ced": 2961,
      "eed": 2962,
      "focus": 2963,
      "host": 2964,
      "oi": 2965,
      "patch": 2966,
      "sec": 2967,
      "trl": 2968,
      "ĠSEL": 2969,
      "Ġsx": 2970,
      "ork": 2971,
      "Ġcos": 2972,
      "Ġdc": 2973,
      "Ġ310": 2974,
      "demo": 2975,
      "ĠXX": 2976,
      "Ġhelp": 2977,
      "Ġ63": 2978,
      "Ġ126": 2979,
      "ĠBar": 2980,
      "xCCC": 2981,
      "Ġcontains": 2982,
      "Ġ96": 2983,
      "Ġ242": 2984,
      "Ġnear": 2985,
      "Ġgrav": 2986,
      "Ġgradient": 2987,
      "Ġdepending": 2988,
      "shot": 2989,
      "Ġ**": 2990,
      "Ġalarm": 2991,
      "rites": 2992,
      "0600": 2993,
      "Ġbound": 2994,
      "Ġdetail": 2995,
      "Ġwaiting": 2996,
      "escape": 2997,
      "wait": 2998,
      "ĠINIT": 2999
    },
    "merges": [
      [
        "Ġ",
        "r"
      ],
      [
        "Ġ",
        "Ġ"
      ],
      [
        "D",
        "I"
      ],
      [
        "Ġ",
        "L"
      ],
      [
        "ĠL",
        "DI"
      ],
      [
        "i",
        "n"
      ],
      [
        "Ġ",
        "a"
      ],
      [
        "t",
        "i"
      ],
      [
        "Ġ",
        "0"
      ],
      [
        "ĠĠ",
        "Ġ"
      ],
      [
        "e",
        "r"
      ],
      [
        "o",
        "n"
      ],
      [
        "Ġ",
        "S"
      ],
      [
        "O",
        "R"
      ],
      [
        "a",
        "l"
      ],
      [
        "e",
        "s"
      ],
      [
        "A",
        "D"
      ],
      [
        "=",
        "="
      ],
      [
        "Ġ",
        "c"
      ],
      [
        "Ġ",
        "s"
      ],
      [
        "1",
        "0"
      ],
      [
        "ti",
        "on"
      ],
      [
        "t",
        "h"
      ],
      [
        "1",
        "2"
      ],
      [
        "1",
        "1"
      ],
      [
        "n",
        "d"
      ],
      [
        "T",
        "OR"
      ],
      [
        "TOR",
        "E"
      ],
      [
        "i",
        "s"
      ],
      [
        "Ġ",
        "in"
      ],
      [
        "1",
        "4"
      ],
      [
        "1",
        "5"
      ],
      [
        "1",
        "3"
      ],
      [
        "o",
        "r"
      ],
      [
        "Ġ",
        "p"
      ],
      [
        "â",
        "ķ"
      ],
      [
        "âķ",
        "Ĳ"
      ],
      [
        "ĠĠ",
        "ĠĠ"
      ],
      [
        "âķĲ",
        "âķĲ"
      ],
      [
        "ĠS",
        "TORE"
      ],
      [
        "AD",
        "D"
      ],
      [
        "o",
        "p"
      ],
      [
        "Ġa",
        "nd"
      ],
      [
        "a",
        "tion"
      ],
      [
        "Ġ",
        "C"
      ],
      [
        "0",
        "0"
      ],
      [
        "Ġ",
        "2"
      ],
      [
        "t",
        "er"
      ],
      [
        "r",
        "a"
      ],
      [
        "Ġ",
        "th"
      ],
      [
        "Ġc",
        "o"
      ],
      [
        "M",
        "P"
      ],
      [
        "l",
        "o"
      ],
      [
        "Ġ",
        "ADD"
      ],
      [
        "in",
        "g"
      ],
      [
        "Ġ",
        "1"
      ],
      [
        "Ġ",
        ";"
      ],
      [
        "e",
        "c"
      ],
      [
        "â",
        "Ķ"
      ],
      [
        "âĶ",
        "Ģ"
      ],
      [
        "e",
        "n"
      ],
      [
        "==",
        "=="
      ],
      [
        "Ġ",
        "d"
      ],
      [
        "âĶĢ",
        "âĶĢ"
      ],
      [
        "Ġ",
        "J"
      ],
      [
        "Ġr",
        "e"
      ],
      [
        "Ġ",
        "m"
      ],
      [
        "Ġ",
        "b"
      ],
      [
        "i",
        "f"
      ],
      [
        "s",
        "e"
      ],
      [
        "Ġ",
        "w"
      ],
      [
        "2",
        "0"
      ],
      [
        "t",
        "e"
      ],
      [
        "Ġ",
        "P"
      ],
      [
        "Ġ",
        "T"
      ],
      [
        "i",
        "z"
      ],
      [
        "ti",
        "al"
      ],
      [
        "ĠS",
        "H"
      ],
      [
        "Ġin",
        "i"
      ],
      [
        "F",
        "F"
      ],
      [
        "Ġ",
        "3"
      ],
      [
        "tial",
        "iz"
      ],
      [
        "Ġini",
        "tializ"
      ],
      [
        "Ġ",
        "f"
      ],
      [
        "Ġ",
        "lo"
      ],
      [
        "Ġth",
        "e"
      ],
      [
        "i",
        "c"
      ],
      [
        "ter",
        "s"
      ],
      [
        "r",
        "o"
      ],
      [
        "d",
        "e"
      ],
      [
        "i",
        "t"
      ],
      [
        "Ġre",
        "g"
      ],
      [
        "l",
        "y"
      ],
      [
        "Ġreg",
        "is"
      ],
      [
        "i",
        "th"
      ],
      [
        "O",
        "AD"
      ],
      [
        "âķĲâķĲ",
        "âķĲâķĲ"
      ],
      [
        "ĠC",
        "MP"
      ],
      [
        "ĠL",
        "OAD"
      ],
      [
        "u",
        "n"
      ],
      [
        "ĠT",
        "h"
      ],
      [
        "Ġ",
        "v"
      ],
      [
        "Ġ",
        "A"
      ],
      [
        "Ġ",
        "e"
      ],
      [
        "Ġ",
        "("
      ],
      [
        "a",
        "r"
      ],
      [
        "Ġ",
        "D"
      ],
      [
        "ation",
        "s"
      ],
      [
        "Ġ",
        "M"
      ],
      [
        "A",
        "L"
      ],
      [
        "Ġregis",
        "ters"
      ],
      [
        "Ġ",
        "t"
      ],
      [
        "ĠA",
        "N"
      ],
      [
        "Ġ",
        "op"
      ],
      [
        "T",
        "I"
      ],
      [
        "al",
        "u"
      ],
      [
        "Ġv",
        "alu"
      ],
      [
        "Ġop",
        "er"
      ],
      [
        "l",
        "e"
      ],
      [
        "Ġco",
        "de"
      ],
      [
        "Ġa",
        "s"
      ],
      [
        "Ġlo",
        "op"
      ],
      [
        "Ġoper",
        "ations"
      ],
      [
        "Ġw",
        "ith"
      ],
      [
        "ra",
        "m"
      ],
      [
        "u",
        "t"
      ],
      [
        "ĠSH",
        "L"
      ],
      [
        "a",
        "t"
      ],
      [
        "L",
        "DI"
      ],
      [
        "e",
        "t"
      ],
      [
        "====",
        "===="
      ],
      [
        "C",
        "R"
      ],
      [
        "Ġ",
        "R"
      ],
      [
        "f",
        "or"
      ],
      [
        "Ġ",
        "G"
      ],
      [
        "Ġvalu",
        "es"
      ],
      [
        "m",
        "b"
      ],
      [
        "ra",
        "w"
      ],
      [
        "Ġ",
        "X"
      ],
      [
        "O",
        "S"
      ],
      [
        "E",
        "S"
      ],
      [
        "âĶĢâĶĢ",
        "âĶĢâĶĢ"
      ],
      [
        "ĠAN",
        "D"
      ],
      [
        "O",
        "N"
      ],
      [
        "ĠX",
        "OR"
      ],
      [
        "un",
        "c"
      ],
      [
        "a",
        "in"
      ],
      [
        "Ġs",
        "p"
      ],
      [
        "Ġ",
        "4"
      ],
      [
        "I",
        "P"
      ],
      [
        "se",
        "mb"
      ],
      [
        "ĠG",
        "e"
      ],
      [
        "U",
        "B"
      ],
      [
        "Ġas",
        "semb"
      ],
      [
        "Ġassemb",
        "ly"
      ],
      [
        "TI",
        "ON"
      ],
      [
        "ĠJ",
        "MP"
      ],
      [
        "ĠD",
        "ES"
      ],
      [
        "CR",
        "IP"
      ],
      [
        "ĠDES",
        "CRIP"
      ],
      [
        "ĠDESCRIP",
        "TION"
      ],
      [
        "ĠGe",
        "OS"
      ],
      [
        "ĠS",
        "UB"
      ],
      [
        "Ġ",
        "OR"
      ],
      [
        "Ġinitializ",
        "ation"
      ],
      [
        "Ġ2",
        "5"
      ],
      [
        "Ġ",
        "I"
      ],
      [
        "u",
        "l"
      ],
      [
        "r",
        "e"
      ],
      [
        "Ġp",
        "ro"
      ],
      [
        "ec",
        "if"
      ],
      [
        "Ġsp",
        "ecif"
      ],
      [
        "Ġ",
        "`"
      ],
      [
        "m",
        "p"
      ],
      [
        "Ġd",
        "raw"
      ],
      [
        "u",
        "s"
      ],
      [
        "Ġp",
        "er"
      ],
      [
        "N",
        "Z"
      ],
      [
        "Ġinitializ",
        "es"
      ],
      [
        "ĠJ",
        "NZ"
      ],
      [
        "for",
        "m"
      ],
      [
        "1",
        "7"
      ],
      [
        "Ġc",
        "on"
      ],
      [
        "Ġper",
        "form"
      ],
      [
        "ĠCMP",
        "I"
      ],
      [
        "Ġspecif",
        "ic"
      ],
      [
        "Ġt",
        "o"
      ],
      [
        "Ġ",
        "h"
      ],
      [
        "ĠĠĠĠ",
        "ĠĠĠĠ"
      ],
      [
        "e",
        "l"
      ],
      [
        "Ġ",
        "10"
      ],
      [
        "Ġ",
        "o"
      ],
      [
        "g",
        "ram"
      ],
      [
        "k",
        "e"
      ],
      [
        "Ġpro",
        "gram"
      ],
      [
        "d",
        "i"
      ],
      [
        "ĠSH",
        "R"
      ],
      [
        "ĠTh",
        "e"
      ],
      [
        "t",
        "s"
      ],
      [
        "-",
        "-"
      ],
      [
        "1",
        "8"
      ],
      [
        "ĠTh",
        "is"
      ],
      [
        "Ġ",
        "F"
      ],
      [
        "âķĲâķĲâķĲâķĲ",
        "âķĲâķĲâķĲâķĲ"
      ],
      [
        "2",
        "2"
      ],
      [
        "Ġperform",
        "s"
      ],
      [
        "O",
        "P"
      ],
      [
        "ĠM",
        "O"
      ],
      [
        "S",
        "H"
      ],
      [
        "Ġ",
        "6"
      ],
      [
        "Ġ",
        "8"
      ],
      [
        "Ġ",
        "H"
      ],
      [
        "Ġ",
        "on"
      ],
      [
        "R",
        "A"
      ],
      [
        "Ġ",
        "="
      ],
      [
        "Ġs",
        "t"
      ],
      [
        "s",
        "t"
      ],
      [
        "ĠP",
        "OP"
      ],
      [
        "m",
        "e"
      ],
      [
        "2",
        "1"
      ],
      [
        "U",
        "SH"
      ],
      [
        "Ġ",
        "\""
      ],
      [
        "ĠP",
        "USH"
      ],
      [
        "S",
        "TORE"
      ],
      [
        "ĠR",
        "E"
      ],
      [
        "4",
        "4"
      ],
      [
        "a",
        "n"
      ],
      [
        "Ġ",
        "it"
      ],
      [
        "AL",
        "T"
      ],
      [
        "Ġo",
        "f"
      ],
      [
        "a",
        "c"
      ],
      [
        "v",
        "er"
      ],
      [
        "ke",
        "y"
      ],
      [
        "Ġs",
        "e"
      ],
      [
        "ĠH",
        "ALT"
      ],
      [
        "Ġ3",
        "2"
      ],
      [
        "Ġ",
        "12"
      ],
      [
        "di",
        "tion"
      ],
      [
        "e",
        "d"
      ],
      [
        "AL",
        "L"
      ],
      [
        "Ġ",
        "key"
      ],
      [
        "Ġe",
        "x"
      ],
      [
        "2",
        "5"
      ],
      [
        "Ġ1",
        "6"
      ],
      [
        "8",
        "8"
      ],
      [
        "A",
        "A"
      ],
      [
        "i",
        "x"
      ],
      [
        "1",
        "6"
      ],
      [
        "S",
        "E"
      ],
      [
        "c",
        "l"
      ],
      [
        "Ġb",
        "it"
      ],
      [
        "a",
        "te"
      ],
      [
        "in",
        "e"
      ],
      [
        "ver",
        "al"
      ],
      [
        "Ġse",
        "veral"
      ],
      [
        "ĠC",
        "ALL"
      ],
      [
        "Ġex",
        "ec"
      ],
      [
        "x",
        "FF"
      ],
      [
        "Ġh",
        "al"
      ],
      [
        "f",
        "unc"
      ],
      [
        "l",
        "s"
      ],
      [
        "U",
        "L"
      ],
      [
        "Ġs",
        "u"
      ],
      [
        "RA",
        "M"
      ],
      [
        "Ġco",
        "mp"
      ],
      [
        "ti",
        "c"
      ],
      [
        "Ġ",
        "en"
      ],
      [
        "========",
        "========"
      ],
      [
        "ĠM",
        "UL"
      ],
      [
        "is",
        "e"
      ],
      [
        "Ġf",
        "unc"
      ],
      [
        "1",
        "9"
      ],
      [
        "r",
        "es"
      ],
      [
        "w",
        "ise"
      ],
      [
        "âĶĢâĶĢâĶĢâĶĢ",
        "âĶĢâĶĢâĶĢâĶĢ"
      ],
      [
        "2",
        "3"
      ],
      [
        "e",
        "m"
      ],
      [
        "c",
        "tion"
      ],
      [
        "RAM",
        "E"
      ],
      [
        "Ġ",
        "l"
      ],
      [
        "L",
        "L"
      ],
      [
        "Ġm",
        "ain"
      ],
      [
        "u",
        "d"
      ],
      [
        "Ġs",
        "h"
      ],
      [
        "nd",
        "if"
      ],
      [
        "Ġth",
        "en"
      ],
      [
        "E",
        "X"
      ],
      [
        "p",
        "ut"
      ],
      [
        "Ġ",
        "B"
      ],
      [
        "Ġcon",
        "dition"
      ],
      [
        "Ġ25",
        "6"
      ],
      [
        "cl",
        "ud"
      ],
      [
        "p",
        "l"
      ],
      [
        "A",
        "R"
      ],
      [
        "Ġa",
        "r"
      ],
      [
        "t",
        "ing"
      ],
      [
        "Ġbit",
        "wise"
      ],
      [
        "3",
        "0"
      ],
      [
        "a",
        "d"
      ],
      [
        "EX",
        "T"
      ],
      [
        "lo",
        "op"
      ],
      [
        "Ġco",
        "l"
      ],
      [
        "2",
        "4"
      ],
      [
        "r",
        "i"
      ],
      [
        "m",
        "ain"
      ],
      [
        "c",
        "h"
      ],
      [
        "Ġw",
        "h"
      ],
      [
        "Ġ12",
        "8"
      ],
      [
        "Ġf",
        "or"
      ],
      [
        "u",
        "p"
      ],
      [
        "Ġc",
        "al"
      ],
      [
        "Ġ",
        "DI"
      ],
      [
        "ith",
        "me"
      ],
      [
        "ithme",
        "tic"
      ],
      [
        "Ġa",
        "t"
      ],
      [
        "Ġar",
        "ithmetic"
      ],
      [
        "ĠMO",
        "D"
      ],
      [
        "Ġ",
        "n"
      ],
      [
        "ĠI",
        "t"
      ],
      [
        "ec",
        "k"
      ],
      [
        "x",
        "t"
      ],
      [
        "Ġ6",
        "4"
      ],
      [
        "Ġ25",
        "5"
      ],
      [
        "ĠDI",
        "V"
      ],
      [
        "ĠF",
        "RAME"
      ],
      [
        "3",
        "1"
      ],
      [
        "Ġ",
        "us"
      ],
      [
        "Ġdraw",
        "ing"
      ],
      [
        "Ġin",
        "clud"
      ],
      [
        "Ġc",
        "h"
      ],
      [
        "Ġa",
        "n"
      ],
      [
        "ĠĠ",
        "ĠĠĠ"
      ],
      [
        "re",
        "en"
      ],
      [
        "AD",
        "DI"
      ],
      [
        "ĠP",
        "SE"
      ],
      [
        "ĠJ",
        "Z"
      ],
      [
        "ĠS",
        "AR"
      ],
      [
        "Ġs",
        "c"
      ],
      [
        "i",
        "es"
      ],
      [
        "2",
        "8"
      ],
      [
        "Ġin",
        "put"
      ],
      [
        "2",
        "6"
      ],
      [
        "st",
        "r"
      ],
      [
        "Ġa",
        "d"
      ],
      [
        "Ġsh",
        "if"
      ],
      [
        "ĠRE",
        "T"
      ],
      [
        "Ġexec",
        "u"
      ],
      [
        "en",
        "t"
      ],
      [
        "or",
        "y"
      ],
      [
        "a",
        "y"
      ],
      [
        "g",
        "ic"
      ],
      [
        "Ġcol",
        "or"
      ],
      [
        "Ġen",
        "ters"
      ],
      [
        "Ġlo",
        "gic"
      ],
      [
        "ĠSHL",
        "I"
      ],
      [
        "Ġsu",
        "b"
      ],
      [
        "Ġ",
        "5"
      ],
      [
        "u",
        "r"
      ],
      [
        "C",
        "T"
      ],
      [
        "2",
        "7"
      ],
      [
        "00",
        "00"
      ],
      [
        "ix",
        "el"
      ],
      [
        "Ġ",
        "ADDI"
      ],
      [
        "Ġ",
        "up"
      ],
      [
        "ac",
        "k"
      ],
      [
        "em",
        "ory"
      ],
      [
        "Ġs",
        "et"
      ],
      [
        "Ġexecu",
        "tion"
      ],
      [
        "Ġm",
        "emory"
      ],
      [
        "str",
        "u"
      ],
      [
        "at",
        "es"
      ],
      [
        "a",
        "se"
      ],
      [
        "K",
        "E"
      ],
      [
        "KE",
        "Y"
      ],
      [
        "2",
        "9"
      ],
      [
        "o",
        "w"
      ],
      [
        "CT",
        "F"
      ],
      [
        "stru",
        "ction"
      ],
      [
        "Ġin",
        "struction"
      ],
      [
        "Ġp",
        "ixel"
      ],
      [
        "i",
        "p"
      ],
      [
        "Ġ",
        "'"
      ],
      [
        "âķĲâķĲâķĲâķĲâķĲâķĲâķĲâķĲ",
        "âķĲâķĲâķĲâķĲâķĲâķĲâķĲâķĲ"
      ],
      [
        "Ġcondition",
        "al"
      ],
      [
        "Ġs",
        "er"
      ],
      [
        "v",
        "e"
      ],
      [
        "ĠMO",
        "V"
      ],
      [
        "Ġ",
        "g"
      ],
      [
        "Ġser",
        "ies"
      ],
      [
        "`",
        ","
      ],
      [
        "Ġ",
        "7"
      ],
      [
        "Ġ",
        "W"
      ],
      [
        "Ġregis",
        "ter"
      ],
      [
        ")",
        ","
      ],
      [
        "Ġsc",
        "reen"
      ],
      [
        "Ġco",
        "un"
      ],
      [
        "i",
        "m"
      ],
      [
        "er",
        "e"
      ],
      [
        "g",
        "h"
      ],
      [
        "I",
        "N"
      ],
      [
        "ĠI",
        "KEY"
      ],
      [
        "L",
        "E"
      ],
      [
        "i",
        "l"
      ],
      [
        "ul",
        "ti"
      ],
      [
        "p",
        "e"
      ],
      [
        "Ġwh",
        "ere"
      ],
      [
        "i",
        "r"
      ],
      [
        "Ġ",
        "--"
      ],
      [
        "te",
        "xt"
      ],
      [
        "ram",
        "e"
      ],
      [
        "x",
        "F"
      ],
      [
        "x",
        "D"
      ],
      [
        "Ġdraw",
        "s"
      ],
      [
        "Ġhal",
        "ts"
      ],
      [
        "Ġm",
        "o"
      ],
      [
        "o",
        "us"
      ],
      [
        "Ġcal",
        "ls"
      ],
      [
        "a",
        "s"
      ],
      [
        "x",
        "C"
      ],
      [
        "Ġb",
        "y"
      ],
      [
        "Ġ",
        "text"
      ],
      [
        "Ġcon",
        "t"
      ],
      [
        "ĠRE",
        "CTF"
      ],
      [
        "Ġinclud",
        "ing"
      ],
      [
        "Ġcomp",
        "ar"
      ],
      [
        "Ġus",
        "ing"
      ],
      [
        "Ġb",
        "ase"
      ],
      [
        "Ġp",
        "al"
      ],
      [
        "et",
        "te"
      ],
      [
        "Ġch",
        "eck"
      ],
      [
        "Ġpal",
        "ette"
      ],
      [
        "x",
        "B"
      ],
      [
        "Ġ",
        "11"
      ],
      [
        "x",
        "E"
      ],
      [
        "pl",
        "ay"
      ],
      [
        "s",
        "i"
      ],
      [
        "t",
        "o"
      ],
      [
        "Ġp",
        "o"
      ],
      [
        "on",
        "e"
      ],
      [
        "8",
        "0"
      ],
      [
        "Ġe",
        "l"
      ],
      [
        "E",
        "L"
      ],
      [
        "Ġb",
        "e"
      ],
      [
        "Ġd",
        "is"
      ],
      [
        "Ġel",
        "se"
      ],
      [
        "el",
        "se"
      ],
      [
        "Ġm",
        "an"
      ],
      [
        "e",
        "ndif"
      ],
      [
        "Ġe",
        "ndif"
      ],
      [
        "T",
        "EXT"
      ],
      [
        "o",
        "l"
      ],
      [
        "IN",
        "E"
      ],
      [
        "a",
        "nd"
      ],
      [
        "res",
        "s"
      ],
      [
        "4",
        "0"
      ],
      [
        "I",
        "LL"
      ],
      [
        "de",
        "f"
      ],
      [
        "I",
        "R"
      ],
      [
        "Ġd",
        "i"
      ],
      [
        "Ġ",
        "is"
      ],
      [
        "L",
        "D"
      ],
      [
        "P",
        "I"
      ],
      [
        "C",
        "LE"
      ],
      [
        "E",
        "LL"
      ],
      [
        "f",
        "er"
      ],
      [
        "X",
        "EL"
      ],
      [
        "IR",
        "CLE"
      ],
      [
        "W",
        "OR"
      ],
      [
        "Ġdis",
        "play"
      ],
      [
        "WOR",
        "LD"
      ],
      [
        "ec",
        "t"
      ],
      [
        "U",
        "F"
      ],
      [
        "or",
        "e"
      ],
      [
        "Ġ",
        "9"
      ],
      [
        "Ġf",
        "rame"
      ],
      [
        "ĠAN",
        "DI"
      ],
      [
        "ĠSUB",
        "I"
      ],
      [
        "o",
        "t"
      ],
      [
        "PI",
        "XEL"
      ],
      [
        "Ġm",
        "ulti"
      ],
      [
        "Ġset",
        "s"
      ],
      [
        "ix",
        "ed"
      ],
      [
        "ELL",
        "O"
      ],
      [
        "d",
        "one"
      ],
      [
        "ĠPSE",
        "T"
      ],
      [
        "Ġbase",
        "d"
      ],
      [
        "x",
        "A"
      ],
      [
        "H",
        "ELLO"
      ],
      [
        "Ġ",
        "-"
      ],
      [
        "Ġlogic",
        "al"
      ],
      [
        "Ġlo",
        "ad"
      ],
      [
        "te",
        "d"
      ],
      [
        "RA",
        "W"
      ],
      [
        "Ġfunc",
        "tion"
      ],
      [
        "or",
        "d"
      ],
      [
        "Ġv",
        "ar"
      ],
      [
        "RAW",
        "TEXT"
      ],
      [
        "âĶĢâĶĢâĶĢâĶĢâĶĢâĶĢâĶĢâĶĢ",
        "âĶĢâĶĢâĶĢâĶĢâĶĢâĶĢâĶĢâĶĢ"
      ],
      [
        "Ġm",
        "ixed"
      ],
      [
        "ĠF",
        "ILL"
      ],
      [
        "i",
        "on"
      ],
      [
        "ĠT",
        "EXT"
      ],
      [
        "ip",
        "ul"
      ],
      [
        "Ġman",
        "ipul"
      ],
      [
        "Ġ",
        "."
      ],
      [
        "6",
        "6"
      ],
      [
        "ro",
        "ut"
      ],
      [
        "Ġvar",
        "i"
      ],
      [
        "5",
        "5"
      ],
      [
        "00",
        "0"
      ],
      [
        "Ġsub",
        "rout"
      ],
      [
        "Ġad",
        "d"
      ],
      [
        "an",
        "g"
      ],
      [
        "Ġshif",
        "ts"
      ],
      [
        "gh",
        "t"
      ],
      [
        "Ġ",
        "+"
      ],
      [
        "at",
        "a"
      ],
      [
        "Ġr",
        "es"
      ],
      [
        "t",
        "ra"
      ],
      [
        "Ġmo",
        "d"
      ],
      [
        "i",
        "te"
      ],
      [
        "u",
        "f"
      ],
      [
        "is",
        "on"
      ],
      [
        "for",
        "e"
      ],
      [
        "ĠĠĠĠĠĠĠĠ",
        "ĠĠ"
      ],
      [
        "Ġcompar",
        "ison"
      ],
      [
        "Ġbe",
        "fore"
      ],
      [
        "in",
        "u"
      ],
      [
        "ĠPSE",
        "TI"
      ],
      [
        "ĠW",
        "PIXEL"
      ],
      [
        "FF",
        "FF"
      ],
      [
        "ĠL",
        "INE"
      ],
      [
        "ĠC",
        "IRCLE"
      ],
      [
        "th",
        "er"
      ],
      [
        "Ġcheck",
        "s"
      ],
      [
        "Ġvari",
        "ous"
      ],
      [
        "Ġd",
        "ata"
      ],
      [
        "Ġ(",
        "`"
      ],
      [
        "ĠD",
        "RAWTEXT"
      ],
      [
        "7",
        "7"
      ],
      [
        "R",
        "O"
      ],
      [
        "is",
        "ion"
      ],
      [
        "v",
        "en"
      ],
      [
        "f",
        "ter"
      ],
      [
        "Ġdi",
        "v"
      ],
      [
        "Ġ",
        "or"
      ],
      [
        "Ġ",
        "15"
      ],
      [
        "q",
        "u"
      ],
      [
        "ĠĠĠĠĠĠĠĠ",
        "ĠĠĠĠ"
      ],
      [
        "Ġcont",
        "inu"
      ],
      [
        "Ġmulti",
        "pl"
      ],
      [
        "Ġup",
        "d"
      ],
      [
        "Ġhal",
        "ting"
      ],
      [
        "ate",
        "d"
      ],
      [
        "ro",
        "m"
      ],
      [
        "--",
        "--"
      ],
      [
        "9",
        "9"
      ],
      [
        "88",
        "00"
      ],
      [
        "Ġsub",
        "tra"
      ],
      [
        "a",
        "b"
      ],
      [
        "Ġre",
        "pe"
      ],
      [
        "Ġad",
        "dition"
      ],
      [
        "Ġexec",
        "ut"
      ],
      [
        "5",
        "0"
      ],
      [
        "ac",
        "h"
      ],
      [
        "Ġst",
        "ack"
      ],
      [
        "Ġ",
        "if"
      ],
      [
        "7",
        "0"
      ],
      [
        "Ġsubrout",
        "ine"
      ],
      [
        "ri",
        "ven"
      ],
      [
        "ar",
        "t"
      ],
      [
        "a",
        "ve"
      ],
      [
        "Ġ",
        "14"
      ],
      [
        "in",
        "ite"
      ],
      [
        "C",
        "C"
      ],
      [
        "ĠĠĠĠ",
        "ĠĠĠ"
      ],
      [
        "Ġst",
        "or"
      ],
      [
        "Ġf",
        "rom"
      ],
      [
        "3",
        "3"
      ],
      [
        "7",
        "8"
      ],
      [
        "Ġ",
        "13"
      ],
      [
        "Ġ2",
        "0"
      ],
      [
        "c",
        "le"
      ],
      [
        "Ġdiv",
        "ision"
      ],
      [
        "Ġmultipl",
        "ic"
      ],
      [
        "in",
        "es"
      ],
      [
        "x",
        "AA"
      ],
      [
        "Ġc",
        "ir"
      ],
      [
        "O",
        "L"
      ],
      [
        "Ġvalu",
        "e"
      ],
      [
        "6",
        "0"
      ],
      [
        "Ġr",
        "ect"
      ],
      [
        "Ġth",
        "at"
      ],
      [
        "Ġb",
        "ack"
      ],
      [
        "Ġan",
        "im"
      ],
      [
        "a",
        "g"
      ],
      [
        "def",
        "ine"
      ],
      [
        "Ġ2",
        "4"
      ],
      [
        "Ġb",
        "uf"
      ],
      [
        "ĠB",
        "L"
      ],
      [
        "Ġm",
        "a"
      ],
      [
        "B",
        "UF"
      ],
      [
        "Ġl",
        "i"
      ],
      [
        "Ġ",
        "j"
      ],
      [
        "Ġrect",
        "ang"
      ],
      [
        "Ġa",
        "fter"
      ],
      [
        "Ġd",
        "riven"
      ],
      [
        "Ġ3",
        "0"
      ],
      [
        "in",
        "al"
      ],
      [
        "Ġ",
        "âĶĢâĶĢ"
      ],
      [
        "ĠĠĠĠ",
        "ĠĠĠĠĠ"
      ],
      [
        "b",
        "y"
      ],
      [
        "ti",
        "l"
      ],
      [
        ".",
        "."
      ],
      [
        "7",
        "6"
      ],
      [
        "`",
        ")"
      ],
      [
        "Ġmultiplic",
        "ation"
      ],
      [
        "7",
        "5"
      ],
      [
        "c",
        "e"
      ],
      [
        "Ġin",
        "to"
      ],
      [
        "7",
        "9"
      ],
      [
        "f",
        "t"
      ],
      [
        "es",
        "e"
      ],
      [
        "Ġth",
        "ese"
      ],
      [
        "u",
        "mp"
      ],
      [
        "Ġinclud",
        "es"
      ],
      [
        "Ġf",
        "il"
      ],
      [
        "Ġcomp",
        "ut"
      ],
      [
        "Ġadd",
        "ress"
      ],
      [
        "si",
        "tion"
      ],
      [
        "ĠS",
        "T"
      ],
      [
        "Ġn",
        "e"
      ],
      [
        "ĠI",
        "f"
      ],
      [
        "Ġsubtra",
        "ction"
      ],
      [
        "ĠBL",
        "T"
      ],
      [
        "Ġpixel",
        "s"
      ],
      [
        "by",
        "te"
      ],
      [
        "E",
        "E"
      ],
      [
        "i",
        "ght"
      ],
      [
        "7",
        "4"
      ],
      [
        "Ġj",
        "ump"
      ],
      [
        "Ġ",
        "y"
      ],
      [
        "A",
        "T"
      ],
      [
        "o",
        "m"
      ],
      [
        "Ġexecut",
        "es"
      ],
      [
        "Ġ1",
        "9"
      ],
      [
        "N",
        "D"
      ],
      [
        "3",
        "6"
      ],
      [
        "Ġco",
        "ord"
      ],
      [
        "Ġanim",
        "ation"
      ],
      [
        "ls",
        "o"
      ],
      [
        "================",
        "================"
      ],
      [
        "Ġa",
        "re"
      ],
      [
        "Ġr",
        "ow"
      ],
      [
        "3",
        "8"
      ],
      [
        "r",
        "y"
      ],
      [
        "nd",
        "er"
      ],
      [
        "at",
        "ing"
      ],
      [
        "Ġ4",
        "0"
      ],
      [
        "le",
        "ft"
      ],
      [
        "mp",
        "le"
      ],
      [
        "Ġa",
        "lso"
      ],
      [
        "Ġli",
        "ke"
      ],
      [
        "00",
        "44"
      ],
      [
        "Ġ",
        "un"
      ],
      [
        "Ġcoun",
        "ted"
      ],
      [
        "Ġ",
        "================================"
      ],
      [
        "Ġpo",
        "sition"
      ],
      [
        "Ġload",
        "ing"
      ],
      [
        "Ġcoord",
        "in"
      ],
      [
        "3",
        "2"
      ],
      [
        "ĠĠĠĠ",
        "ĠĠ"
      ],
      [
        "es",
        "s"
      ],
      [
        "t",
        "ore"
      ],
      [
        "Ġl",
        "ine"
      ],
      [
        "Ġ",
        "N"
      ],
      [
        "3",
        "4"
      ],
      [
        "3",
        "9"
      ],
      [
        "G",
        "E"
      ],
      [
        "Ġ================================",
        "========"
      ],
      [
        "Ġbuf",
        "fer"
      ],
      [
        "i",
        "d"
      ],
      [
        "8",
        "5"
      ],
      [
        "ul",
        "t"
      ],
      [
        "en",
        "ts"
      ],
      [
        "ĠĠĠĠĠĠĠĠ",
        "ĠĠĠ"
      ],
      [
        "Ġshif",
        "t"
      ],
      [
        "i",
        "mple"
      ],
      [
        "Ġst",
        "r"
      ],
      [
        "Ġcomparison",
        "s"
      ],
      [
        "`",
        "."
      ],
      [
        "9",
        "0"
      ],
      [
        "ri",
        "te"
      ],
      [
        "Ġun",
        "til"
      ],
      [
        "Ġ========================================",
        "="
      ],
      [
        "3",
        "5"
      ],
      [
        "c",
        "o"
      ],
      [
        "Ġsu",
        "ch"
      ],
      [
        "n",
        "e"
      ],
      [
        "Ġcal",
        "c"
      ],
      [
        "âķĲâķĲâķĲâķĲâķĲâķĲâķĲâķĲâķĲâķĲâķĲâķĲâķĲâķĲâķĲâķĲ",
        "âķĲâķĲâķĲâķĲâķĲâķĲâķĲâķĲâķĲâķĲâķĲâķĲâķĲâķĲâķĲâķĲ"
      ],
      [
        "Ġcoordin",
        "ates"
      ],
      [
        "6",
        "4"
      ],
      [
        "Ġw",
        "a"
      ],
      [
        "Ġin",
        "f"
      ],
      [
        "Ġc",
        "ur"
      ],
      [
        "a",
        "p"
      ],
      [
        "ĠR",
        "A"
      ],
      [
        "8",
        "4"
      ],
      [
        "Ġ",
        "x"
      ],
      [
        "8",
        "9"
      ],
      [
        "xFF",
        "FFFF"
      ],
      [
        "Ġcalc",
        "ul"
      ],
      [
        "R",
        "E"
      ],
      [
        "Ġs",
        "ave"
      ],
      [
        "ĠB",
        "GE"
      ],
      [
        "Ġg",
        "ra"
      ],
      [
        "l",
        "l"
      ],
      [
        "y",
        "s"
      ],
      [
        "lo",
        "w"
      ],
      [
        "Ġupd",
        "ates"
      ],
      [
        "it",
        "s"
      ],
      [
        "Ġcoun",
        "ter"
      ],
      [
        "Ġrepe",
        "ated"
      ],
      [
        "6",
        "5"
      ],
      [
        "ro",
        "u"
      ],
      [
        "z",
        "er"
      ],
      [
        "Ġinf",
        "inite"
      ],
      [
        "zer",
        "o"
      ],
      [
        "Ġma",
        "th"
      ],
      [
        "Ġd",
        "e"
      ],
      [
        "l",
        "es"
      ],
      [
        "44",
        "44"
      ],
      [
        "A",
        "B"
      ],
      [
        "Ġus",
        "es"
      ],
      [
        "6",
        "9"
      ],
      [
        "Ġrepeated",
        "ly"
      ],
      [
        "Ġ",
        "E"
      ],
      [
        "ch",
        "eck"
      ],
      [
        "ro",
        "w"
      ],
      [
        "Ġd",
        "if"
      ],
      [
        "et",
        "w"
      ],
      [
        "Ġcontinu",
        "ous"
      ],
      [
        "Ġjump",
        "s"
      ],
      [
        "Ġdif",
        "fer"
      ],
      [
        "ar",
        "d"
      ],
      [
        "Ġ--",
        "-"
      ],
      [
        "c",
        "ess"
      ],
      [
        "Ġ3",
        "4"
      ],
      [
        "r",
        "et"
      ],
      [
        "Ġ4",
        "8"
      ],
      [
        "Ġcir",
        "cle"
      ],
      [
        "Ġr",
        "ight"
      ],
      [
        "3",
        "7"
      ],
      [
        "ter",
        "m"
      ],
      [
        "m",
        "m"
      ],
      [
        "s",
        "h"
      ],
      [
        "Ġ3",
        "5"
      ],
      [
        "Ġcontinuous",
        "ly"
      ],
      [
        "Ġp",
        "ress"
      ],
      [
        "Ġf",
        "inal"
      ],
      [
        "ĠC",
        "OL"
      ],
      [
        "Ġdiffer",
        "ent"
      ],
      [
        "e",
        "en"
      ],
      [
        "Ġst",
        "art"
      ],
      [
        "etw",
        "een"
      ],
      [
        "Ġb",
        "etween"
      ],
      [
        "s",
        "or"
      ],
      [
        "9",
        "4"
      ],
      [
        "k",
        "ip"
      ],
      [
        "9",
        "5"
      ],
      [
        "P",
        "SE"
      ],
      [
        "a",
        "me"
      ],
      [
        "in",
        "t"
      ],
      [
        "te",
        "m"
      ],
      [
        "S",
        "T"
      ],
      [
        "ys",
        "tem"
      ],
      [
        "Ġcomput",
        "ation"
      ],
      [
        "B",
        "A"
      ],
      [
        "Ġ",
        "U"
      ],
      [
        "re",
        "m"
      ],
      [
        "Ġaddress",
        "es"
      ],
      [
        "se",
        "d"
      ],
      [
        "Ġlo",
        "c"
      ],
      [
        "Ġstor",
        "ing"
      ],
      [
        "Ġcomp",
        "le"
      ],
      [
        "i",
        "ed"
      ],
      [
        "le",
        "ar"
      ],
      [
        "p",
        "h"
      ],
      [
        "Ġ",
        "ti"
      ],
      [
        "Ġre",
        "nder"
      ],
      [
        "Ġco",
        "mm"
      ],
      [
        "6",
        "8"
      ],
      [
        "i",
        "le"
      ],
      [
        "ul",
        "l"
      ],
      [
        "Ġl",
        "ines"
      ],
      [
        "Ġs",
        "ystem"
      ],
      [
        "E",
        "D"
      ],
      [
        "ĠRA",
        "M"
      ],
      [
        "Ġinstruction",
        "s"
      ],
      [
        "Ġs",
        "imple"
      ],
      [
        "ate",
        "ly"
      ],
      [
        "Ġ1",
        "8"
      ],
      [
        "Ġd",
        "ec"
      ],
      [
        "m",
        "ately"
      ],
      [
        "t",
        "y"
      ],
      [
        "Ġ",
        "zero"
      ],
      [
        "Ġloop",
        "s"
      ],
      [
        "Ġ",
        "ulti"
      ],
      [
        "Ġulti",
        "mately"
      ],
      [
        "o",
        "me"
      ],
      [
        "Ġcondition",
        "s"
      ],
      [
        "C",
        "H"
      ],
      [
        "Ġre",
        "t"
      ],
      [
        "Ġp",
        "a"
      ],
      [
        "Ġrectang",
        "le"
      ],
      [
        "ac",
        "e"
      ],
      [
        "ĠS",
        "CR"
      ],
      [
        "Ġshif",
        "ting"
      ],
      [
        "ur",
        "n"
      ],
      [
        "Ġcolor",
        "s"
      ],
      [
        "b",
        "o"
      ],
      [
        "----",
        "----"
      ],
      [
        "Ġset",
        "ting"
      ],
      [
        "Ġcomm",
        "and"
      ],
      [
        "w",
        "o"
      ],
      [
        "ĠB",
        "UF"
      ],
      [
        "ĠI",
        "n"
      ],
      [
        "Ġd",
        "o"
      ],
      [
        "ic",
        "h"
      ],
      [
        "res",
        "tore"
      ],
      [
        "Ġmanipul",
        "ates"
      ],
      [
        "Ġ",
        "*"
      ],
      [
        "Ġa",
        "p"
      ],
      [
        "Ġ2",
        "8"
      ],
      [
        "9",
        "8"
      ],
      [
        "l",
        "d"
      ],
      [
        "Ġwh",
        "ich"
      ],
      [
        "ow",
        "n"
      ],
      [
        "B",
        "B"
      ],
      [
        "ĠST",
        "RO"
      ],
      [
        "es",
        "t"
      ],
      [
        "Ġ",
        "left"
      ],
      [
        "at",
        "ch"
      ],
      [
        "7",
        "2"
      ],
      [
        "ter",
        "n"
      ],
      [
        "il",
        "d"
      ],
      [
        "Ġ10",
        "0"
      ],
      [
        "Ġn",
        "ot"
      ],
      [
        "Ġspecif",
        "ied"
      ],
      [
        "ĠC",
        "h"
      ],
      [
        "Ġ3",
        "8"
      ],
      [
        "Ġh",
        "and"
      ],
      [
        "om",
        "et"
      ],
      [
        "7",
        "3"
      ],
      [
        "Ġ",
        "=="
      ],
      [
        "U",
        "R"
      ],
      [
        "d",
        "raw"
      ],
      [
        "Ġth",
        "rou"
      ],
      [
        "Ġn",
        "o"
      ],
      [
        "Ġthrou",
        "gh"
      ],
      [
        "Ġpro",
        "cess"
      ],
      [
        "ph",
        "ic"
      ],
      [
        "C",
        "ALL"
      ],
      [
        "E",
        "B"
      ],
      [
        "Ġch",
        "ar"
      ],
      [
        "S",
        "I"
      ],
      [
        "Ġt",
        "wo"
      ],
      [
        "E",
        "C"
      ],
      [
        "u",
        "e"
      ],
      [
        "RE",
        "CTF"
      ],
      [
        "term",
        "in"
      ],
      [
        "Ġdisplay",
        "s"
      ],
      [
        "Ġ",
        "===="
      ],
      [
        "ĠCh",
        "eck"
      ],
      [
        "er",
        "t"
      ],
      [
        "ĠD",
        "raw"
      ],
      [
        "4",
        "8"
      ],
      [
        "op",
        "y"
      ],
      [
        "xFF",
        "FF"
      ],
      [
        "Ġfunction",
        "s"
      ],
      [
        "Ġin",
        "v"
      ],
      [
        "6",
        "3"
      ],
      [
        "Ġb",
        "ar"
      ],
      [
        "Ġe",
        "nd"
      ],
      [
        "Ġ11",
        "4"
      ],
      [
        "o",
        "ut"
      ],
      [
        "Ġgra",
        "phic"
      ],
      [
        "Ġret",
        "urn"
      ],
      [
        "l",
        "ine"
      ],
      [
        "AT",
        "CH"
      ],
      [
        "Ġ2",
        "9"
      ],
      [
        "E",
        "F"
      ],
      [
        "ĠR",
        "e"
      ],
      [
        "e",
        "x"
      ],
      [
        "Ġm",
        "et"
      ],
      [
        "Ġcoun",
        "t"
      ],
      [
        "4",
        "5"
      ],
      [
        "4",
        "9"
      ],
      [
        "o",
        "ther"
      ],
      [
        "ne",
        "xt"
      ],
      [
        "Ġ====",
        "="
      ],
      [
        "10",
        "0"
      ],
      [
        "Ġcalcul",
        "ations"
      ],
      [
        "F",
        "RAME"
      ],
      [
        "al",
        "l"
      ],
      [
        "âĶĢâĶĢâĶĢâĶĢâĶĢâĶĢâĶĢâĶĢâĶĢâĶĢâĶĢâĶĢâĶĢâĶĢâĶĢâĶĢ",
        "âĶĢâĶĢâĶĢâĶĢâĶĢâĶĢâĶĢâĶĢâĶĢâĶĢâĶĢâĶĢâĶĢâĶĢâĶĢâĶĢ"
      ],
      [
        "ra",
        "n"
      ],
      [
        "Ġ3",
        "6"
      ],
      [
        "c",
        "ol"
      ],
      [
        "Ġfinal",
        "ly"
      ],
      [
        "Ġbit",
        "s"
      ],
      [
        "7",
        "1"
      ],
      [
        "Ġinv",
        "ol"
      ],
      [
        "m",
        "o"
      ],
      [
        "n",
        "o"
      ],
      [
        "Ġ3",
        "9"
      ],
      [
        "5",
        "3"
      ],
      [
        "Ġcontinu",
        "es"
      ],
      [
        "4",
        "2"
      ],
      [
        "A",
        "C"
      ],
      [
        "Ġoper",
        "ation"
      ],
      [
        "Ġo",
        "ther"
      ],
      [
        "Ġhal",
        "t"
      ],
      [
        "Ġan",
        "other"
      ],
      [
        "s",
        "c"
      ],
      [
        "D",
        "D"
      ],
      [
        "u",
        "lo"
      ],
      [
        "Ġp",
        "res"
      ],
      [
        "Ġthe",
        "m"
      ],
      [
        "Ġwa",
        "its"
      ],
      [
        "Ġre",
        "ach"
      ],
      [
        "Ġ5",
        "0"
      ],
      [
        "Ġmod",
        "ulo"
      ],
      [
        "ĠSCR",
        "ATCH"
      ],
      [
        "6",
        "2"
      ],
      [
        "c",
        "t"
      ],
      [
        "cl",
        "es"
      ],
      [
        "qu",
        "en"
      ],
      [
        "s",
        "p"
      ],
      [
        "5",
        "9"
      ],
      [
        "r",
        "ic"
      ],
      [
        "Ġ",
        ">"
      ],
      [
        "Ġrectang",
        "les"
      ],
      [
        "4",
        "3"
      ],
      [
        "ĠC",
        "UR"
      ],
      [
        "at",
        "tern"
      ],
      [
        "Ġen",
        "t"
      ],
      [
        "Ġmod",
        "if"
      ],
      [
        "Ġperform",
        "ing"
      ],
      [
        "ĠCOL",
        "S"
      ],
      [
        "u",
        "ild"
      ],
      [
        "Ġse",
        "quen"
      ],
      [
        "Ġload",
        "s"
      ],
      [
        "Ġ",
        "im"
      ],
      [
        "xD",
        "D"
      ],
      [
        "Ġmod",
        "ul"
      ],
      [
        "Ġcompar",
        "es"
      ],
      [
        "Ġ2",
        "6"
      ],
      [
        "me",
        "di"
      ],
      [
        "Ġcur",
        "sor"
      ],
      [
        "5",
        "8"
      ],
      [
        "Ġdec",
        "rem"
      ],
      [
        "l",
        "ay"
      ],
      [
        "v",
        "es"
      ],
      [
        "v",
        "ing"
      ],
      [
        "i",
        "g"
      ],
      [
        "Ġ",
        "âķĲâķĲâķĲâķĲâķĲâķĲâķĲâķĲâķĲâķĲâķĲâķĲâķĲâķĲâķĲâķĲâķĲâķĲâķĲâķĲâķĲâķĲâķĲâķĲâķĲâķĲâķĲâķĲâķĲâķĲâķĲâķĲ"
      ],
      [
        "medi",
        "ate"
      ],
      [
        "Ġa",
        "l"
      ],
      [
        "Ġc",
        "ert"
      ],
      [
        "qu",
        "al"
      ],
      [
        "Ġcert",
        "ain"
      ],
      [
        "se",
        "t"
      ],
      [
        "6",
        "7"
      ],
      [
        "0",
        "3"
      ],
      [
        "4",
        "7"
      ],
      [
        "Ġloc",
        "ations"
      ],
      [
        "B",
        "F"
      ],
      [
        "Ġstr",
        "ing"
      ],
      [
        "8",
        "3"
      ],
      [
        "Ġcir",
        "cles"
      ],
      [
        "l",
        "ing"
      ],
      [
        "D",
        "E"
      ],
      [
        "Ġin",
        "def"
      ],
      [
        "en",
        "ter"
      ],
      [
        "inite",
        "ly"
      ],
      [
        "Ġindef",
        "initely"
      ],
      [
        "de",
        "x"
      ],
      [
        "âķĲâķĲ",
        "âķĲ"
      ],
      [
        "6",
        "1"
      ],
      [
        "9",
        "3"
      ],
      [
        "r",
        "it"
      ],
      [
        "pe",
        "nd"
      ],
      [
        "Ġim",
        "mediate"
      ],
      [
        "C",
        "OL"
      ],
      [
        "Ġe",
        "qual"
      ],
      [
        "Ġcon",
        "clud"
      ],
      [
        "Ġ",
        "u"
      ],
      [
        "ro",
        "ll"
      ],
      [
        "7",
        "80"
      ],
      [
        "us",
        "h"
      ],
      [
        "Ġconclud",
        "es"
      ],
      [
        "or",
        "ld"
      ],
      [
        "Ġpres",
        "sed"
      ],
      [
        "0",
        "4"
      ],
      [
        "Ġa",
        "c"
      ],
      [
        "ar",
        "k"
      ],
      [
        ")",
        "."
      ],
      [
        "0",
        "6"
      ],
      [
        "88",
        "88"
      ],
      [
        "Ġres",
        "ult"
      ],
      [
        "ab",
        "le"
      ],
      [
        "C",
        "F"
      ],
      [
        "Ġconditional",
        "ly"
      ],
      [
        "Ġreach",
        "es"
      ],
      [
        "5",
        "6"
      ],
      [
        "A",
        "F"
      ],
      [
        "0",
        "8"
      ],
      [
        "5",
        "4"
      ],
      [
        "e",
        "omet"
      ],
      [
        "ti",
        "ve"
      ],
      [
        "0",
        "1"
      ],
      [
        "Ġp",
        "attern"
      ],
      [
        "Ġm",
        "atch"
      ],
      [
        "a",
        "m"
      ],
      [
        "u",
        "m"
      ],
      [
        "âķĲâķĲâķĲâķĲ",
        "âķĲâķĲâķĲ"
      ],
      [
        "as",
        "m"
      ],
      [
        "l",
        "ue"
      ],
      [
        "st",
        "an"
      ],
      [
        "Ġfil",
        "ls"
      ],
      [
        "C",
        "E"
      ],
      [
        "m",
        "d"
      ],
      [
        "Ġb",
        "o"
      ],
      [
        "âķĲâķĲâķĲâķĲâķĲâķĲâķĲâķĲ",
        "âķĲâķĲâķĲâķĲâķĲâķĲâķĲ"
      ],
      [
        "5",
        "2"
      ],
      [
        "i",
        "ome"
      ],
      [
        "o",
        "k"
      ],
      [
        "Ġw",
        "rite"
      ],
      [
        "Ġ3",
        "3"
      ],
      [
        "Ġ8",
        "0"
      ],
      [
        "Ġp",
        "b"
      ],
      [
        "Ġ2",
        "7"
      ],
      [
        "ir",
        "st"
      ],
      [
        "as",
        "h"
      ],
      [
        "xAA",
        "AA"
      ],
      [
        "Ġ",
        "/"
      ],
      [
        "25",
        "6"
      ],
      [
        "ri",
        "ght"
      ],
      [
        "Ġ",
        "<"
      ],
      [
        "C",
        "D"
      ],
      [
        "I",
        "T"
      ],
      [
        "9",
        "6"
      ],
      [
        "g",
        "it"
      ],
      [
        "in",
        "d"
      ],
      [
        "C",
        "B"
      ],
      [
        "p",
        "le"
      ],
      [
        "bo",
        "ard"
      ],
      [
        "on",
        "d"
      ],
      [
        "Ġ-",
        ">"
      ],
      [
        "5",
        "1"
      ],
      [
        "0000",
        "00"
      ],
      [
        "A",
        "E"
      ],
      [
        "u",
        "nd"
      ],
      [
        "u",
        "te"
      ],
      [
        "Ġ1",
        "7"
      ],
      [
        "PSE",
        "TI"
      ],
      [
        "L",
        "INE"
      ],
      [
        "r",
        "ent"
      ],
      [
        "if",
        "t"
      ],
      [
        "4",
        "6"
      ],
      [
        "8",
        "7"
      ],
      [
        "A",
        "ND"
      ],
      [
        "Ġ",
        "V"
      ],
      [
        "Ġre",
        "ad"
      ],
      [
        "el",
        "l"
      ],
      [
        "0",
        "5"
      ],
      [
        "on",
        "t"
      ],
      [
        "Ġe",
        "ach"
      ],
      [
        "xAAAA",
        "AA"
      ],
      [
        "9",
        "2"
      ],
      [
        "4",
        "1"
      ],
      [
        "Ġ2",
        "3"
      ],
      [
        "lo",
        "c"
      ],
      [
        "0",
        "2"
      ],
      [
        "B",
        "E"
      ],
      [
        "Ġg",
        "eomet"
      ],
      [
        "F",
        "D"
      ],
      [
        "at",
        "us"
      ],
      [
        "ĠĠĠĠĠĠĠĠ",
        "ĠĠĠĠĠ"
      ],
      [
        "ag",
        "e"
      ],
      [
        "5",
        "7"
      ],
      [
        "k",
        "s"
      ],
      [
        "B",
        "D"
      ],
      [
        "Ġ",
        "termin"
      ],
      [
        "Ġc",
        "lear"
      ],
      [
        "Ġpo",
        "int"
      ],
      [
        "Ġgeomet",
        "ric"
      ],
      [
        "8",
        "6"
      ],
      [
        "Ġw",
        "rit"
      ],
      [
        "Ġst",
        "ore"
      ],
      [
        "ĠĠĠĠĠĠĠĠĠĠĠĠ",
        "ĠĠ"
      ],
      [
        "g",
        "g"
      ],
      [
        "p",
        "o"
      ],
      [
        "âķĲâķĲâķĲâķĲâķĲâķĲâķĲâķĲâķĲâķĲâķĲâķĲâķĲâķĲâķĲâķĲ",
        "âķĲâķĲâķĲâķĲâķĲâķĲâķĲâķĲâķĲâķĲâķĲâķĲâķĲâķĲâķĲ"
      ],
      [
        "ĠâķĲâķĲâķĲâķĲâķĲâķĲâķĲâķĲâķĲâķĲâķĲâķĲâķĲâķĲâķĲâķĲâķĲâķĲâķĲâķĲâķĲâķĲâķĲâķĲâķĲâķĲâķĲâķĲâķĲâķĲâķĲâķĲ",
        "âķĲâķĲâķĲâķĲâķĲâķĲâķĲâķĲâķĲâķĲâķĲâķĲâķĲâķĲâķĲâķĲâķĲâķĲâķĲâķĲâķĲâķĲâķĲâķĲâķĲâķĲâķĲâķĲâķĲâķĲâķĲ"
      ],
      [
        "d",
        "o"
      ],
      [
        "Ġst",
        "ate"
      ],
      [
        "Ġ",
        "i"
      ],
      [
        "8",
        "1"
      ],
      [
        "Ġ",
        "O"
      ],
      [
        "Ġp",
        "ush"
      ],
      [
        "FF",
        "AA"
      ],
      [
        "AA",
        "FF"
      ],
      [
        "Ġstor",
        "es"
      ],
      [
        "g",
        "r"
      ],
      [
        "Ġ",
        "_"
      ],
      [
        "xFF",
        "AA"
      ],
      [
        "de",
        "d"
      ],
      [
        "`",
        "),"
      ],
      [
        "Ġc",
        "re"
      ],
      [
        "Ġf",
        "irst"
      ],
      [
        "0000",
        "66"
      ],
      [
        "0",
        "9"
      ],
      [
        "8",
        "2"
      ],
      [
        "ec",
        "e"
      ],
      [
        "a",
        "w"
      ],
      [
        "Ġ",
        "âĶĢâĶĢâĶĢâĶĢâĶĢâĶĢâĶĢâĶĢâĶĢâĶĢâĶĢâĶĢâĶĢâĶĢâĶĢâĶĢâĶĢâĶĢâĶĢâĶĢâĶĢâĶĢâĶĢâĶĢâĶĢâĶĢâĶĢâĶĢâĶĢâĶĢâĶĢâĶĢ"
      ],
      [
        "Ġp",
        "re"
      ],
      [
        "Ġ4",
        "9"
      ],
      [
        "Ġus",
        "er"
      ],
      [
        "4444",
        "44"
      ],
      [
        "C",
        "IRCLE"
      ],
      [
        "L",
        "OAD"
      ],
      [
        "`)",
        "."
      ],
      [
        "Ġ3",
        "7"
      ],
      [
        "55",
        "00"
      ],
      [
        "u",
        "al"
      ],
      [
        "8800",
        "88"
      ],
      [
        "Ġne",
        "w"
      ],
      [
        "F",
        "B"
      ],
      [
        "T",
        "Y"
      ],
      [
        "RO",
        "W"
      ],
      [
        "Ġcur",
        "rent"
      ],
      [
        "Ġmanipul",
        "ation"
      ],
      [
        "xAA",
        "FF"
      ],
      [
        "Ġde",
        "f"
      ],
      [
        "sh",
        "ift"
      ],
      [
        "t",
        "es"
      ],
      [
        "Ġin",
        "dex"
      ],
      [
        "00",
        "8888"
      ],
      [
        "ran",
        "ch"
      ],
      [
        "lay",
        "er"
      ],
      [
        "v",
        "i"
      ],
      [
        "9",
        "1"
      ],
      [
        "Ġc",
        "l"
      ],
      [
        "Ġcon",
        "stan"
      ],
      [
        "44",
        "00"
      ],
      [
        "S",
        "C"
      ],
      [
        "o",
        "ur"
      ],
      [
        "Ġb",
        "iome"
      ],
      [
        "Ġcomple",
        "ting"
      ],
      [
        "Ġpa",
        "rame"
      ],
      [
        "P",
        "A"
      ],
      [
        "Ġo",
        "ut"
      ],
      [
        "B",
        "C"
      ],
      [
        "5500",
        "77"
      ],
      [
        "is",
        "t"
      ],
      [
        "re",
        "g"
      ],
      [
        "Ġof",
        "f"
      ],
      [
        "9",
        "7"
      ],
      [
        "E",
        "ND"
      ],
      [
        "i",
        "gh"
      ],
      [
        "p",
        "ro"
      ],
      [
        "Ġs",
        "kip"
      ],
      [
        "Ġs",
        "ec"
      ],
      [
        "Ġparame",
        "ters"
      ],
      [
        "M",
        "O"
      ],
      [
        "Ġmodul",
        "us"
      ],
      [
        "F",
        "A"
      ],
      [
        "Ġ4",
        "4"
      ],
      [
        "Ġg",
        "reen"
      ],
      [
        "PSE",
        "T"
      ],
      [
        "Ġf",
        "ol"
      ],
      [
        "Ġcomput",
        "ations"
      ],
      [
        "a",
        "il"
      ],
      [
        "Ġc",
        "enter"
      ],
      [
        "Ġcont",
        "ents"
      ],
      [
        "E",
        "A"
      ],
      [
        "b",
        "le"
      ],
      [
        "b",
        "uf"
      ],
      [
        "d",
        "ic"
      ],
      [
        "d",
        "own"
      ],
      [
        "Ġfol",
        "low"
      ],
      [
        "co",
        "un"
      ],
      [
        "Ġcommand",
        "s"
      ],
      [
        "Ġb",
        "ranch"
      ],
      [
        "Ġw",
        "ord"
      ],
      [
        "ro",
        "l"
      ],
      [
        "Ġv",
        "i"
      ],
      [
        "Ġt",
        "ry"
      ],
      [
        "tic",
        "al"
      ],
      [
        "F",
        "E"
      ],
      [
        "h",
        "ase"
      ],
      [
        "s",
        "kip"
      ],
      [
        "ul",
        "ts"
      ],
      [
        "xFF",
        "EE"
      ],
      [
        "at",
        "or"
      ],
      [
        "E",
        "R"
      ],
      [
        "ĠC",
        "SI"
      ],
      [
        "mb",
        "er"
      ],
      [
        "BA",
        "SE"
      ],
      [
        "p",
        "on"
      ],
      [
        "p",
        "ing"
      ],
      [
        "n",
        "ot"
      ],
      [
        "Ġs",
        "a"
      ],
      [
        "ar",
        "g"
      ],
      [
        "Ġop",
        "co"
      ],
      [
        "Ġlike",
        "ly"
      ],
      [
        "Ġrender",
        "ing"
      ],
      [
        "Ġfollow",
        "ed"
      ],
      [
        "f",
        "f"
      ],
      [
        "Ġin",
        "dic"
      ],
      [
        "ĠC",
        "lear"
      ],
      [
        "Ġp",
        "op"
      ],
      [
        "0",
        "7"
      ],
      [
        "D",
        "F"
      ],
      [
        "Ġn",
        "ull"
      ],
      [
        "Ġmo",
        "de"
      ],
      [
        "cle",
        "ar"
      ],
      [
        "Ġd",
        "ir"
      ],
      [
        "Ġw",
        "orld"
      ],
      [
        "ST",
        "RO"
      ],
      [
        ")",
        ":"
      ],
      [
        "in",
        "ed"
      ],
      [
        "Ġb",
        "ut"
      ],
      [
        "Ġwith",
        "in"
      ],
      [
        "Ġmanipul",
        "ate"
      ],
      [
        "Ġres",
        "ults"
      ],
      [
        "D",
        "C"
      ],
      [
        "ind",
        "ow"
      ],
      [
        "Ġh",
        "ex"
      ],
      [
        "Ġcont",
        "rol"
      ],
      [
        "Ġmatch",
        "es"
      ],
      [
        "aw",
        "n"
      ],
      [
        "ĠR",
        "O"
      ],
      [
        "Ġre",
        "d"
      ],
      [
        "Ġthe",
        "y"
      ],
      [
        "ic",
        "k"
      ],
      [
        "..",
        "."
      ],
      [
        "Ġinvol",
        "ving"
      ],
      [
        "Ġwrit",
        "es"
      ],
      [
        "Ġ10",
        "1"
      ],
      [
        "Ġsc",
        "roll"
      ],
      [
        "C",
        "A"
      ],
      [
        "Ġ",
        "OS"
      ],
      [
        "ur",
        "ther"
      ],
      [
        "Ġgraphic",
        "s"
      ],
      [
        "u",
        "mber"
      ],
      [
        "Ġkey",
        "board"
      ],
      [
        "88",
        "8800"
      ],
      [
        "Ġa",
        "ll"
      ],
      [
        "le",
        "d"
      ],
      [
        "an",
        "ce"
      ],
      [
        "D",
        "A"
      ],
      [
        "i",
        "ece"
      ],
      [
        "ar",
        "se"
      ],
      [
        "Ġ6",
        "8"
      ],
      [
        "2",
        "00"
      ],
      [
        "W",
        "PIXEL"
      ],
      [
        "ĠS",
        "t"
      ],
      [
        "Ġin",
        "ter"
      ],
      [
        "C",
        "MP"
      ],
      [
        "Ġ2",
        "00"
      ],
      [
        "tial",
        "ly"
      ],
      [
        "Ġ6",
        "0"
      ],
      [
        "Ġsubrout",
        "ines"
      ],
      [
        "Ġdecrem",
        "ents"
      ],
      [
        "F",
        "C"
      ],
      [
        "Ġf",
        "urther"
      ],
      [
        "ar",
        "s"
      ],
      [
        "mp",
        "t"
      ],
      [
        "im",
        "al"
      ],
      [
        "to",
        "m"
      ],
      [
        "Ġrepe",
        "ating"
      ],
      [
        "Ġout",
        "put"
      ],
      [
        "Ġ1",
        "10"
      ],
      [
        "Ġgraphic",
        "al"
      ],
      [
        "Ġp",
        "layer"
      ],
      [
        "ĠC",
        "o"
      ],
      [
        "Ġt",
        "op"
      ],
      [
        "Ġare",
        "a"
      ],
      [
        "Ġti",
        "le"
      ],
      [
        "2",
        "000"
      ],
      [
        "N",
        "T"
      ],
      [
        "ram",
        "es"
      ],
      [
        "re",
        "e"
      ],
      [
        "--------",
        "--------"
      ],
      [
        "res",
        "h"
      ],
      [
        "Ġmulti",
        "ple"
      ],
      [
        "Ġsequen",
        "ce"
      ],
      [
        "t",
        "le"
      ],
      [
        "ur",
        "sor"
      ],
      [
        "Ġexecut",
        "ing"
      ],
      [
        "Ġne",
        "xt"
      ],
      [
        "Ġmodif",
        "ies"
      ],
      [
        "D",
        "B"
      ],
      [
        "Ġre",
        "f"
      ],
      [
        "Ġupd",
        "ating"
      ],
      [
        "ĠE",
        "ach"
      ],
      [
        "c",
        "si"
      ],
      [
        "Ġb",
        "lue"
      ],
      [
        "Ġreturn",
        "s"
      ],
      [
        "or",
        "t"
      ],
      [
        "Ġpo",
        "in"
      ],
      [
        "Ġupd",
        "ate"
      ],
      [
        "SC",
        "I"
      ],
      [
        "Ġoff",
        "set"
      ],
      [
        "SCI",
        "I"
      ],
      [
        "s",
        "s"
      ],
      [
        "Ġpush",
        "ing"
      ],
      [
        "Ġr",
        "ot"
      ],
      [
        "Ġsec",
        "ond"
      ],
      [
        "si",
        "on"
      ],
      [
        "ot",
        "tom"
      ],
      [
        "c",
        "opy"
      ],
      [
        "Ġv",
        "is"
      ],
      [
        "Ġaddition",
        "al"
      ],
      [
        "ec",
        "ted"
      ],
      [
        "ĠST",
        "R"
      ],
      [
        "Ġt",
        "as"
      ],
      [
        "iz",
        "e"
      ],
      [
        "Ġf",
        "rames"
      ],
      [
        "Ġcal",
        "l"
      ],
      [
        "ag",
        "ent"
      ],
      [
        "a",
        "tical"
      ],
      [
        "Ġ1",
        "12"
      ],
      [
        "Ġd",
        "et"
      ],
      [
        "Ġvi",
        "a"
      ],
      [
        "ĠL",
        "o"
      ],
      [
        "em",
        "on"
      ],
      [
        "Ġman",
        "ag"
      ],
      [
        "c",
        "md"
      ],
      [
        "a",
        "ult"
      ],
      [
        "m",
        "ent"
      ],
      [
        "it",
        "y"
      ],
      [
        "Ġopco",
        "de"
      ],
      [
        "o",
        "und"
      ],
      [
        "t",
        "en"
      ],
      [
        "ĠT",
        "I"
      ],
      [
        "res",
        "ult"
      ],
      [
        "Ġreturn",
        "ing"
      ],
      [
        "a",
        "mp"
      ],
      [
        "Ġcomple",
        "x"
      ],
      [
        "Ġend",
        "s"
      ],
      [
        "J",
        "MP"
      ],
      [
        "Ġc",
        "an"
      ],
      [
        "Ġs",
        "gr"
      ],
      [
        "rou",
        "nd"
      ],
      [
        "Ġchar",
        "s"
      ],
      [
        "Ġres",
        "t"
      ],
      [
        "ig",
        "n"
      ],
      [
        "m",
        "ents"
      ],
      [
        "Ġt",
        "y"
      ],
      [
        "em",
        "atical"
      ],
      [
        "Ġmath",
        "ematical"
      ],
      [
        "Ġpop",
        "ping"
      ],
      [
        "f",
        "rame"
      ],
      [
        "er",
        "s"
      ],
      [
        "Ġt",
        "able"
      ],
      [
        "a",
        "st"
      ],
      [
        "ec",
        "tion"
      ],
      [
        "Ġh",
        "e"
      ],
      [
        "Ġap",
        "pe"
      ],
      [
        "PA",
        "RAM"
      ],
      [
        "Ġp",
        "r"
      ],
      [
        "Ġw",
        "e"
      ],
      [
        "te",
        "p"
      ],
      [
        "Ġf",
        "ile"
      ],
      [
        "Ġinput",
        "s"
      ],
      [
        "Ġref",
        "resh"
      ],
      [
        "p",
        "x"
      ],
      [
        "Ġ2",
        "40"
      ],
      [
        "Ġexecu",
        "te"
      ],
      [
        "'",
        "s"
      ],
      [
        "ĠP",
        "TY"
      ],
      [
        "Ġf",
        "l"
      ],
      [
        "Ġst",
        "atus"
      ],
      [
        "X",
        "X"
      ],
      [
        "i",
        "b"
      ],
      [
        "Ġ",
        "imple"
      ],
      [
        "Ġth",
        "is"
      ],
      [
        "Ġst",
        "ar"
      ],
      [
        "Ġn",
        "umber"
      ],
      [
        "Ġmo",
        "ve"
      ],
      [
        "d",
        "es"
      ],
      [
        "v",
        "ance"
      ],
      [
        "Ġr",
        "un"
      ],
      [
        "Ġm",
        "c"
      ],
      [
        "Ġ7",
        "0"
      ],
      [
        "O",
        "T"
      ],
      [
        "ĠS",
        "h"
      ],
      [
        "Ġsp",
        "ace"
      ],
      [
        "SH",
        "L"
      ],
      [
        "Ġkey",
        "s"
      ],
      [
        "D",
        "RAWTEXT"
      ],
      [
        "ĠS",
        "END"
      ],
      [
        "ri",
        "d"
      ],
      [
        "il",
        "l"
      ],
      [
        "Ġmanipul",
        "ations"
      ],
      [
        "Ġrepe",
        "at"
      ],
      [
        "xFFFFFF",
        "FF"
      ],
      [
        "Ġ",
        "["
      ],
      [
        "Ġw",
        "indow"
      ],
      [
        "di",
        "r"
      ],
      [
        "ĠF",
        "inal"
      ],
      [
        "Ġ7",
        "6"
      ],
      [
        "Ġfil",
        "l"
      ],
      [
        "E",
        "M"
      ],
      [
        "d",
        "y"
      ],
      [
        "u",
        "se"
      ],
      [
        "Ġ11",
        "1"
      ],
      [
        "ĠRe",
        "ad"
      ],
      [
        "Ġi",
        "ter"
      ],
      [
        "t",
        "ab"
      ],
      [
        "ĠA",
        "fter"
      ],
      [
        "le",
        "v"
      ],
      [
        "mp",
        "ute"
      ],
      [
        "Ġhand",
        "le"
      ],
      [
        "Ġmodif",
        "y"
      ],
      [
        "Ġac",
        "c"
      ],
      [
        "MO",
        "V"
      ],
      [
        "Ġsh",
        "ow"
      ],
      [
        "pon",
        "se"
      ],
      [
        "â",
        "Ĩ"
      ],
      [
        "âĨ",
        "Ĵ"
      ],
      [
        "Ġ6",
        "5"
      ],
      [
        "uild",
        "ing"
      ],
      [
        "ĠFinal",
        "ly"
      ],
      [
        "b",
        "or"
      ],
      [
        "v",
        "ed"
      ],
      [
        "in",
        "put"
      ],
      [
        "Ġa",
        "g"
      ],
      [
        "di",
        "git"
      ],
      [
        "xFF",
        "B"
      ],
      [
        "ab",
        "el"
      ],
      [
        "igh",
        "bor"
      ],
      [
        "S",
        "UB"
      ],
      [
        "c",
        "rem"
      ],
      [
        "an",
        "n"
      ],
      [
        "ad",
        "d"
      ],
      [
        "Ġwh",
        "ile"
      ],
      [
        "Ġ--",
        "--"
      ],
      [
        "Ġsubtra",
        "c"
      ],
      [
        "g",
        "round"
      ],
      [
        "l",
        "en"
      ],
      [
        "re",
        "d"
      ],
      [
        "ĠW",
        "rite"
      ],
      [
        "Ġdi",
        "git"
      ],
      [
        "Ġrow",
        "s"
      ],
      [
        "Ġ==",
        "="
      ],
      [
        "ĠRO",
        "W"
      ],
      [
        "h",
        "ash"
      ],
      [
        "s",
        "es"
      ],
      [
        "Ġo",
        "ver"
      ],
      [
        "Ġ5",
        "8"
      ],
      [
        "c",
        "p"
      ],
      [
        "e",
        "nd"
      ],
      [
        "Ġe",
        "d"
      ],
      [
        "el",
        "lo"
      ],
      [
        "Ġtermin",
        "ate"
      ],
      [
        "5",
        "000"
      ],
      [
        "l",
        "p"
      ],
      [
        "Ġ",
        "&"
      ],
      [
        "id",
        "th"
      ],
      [
        "Ġappe",
        "ars"
      ],
      [
        "t",
        "on"
      ],
      [
        "Ġap",
        "pend"
      ],
      [
        "ĠC",
        "on"
      ],
      [
        "Ġ2",
        "2"
      ],
      [
        "re",
        "ad"
      ],
      [
        "st",
        "ra"
      ],
      [
        "X",
        "OR"
      ],
      [
        "SE",
        "T"
      ],
      [
        "Ġen",
        "v"
      ],
      [
        "Ġsh",
        "ap"
      ],
      [
        "Ġposition",
        "s"
      ],
      [
        "Ġother",
        "wise"
      ],
      [
        "Ġshap",
        "es"
      ],
      [
        "U",
        "S"
      ],
      [
        "w",
        "ard"
      ],
      [
        "Ġ10",
        "8"
      ],
      [
        "Ġit",
        "s"
      ],
      [
        "25",
        "5"
      ],
      [
        "Ġne",
        "ighbor"
      ],
      [
        "AT",
        "US"
      ],
      [
        "u",
        "re"
      ],
      [
        "Ġb",
        "loc"
      ],
      [
        "Ġ3",
        "1"
      ],
      [
        "ar",
        "e"
      ],
      [
        "ar",
        "ch"
      ],
      [
        "ang",
        "e"
      ],
      [
        "um",
        "n"
      ],
      [
        "Ġtas",
        "ks"
      ],
      [
        "c",
        "ursor"
      ],
      [
        "o",
        "st"
      ],
      [
        "u",
        "b"
      ],
      [
        "el",
        "low"
      ],
      [
        "ir",
        "on"
      ],
      [
        "Ġ.",
        "..."
      ],
      [
        "emon",
        "stra"
      ],
      [
        "F",
        "ILL"
      ],
      [
        "d",
        "ate"
      ],
      [
        "p",
        "b"
      ],
      [
        "Ġ>",
        ">"
      ],
      [
        "Ġenv",
        "iron"
      ],
      [
        "p",
        "er"
      ],
      [
        "Ġc",
        "am"
      ],
      [
        "Ġe",
        "ff"
      ],
      [
        "Ġt",
        "k"
      ],
      [
        "Ġg",
        "ame"
      ],
      [
        "as",
        "s"
      ],
      [
        "ĠLo",
        "ad"
      ],
      [
        "re",
        "nder"
      ],
      [
        "Ġword",
        "s"
      ],
      [
        "Ġenviron",
        "ment"
      ],
      [
        "+",
        "+"
      ],
      [
        "b",
        "ase"
      ],
      [
        "e",
        "w"
      ],
      [
        "Ġ",
        "âĨĴ"
      ],
      [
        "12",
        "8"
      ],
      [
        "Ġreg",
        "ion"
      ],
      [
        "st",
        "art"
      ],
      [
        "Ġcol",
        "umn"
      ],
      [
        "col",
        "or"
      ],
      [
        "Ġ>",
        "="
      ],
      [
        "3",
        "000"
      ],
      [
        "J",
        "Z"
      ],
      [
        "er",
        "a"
      ],
      [
        "Ġ9",
        "7"
      ],
      [
        "Ġwa",
        "it"
      ],
      [
        "Ġconstan",
        "t"
      ],
      [
        "Ġrepeat",
        "s"
      ],
      [
        "o",
        "c"
      ],
      [
        "ĠR",
        "ow"
      ],
      [
        "SH",
        "R"
      ],
      [
        "Ġ11",
        "5"
      ],
      [
        "Ġjump",
        "ing"
      ],
      [
        "ĠN",
        "E"
      ],
      [
        "ĠRA",
        "ND"
      ],
      [
        "Ġpress",
        "es"
      ],
      [
        "Ġth",
        "ree"
      ],
      [
        "AT",
        "E"
      ],
      [
        "ra",
        "t"
      ],
      [
        "lo",
        "ad"
      ],
      [
        "ĠR",
        "es"
      ],
      [
        "mo",
        "ve"
      ],
      [
        "coun",
        "t"
      ],
      [
        "E",
        "N"
      ],
      [
        "ith",
        "er"
      ],
      [
        "ay",
        "out"
      ],
      [
        "Ġprocess",
        "ing"
      ],
      [
        "b",
        "u"
      ],
      [
        "Ġp",
        "ar"
      ],
      [
        "ra",
        "in"
      ],
      [
        "Ġe",
        "m"
      ],
      [
        "Ġ9",
        "9"
      ],
      [
        "Ġfil",
        "ling"
      ],
      [
        "Ġpoin",
        "ter"
      ],
      [
        "Ġimple",
        "ments"
      ],
      [
        "ann",
        "el"
      ],
      [
        "H",
        "ALT"
      ],
      [
        "g",
        "e"
      ],
      [
        "n",
        "ing"
      ],
      [
        "p",
        "ly"
      ],
      [
        "r",
        "ect"
      ],
      [
        "ĠGe",
        "omet"
      ],
      [
        "us",
        "t"
      ],
      [
        "Ġti",
        "tle"
      ],
      [
        "ĠGeomet",
        "ry"
      ],
      [
        "G",
        "R"
      ],
      [
        "o",
        "ver"
      ],
      [
        "Ġ",
        "te"
      ],
      [
        "es",
        "c"
      ],
      [
        "Ġpro",
        "vi"
      ],
      [
        "ne",
        "w"
      ],
      [
        "Ġpa",
        "th"
      ],
      [
        "Ġbut",
        "ton"
      ],
      [
        "a",
        "di"
      ],
      [
        "er",
        "r"
      ],
      [
        "Ġpro",
        "mpt"
      ],
      [
        "Ġby",
        "tes"
      ],
      [
        "Ġadd",
        "r"
      ],
      [
        "4",
        "000"
      ],
      [
        "ra",
        "c"
      ],
      [
        "Ġcalcul",
        "ates"
      ],
      [
        "Ġloc",
        "ation"
      ],
      [
        "Ġu",
        "se"
      ],
      [
        "Ġcam",
        "era"
      ],
      [
        "G",
        "B"
      ],
      [
        "I",
        "KEY"
      ],
      [
        "m",
        "s"
      ],
      [
        "ver",
        "t"
      ],
      [
        "Ġres",
        "ponse"
      ],
      [
        "Ġback",
        "ground"
      ],
      [
        "crem",
        "ent"
      ],
      [
        "Ġprovi",
        "ded"
      ],
      [
        "O",
        "U"
      ],
      [
        "Ġr",
        "adi"
      ],
      [
        "Ġc",
        "md"
      ],
      [
        "or",
        "iz"
      ],
      [
        "Ġm",
        "e"
      ],
      [
        "ĠAN",
        "SI"
      ],
      [
        "mp",
        "ty"
      ],
      [
        "st",
        "ore"
      ],
      [
        "Ġ7",
        "3"
      ],
      [
        "Ġwa",
        "ter"
      ],
      [
        "ĠF",
        "G"
      ],
      [
        "Ġpo",
        "ten"
      ],
      [
        "Ġhand",
        "ling"
      ],
      [
        "Ġem",
        "it"
      ],
      [
        "Y",
        "S"
      ],
      [
        "le",
        "nd"
      ],
      [
        "em",
        "o"
      ],
      [
        "Ġadd",
        "s"
      ],
      [
        "sc",
        "reen"
      ],
      [
        "a",
        "v"
      ],
      [
        "g",
        "its"
      ],
      [
        "Ġc",
        "y"
      ],
      [
        "Ġd",
        "ark"
      ],
      [
        "ĠP",
        "hase"
      ],
      [
        "Ġ6",
        "9"
      ],
      [
        "Ġmanipul",
        "ating"
      ],
      [
        "Ġhand",
        "les"
      ],
      [
        "Ġconstan",
        "ts"
      ],
      [
        "Ġfl",
        "ag"
      ],
      [
        "lev",
        "el"
      ],
      [
        "ĠS",
        "tore"
      ],
      [
        "Ġp",
        "iece"
      ],
      [
        "Ġd",
        "im"
      ],
      [
        "Ġb",
        "lend"
      ],
      [
        "Ġini",
        "t"
      ],
      [
        "LE",
        "N"
      ],
      [
        "Ġ11",
        "6"
      ],
      [
        "po",
        "s"
      ],
      [
        "Ġbranch",
        "es"
      ],
      [
        "r",
        "c"
      ],
      [
        "en",
        "ting"
      ],
      [
        "Ġb",
        "ottom"
      ],
      [
        "ĠM",
        "A"
      ],
      [
        "Ġsp",
        "awn"
      ],
      [
        "Ġ4",
        "2"
      ],
      [
        "Ġl",
        "en"
      ],
      [
        "Ġwh",
        "en"
      ],
      [
        "Ġres",
        "tore"
      ],
      [
        "Ġmultipl",
        "ies"
      ],
      [
        "ĠSh",
        "ow"
      ],
      [
        "v",
        "as"
      ],
      [
        "ĠS",
        "c"
      ],
      [
        "Ġc",
        "opy"
      ],
      [
        "Ġc",
        "ell"
      ],
      [
        "Ġs",
        "el"
      ],
      [
        "Ġp",
        "l"
      ],
      [
        "Ġe",
        "ither"
      ],
      [
        "ĠAN",
        "S"
      ],
      [
        "em",
        "ent"
      ],
      [
        "ch",
        "k"
      ],
      [
        "til",
        "es"
      ],
      [
        "ĠCOL",
        "OR"
      ],
      [
        "bu",
        "g"
      ],
      [
        "X",
        "T"
      ],
      [
        "p",
        "a"
      ],
      [
        "ti",
        "le"
      ],
      [
        "ti",
        "ty"
      ],
      [
        "Ġc",
        "or"
      ],
      [
        "Ġs",
        "ize"
      ],
      [
        "Ġ12",
        "0"
      ],
      [
        "ĠROW",
        "S"
      ],
      [
        "OU",
        "NT"
      ],
      [
        "7",
        "00"
      ],
      [
        "b",
        "ar"
      ],
      [
        "Ġ",
        "Y"
      ],
      [
        "Ġ",
        "|"
      ],
      [
        "Ġd",
        "own"
      ],
      [
        "Ġt",
        "est"
      ],
      [
        "Ġdef",
        "ined"
      ],
      [
        "base",
        "d"
      ],
      [
        "p",
        "ort"
      ],
      [
        "Ġs",
        "o"
      ],
      [
        "ĠP",
        "ro"
      ],
      [
        "ĠR",
        "GB"
      ],
      [
        "ul",
        "d"
      ],
      [
        "Ġl",
        "abel"
      ],
      [
        "ord",
        "er"
      ],
      [
        "ĠE",
        "n"
      ],
      [
        "ĠU",
        "p"
      ],
      [
        "Ġradi",
        "us"
      ],
      [
        "O",
        "LL"
      ],
      [
        "Ġs",
        "in"
      ],
      [
        "Ġw",
        "in"
      ],
      [
        "ĠA",
        "SCII"
      ],
      [
        "Ġt",
        "ab"
      ],
      [
        "ri",
        "es"
      ],
      [
        "Ġby",
        "te"
      ],
      [
        "Ġti",
        "m"
      ],
      [
        "ld",
        "g"
      ],
      [
        "sp",
        "ace"
      ],
      [
        "Ġmodul",
        "ar"
      ],
      [
        "A",
        "V"
      ],
      [
        "v",
        "is"
      ],
      [
        "Ġr",
        "out"
      ],
      [
        "in",
        "k"
      ],
      [
        "Ġs",
        "n"
      ],
      [
        "ĠT",
        "it"
      ],
      [
        "ĠD",
        "e"
      ],
      [
        "Ġon",
        "e"
      ],
      [
        "Ġ12",
        "7"
      ],
      [
        "ed",
        "s"
      ],
      [
        "Ġad",
        "vance"
      ],
      [
        "Ġg",
        "rid"
      ],
      [
        "Ġstor",
        "ed"
      ],
      [
        "ĠTit",
        "le"
      ],
      [
        "l",
        "ision"
      ],
      [
        "lo",
        "t"
      ],
      [
        "Ġ8",
        "3"
      ],
      [
        "Ġsu",
        "gg"
      ],
      [
        "Ġcolor",
        "ed"
      ],
      [
        "Ġaddition",
        "s"
      ],
      [
        "Ġma",
        "x"
      ],
      [
        "Ġread",
        "s"
      ],
      [
        "I",
        "D"
      ],
      [
        "M",
        "UL"
      ],
      [
        "T",
        "AB"
      ],
      [
        "d",
        "riven"
      ],
      [
        "n",
        "er"
      ],
      [
        "Ġ",
        "z"
      ],
      [
        "Ġ",
        "qu"
      ],
      [
        "ĠS",
        "et"
      ],
      [
        "Ġt",
        "ran"
      ],
      [
        "Ġl",
        "ast"
      ],
      [
        "Ġg",
        "et"
      ],
      [
        "Ġfil",
        "led"
      ],
      [
        "Ġvis",
        "ual"
      ],
      [
        "Ġcan",
        "vas"
      ],
      [
        "oc",
        "us"
      ],
      [
        "M",
        "D"
      ],
      [
        "Ġ",
        "tiles"
      ],
      [
        "Ġ2",
        "24"
      ],
      [
        "lo",
        "se"
      ],
      [
        "ro",
        "ss"
      ],
      [
        "Ġv",
        "er"
      ],
      [
        "Ġcon",
        "f"
      ],
      [
        "Ġ8",
        "4"
      ],
      [
        "Ġch",
        "annel"
      ],
      [
        "xF",
        "A"
      ],
      [
        "Ġag",
        "ain"
      ],
      [
        "emonstra",
        "tes"
      ],
      [
        "C",
        "K"
      ],
      [
        "C",
        "L"
      ],
      [
        "c",
        "es"
      ],
      [
        "Ġs",
        "w"
      ],
      [
        "Ġb",
        "l"
      ],
      [
        "Ġ8",
        "2"
      ],
      [
        "ist",
        "ory"
      ],
      [
        "arg",
        "et"
      ],
      [
        "Ġmanag",
        "es"
      ],
      [
        "g",
        "reen"
      ],
      [
        "w",
        "rite"
      ],
      [
        "en",
        "er"
      ],
      [
        "Ġw",
        "idth"
      ],
      [
        "ith",
        "in"
      ],
      [
        "ES",
        "C"
      ],
      [
        "Ġpro",
        "ce"
      ],
      [
        "Ġn",
        "ame"
      ],
      [
        "xF",
        "D"
      ],
      [
        "C",
        "OUNT"
      ],
      [
        "S",
        "YS"
      ],
      [
        "ĠA",
        "d"
      ],
      [
        "Ġst",
        "op"
      ],
      [
        "ĠW",
        "ithin"
      ],
      [
        "Ġdiv",
        "id"
      ],
      [
        "Ġsubtraction",
        "s"
      ],
      [
        "our",
        "ce"
      ],
      [
        "coun",
        "ter"
      ],
      [
        "ĠCo",
        "mpute"
      ],
      [
        "new",
        "line"
      ],
      [
        "e",
        "xt"
      ],
      [
        "g",
        "th"
      ],
      [
        "Ġs",
        "ome"
      ],
      [
        "00",
        "1"
      ],
      [
        "Ġ2",
        "30"
      ],
      [
        "Ġt",
        "ri"
      ],
      [
        "ĠG",
        "et"
      ],
      [
        "ĠW",
        "IN"
      ],
      [
        "Ġcoun",
        "ters"
      ],
      [
        "Ġsequen",
        "tially"
      ],
      [
        "COL",
        "OR"
      ],
      [
        "rat",
        "ch"
      ],
      [
        "S",
        "CR"
      ],
      [
        "Ġc",
        "no"
      ],
      [
        "ADD",
        "R"
      ],
      [
        "ĠC",
        "L"
      ],
      [
        "ĠC",
        "MD"
      ],
      [
        "IT",
        "SET"
      ],
      [
        "n",
        "ull"
      ],
      [
        "w",
        "a"
      ],
      [
        "Ġp",
        "art"
      ],
      [
        "ĠC",
        "opy"
      ],
      [
        "Ġf",
        "our"
      ],
      [
        "el",
        "p"
      ],
      [
        "Ġan",
        "y"
      ],
      [
        "Ġ7",
        "9"
      ],
      [
        "def",
        "ined"
      ],
      [
        "ĠN",
        "OT"
      ],
      [
        "Ġinvol",
        "ves"
      ],
      [
        "Ġ<",
        "<"
      ],
      [
        "Ġpre",
        "defined"
      ],
      [
        "CMP",
        "I"
      ],
      [
        "Ġte",
        "mp"
      ],
      [
        "0",
        "40"
      ],
      [
        ":",
        "\""
      ],
      [
        "N",
        "E"
      ],
      [
        "x",
        "AD"
      ],
      [
        "Ġ1",
        "80"
      ],
      [
        "ĠT",
        "XT"
      ],
      [
        "pl",
        "ace"
      ],
      [
        "Ġdecrem",
        "enting"
      ],
      [
        "Ġinter",
        "ac"
      ],
      [
        "Ġty",
        "pe"
      ],
      [
        "r",
        "un"
      ],
      [
        "10",
        "00"
      ],
      [
        "en",
        "ame"
      ],
      [
        "Ġwith",
        "out"
      ],
      [
        "Ġcomp",
        "ute"
      ],
      [
        "xC",
        "C"
      ],
      [
        "Ġmodify",
        "ing"
      ],
      [
        "Ġsubtrac",
        "ts"
      ],
      [
        "Ġpoten",
        "tially"
      ],
      [
        "b",
        "it"
      ],
      [
        "o",
        "om"
      ],
      [
        "Ġ",
        "OP"
      ],
      [
        "ec",
        "imal"
      ],
      [
        "Ġ10",
        "4"
      ],
      [
        "Ġent",
        "ries"
      ],
      [
        "Ġrefresh",
        "es"
      ],
      [
        "Ġproce",
        "eds"
      ],
      [
        "7",
        "000"
      ],
      [
        "a",
        "pe"
      ],
      [
        "l",
        "er"
      ],
      [
        "l",
        "ines"
      ],
      [
        "t",
        "ry"
      ],
      [
        "u",
        "ct"
      ],
      [
        "Ġb",
        "uilding"
      ],
      [
        "Ġf",
        "low"
      ],
      [
        "si",
        "de"
      ],
      [
        "Ġrout",
        "ine"
      ],
      [
        "b",
        "b"
      ],
      [
        "t",
        "op"
      ],
      [
        "in",
        "it"
      ],
      [
        "Ġ1",
        "76"
      ],
      [
        "ĠM",
        "o"
      ],
      [
        "d",
        "l"
      ],
      [
        "i",
        "ve"
      ],
      [
        "o",
        "uld"
      ],
      [
        "s",
        "b"
      ],
      [
        "Ġ2",
        "18"
      ],
      [
        "ĠD",
        "is"
      ],
      [
        "Ġ10",
        "5"
      ],
      [
        "ip",
        "e"
      ],
      [
        "Ġmo",
        "use"
      ],
      [
        "and",
        "om"
      ],
      [
        "ty",
        "pe"
      ],
      [
        "Ġbloc",
        "k"
      ],
      [
        "Ġlen",
        "gth"
      ],
      [
        "u",
        "res"
      ],
      [
        "Ġ2",
        "16"
      ],
      [
        "ec",
        "o"
      ],
      [
        "as",
        "c"
      ],
      [
        "Ġdisplay",
        "ing"
      ],
      [
        "Ġent",
        "ry"
      ],
      [
        "ble",
        "nd"
      ],
      [
        "vis",
        "or"
      ],
      [
        "O",
        "M"
      ],
      [
        "U",
        "G"
      ],
      [
        "b",
        "lue"
      ],
      [
        "k",
        "n"
      ],
      [
        "Ġ",
        "le"
      ],
      [
        "Ġ2",
        "14"
      ],
      [
        "Ġ1",
        "70"
      ],
      [
        "Ġm",
        "ark"
      ],
      [
        "Ġt",
        "arget"
      ],
      [
        "Ġmultiplic",
        "ations"
      ],
      [
        "pend",
        "ing"
      ],
      [
        "Ġcre",
        "ates"
      ],
      [
        "ĠâĶĢâĶĢâĶĢâĶĢâĶĢâĶĢâĶĢâĶĢâĶĢâĶĢâĶĢâĶĢâĶĢâĶĢâĶĢâĶĢâĶĢâĶĢâĶĢâĶĢâĶĢâĶĢâĶĢâĶĢâĶĢâĶĢâĶĢâĶĢâĶĢâĶĢâĶĢâĶĢ",
        "âĶĢâĶĢâĶĢâĶĢâĶĢâĶĢâĶĢâĶĢ"
      ],
      [
        "C",
        "P"
      ],
      [
        "Ġ",
        "%"
      ],
      [
        "Ġd",
        "es"
      ],
      [
        "ĠB",
        "uild"
      ],
      [
        "ad",
        "ecimal"
      ],
      [
        "Ġ7",
        "2"
      ],
      [
        "ĠST",
        "ATUS"
      ],
      [
        "EB",
        "UG"
      ],
      [
        "ual",
        "ly"
      ],
      [
        "Ġdef",
        "ault"
      ],
      [
        "Ġhex",
        "adecimal"
      ],
      [
        "Ġstar",
        "ting"
      ],
      [
        "Ġiter",
        "ation"
      ],
      [
        "0",
        "20"
      ],
      [
        "ĠC",
        "ol"
      ],
      [
        "Ġ2",
        "20"
      ],
      [
        "ĠXOR",
        "s"
      ],
      [
        "Ġdraw",
        "n"
      ],
      [
        "xC",
        "D"
      ],
      [
        "ĠU",
        "ses"
      ],
      [
        "ĠIn",
        "i"
      ],
      [
        "6",
        "000"
      ],
      [
        "c",
        "y"
      ],
      [
        "in",
        "dex"
      ],
      [
        "ĠS",
        "p"
      ],
      [
        "al",
        "ly"
      ],
      [
        "Ġp",
        "hase"
      ],
      [
        "Ġ2",
        "15"
      ],
      [
        "lo",
        "bb"
      ],
      [
        "ĠA",
        "L"
      ],
      [
        "ĠD",
        "EBUG"
      ],
      [
        "ĠI",
        "N"
      ],
      [
        "Ġh",
        "ash"
      ],
      [
        "ac",
        "es"
      ],
      [
        "Ġsc",
        "ratch"
      ],
      [
        "Ġ7",
        "5"
      ],
      [
        "ang",
        "le"
      ],
      [
        "Ġcoordin",
        "ate"
      ],
      [
        "Ġstr",
        "uct"
      ],
      [
        "ĠRe",
        "nder"
      ],
      [
        "A",
        "SCII"
      ],
      [
        "J",
        "NZ"
      ],
      [
        "g",
        "ra"
      ],
      [
        "s",
        "gr"
      ],
      [
        "Ġc",
        "el"
      ],
      [
        "Ġ2",
        "22"
      ],
      [
        "Ġma",
        "p"
      ],
      [
        "Ġstr",
        "len"
      ],
      [
        "mo",
        "de"
      ],
      [
        "Ġrest",
        "or"
      ],
      [
        "read",
        "y"
      ],
      [
        "Ġconf",
        "ig"
      ],
      [
        "U",
        "M"
      ],
      [
        "w",
        "h"
      ],
      [
        "Ġ1",
        "79"
      ],
      [
        "ec",
        "ts"
      ],
      [
        "ver",
        "y"
      ],
      [
        "xD",
        "B"
      ],
      [
        "Ġ9",
        "0"
      ],
      [
        "Ġres",
        "et"
      ],
      [
        "ib",
        "ble"
      ],
      [
        "per",
        "visor"
      ],
      [
        "ĠNE",
        "G"
      ],
      [
        "a",
        "tive"
      ],
      [
        "m",
        "c"
      ],
      [
        "r",
        "op"
      ],
      [
        "t",
        "p"
      ],
      [
        "Ġ2",
        "44"
      ],
      [
        "Ġw",
        "al"
      ],
      [
        "Ġw",
        "ave"
      ],
      [
        "Ġloop",
        "ing"
      ],
      [
        "ke",
        "d"
      ],
      [
        "res",
        "et"
      ],
      [
        "ĠSCR",
        "OLL"
      ],
      [
        "Ġindic",
        "ator"
      ],
      [
        "kn",
        "own"
      ],
      [
        "H",
        "ello"
      ],
      [
        "L",
        "M"
      ],
      [
        "b",
        "l"
      ],
      [
        "f",
        "ail"
      ],
      [
        "ĠS",
        "ave"
      ],
      [
        "ĠS",
        "GR"
      ],
      [
        "Ġs",
        "rc"
      ],
      [
        "Ġp",
        "v"
      ],
      [
        "Ġ2",
        "10"
      ],
      [
        "Ġ2",
        "11"
      ],
      [
        "Ġ2",
        "39"
      ],
      [
        "Ġth",
        "o"
      ],
      [
        "Ġ3",
        "14"
      ],
      [
        "Ġh",
        "istory"
      ],
      [
        "Ġn",
        "on"
      ],
      [
        "as",
        "ic"
      ],
      [
        "Ġdi",
        "gits"
      ],
      [
        "ord",
        "ing"
      ],
      [
        "Ġbranch",
        "ing"
      ],
      [
        "err",
        "or"
      ],
      [
        "ĠIni",
        "tializ"
      ],
      [
        "g",
        "or"
      ],
      [
        "o",
        "o"
      ],
      [
        "r",
        "l"
      ],
      [
        "ĠL",
        "LM"
      ],
      [
        "Ġa",
        "b"
      ],
      [
        "Ġ2",
        "28"
      ],
      [
        "Ġ2",
        "34"
      ],
      [
        "Ġ3",
        "00"
      ],
      [
        "ic",
        "e"
      ],
      [
        "Ġch",
        "k"
      ],
      [
        "Ġ5",
        "1"
      ],
      [
        "ĠN",
        "ull"
      ],
      [
        "Ġtri",
        "gg"
      ],
      [
        "y",
        "pervisor"
      ],
      [
        "Ġa",
        "bo"
      ],
      [
        "Ġs",
        "ign"
      ],
      [
        "Ġ2",
        "13"
      ],
      [
        "Ġ2",
        "26"
      ],
      [
        "Ġ2",
        "29"
      ],
      [
        "Ġd",
        "ue"
      ],
      [
        "it",
        "ch"
      ],
      [
        "Ġ6",
        "7"
      ],
      [
        "Ġg",
        "i"
      ],
      [
        "as",
        "k"
      ],
      [
        "Ġcompar",
        "ing"
      ],
      [
        "Ġsugg",
        "es"
      ],
      [
        "ĠNOT",
        "E"
      ],
      [
        "U",
        "N"
      ],
      [
        "tion",
        "s"
      ],
      [
        "Ġ1",
        "88"
      ],
      [
        "Ġ1",
        "99"
      ],
      [
        "Ġf",
        "d"
      ],
      [
        "Ġh",
        "i"
      ],
      [
        "Ġen",
        "ter"
      ],
      [
        "Ġen",
        "tity"
      ],
      [
        "Ġ5",
        "6"
      ],
      [
        "xB",
        "C"
      ],
      [
        "ol",
        "d"
      ],
      [
        "ĠĠĠĠĠĠĠĠĠĠĠĠ",
        "ĠĠĠ"
      ],
      [
        "Ġfil",
        "ename"
      ],
      [
        "ĠRe",
        "g"
      ],
      [
        "Ġinvol",
        "ve"
      ],
      [
        "gor",
        "ith"
      ],
      [
        "f",
        "rom"
      ],
      [
        "Ġr",
        "andom"
      ],
      [
        "in",
        "ts"
      ],
      [
        "Ġs",
        "ource"
      ],
      [
        "Ġp",
        "an"
      ],
      [
        "Ġ2",
        "12"
      ],
      [
        "Ġ1",
        "74"
      ],
      [
        "Ġb",
        "all"
      ],
      [
        "Ġ3",
        "99"
      ],
      [
        "re",
        "p"
      ],
      [
        "Ġex",
        "it"
      ],
      [
        "cl",
        "r"
      ],
      [
        "Ġwh",
        "ite"
      ],
      [
        "Ġg",
        "ener"
      ],
      [
        "xB",
        "A"
      ],
      [
        "xB",
        "F"
      ],
      [
        "xE",
        "F"
      ],
      [
        "Ġpo",
        "s"
      ],
      [
        "Ġy",
        "ellow"
      ],
      [
        "Ġti",
        "me"
      ],
      [
        "ĠV",
        "M"
      ],
      [
        "Ġtho",
        "se"
      ],
      [
        "ĠInitializ",
        "e"
      ],
      [
        "S",
        "M"
      ],
      [
        "d",
        "x"
      ],
      [
        "h",
        "i"
      ],
      [
        "m",
        "ap"
      ],
      [
        "s",
        "ave"
      ],
      [
        "w",
        "orld"
      ],
      [
        "ĠĠ",
        "Ċ"
      ],
      [
        "ĠL",
        "ayout"
      ],
      [
        "ti",
        "me"
      ],
      [
        "er",
        "m"
      ],
      [
        "or",
        "m"
      ],
      [
        "Ġ2",
        "19"
      ],
      [
        "Ġ2",
        "36"
      ],
      [
        "Ġm",
        "in"
      ],
      [
        "Ġb",
        "order"
      ],
      [
        "Ġb",
        "asic"
      ],
      [
        "ĠP",
        "RO"
      ],
      [
        "Ġf",
        "ull"
      ],
      [
        "ar",
        "m"
      ],
      [
        "Ġh",
        "oriz"
      ],
      [
        "ri",
        "p"
      ],
      [
        "Ġan",
        "g"
      ],
      [
        "Ġsc",
        "ore"
      ],
      [
        "Ġ5",
        "5"
      ],
      [
        "Ġcont",
        "ent"
      ],
      [
        "xE",
        "C"
      ],
      [
        "sc",
        "roll"
      ],
      [
        "pro",
        "mpt"
      ],
      [
        "ĠWIN",
        "SYS"
      ],
      [
        "gorith",
        "m"
      ],
      [
        "'",
        ","
      ],
      [
        "h",
        "e"
      ],
      [
        "p",
        "arse"
      ],
      [
        "t",
        "tp"
      ],
      [
        "Ġ",
        "ESC"
      ],
      [
        "Ġp",
        "ur"
      ],
      [
        "ĠT",
        "est"
      ],
      [
        "ĠA",
        "I"
      ],
      [
        "Ġe",
        "very"
      ],
      [
        "ar",
        "y"
      ],
      [
        "ri",
        "e"
      ],
      [
        "ch",
        "ar"
      ],
      [
        "Ġcal",
        "ling"
      ],
      [
        "ĠW",
        "e"
      ],
      [
        "xF",
        "B"
      ],
      [
        "Ġafter",
        "ward"
      ],
      [
        "Ġac",
        "tive"
      ],
      [
        "Ġeff",
        "ect"
      ],
      [
        "ĠRes",
        "et"
      ],
      [
        "Ġagain",
        "st"
      ],
      [
        "\"",
        ","
      ],
      [
        "4",
        "30"
      ],
      [
        "S",
        "AR"
      ],
      [
        "W",
        "N"
      ],
      [
        "b",
        "ack"
      ],
      [
        "e",
        "p"
      ],
      [
        "f",
        "l"
      ],
      [
        "l",
        "ap"
      ],
      [
        "t",
        "k"
      ],
      [
        "ĠS",
        "kip"
      ],
      [
        "Ġ10",
        "3"
      ],
      [
        "Ġ10",
        "9"
      ],
      [
        "di",
        "v"
      ],
      [
        "Ġch",
        "a"
      ],
      [
        "Ġ7",
        "7"
      ],
      [
        "xD",
        "A"
      ],
      [
        "xC",
        "B"
      ],
      [
        "xB",
        "B"
      ],
      [
        "xE",
        "E"
      ],
      [
        "row",
        "s"
      ],
      [
        "ST",
        "ATE"
      ],
      [
        "Ġsetting",
        "s"
      ],
      [
        "Ġstring",
        "s"
      ],
      [
        "Ġcre",
        "ating"
      ],
      [
        "Ġvis",
        "i"
      ],
      [
        "Ġcel",
        "ls"
      ],
      [
        "Ġang",
        "le"
      ],
      [
        "c",
        "re"
      ],
      [
        "p",
        "ixel"
      ],
      [
        "Ġs",
        "qu"
      ],
      [
        "Ġco",
        "des"
      ],
      [
        "Ġre",
        "main"
      ],
      [
        "Ġ3",
        "15"
      ],
      [
        "Ġ3",
        "60"
      ],
      [
        "Ġ3",
        "74"
      ],
      [
        "Ġsp",
        "rite"
      ],
      [
        "78",
        "00"
      ],
      [
        "EE",
        "P"
      ],
      [
        "Ġdec",
        "imal"
      ],
      [
        "Ġsa",
        "ving"
      ],
      [
        "TAB",
        "LE"
      ],
      [
        "Ġtran",
        "s"
      ],
      [
        "Ġabo",
        "ve"
      ],
      [
        "5",
        "10"
      ],
      [
        "8",
        "000"
      ],
      [
        "o",
        "id"
      ],
      [
        "Ġs",
        "tep"
      ],
      [
        "Ġp",
        "ort"
      ],
      [
        "ra",
        "p"
      ],
      [
        "en",
        "s"
      ],
      [
        "Ġd",
        "emo"
      ],
      [
        "Ġm",
        "ore"
      ],
      [
        "Ġm",
        "ess"
      ],
      [
        "Ġini",
        "tial"
      ],
      [
        "Ġt",
        "int"
      ],
      [
        "ĠH",
        "ITSET"
      ],
      [
        "Ġ5",
        "3"
      ],
      [
        "xC",
        "F"
      ],
      [
        "xA",
        "F"
      ],
      [
        "sh",
        "ow"
      ],
      [
        "Ġal",
        "gorithm"
      ],
      [
        "Ġcre",
        "ate"
      ],
      [
        "ĠUp",
        "date"
      ],
      [
        "H",
        "I"
      ],
      [
        "R",
        "TY"
      ],
      [
        "Ġ",
        "KEY"
      ],
      [
        "al",
        "e"
      ],
      [
        "Ġ2",
        "66"
      ],
      [
        "Ġ2",
        "99"
      ],
      [
        "Ġ2",
        "79"
      ],
      [
        "Ġ2",
        "38"
      ],
      [
        "ra",
        "g"
      ],
      [
        "Ġ1",
        "77"
      ],
      [
        "Ġ3",
        "16"
      ],
      [
        "Ġ3",
        "30"
      ],
      [
        "Ġ3",
        "66"
      ],
      [
        "Ġ4",
        "7"
      ],
      [
        "Ġh",
        "it"
      ],
      [
        "st",
        "ate"
      ],
      [
        "ĠB",
        "EEP"
      ],
      [
        "Ġch",
        "ild"
      ],
      [
        "def",
        "ault"
      ],
      [
        "xA",
        "B"
      ],
      [
        "Ġdivision",
        "s"
      ],
      [
        "ĠTI",
        "CK"
      ],
      [
        "Ġacc",
        "ording"
      ],
      [
        "Ġed",
        "ge"
      ],
      [
        "ĠDis",
        "play"
      ],
      [
        "ĠCol",
        "or"
      ],
      [
        "S",
        "P"
      ],
      [
        "ĠĠĠĠ",
        "Ċ"
      ],
      [
        "Ġ2",
        "23"
      ],
      [
        "Ġ1",
        "78"
      ],
      [
        "Ġ1",
        "85"
      ],
      [
        "Ġ3",
        "18"
      ],
      [
        "it",
        "or"
      ],
      [
        "Ġse",
        "nd"
      ],
      [
        "xD",
        "C"
      ],
      [
        "xC",
        "E"
      ],
      [
        "Ġdis",
        "t"
      ],
      [
        "Ġ15",
        "0"
      ],
      [
        "ne",
        "g"
      ],
      [
        "Ġpre",
        "v"
      ],
      [
        "sion",
        "s"
      ],
      [
        "Ġhe",
        "ad"
      ],
      [
        "pa",
        "th"
      ],
      [
        "ĠReg",
        "is"
      ],
      [
        "U",
        "SE"
      ],
      [
        "W",
        "IN"
      ],
      [
        "b",
        "uild"
      ],
      [
        "c",
        "ont"
      ],
      [
        "d",
        "u"
      ],
      [
        "Ġ",
        "id"
      ],
      [
        "Ġ",
        "error"
      ],
      [
        "or",
        "g"
      ],
      [
        "Ġ2",
        "90"
      ],
      [
        "se",
        "l"
      ],
      [
        "âĶĢâĶĢâĶĢâĶĢ",
        "âĶĢâĶĢ"
      ],
      [
        "Ġ8",
        "7"
      ],
      [
        "st",
        "atus"
      ],
      [
        "cl",
        "u"
      ],
      [
        "res",
        "t"
      ],
      [
        "Ġcalcul",
        "ated"
      ],
      [
        "ont",
        "al"
      ],
      [
        "Ġrest",
        "art"
      ],
      [
        "Ġhe",
        "ight"
      ],
      [
        "add",
        "r"
      ],
      [
        "3",
        "00"
      ],
      [
        "4",
        "00"
      ],
      [
        "R",
        "L"
      ],
      [
        "b",
        "e"
      ],
      [
        "Ġin",
        "crement"
      ],
      [
        "Ġ2",
        "33"
      ],
      [
        "Ġ1",
        "75"
      ],
      [
        "Ġd",
        "est"
      ],
      [
        "Ġinitializ",
        "ing"
      ],
      [
        "ro",
        "ls"
      ],
      [
        "un",
        "t"
      ],
      [
        "Ġ4",
        "6"
      ],
      [
        "22",
        "22"
      ],
      [
        "ay",
        "s"
      ],
      [
        "Ġ11",
        "7"
      ],
      [
        "xE",
        "A"
      ],
      [
        "Ġ9",
        "1"
      ],
      [
        "Ġj",
        "ust"
      ],
      [
        "----------------",
        "----------------"
      ],
      [
        "dir",
        "ty"
      ],
      [
        "Ġdivid",
        "es"
      ],
      [
        "2",
        "20"
      ],
      [
        "A",
        "M"
      ],
      [
        "F",
        "S"
      ],
      [
        "c",
        "on"
      ],
      [
        "h",
        "ex"
      ],
      [
        "Ġ2",
        "17"
      ],
      [
        "Ġ2",
        "88"
      ],
      [
        "Ġd",
        "x"
      ],
      [
        "Ġd",
        "y"
      ],
      [
        "Ġm",
        "m"
      ],
      [
        "Ġ3",
        "44"
      ],
      [
        "Ġ3",
        "40"
      ],
      [
        "Ġf",
        "ont"
      ],
      [
        "ain",
        "t"
      ],
      [
        "Ġ4",
        "5"
      ],
      [
        "Ġl",
        "arg"
      ],
      [
        "24",
        "0"
      ],
      [
        "Ġ7",
        "8"
      ],
      [
        "Ġmulti",
        "ply"
      ],
      [
        "Ġne",
        "g"
      ],
      [
        "Ġindic",
        "ating"
      ],
      [
        "Ġgi",
        "ven"
      ],
      [
        "Ġcha",
        "rac"
      ],
      [
        "-",
        ">"
      ],
      [
        "4",
        "10"
      ],
      [
        "U",
        "T"
      ],
      [
        "c",
        "c"
      ],
      [
        "t",
        "al"
      ],
      [
        "Ġ",
        "K"
      ],
      [
        "ĠL",
        "O"
      ],
      [
        "ĠC",
        "l"
      ],
      [
        "ĠC",
        "ont"
      ],
      [
        "ec",
        "h"
      ],
      [
        "Ġd",
        "emonstrates"
      ],
      [
        "Ġ3",
        "34"
      ],
      [
        "ic",
        "ation"
      ],
      [
        "Ġ4",
        "00"
      ],
      [
        "Ġh",
        "as"
      ],
      [
        "Ġ6",
        "2"
      ],
      [
        "Ġ12",
        "4"
      ],
      [
        "AR",
        "T"
      ],
      [
        "xD",
        "F"
      ],
      [
        "Ġare",
        "as"
      ],
      [
        "Ġret",
        "rie"
      ],
      [
        "Ġdo",
        "es"
      ],
      [
        "po",
        "int"
      ],
      [
        "ĠOS",
        "C"
      ],
      [
        "5",
        "00"
      ],
      [
        "5",
        "30"
      ],
      [
        "e",
        "mpty"
      ],
      [
        "f",
        "o"
      ],
      [
        "h",
        "ello"
      ],
      [
        "i",
        "de"
      ],
      [
        "n",
        "ame"
      ],
      [
        "o",
        "ff"
      ],
      [
        "s",
        "ub"
      ],
      [
        "Ġ",
        "k"
      ],
      [
        "Ġ",
        "~"
      ],
      [
        "on",
        "al"
      ],
      [
        "Ġ2",
        "85"
      ],
      [
        "Ġ1",
        "84"
      ],
      [
        "ec",
        "ting"
      ],
      [
        "ec",
        "tive"
      ],
      [
        "Ġd",
        "st"
      ],
      [
        "Ġw",
        "all"
      ],
      [
        "Ġw",
        "ell"
      ],
      [
        "Ġe",
        "v"
      ],
      [
        "ĠM",
        "ain"
      ],
      [
        "ĠOR",
        "s"
      ],
      [
        "Ġse",
        "arch"
      ],
      [
        "IN",
        "K"
      ],
      [
        "xD",
        "E"
      ],
      [
        "Ġcheck",
        "ing"
      ],
      [
        "Ġ13",
        "0"
      ],
      [
        "ag",
        "onal"
      ],
      [
        "id",
        "d"
      ],
      [
        "term",
        "inal"
      ],
      [
        "Ġprocess",
        "es"
      ],
      [
        "Ġal",
        "ready"
      ],
      [
        "Ġnew",
        "line"
      ],
      [
        "Ġdir",
        "ty"
      ],
      [
        "ĠTI",
        "LE"
      ],
      [
        "Ġpar",
        "tic"
      ],
      [
        "clu",
        "de"
      ],
      [
        "I",
        "LE"
      ],
      [
        "d",
        "c"
      ],
      [
        "g",
        "n"
      ],
      [
        "p",
        "ass"
      ],
      [
        "ĠS",
        "AV"
      ],
      [
        "Ġs",
        "es"
      ],
      [
        "Ġ2",
        "25"
      ],
      [
        "Ġ2",
        "89"
      ],
      [
        "Ġ3",
        "80"
      ],
      [
        "Ġ3",
        "55"
      ],
      [
        "Ġe",
        "t"
      ],
      [
        "at",
        "ure"
      ],
      [
        "ĠF",
        "or"
      ],
      [
        "Ġ8",
        "5"
      ],
      [
        "Ġsh",
        "ould"
      ],
      [
        "xA",
        "C"
      ],
      [
        "xA",
        "E"
      ],
      [
        "Ġadd",
        "ing"
      ],
      [
        "Ġ+",
        "="
      ],
      [
        "Ġde",
        "bug"
      ],
      [
        "ile",
        "d"
      ],
      [
        "ĠIn",
        "it"
      ],
      [
        "Ġcl",
        "amp"
      ],
      [
        "reg",
        "s"
      ],
      [
        "Ġcall",
        "er"
      ],
      [
        "ms",
        "g"
      ],
      [
        "ĠCL",
        "IP"
      ],
      [
        "b",
        "ldg"
      ],
      [
        "t",
        "n"
      ],
      [
        "w",
        "in"
      ],
      [
        "on",
        "g"
      ],
      [
        "Ġ2",
        "80"
      ],
      [
        "Ġ2",
        "64"
      ],
      [
        "Ġre",
        "draw"
      ],
      [
        "Ġ3",
        "88"
      ],
      [
        "Ġ3",
        "70"
      ],
      [
        "Ġ3",
        "33"
      ],
      [
        "ĠAND",
        "s"
      ],
      [
        "ain",
        "s"
      ],
      [
        "Ġ10",
        "2"
      ],
      [
        "Ġ6",
        "6"
      ],
      [
        "Ġcol",
        "lision"
      ],
      [
        "Ġ5",
        "2"
      ],
      [
        "xE",
        "D"
      ],
      [
        "Ġ14",
        "0"
      ],
      [
        "Ġde",
        "termin"
      ],
      [
        "COL",
        "S"
      ],
      [
        "Ġtermin",
        "ator"
      ],
      [
        "ĠEn",
        "ter"
      ],
      [
        "\"",
        ")"
      ],
      [
        "6",
        "00"
      ],
      [
        "f",
        "ile"
      ],
      [
        "p",
        "re"
      ],
      [
        "es",
        "ted"
      ],
      [
        "Ġs",
        "y"
      ],
      [
        "Ġ2",
        "27"
      ],
      [
        "Ġ3",
        "20"
      ],
      [
        "Ġinitializ",
        "ed"
      ],
      [
        "Ġf",
        "ocus"
      ],
      [
        "Ġthe",
        "ir"
      ],
      [
        "ĠA",
        "p"
      ],
      [
        "ĠM",
        "emory"
      ],
      [
        "ĠR",
        "UN"
      ],
      [
        "ES",
        "P"
      ],
      [
        "Ġ10",
        "00"
      ],
      [
        "Ġex",
        "p"
      ],
      [
        "Ġ5",
        "4"
      ],
      [
        "xF",
        "E"
      ],
      [
        "xC",
        "A"
      ],
      [
        "Ġ11",
        "9"
      ],
      [
        "xE",
        "B"
      ],
      [
        "and",
        "le"
      ],
      [
        "tra",
        "ct"
      ],
      [
        "ĠN",
        "o"
      ],
      [
        "ĠU",
        "pon"
      ],
      [
        "ok",
        "up"
      ],
      [
        "Ġdir",
        "ection"
      ],
      [
        "Ġsubtrac",
        "ting"
      ],
      [
        "Ġme",
        "an"
      ],
      [
        "Ġsugges",
        "ting"
      ],
      [
        "orm",
        "al"
      ],
      [
        "ĠTICK",
        "S"
      ],
      [
        "2",
        "100"
      ],
      [
        "Z",
        "E"
      ],
      [
        "a",
        "i"
      ],
      [
        "m",
        "in"
      ],
      [
        "p",
        "op"
      ],
      [
        "t",
        "est"
      ],
      [
        "Ġ",
        "level"
      ],
      [
        "Ġs",
        "ine"
      ],
      [
        "Ġs",
        "im"
      ],
      [
        "Ġs",
        "lot"
      ],
      [
        "Ġ2",
        "70"
      ],
      [
        "Ġ2",
        "65"
      ],
      [
        "Ġ2",
        "95"
      ],
      [
        "ing",
        "le"
      ],
      [
        "Ġb",
        "uild"
      ],
      [
        "ĠP",
        "ID"
      ],
      [
        "Ġ3",
        "12"
      ],
      [
        "Ġto",
        "tal"
      ],
      [
        "em",
        "y"
      ],
      [
        "Ġl",
        "ayout"
      ],
      [
        "xF",
        "C"
      ],
      [
        "Ġne",
        "ed"
      ],
      [
        "EE",
        "N"
      ],
      [
        "ST",
        "ATUS"
      ],
      [
        "Ġbo",
        "dy"
      ],
      [
        "Ġdet",
        "ected"
      ],
      [
        "Ġmess",
        "age"
      ],
      [
        "4",
        "18"
      ],
      [
        "B",
        "AR"
      ],
      [
        "C",
        "V"
      ],
      [
        "a",
        "iled"
      ],
      [
        "c",
        "s"
      ],
      [
        "i",
        "i"
      ],
      [
        "m",
        "a"
      ],
      [
        "Ġp",
        "arse"
      ],
      [
        "Ġp",
        "ipe"
      ],
      [
        "ĠC",
        "ursor"
      ],
      [
        "Ġ2",
        "76"
      ],
      [
        "Ġd",
        "ur"
      ],
      [
        "Ġd",
        "one"
      ],
      [
        "Ġb",
        "i"
      ],
      [
        "se",
        "arch"
      ],
      [
        "Ġ3",
        "35"
      ],
      [
        "Ġ3",
        "89"
      ],
      [
        "Ġf",
        "ine"
      ],
      [
        "Ġcon",
        "text"
      ],
      [
        "22",
        "00"
      ],
      [
        "Ġ12",
        "1"
      ],
      [
        "Ġar",
        "row"
      ],
      [
        "Ġn",
        "ested"
      ],
      [
        "si",
        "gn"
      ],
      [
        "and",
        "s"
      ],
      [
        "ĠU",
        "RL"
      ],
      [
        "ric",
        "k"
      ],
      [
        "Ġbo",
        "ard"
      ],
      [
        "Ġpr",
        "ints"
      ],
      [
        "cp",
        "y"
      ],
      [
        "Ġsw",
        "itch"
      ],
      [
        "asc",
        "iz"
      ],
      [
        "Ġdes",
        "ign"
      ],
      [
        "!",
        "\""
      ],
      [
        "R",
        "IT"
      ],
      [
        "S",
        "OR"
      ],
      [
        "d",
        "ec"
      ],
      [
        "p",
        "at"
      ],
      [
        "Ġ",
        "âĶĢâĶĢâĶĢâĶĢâĶĢâĶĢâĶĢâĶĢâĶĢâĶĢâĶĢâĶĢâĶĢâĶĢâĶĢâĶĢ"
      ],
      [
        "Ġ",
        "terminal"
      ],
      [
        "Ġb",
        "right"
      ],
      [
        "te",
        "nd"
      ],
      [
        "Ġ3",
        "13"
      ],
      [
        "Ġ3",
        "75"
      ],
      [
        "Ġ3",
        "36"
      ],
      [
        "Ġ3",
        "39"
      ],
      [
        "Ġ3",
        "84"
      ],
      [
        "Ġ3",
        "65"
      ],
      [
        "Ġ3",
        "69"
      ],
      [
        "Ġt",
        "ra"
      ],
      [
        "Ġh",
        "ost"
      ],
      [
        "Ġh",
        "ypervisor"
      ],
      [
        "ĠB",
        "uilding"
      ],
      [
        "AR",
        "M"
      ],
      [
        "ĠDI",
        "RTY"
      ],
      [
        "0000",
        "000"
      ],
      [
        "Ġ7",
        "1"
      ],
      [
        "xB",
        "D"
      ],
      [
        "ĠE",
        "x"
      ],
      [
        "ĠIn",
        "put"
      ],
      [
        "Ġsequen",
        "ces"
      ],
      [
        "Ġdecrem",
        "ent"
      ],
      [
        "Ġpattern",
        "s"
      ],
      [
        "Ġcl",
        "ick"
      ],
      [
        "Ġdim",
        "en"
      ],
      [
        "Ġlarg",
        "er"
      ],
      [
        "a",
        "fter"
      ],
      [
        "a",
        "ded"
      ],
      [
        "l",
        "i"
      ],
      [
        "p",
        "iece"
      ],
      [
        "u",
        "ted"
      ],
      [
        "Ġ",
        "unc"
      ],
      [
        "ti",
        "p"
      ],
      [
        "es",
        "ts"
      ],
      [
        "10",
        "000"
      ],
      [
        "Ġ2",
        "75"
      ],
      [
        "Ġm",
        "em"
      ],
      [
        "Ġ3",
        "77"
      ],
      [
        "Ġ3",
        "94"
      ],
      [
        "Ġ3",
        "95"
      ],
      [
        "ar",
        "row"
      ],
      [
        "unc",
        "e"
      ],
      [
        "Ġ4",
        "3"
      ],
      [
        "di",
        "ent"
      ],
      [
        "ĠH",
        "EX"
      ],
      [
        "Ġres",
        "p"
      ],
      [
        "Ġcontinu",
        "e"
      ],
      [
        "ĠBL",
        "INK"
      ],
      [
        "Ġpa",
        "st"
      ],
      [
        "ĠIn",
        "crement"
      ],
      [
        "ct",
        "ually"
      ],
      [
        "ĠO",
        "ther"
      ],
      [
        "ĠRO",
        "OM"
      ],
      [
        "Ġmanag",
        "ement"
      ],
      [
        "Ġrun",
        "ning"
      ],
      [
        "Ġtrigg",
        "er"
      ],
      [
        "Ġpan",
        "el"
      ],
      [
        "Ġaccording",
        "ly"
      ],
      [
        "Ġses",
        "sion"
      ],
      [
        "'",
        "t"
      ],
      [
        "M",
        "A"
      ],
      [
        "M",
        "AL"
      ],
      [
        "V",
        "E"
      ],
      [
        "p",
        "ed"
      ],
      [
        "s",
        "a"
      ],
      [
        "s",
        "n"
      ],
      [
        "y",
        "ing"
      ],
      [
        "Ġ",
        ":"
      ],
      [
        "Ġ",
        "tic"
      ],
      [
        "OR",
        "MAL"
      ],
      [
        "12",
        "01"
      ],
      [
        "Ġp",
        "ri"
      ],
      [
        "Ġre",
        "load"
      ],
      [
        "Ġb",
        "ldg"
      ],
      [
        "te",
        "g"
      ],
      [
        "Ġ3",
        "19"
      ],
      [
        "Ġlo",
        "w"
      ],
      [
        "ĠM",
        "S"
      ],
      [
        "ĠF",
        "B"
      ],
      [
        "Ġ8",
        "8"
      ],
      [
        "Ġn",
        "av"
      ],
      [
        "ay",
        "er"
      ],
      [
        "ab",
        "les"
      ],
      [
        "Ġ24",
        "8"
      ],
      [
        "bo",
        "x"
      ],
      [
        "sc",
        "an"
      ],
      [
        "Ġu",
        "sed"
      ],
      [
        "ĠCon",
        "stan"
      ],
      [
        "ĠOther",
        "wise"
      ],
      [
        "4",
        "28"
      ],
      [
        "l",
        "ight"
      ],
      [
        "o",
        "a"
      ],
      [
        "w",
        "ave"
      ],
      [
        "Ġ",
        "Q"
      ],
      [
        "ĠL",
        "S"
      ],
      [
        "Ġs",
        "ame"
      ],
      [
        "Ġp",
        "at"
      ],
      [
        "Ġ1",
        "89"
      ],
      [
        "Ġd",
        "ot"
      ],
      [
        "ĠP",
        "ixel"
      ],
      [
        "Ġ3",
        "85"
      ],
      [
        "Ġf",
        "ixed"
      ],
      [
        "Ġv",
        "y"
      ],
      [
        "Ġe",
        "mpty"
      ],
      [
        "cl",
        "ick"
      ],
      [
        "Ġ11",
        "8"
      ],
      [
        "Ġanim",
        "ated"
      ],
      [
        "Ġbuffer",
        "s"
      ],
      [
        "Ġac",
        "ross"
      ],
      [
        "loc",
        "k"
      ],
      [
        "Ġdir",
        "ect"
      ],
      [
        "av",
        "a"
      ],
      [
        "Ġbl",
        "ack"
      ],
      [
        "wa",
        "ter"
      ],
      [
        "CP",
        "Y"
      ],
      [
        "N",
        "ORMAL"
      ],
      [
        "b",
        "right"
      ],
      [
        "c",
        "r"
      ],
      [
        "c",
        "cess"
      ],
      [
        "e",
        "q"
      ],
      [
        "f",
        "low"
      ],
      [
        "s",
        "tep"
      ],
      [
        "Ġr",
        "ec"
      ],
      [
        "Ġr",
        "ece"
      ],
      [
        "Ġ2",
        "77"
      ],
      [
        "Ġ2",
        "69"
      ],
      [
        "Ġ3",
        "50"
      ],
      [
        "OS",
        "E"
      ],
      [
        "Ġh",
        "ttp"
      ],
      [
        "ĠĠĠĠĠĠĠĠ",
        "ĠĠĠĠĠĠĠĠ"
      ],
      [
        "st",
        "ar"
      ],
      [
        "21",
        "6"
      ],
      [
        "ĠW",
        "a"
      ],
      [
        "play",
        "er"
      ],
      [
        "GE",
        "T"
      ],
      [
        "Ġcomple",
        "te"
      ],
      [
        "termin",
        "ate"
      ],
      [
        "sp",
        "ecif"
      ],
      [
        "Ġvi",
        "ew"
      ],
      [
        "Ġsa",
        "ved"
      ],
      [
        "ĠSt",
        "atus"
      ],
      [
        "Ġpoin",
        "ts"
      ],
      [
        "Ġacc",
        "ent"
      ],
      [
        "Ġbloc",
        "ks"
      ],
      [
        "ĠMA",
        "IN"
      ],
      [
        "Ġsqu",
        "are"
      ],
      [
        "ĠLO",
        "OP"
      ],
      [
        "ĠCont",
        "rols"
      ],
      [
        "Ġdetermin",
        "ed"
      ],
      [
        "Ġdimen",
        "sions"
      ],
      [
        "ĠMS",
        "G"
      ],
      [
        "1",
        "10"
      ],
      [
        "A",
        "I"
      ],
      [
        "E",
        "NT"
      ],
      [
        "a",
        "k"
      ],
      [
        "h",
        "elp"
      ],
      [
        "n",
        "x"
      ],
      [
        "o",
        "d"
      ],
      [
        "s",
        "ert"
      ],
      [
        "v",
        "al"
      ],
      [
        "y",
        "ellow"
      ],
      [
        "Ġr",
        "h"
      ],
      [
        "in",
        "c"
      ],
      [
        "Ġ2",
        "60"
      ],
      [
        "Ġ2",
        "94"
      ],
      [
        "Ġ3",
        "11"
      ],
      [
        "Ġ3",
        "78"
      ],
      [
        "Ġ3",
        "79"
      ],
      [
        "Ġ3",
        "64"
      ],
      [
        "Ġf",
        "ound"
      ],
      [
        "Ġv",
        "x"
      ],
      [
        "le",
        "te"
      ],
      [
        "Ġon",
        "ly"
      ],
      [
        "Ġ16",
        "0"
      ],
      [
        "ix",
        "er"
      ],
      [
        "xFF",
        "E"
      ],
      [
        "Ġhal",
        "f"
      ],
      [
        "Ġsu",
        "p"
      ],
      [
        "ad",
        "ing"
      ],
      [
        "Ġch",
        "ang"
      ],
      [
        "Ġad",
        "j"
      ],
      [
        "IN",
        "G"
      ],
      [
        "Ġ19",
        "6"
      ],
      [
        "id",
        "x"
      ],
      [
        "Ġgra",
        "ss"
      ],
      [
        "ĠE",
        "N"
      ],
      [
        "term",
        "ine"
      ],
      [
        "tern",
        "al"
      ],
      [
        "Ġbo",
        "th"
      ],
      [
        "gg",
        "le"
      ],
      [
        "vi",
        "ew"
      ],
      [
        "Ġopco",
        "des"
      ],
      [
        "Ġindic",
        "ated"
      ],
      [
        "Ġ....",
        ")"
      ],
      [
        "ĠMA",
        "P"
      ],
      [
        "Ġtim",
        "er"
      ],
      [
        "lobb",
        "ers"
      ],
      [
        "wh",
        "ite"
      ],
      [
        "Ġhoriz",
        "ontal"
      ],
      [
        "Ġmean",
        "s"
      ],
      [
        "tend",
        "ed"
      ],
      [
        "6",
        "100"
      ],
      [
        "A",
        "S"
      ],
      [
        "M",
        "ER"
      ],
      [
        "d",
        "ark"
      ],
      [
        "r",
        "up"
      ],
      [
        "ti",
        "es"
      ],
      [
        "th",
        "ing"
      ],
      [
        "ra",
        "ct"
      ],
      [
        "Ġd",
        "el"
      ],
      [
        "ĠP",
        "layer"
      ],
      [
        "el",
        "d"
      ],
      [
        "Ġ\"",
        "/"
      ],
      [
        "Ġ5",
        "7"
      ],
      [
        "qu",
        "it"
      ],
      [
        "Ġstor",
        "age"
      ],
      [
        "Ġap",
        "pl"
      ],
      [
        "Ġequal",
        "s"
      ],
      [
        "pro",
        "x"
      ],
      [
        "EM",
        "Y"
      ],
      [
        "Ġag",
        "ent"
      ],
      [
        "over",
        "lap"
      ],
      [
        "ĠAL",
        "ARM"
      ],
      [
        "Ġconfig",
        "ur"
      ],
      [
        "sign",
        "ed"
      ],
      [
        "specif",
        "ic"
      ],
      [
        "(",
        "\""
      ],
      [
        "4",
        "24"
      ],
      [
        "D",
        "O"
      ],
      [
        "I",
        "DE"
      ],
      [
        "s",
        "w"
      ],
      [
        "s",
        "ize"
      ],
      [
        "Ġc",
        "si"
      ],
      [
        "Ġp",
        "x"
      ],
      [
        "Ġ2",
        "78"
      ],
      [
        "Ġ2",
        "35"
      ],
      [
        "Ġco",
        "ls"
      ],
      [
        "ĠT",
        "AB"
      ],
      [
        "FF",
        "F"
      ],
      [
        "de",
        "bug"
      ],
      [
        "ar",
        "ed"
      ],
      [
        "ĠM",
        "EM"
      ],
      [
        "Ġh",
        "k"
      ],
      [
        "OP",
        "EN"
      ],
      [
        "Ġ8",
        "1"
      ],
      [
        "Ġon",
        "to"
      ],
      [
        "dition",
        "al"
      ],
      [
        "ĠB",
        "ack"
      ],
      [
        "up",
        "date"
      ],
      [
        "ĠDI",
        "SP"
      ],
      [
        "as",
        "semb"
      ],
      [
        "Ġdi",
        "agonal"
      ],
      [
        "Ġvari",
        "ables"
      ],
      [
        "ap",
        "pend"
      ],
      [
        "RE",
        "AD"
      ],
      [
        "Ġwrit",
        "ing"
      ],
      [
        "ĠâĶĢâĶĢâĶĢâĶĢâĶĢâĶĢâĶĢâĶĢâĶĢâĶĢâĶĢâĶĢâĶĢâĶĢâĶĢâĶĢâĶĢâĶĢâĶĢâĶĢâĶĢâĶĢâĶĢâĶĢâĶĢâĶĢâĶĢâĶĢâĶĢâĶĢâĶĢâĶĢ",
        "âĶĢâĶĢâĶĢâĶĢâĶĢâĶĢâĶĢâĶĢâĶĢâĶĢâĶĢâĶĢâĶĢâĶĢâĶĢâĶĢ"
      ],
      [
        "ROW",
        "S"
      ],
      [
        "Ġinter",
        "rup"
      ],
      [
        "Ġpr",
        "int"
      ],
      [
        "Ġstar",
        "ts"
      ],
      [
        "Ġregion",
        "s"
      ],
      [
        "ĠSc",
        "reen"
      ],
      [
        "ĠPro",
        "cess"
      ],
      [
        "Ġremain",
        "ing"
      ],
      [
        "ech",
        "o"
      ],
      [
        "RIT",
        "E"
      ],
      [
        "li",
        "ke"
      ],
      [
        ")",
        "->"
      ],
      [
        "5",
        "100"
      ],
      [
        "L",
        "A"
      ],
      [
        "O",
        "D"
      ],
      [
        "S",
        "L"
      ],
      [
        "V",
        "AL"
      ],
      [
        "c",
        "ur"
      ],
      [
        "d",
        "n"
      ],
      [
        "l",
        "ib"
      ],
      [
        "m",
        "t"
      ],
      [
        "v",
        "ice"
      ],
      [
        "ĠL",
        "e"
      ],
      [
        "Ġc",
        "ap"
      ],
      [
        "Ġp",
        "lot"
      ],
      [
        "ra",
        "ry"
      ],
      [
        "Ġd",
        "p"
      ],
      [
        "Ġ3",
        "17"
      ],
      [
        "Ġ3",
        "22"
      ],
      [
        "Ġ8",
        "6"
      ],
      [
        "ac",
        "tive"
      ],
      [
        "SE",
        "L"
      ],
      [
        "Ġar",
        "g"
      ],
      [
        "ri",
        "pe"
      ],
      [
        "xB",
        "E"
      ],
      [
        "Ġli",
        "b"
      ],
      [
        "Ġli",
        "ght"
      ],
      [
        "780",
        "1"
      ],
      [
        "ĠâĶĢâĶĢâĶĢâĶĢâĶĢâĶĢâĶĢâĶĢâĶĢâĶĢâĶĢâĶĢâĶĢâĶĢâĶĢâĶĢâĶĢâĶĢâĶĢâĶĢâĶĢâĶĢâĶĢâĶĢâĶĢâĶĢâĶĢâĶĢâĶĢâĶĢâĶĢâĶĢ",
        "âĶĢâĶĢâĶĢâĶĢâĶĢâĶĢâĶĢâĶĢâĶĢâĶĢâĶĢâĶĢâĶĢâĶĢâĶĢâĶĢâĶĢâĶĢâĶĢâĶĢâĶĢâĶĢâĶĢâĶĢâĶĢâĶĢâĶĢâĶĢâĶĢâĶĢâĶĢâĶĢ"
      ],
      [
        "ĠSt",
        "ate"
      ],
      [
        "Ġtas",
        "k"
      ],
      [
        "Ġty",
        "p"
      ],
      [
        "Ġrun",
        "s"
      ],
      [
        "ĠCon",
        "vert"
      ],
      [
        "ĠMo",
        "ve"
      ],
      [
        "Ġvisi",
        "ble"
      ],
      [
        "ĠRegis",
        "ter"
      ],
      [
        "ĠEN",
        "EMY"
      ],
      [
        "0",
        "30"
      ],
      [
        "c",
        "mp"
      ],
      [
        "f",
        "ound"
      ],
      [
        "i",
        "eld"
      ],
      [
        "k",
        "y"
      ],
      [
        "m",
        "er"
      ],
      [
        "r",
        "t"
      ],
      [
        "t",
        "ri"
      ],
      [
        "w",
        "idth"
      ],
      [
        "DI",
        "V"
      ],
      [
        "on",
        "th"
      ],
      [
        "ĠS",
        "P"
      ],
      [
        "Ġc",
        "lose"
      ],
      [
        "Ġco",
        "mb"
      ],
      [
        "Ġ3",
        "76"
      ],
      [
        "Ġ3",
        "38"
      ],
      [
        "un",
        "known"
      ],
      [
        "ĠA",
        "ctually"
      ],
      [
        "ĠD",
        "emonstrates"
      ],
      [
        "at",
        "ures"
      ],
      [
        "us",
        "age"
      ],
      [
        "Ġh",
        "l"
      ],
      [
        "ĠF",
        "ILE"
      ],
      [
        "ver",
        "se"
      ],
      [
        "Ġsc",
        "ale"
      ],
      [
        "Ġg",
        "o"
      ],
      [
        "Ġ.",
        "."
      ],
      [
        "55",
        "55"
      ],
      [
        "Ġ14",
        "4"
      ],
      [
        "om",
        "m"
      ],
      [
        "Ġ19",
        "2"
      ],
      [
        "Ġrender",
        "s"
      ],
      [
        "SI",
        "ZE"
      ],
      [
        "col",
        "lision"
      ],
      [
        "mo",
        "d"
      ],
      [
        "ĠO",
        "p"
      ],
      [
        "Ġdef",
        "ines"
      ],
      [
        "Ġsa",
        "ves"
      ],
      [
        "Ġcy",
        "an"
      ],
      [
        "Ġz",
        "oom"
      ],
      [
        "Ġqu",
        "it"
      ],
      [
        "ĠOP",
        "EN"
      ],
      [
        "Ġwal",
        "k"
      ],
      [
        "du",
        "ated"
      ],
      [
        "Ġmultiply",
        "ing"
      ],
      [
        "idd",
        "en"
      ],
      [
        "ĠRUN",
        "N"
      ],
      [
        "Ġunc",
        "on"
      ],
      [
        "Ġrece",
        "i"
      ],
      [
        "IDE",
        "R"
      ],
      [
        "*",
        "*"
      ],
      [
        "b",
        "iome"
      ],
      [
        "c",
        "ed"
      ],
      [
        "e",
        "ed"
      ],
      [
        "f",
        "ocus"
      ],
      [
        "h",
        "ost"
      ],
      [
        "o",
        "i"
      ],
      [
        "p",
        "atch"
      ],
      [
        "s",
        "ec"
      ],
      [
        "t",
        "rl"
      ],
      [
        "ĠS",
        "EL"
      ],
      [
        "Ġs",
        "x"
      ],
      [
        "or",
        "k"
      ],
      [
        "Ġco",
        "s"
      ],
      [
        "Ġd",
        "c"
      ],
      [
        "Ġ3",
        "10"
      ],
      [
        "de",
        "mo"
      ],
      [
        "ĠX",
        "X"
      ],
      [
        "Ġh",
        "elp"
      ],
      [
        "Ġ6",
        "3"
      ],
      [
        "Ġ12",
        "6"
      ],
      [
        "ĠB",
        "ar"
      ],
      [
        "xC",
        "CC"
      ],
      [
        "Ġcont",
        "ains"
      ],
      [
        "Ġ9",
        "6"
      ],
      [
        "Ġ24",
        "2"
      ],
      [
        "Ġne",
        "ar"
      ],
      [
        "Ġgra",
        "v"
      ],
      [
        "Ġgra",
        "dient"
      ],
      [
        "Ġde",
        "pending"
      ],
      [
        "sh",
        "ot"
      ],
      [
        "Ġ*",
        "*"
      ],
      [
        "Ġal",
        "arm"
      ],
      [
        "rit",
        "es"
      ],
      [
        "06",
        "00"
      ],
      [
        "Ġbo",
        "und"
      ],
      [
        "Ġdet",
        "ail"
      ],
      [
        "Ġwait",
        "ing"
      ],
      [
        "esc",
        "ape"
      ],
      [
        "wa",
        "it"
      ],
      [
        "ĠIN",
        "IT"
      ]
    ]
  }
}