{
  "version": "1.0",
  "truncation": null,
  "padding": null,
  "added_tokens": [
    {
      "id": 0,
      "content": "<UNK>",
      "single_word": false,
      "lstrip": false,
      "rstrip": false,
      "normalized": false,
      "special": true
    },
    {
      "id": 1,
      "content": "<PAD>",
      "single_word": false,
      "lstrip": false,
      "rstrip": false,
      "normalized": false,
      "special": true
    },
    {
      "id": 2,
      "content": "<BOS>",
      "single_word": false,
      "lstrip": false,
      "rstrip": false,
      "normalized": false,
      "special": true
    },
    {
      "id": 3,
      "content": "<EOS>",
      "single_word": false,
      "lstrip": false,
      "rstrip": false,
      "normalized": false,
      "special": true
    },
    {
      "id": 4,
      "content": "<NL>",
      "single_word": false,
      "lstrip": false,
      "rstrip": false,
      "normalized": false,
      "special": true
    }
  ],
  "normalizer": null,
  "pre_tokenizer": {
    "type": "Whitespace"
  },
  "post_processor": null,
  "decoder": null,
  "model": {
    "type": "BPE",
    "dropout": null,
    "unk_token": "<UNK>",
    "continuing_subword_prefix": null,
    "end_of_word_suffix": null,
    "fuse_unk": false,
    "byte_fallback": false,
    "ignore_merges": false,
    "vocab": {
      "<UNK>": 0,
      "<PAD>": 1,
      "<BOS>": 2,
      "<EOS>": 3,
      "<NL>": 4,
      "!": 5,
      "\"": 6,
      "#": 7,
      "$": 8,
      "%": 9,
      "&": 10,
      "'": 11,
      "(": 12,
      ")": 13,
      "*": 14,
      "+": 15,
      ",": 16,
      "-": 17,
      ".": 18,
      "/": 19,
      "0": 20,
      "1": 21,
      "2": 22,
      "3": 23,
      "4": 24,
      "5": 25,
      "6": 26,
      "7": 27,
      "8": 28,
      "9": 29,
      ":": 30,
      ";": 31,
      "<": 32,
      "=": 33,
      ">": 34,
      "?": 35,
      "@": 36,
      "A": 37,
      "B": 38,
      "C": 39,
      "D": 40,
      "E": 41,
      "F": 42,
      "G": 43,
      "H": 44,
      "I": 45,
      "J": 46,
      "K": 47,
      "L": 48,
      "M": 49,
      "N": 50,
      "O": 51,
      "P": 52,
      "Q": 53,
      "R": 54,
      "S": 55,
      "T": 56,
      "U": 57,
      "V": 58,
      "W": 59,
      "X": 60,
      "Y": 61,
      "Z": 62,
      "[": 63,
      "\\": 64,
      "]": 65,
      "^": 66,
      "_": 67,
      "`": 68,
      "a": 69,
      "b": 70,
      "c": 71,
      "d": 72,
      "e": 73,
      "f": 74,
      "g": 75,
      "h": 76,
      "i": 77,
      "j": 78,
      "k": 79,
      "l": 80,
      "m": 81,
      "n": 82,
      "o": 83,
      "p": 84,
      "q": 85,
      "r": 86,
      "s": 87,
      "t": 88,
      "u": 89,
      "v": 90,
      "w": 91,
      "x": 92,
      "y": 93,
      "z": 94,
      "{": 95,
      "|": 96,
      "}": 97,
      "~": 98,
      "±": 99,
      "—": 100,
      "→": 101,
      "≈": 102,
      "─": 103,
      "═": 104,
      "✓": 105,
      "t_": 106,
      "ne": 107,
      "00": 108,
      "r1": 109,
      "re": 110,
      "r2": 111,
      "DI": 112,
      "==": 113,
      "do": 114,
      "LDI": 115,
      "_c": 116,
      "te": 117,
      "in": 118,
      "en": 119,
      "op": 120,
      "_s": 121,
      "lo": 122,
      "ra": 123,
      "══": 124,
      "_do": 125,
      "ar": 126,
      "le": 127,
      "he": 128,
      "ro": 129,
      "_done": 130,
      "no": 131,
      "st": 132,
      "se": 133,
      "====": 134,
      "AD": 135,
      "loop": 136,
      "──": 137,
      "ck": 138,
      "d_": 139,
      "de": 140,
      "RE": 141,
      "r_": 142,
      "ST": 143,
      "dra": 144,
      "p_": 145,
      "0x": 146,
      "STO": 147,
      "STORE": 148,
      "al": 149,
      "an": 150,
      "it": 151,
      "ADD": 152,
      "r20": 153,
      "w_": 154,
      "ve": 155,
      "════": 156,
      "on": 157,
      "r3": 158,
      "y_": 159,
      "ch": 160,
      "di": 161,
      "at": 162,
      "ri": 163,
      "10": 164,
      "r0": 165,
      "ent_": 166,
      "heck": 167,
      "r4": 168,
      "s_": 169,
      "me": 170,
      "ce": 171,
      "to": 172,
      "la": 173,
      "il": 174,
      "r7": 175,
      "or": 176,
      "30": 177,
      "un": 178,
      "pa": 179,
      "_loop": 180,
      "20": 181,
      "li": 182,
      "MP": 183,
      "l_": 184,
      "========": 185,
      "nex": 186,
      "40": 187,
      "25": 188,
      "co": 189,
      "hi": 190,
      "11": 191,
      "c_": 192,
      "ki": 193,
      "────": 194,
      "not_": 195,
      "bu": 196,
      "er": 197,
      "ate": 198,
      "33": 199,
      "row": 200,
      "22": 201,
      "si": 202,
      "heck_": 203,
      "draw_": 204,
      "44": 205,
      "mp": 206,
      "ti": 207,
      "80": 208,
      "0000": 209,
      "up": 210,
      "b_": 211,
      "sc": 212,
      "ad": 213,
      "wn": 214,
      "ok": 215,
      "_co": 216,
      "tr": 217,
      "ho": 218,
      "--": 219,
      "ta": 220,
      "ter": 221,
      "ag": 222,
      "do_": 223,
      "m_": 224,
      "════════": 225,
      "it_": 226,
      "k_": 227,
      "FF": 228,
      "ing": 229,
      "line": 230,
      "r5": 231,
      "r10": 232,
      "ur": 233,
      "mo": 234,
      "next": 235,
      "r6": 236,
      "draw": 237,
      "66": 238,
      "CMP": 239,
      "gh": 240,
      "88": 241,
      "000": 242,
      "bl": 243,
      "cm": 244,
      "50": 245,
      "14": 246,
      "sg": 247,
      "_p": 248,
      "us": 249,
      "lear": 250,
      "24": 251,
      "ren": 252,
      "LO": 253,
      "ave": 254,
      "no_": 255,
      "r17": 256,
      "lp": 257,
      "kip": 258,
      "v_": 259,
      "and": 260,
      "18": 261,
      "el": 262,
      "r11": 263,
      "fi": 264,
      "12": 265,
      "16": 266,
      "fo": 267,
      "55": 268,
      "ap": 269,
      "x_": 270,
      "LOAD": 271,
      "ul": 272,
      "check_": 273,
      "ex": 274,
      "pla": 275,
      "r9": 276,
      "cmd_": 277,
      "r12": 278,
      "as": 279,
      "ut": 280,
      "================": 281,
      "ft": 282,
      "32": 283,
      "────────": 284,
      "done": 285,
      "opy": 286,
      "buf": 287,
      "r18": 288,
      "se_": 289,
      "rende": 290,
      "ss": 291,
      "gre": 292,
      "fa": 293,
      "99": 294,
      "pe": 295,
      "17": 296,
      "rite": 297,
      "LL": 298,
      "ght": 299,
      "_st": 300,
      "JMP": 301,
      "pb": 302,
      "13": 303,
      "ut_": 304,
      "r21": 305,
      "kip_": 306,
      "15": 307,
      "MO": 308,
      "end": 309,
      "is": 310,
      "po": 311,
      "ge": 312,
      "pi": 313,
      "_check_": 314,
      "agent_": 315,
      "next_": 316,
      "move": 317,
      "init_": 318,
      "par": 319,
      "_col": 320,
      "r14": 321,
      "r15": 322,
      "ze": 323,
      "str": 324,
      "dig": 325,
      "r22": 326,
      "ty": 327,
      "chk_": 328,
      "ke": 329,
      "st_": 330,
      "28": 331,
      "opy_": 332,
      "ame": 333,
      "CA": 334,
      "try_": 335,
      "urs": 336,
      "RA": 337,
      "60": 338,
      "pro": 339,
      "78": 340,
      "CALL": 341,
      "left": 342,
      "gra": 343,
      "ed": 344,
      "MOV": 345,
      "tab": 346,
      "ent_agent_": 347,
      "_re": 348,
      "_csi": 349,
      "date": 350,
      "the": 351,
      "ct": 352,
      "write": 353,
      "le_": 354,
      "bo": 355,
      "19": 356,
      "sho": 357,
      "sto": 358,
      "by": 359,
      "art": 360,
      "es": 361,
      "ma": 362,
      "100": 363,
      "════════════════": 364,
      "ent": 365,
      "ct_": 366,
      "r13": 367,
      "_sto": 368,
      "n_": 369,
      "pat_": 370,
      "_skip": 371,
      "right": 372,
      "skip_": 373,
      "pb_csi": 374,
      "sgr_": 375,
      "all": 376,
      "_check": 377,
      "CMPI": 378,
      "app": 379,
      "43": 380,
      "lor": 381,
      "fil": 382,
      "JZ": 383,
      "clear": 384,
      "_down": 385,
      "_se": 386,
      "pace": 387,
      "_store": 388,
      "90": 389,
      "256": 390,
      "_clear": 391,
      "ue": 392,
      "_lp": 393,
      "ver": 394,
      "38": 395,
      "wa": 396,
      "cu": 397,
      "76": 398,
      "_ch": 399,
      "end_": 400,
      "48": 401,
      "JN": 402,
      "JNZ": 403,
      "store": 404,
      "_copy": 405,
      "mi": 406,
      "render_": 407,
      "ll": 408,
      "inp": 409,
      "ci": 410,
      "_sc": 411,
      "byte": 412,
      "th": 413,
      "g_": 414,
      "t_done": 415,
      "ion": 416,
      "tex": 417,
      "ase": 418,
      "save": 419,
      "77": 420,
      "_b": 421,
      "buil": 422,
      "70": 423,
      "RO": 424,
      "rame": 425,
      "msg": 426,
      "SH": 427,
      "res": 428,
      "reen": 429,
      "zero": 430,
      "skip": 431,
      "fail": 432,
      "200": 433,
      "ts": 434,
      "ab": 435,
      "red": 436,
      "r8": 437,
      "mc_": 438,
      "neg": 439,
      "53": 440,
      "r16": 441,
      "ret": 442,
      "h_": 443,
      "r25": 444,
      "pat": 445,
      "BU": 446,
      "for": 447,
      "cal": 448,
      "tt": 449,
      "or_": 450,
      "con": 451,
      "tail": 452,
      "frame": 453,
      "pos": 454,
      "cd": 455,
      "digit": 456,
      "win": 457,
      "pb_csi_": 458,
      "bar": 459,
      "37": 460,
      "TE": 461,
      "SE": 462,
      "da": 463,
      "show_": 464,
      "ds": 465,
      "try": 466,
      "run": 467,
      "BUF": 468,
      "set_": 469,
      "35": 470,
      "bi": 471,
      "mm_": 472,
      "pre": 473,
      "stru": 474,
      "nt": 475,
      "_shi": 476,
      "R_": 477,
      "SU": 478,
      "0xFF": 479,
      "OP": 480,
      "SC": 481,
      "ADDI": 482,
      "play": 483,
      "check": 484,
      "wit": 485,
      "parse": 486,
      "SUB": 487,
      "per": 488,
      "low": 489,
      "dir": 490,
      "text": 491,
      "im": 492,
      "arch": 493,
      "update": 494,
      "go": 495,
      "age": 496,
      "htt": 497,
      "_con": 498,
      "copy_": 499,
      "────────────────": 500,
      "key": 501,
      "26": 502,
      "wate": 503,
      "green": 504,
      "ursor": 505,
      "----": 506,
      "code": 507,
      "pb_": 508,
      "LT": 509,
      "vi": 510,
      "RAM": 511,
      "bt": 512,
      "struct_": 513,
      "_space": 514,
      "inc": 515,
      "of": 516,
      "is_": 517,
      "add": 518,
      "ce_": 519,
      "render": 520,
      "34": 521,
      "csi": 522,
      "start": 523,
      "mc_25": 524,
      "lines": 525,
      "oo": 526,
      "in_": 527,
      "unt": 528,
      "pawn": 529,
      "debu": 530,
      "bri": 531,
      "r23": 532,
      "out": 533,
      "wu": 534,
      "state": 535,
      "rc": 536,
      "be": 537,
      "qu": 538,
      "af": 539,
      "pv_": 540,
      "74": 541,
      "CO": 542,
      "ol": 543,
      "set": 544,
      "r19": 545,
      "36": 546,
      "min": 547,
      "fin": 548,
      "xel": 549,
      "cti": 550,
      "_cm": 551,
      "95": 552,
      "_t": 553,
      "mon": 554,
      "ND": 555,
      "t_loop": 556,
      "mple": 557,
      "usage": 558,
      "dy_": 559,
      "adv": 560,
      "hi_": 561,
      "r31": 562,
      "cc": 563,
      "clear_": 564,
      "down": 565,
      "ull": 566,
      "und": 567,
      "ter_": 568,
      "21": 569,
      "enter": 570,
      "..": 571,
      "um": 572,
      "256_": 573,
      "ute": 574,
      "_str": 575,
      "div": 576,
      "name": 577,
      "42": 578,
      "hex_": 579,
      "color": 580,
      "cla": 581,
      "emp": 582,
      "reg": 583,
      "XT": 584,
      "hl_": 585,
      "screen": 586,
      "id": 587,
      "_copy_": 588,
      "new": 589,
      "i_": 590,
      "me_": 591,
      "water": 592,
      "scro": 593,
      "56": 594,
      "ursor_": 595,
      "_x": 596,
      "fine": 597,
      "dec": 598,
      "_cl": 599,
      "atch": 600,
      "ad_": 601,
      "atu": 602,
      "s256_": 603,
      "39": 604,
      "ard": 605,
      "POP": 606,
      "pixel": 607,
      "empty": 608,
      "500": 609,
      "dx_": 610,
      "blue": 611,
      "79": 612,
      "rm": 613,
      "cl": 614,
      "parse_": 615,
      "240": 616,
      "chk": 617,
      "vis": 618,
      "arg": 619,
      "to_": 620,
      "write_": 621,
      "os": 622,
      "tile": 623,
      "row_": 624,
      "TI": 625,
      "ran": 626,
      "fer": 627,
      "wave": 628,
      "define": 629,
      "PU": 630,
      "ack": 631,
      "ult": 632,
      "808": 633,
      "_cmd": 634,
      "cdl": 635,
      "spawn": 636,
      "wor": 637,
      "ca": 638,
      "nx": 639,
      "tin": 640,
      "build": 641,
      "tk_": 642,
      "et_": 643,
      "time": 644,
      "49": 645,
      "ss_": 646,
      "bld": 647,
      "cro": 648,
      "read": 649,
      "PUSH": 650,
      "tep": 651,
      "wc_": 652,
      "cmd_is_": 653,
      "btn_": 654,
      "1000": 655,
      "TEXT": 656,
      "exe": 657,
      "anim": 658,
      "mode": 659,
      "UL": 660,
      "key_": 661,
      "atus": 662,
      "CT": 663,
      "MUL": 664,
      "input": 665,
      "ile": 666,
      "test": 667,
      "ght_": 668,
      "BLT": 669,
      "input_": 670,
      "300": 671,
      "dis": 672,
      "fill": 673,
      "dn": 674,
      "do_s": 675,
      "y_loop": 676,
      "move_": 677,
      "ted": 678,
      "save_": 679,
      "df": 680,
      "rh_": 681,
      "wait": 682,
      "http": 683,
      "_next": 684,
      "val": 685,
      "dr": 686,
      "fill_": 687,
      "hist_": 688,
      "ds_": 689,
      "edi": 690,
      "grep": 691,
      "64": 692,
      "grep_": 693,
      "mpute": 694,
      "75": 695,
      "esc": 696,
      "va": 697,
      "29": 698,
      "append_": 699,
      "pass": 700,
      "780": 701,
      "file": 702,
      "84": 703,
      "debug": 704,
      "GE": 705,
      "place": 706,
      "mc": 707,
      "main": 708,
      "hex": 709,
      "mpt": 710,
      "path": 711,
      "_pro": 712,
      "_start": 713,
      "str_": 714,
      "ation": 715,
      "================================": 716,
      "ser": 717,
      "510": 718,
      "buffer": 719,
      "focu": 720,
      "0x4": 721,
      "00000000": 722,
      "focus_": 723,
      "cv_": 724,
      "newline": 725,
      "dy": 726,
      "s_done": 727,
      "_pos": 728,
      "match": 729,
      "_skip_": 730,
      "lock": 731,
      "edit_": 732,
      "110": 733,
      "030": 734,
      "040": 735,
      "31": 736,
      "RECT": 737,
      "parse_p": 738,
      "dr_": 739,
      "whi": 740,
      "700": 741,
      "hy": 742,
      "with": 743,
      "init": 744,
      "pervis": 745,
      "hypervis": 746,
      "over": 747,
      "char": 748,
      "digit_": 749,
      "lab": 750,
      "_color": 751,
      "69": 752,
      "RECTF": 753,
      "sp": 754,
      "========================================": 755,
      "dp_": 756,
      "label": 757,
      "lay": 758,
      "08": 759,
      "colo": 760,
      "tit": 761,
      "65": 762,
      "pe_": 763,
      "col": 764,
      "_scan": 765,
      "build_": 766,
      "cp": 767,
      "err": 768,
      "DE": 769,
      "hp_": 770,
      "mp_": 771,
      "_search": 772,
      "ory": 773,
      "ai_": 774,
      "RET": 775,
      "ent_g": 776,
      "lick": 777,
      "COL": 778,
      "STRO": 779,
      "ll_": 780,
      "fn": 781,
      "len": 782,
      "advan": 783,
      "ub": 784,
      "ark": 785,
      "cs": 786,
      "c_done": 787,
      "gram": 788,
      "41": 789,
      "23": 790,
      "restore": 791,
      "wall": 792,
      "rst": 793,
      "use": 794,
      "45": 795,
      "exp": 796,
      "=========================================": 797,
      "get_": 798,
      "white": 799,
      "fro": 800,
      "bio": 801,
      "ning": 802,
      "════════════════════════════════": 803,
      "wra": 804,
      "zoo": 805,
      "hu": 806,
      "back": 807,
      "ink": 808,
      "bit": 809,
      "cursor": 810,
      "72": 811,
      "from": 812,
      "BGE": 813,
      "Re": 814,
      "2_": 815,
      "cil": 816,
      "x_loop": 817,
      "_cursor_": 818,
      "top": 819,
      "next_row": 820,
      "cle": 821,
      "star": 822,
      "r_loop": 823,
      "al_": 824,
      "IN": 825,
      "not": 826,
      "sion": 827,
      "faile": 828,
      "_char": 829,
      "ph": 830,
      "255": 831,
      "_shift": 832,
      "scroll": 833,
      "530": 834,
      "cy": 835,
      "copy": 836,
      "_cla": 837,
      "stri": 838,
      "outp": 839,
      "url_": 840,
      "cn": 841,
      "_save": 842,
      "ch_": 843,
      "pipe": 844,
      "ys": 845,
      "gm_": 846,
      "sel_": 847,
      "sb_": 848,
      "sa": 849,
      "OR": 850,
      "gle": 851,
      "020": 852,
      "_BUF": 853,
      "ition": 854,
      "ext": 855,
      "128": 856,
      "FFFF": 857,
      "hand": 858,
      "tern": 859,
      "found": 860,
      "120": 861,
      "num": 862,
      "pon": 863,
      "grass": 864,
      "170": 865,
      "410": 866,
      "yel": 867,
      "_si": 868,
      "418": 869,
      "428": 870,
      "430": 871,
      "ps": 872,
      "lose": 873,
      "mm": 874,
      "---": 875,
      "game": 876,
      "blend": 877,
      "CH": 878,
      "LE": 879,
      "brick": 880,
      "800": 881,
      "Ge": 882,
      "d_loop": 883,
      "d_done": 884,
      "0x6": 885,
      "pr": 886,
      "ent_render_": 887,
      "tile_": 888,
      "first": 889,
      "lava": 890,
      "host_": 891,
      "after": 892,
      "failed": 893,
      "att_": 894,
      "im_": 895,
      "3333": 896,
      "find_": 897,
      "r26": 898,
      "ali": 899,
      "_set": 900,
      "acti": 901,
      "cb": 902,
      "97": 903,
      "quit": 904,
      "compute": 905,
      "fw_": 906,
      "mm_ent_": 907,
      "load": 908,
      "rh": 909,
      "nts_": 910,
      "_msg": 911,
      "null": 912,
      "not_p": 913,
      "85": 914,
      "AND": 915,
      "73": 916,
      "114": 917,
      "310": 918,
      "47": 919,
      "program": 920,
      "71": 921,
      "cmd": 922,
      "enter_": 923,
      "2222": 924,
      "yellow": 925,
      "600": 926,
      "coun": 927,
      "display": 928,
      "433": 929,
      "624": 930,
      "RI": 931,
      "424": 932,
      "are": 933,
      "ort": 934,
      "93": 935,
      "r24": 936,
      "der": 937,
      "_cursor": 938,
      "fe": 939,
      "4444": 940,
      "append": 941,
      "has": 942,
      "p_done": 943,
      "cho": 944,
      "dc_": 945,
      "dark": 946,
      "reset_": 947,
      "ls": 948,
      "csi_cursor_": 949,
      "amon": 950,
      "non": 951,
      "space": 952,
      "inde": 953,
      "_sp": 954,
      "esc_": 955,
      "sgr_bri": 956,
      "sgr_bright_": 957,
      "diamon": 958,
      "hist": 959,
      "spawn_": 960,
      "_cre": 961,
      "base": 962,
      "redi": 963,
      "calc_": 964,
      "--------": 965,
      "asc": 966,
      "_status": 967,
      "title": 968,
      "_y": 969,
      "_ok": 970,
      "animal": 971,
      "_fail": 972,
      "cb_": 973,
      "_count": 974,
      "atus_": 975,
      "index": 976,
      "PSE": 977,
      "kno": 978,
      "mt": 979,
      "head_": 980,
      "sin": 981,
      "int": 982,
      "zoom_": 983,
      "ber": 984,
      "ent_agent_ho": 985,
      "mar": 986,
      "_sho": 987,
      "_conte": 988,
      "ene": 989,
      "show": 990,
      "known": 991,
      "150": 992,
      "cp_": 993,
      "mk_": 994,
      "sn_": 995,
      "_c1": 996,
      "rain": 997,
      "pv_op": 998,
      "220": 999,
      "r27": 1000,
      "54": 1001,
      "rows": 1002,
      "mul": 1003,
      "ON": 1004,
      "if": 1005,
      "gri": 1006,
      "533": 1007,
      "drag": 1008,
      "do_re": 1009,
      "83": 1010,
      "sel": 1011,
      "OS": 1012,
      "fun": 1013,
      "0x0": 1014,
      "count": 1015,
      "0x00": 1016,
      "off": 1017,
      "opcode": 1018,
      "result": 1019,
      "sem": 1020,
      "scan": 1021,
      "abs": 1022,
      "pattern": 1023,
      "r28": 1024,
      "_3": 1025,
      "nonzero": 1026,
      "81": 1027,
      "core": 1028,
      "116": 1029,
      "unknown": 1030,
      "proce": 1031,
      "eq": 1032,
      "_coun": 1033,
      "_screen": 1034,
      "bldg_": 1035,
      "open": 1036,
      "AR": 1037,
      "main_loop": 1038,
      "_prompt": 1039,
      "ction": 1040,
      "no_c": 1041,
      "era": 1042,
      "ment": 1043,
      "101": 1044,
      "pick": 1045,
      "active": 1046,
      "position": 1047,
      "assem": 1048,
      "AN": 1049,
      "hit": 1050,
      "tool": 1051,
      "light": 1052,
      "cross": 1053,
      "bot": 1054,
      "prev_": 1055,
      "pb_esc_": 1056,
      "wd": 1057,
      "rect_": 1058,
      "mc_check_": 1059,
      "toolti": 1060,
      "pn": 1061,
      "SI": 1062,
      "b_loop": 1063,
      "dx": 1064,
      "up_": 1065,
      "ush": 1066,
      "ly": 1067,
      "lp_": 1068,
      "ner": 1069,
      "draw_win": 1070,
      "http_": 1071,
      "asci": 1072,
      "68": 1073,
      "03": 1074,
      "call_": 1075,
      "_shif": 1076,
      "ill": 1077,
      "block": 1078,
      "8888": 1079,
      "buf_": 1080,
      "update_": 1081,
      "The": 1082,
      "ice": 1083,
      "raw": 1084,
      "),": 1085,
      "we": 1086,
      "store_": 1087,
      "_copy_done": 1088,
      "dt_": 1089,
      "ot": 1090,
      "step": 1091,
      "search": 1092,
      "cat_": 1093,
      "ent_agent_home_": 1094,
      "FRAM": 1095,
      "gd_": 1096,
      "woo": 1097,
      "pat_di": 1098,
      "now": 1099,
      "running": 1100,
      "advance_": 1101,
      "52": 1102,
      "67": 1103,
      "cted": 1104,
      "tnot": 1105,
      "status_": 1106,
      "chk_p": 1107,
      "wu_": 1108,
      "chk_s": 1109,
      "biome": 1110,
      "FRAME": 1111,
      "tur": 1112,
      "mine": 1113,
      "mmand": 1114,
      "px": 1115,
      "Draw": 1116,
      "sk": 1117,
      "his": 1118,
      "Check": 1119,
      "COLS": 1120,
      "CU": 1121,
      "one": 1122,
      "uto": 1123,
      "0xF": 1124,
      "dirty": 1125,
      "130": 1126,
      "ece": 1127,
      "In": 1128,
      "TCH": 1129,
      "050": 1130,
      "96": 1131,
      "bldg": 1132,
      "rest": 1133,
      "ild": 1134,
      "number": 1135,
      "ight": 1136,
      "idle": 1137,
      "82": 1138,
      "fl": 1139,
      "ROW": 1140,
      "mag": 1141,
      "pop": 1142,
      "=====": 1143,
      "0000000": 1144,
      "urren": 1145,
      "norm": 1146,
      "digits": 1147,
      "400": 1148,
      "conto": 1149,
      "1111": 1150,
      "550": 1151,
      "ath": 1152,
      "termin": 1153,
      "tinue": 1154,
      "echo": 1155,
      "respon": 1156,
      "────────────────────────────────": 1157,
      "5555": 1158,
      "er_": 1159,
      "full": 1160,
      "ree": 1161,
      "ea": 1162,
      "iali": 1163,
      "DRA": 1164,
      "em": 1165,
      "lu": 1166,
      "player": 1167,
      "NE": 1168,
      "ror": 1169,
      "cdc": 1170,
      "_continue": 1171,
      "_sprite": 1172,
      "history": 1173,
      "27": 1174,
      "rw": 1175,
      "bly": 1176,
      "RATCH": 1177,
      "SCRATCH": 1178,
      "_clr": 1179,
      "92": 1180,
      "_sh": 1181,
      "lose_": 1182,
      "tion": 1183,
      "6666": 1184,
      "csi_": 1185,
      "CC": 1186,
      "Co": 1187,
      "goto": 1188,
      "uard": 1189,
      "ard_": 1190,
      "angle": 1191,
      "_creatu": 1192,
      "89": 1193,
      "tail_": 1194,
      "ister": 1195,
      "_chk": 1196,
      "div_loop": 1197,
      "hypervisor_": 1198,
      "PA": 1199,
      "cc_": 1200,
      "rl": 1201,
      "d_ok": 1202,
      "ries": 1203,
      "wait_": 1204,
      "740": 1205,
      "x_done": 1206,
      "place_": 1207,
      "_chk_": 1208,
      "_spaces": 1209,
      "_stri": 1210,
      "pbt_": 1211,
      "http_stri": 1212,
      "assembly": 1213,
      "_up": 1214,
      "cs_": 1215,
      "sp_": 1216,
      "wc": 1217,
      "help": 1218,
      "p_loop": 1219,
      "und_": 1220,
      "not_up": 1221,
      "error": 1222,
      "found_": 1223,
      "claim_": 1224,
      "cr_": 1225,
      "ent_pro": 1226,
      "_content": 1227,
      "wood": 1228,
      "dt": 1229,
      "hl": 1230,
      "ws": 1231,
      "rev": 1232,
      "dif": 1233,
      "cip_": 1234,
      "after_": 1235,
      "output": 1236,
      "url_parse_p": 1237,
      "aagent_": 1238,
      "bp_": 1239,
      "ld": 1240,
      "or3": 1241,
      "tra": 1242,
      "ent_aagent_": 1243,
      "tips": 1244,
      "x_ok": 1245,
      "run_": 1246,
      "usage_msg": 1247,
      "hl_tips": 1248,
      "redirect_": 1249,
      "DRAW": 1250,
      "ew": 1251,
      "4422": 1252,
      "type": 1253,
      "sep": 1254,
      "ata": 1255,
      "ten": 1256,
      "rate": 1257,
      "540": 1258,
      "87": 1259,
      "0044": 1260,
      "0xFFFFFF": 1261,
      "_reg": 1262,
      "TION": 1263,
      "->": 1264,
      "ity": 1265,
      "rat": 1266,
      "her": 1267,
      "ru": 1268,
      "ms": 1269,
      "ble": 1270,
      "cus": 1271,
      "0x2": 1272,
      "fault": 1273,
      "mark_": 1274,
      "CUR_": 1275,
      "table": 1276,
      "scroll_": 1277,
      "63": 1278,
      "alar": 1279,
      "swit": 1280,
      "bor": 1281,
      "rec": 1282,
      "tab_": 1283,
      "cr": 1284,
      "wan": 1285,
      "hypervisor": 1286,
      "sin_": 1287,
      "phase": 1288,
      "Se": 1289,
      "DESC": 1290,
      "stripe": 1291,
      "DRAWTEXT": 1292,
      "lision": 1293,
      "SHR": 1294,
      "RIP": 1295,
      "ib": 1296,
      "tree": 1297,
      "head": 1298,
      "DESCRIP": 1299,
      "DESCRIPTION": 1300,
      "cursor_": 1301,
      "data": 1302,
      "asm": 1303,
      "escap": 1304,
      "sq": 1305,
      "to_str": 1306,
      "lap": 1307,
      "hash": 1308,
      "46": 1309,
      "db": 1310,
      "═══": 1311,
      "cel": 1312,
      "cep": 1313,
      "GeOS": 1314,
      "P_": 1315,
      "94": 1316,
      "_2": 1317,
      "have": 1318,
      "default": 1319,
      "dsb_": 1320,
      "view": 1321,
      "can": 1322,
      "spe": 1323,
      "entries": 1324,
      "debug_": 1325,
      "02": 1326,
      "score": 1327,
      "handle_": 1328,
      "hm": 1329,
      "circ": 1330,
      "sample": 1331,
      "ascii": 1332,
      "click": 1333,
      "ypre": 1334,
      "new_": 1335,
      "pb_check_": 1336,
      "board": 1337,
      "name_done": 1338,
      "sky_": 1339,
      "botto": 1340,
      "at_": 1341,
      "n_done": 1342,
      "string": 1343,
      "mc_check": 1344,
      "AA": 1345,
      "This": 1346,
      "so": 1347,
      "reset": 1348,
      "PSET": 1349,
      "kill": 1350,
      "sgr_ext": 1351,
      "response": 1352,
      "_creature": 1353,
      "che": 1354,
      "my_": 1355,
      "FF00": 1356,
      "9999": 1357,
      "_label": 1358,
      "dn_": 1359,
      "fla": 1360,
      "mg": 1361,
      "v_done": 1362,
      "l_ok": 1363,
      "_clear_": 1364,
      "color_": 1365,
      "_clamp": 1366,
      "1100": 1367,
      "cts_": 1368,
      "boun": 1369,
      "KE": 1370,
      "execu": 1371,
      "df_b": 1372,
      "06": 1373,
      "d_x": 1374,
      "═══════": 1375,
      "fix": 1376,
      "state_": 1377,
      "_pass": 1378,
      "ite": 1379,
      "tb": 1380,
      "_cp": 1381,
      "_do_": 1382,
      "arrow": 1383,
      "help_": 1384,
      "rot_": 1385,
      "d_y": 1386,
      "cell": 1387,
      "draw_h": 1388,
      "draw_v": 1389,
      "_shift_done": 1390,
      "900": 1391,
      "cep_": 1392,
      "═══════════════": 1393,
      "hud_": 1394,
      "FI": 1395,
      "_tab": 1396,
      "_send_": 1397,
      "lef": 1398,
      "register": 1399,
      "http_send_": 1400,
      "ent_ghost_": 1401,
      "db_": 1402,
      "int_": 1403,
      "wrap_": 1404,
      "counter": 1405,
      "_show": 1406,
      "func_": 1407,
      "dtb_": 1408,
      "2or3": 1409,
      "heal_": 1410,
      "now_": 1411,
      "ent_ai_": 1412,
      "ent_toolti": 1413,
      "pass_": 1414,
      "no_match": 1415,
      "show_mine": 1416,
      "hi_ok": 1417,
      "dx_neg": 1418,
      "clr_": 1419,
      "nxt_": 1420,
      "_simple": 1421,
      "pv_op_": 1422,
      "ent_tooltip_": 1423,
      "0x1": 1424,
      "tail_skip_": 1425,
      "drop": 1426,
      "sb_fn": 1427,
      "ALT": 1428,
      "8000": 1429,
      "MA": 1430,
      "KEY": 1431,
      "532": 1432,
      "690": 1433,
      "920": 1434,
      "tri": 1435,
      "3322": 1436,
      "1818": 1437,
      "ic": 1438,
      "r29": 1439,
      "_1": 1440,
      "0808": 1441,
      "0x7": 1442,
      "all_": 1443,
      "62": 1444,
      "edit": 1445,
      "entry": 1446,
      "BA": 1447,
      "G_": 1448,
      "rect": 1449,
      "SHL": 1450,
      "addr": 1451,
      "grid": 1452,
      "SI_": 1453,
      "focus": 1454,
      "rac": 1455,
      "bran": 1456,
      "sts": 1457,
      "drain": 1458,
      "0x5": 1459,
      "tog": 1460,
      "endif": 1461,
      "else_": 1462,
      "AI": 1463,
      "start_": 1464,
      "visi": 1465,
      "walls": 1466,
      "edge": 1467,
      "mem": 1468,
      "═══════════════════════════════": 1469,
      "month": 1470,
      "═══════════════════════════════════════════════════════════════": 1471,
      "wrap": 1472,
      "curren": 1473,
      "yes": 1474,
      "mouse": 1475,
      "_collision": 1476,
      "98": 1477,
      "PI": 1478,
      "_to_": 1479,
      "inser": 1480,
      "De": 1481,
      "hal": 1482,
      "osc": 1483,
      "get": 1484,
      "bias": 1485,
      "Con": 1486,
      "245": 1487,
      "HALT": 1488,
      "TY": 1489,
      "arrow_": 1490,
      "bul": 1491,
      "mid": 1492,
      "ready": 1493,
      "terminate": 1494,
      "ER": 1495,
      "105": 1496,
      "lack": 1497,
      "parse_done": 1498,
      "ha": 1499,
      "104": 1500,
      "draw_s": 1501,
      "51": 1502,
      "b_done": 1503,
      "_sys": 1504,
      "btn": 1505,
      "clear_buf": 1506,
      "sma": 1507,
      "send_": 1508,
      "ur_": 1509,
      "foo": 1510,
      "stone": 1511,
      "cur_": 1512,
      "check_s": 1513,
      "process_": 1514,
      "S_": 1515,
      "close_": 1516,
      "xblend": 1517,
      "_close": 1518,
      "cha": 1519,
      "3030": 1520,
      "host": 1521,
      "rot": 1522,
      "using": 1523,
      "plasma": 1524,
      "mix": 1525,
      "player_": 1526,
      "_clr_loop": 1527,
      "valu": 1528,
      "_shr": 1529,
      "Ro": 1530,
      "mt_": 1531,
      "0x40": 1532,
      "r30": 1533,
      "ator": 1534,
      "kick": 1535,
      "probe": 1536,
      "main_": 1537,
      "enemy_": 1538,
      "bottom": 1539,
      "cl_": 1540,
      "f8": 1541,
      "pan": 1542,
      "rr": 1543,
      "sd_": 1544,
      "nel": 1545,
      "inner": 1546,
      "0x780": 1547,
      "utf8": 1548,
      "cic": 1549,
      "cdl_c": 1550,
      "csr_": 1551,
      "contour_": 1552,
      "current": 1553,
      "insert_": 1554,
      "guard": 1555,
      "map": 1556,
      "and_": 1557,
      "next_line": 1558,
      "find_end": 1559,
      "dc": 1560,
      "sd": 1561,
      "sy_": 1562,
      "heal": 1563,
      "108": 1564,
      "4466": 1565,
      "type_": 1566,
      "find": 1567,
      "tint_": 1568,
      "ve_": 1569,
      "prompt": 1570,
      "output_": 1571,
      "bk": 1572,
      "dda": 1573,
      "tc_": 1574,
      "wl": 1575,
      "wr": 1576,
      "lo_": 1577,
      "anup": 1578,
      "162": 1579,
      "asm_": 1580,
      "_star": 1581,
      "grav_": 1582,
      "edmg": 1583,
      "worl": 1584,
      "do_sho": 1585,
      "initiali": 1586,
      "hp_bk": 1587,
      "stripe_": 1588,
      "switch_": 1589,
      "cts_tab": 1590,
      "tc_pick": 1591,
      "EL": 1592,
      "fw": 1593,
      "_cy": 1594,
      "_cat": 1595,
      "_promp": 1596,
      "handle": 1597,
      "mv_": 1598,
      "pv": 1599,
      "su": 1600,
      "sw_": 1601,
      "u2": 1602,
      "wd_": 1603,
      "_cor": 1604,
      "_sand": 1605,
      "103": 1606,
      "not_down": 1607,
      "side": 1608,
      "line_loop": 1609,
      "_rev": 1610,
      "dirt": 1611,
      "clamp_": 1612,
      "row_loop": 1613,
      "utoa": 1614,
      "grow": 1615,
      "ic_": 1616,
      "ry": 1617,
      "uc_": 1618,
      "ub_": 1619,
      "uard_": 1620,
      "_dot": 1621,
      "r_msg": 1622,
      "ent_animal": 1623,
      "err_msg": 1624,
      "2288": 1625,
      "agent": 1626,
      "MOD": 1627,
      "st_done": 1628,
      "water_": 1629,
      "ent_guard_": 1630,
      "cyan": 1631,
      "area": 1632,
      "340": 1633,
      "bge": 1634,
      "dg_": 1635,
      "ib_": 1636,
      "nt_": 1637,
      "nb_": 1638,
      "x_pos": 1639,
      "relu": 1640,
      "rat_": 1641,
      "not_s": 1642,
      "not_sel": 1643,
      "00000": 1644,
      "scopy": 1645,
      "add_": 1646,
      "exp_": 1647,
      "cmd_is": 1648,
      "pos_": 1649,
      "skip_pipe": 1650,
      "abs_": 1651,
      "copy_pipe": 1652,
      "_spaces_": 1653,
      "dy_neg": 1654,
      "parse_redirect_": 1655,
      "exec_": 1656,
      "rh_r": 1657,
      "debug_reg": 1658,
      "mm_ent_not_": 1659,
      "diamond_": 1660,
      "call_fill_": 1661,
      "pxl_": 1662,
      "_shrink": 1663,
      "nl": 1664,
      "STA": 1665,
      "date_": 1666,
      "center": 1667,
      "dot": 1668,
      "inter": 1669,
      "let": 1670,
      "ron": 1671,
      "simple": 1672,
      "chars": 1673,
      "advance": 1674,
      "ccu": 1675,
      "4040": 1676,
      "day": 1677,
      "value": 1678,
      "riz": 1679,
      "ther": 1680,
      "max": 1681,
      "flag": 1682,
      "om": 1683,
      "0022": 1684,
      "ange": 1685,
      "piece": 1686,
      "close": 1687,
      "dd": 1688,
      "ses": 1689,
      "Pro": 1690,
      "cre": 1691,
      "hell": 1692,
      "127": 1693,
      "R_BUF": 1694,
      "range": 1695,
      "am": 1696,
      "ress": 1697,
      "opcodes": 1698,
      "execute": 1699,
      "FILL": 1700,
      "list": 1701,
      "Clear": 1702,
      "sgr25": 1703,
      "----------------": 1704,
      "sgr256": 1705,
      "IKEY": 1706,
      "XX": 1707,
      "tw": 1708,
      "status": 1709,
      "BASE": 1710,
      "0x78": 1711,
      "horiz": 1712,
      "sn": 1713,
      "no_key": 1714,
      "biome_": 1715,
      "lete": 1716,
      "_pi": 1717,
      "windo": 1718,
      "bounce": 1719,
      "vol": 1720,
      "DIV": 1721,
      "ping": 1722,
      "info": 1723,
      "exi": 1724,
      "):": 1725,
      "wer": 1726,
      "ye": 1727,
      "append_byte": 1728,
      "offset": 1729,
      "ring": 1730,
      "shi": 1731,
      "get_tab_": 1732,
      "hase": 1733,
      "160": 1734,
      "_check_result": 1735,
      "pixels": 1736,
      "escape": 1737,
      "toggle": 1738,
      "rt": 1739,
      "inside": 1740,
      "St": 1741,
      "reload": 1742,
      "enta": 1743,
      "0x3": 1744,
      "rive": 1745,
      "urce": 1746,
      "overlay": 1747,
      "rep": 1748,
      "game_": 1749,
      "D_": 1750,
      "XOR": 1751,
      "other": 1752,
      "u32": 1753,
      "its_": 1754,
      "pb_ret": 1755,
      "COLO": 1756,
      "normal": 1757,
      "game_over": 1758,
      "AB": 1759,
      "HI": 1760,
      "ou": 1761,
      "temp": 1762,
      "dead": 1763,
      "04": 1764,
      "CSI_": 1765,
      "case": 1766,
      "tk": 1767,
      "forest": 1768,
      "230": 1769,
      "M_": 1770,
      "cor": 1771,
      "nected": 1772,
      "0x30": 1773,
      "magenta": 1774,
      "speci": 1775,
      "EN": 1776,
      "delete": 1777,
      "ces": 1778,
      "word_": 1779,
      "based": 1780,
      "4400": 1781,
      "calc": 1782,
      "address": 1783,
      "rando": 1784,
      "abo": 1785,
      "ine": 1786,
      "men": 1787,
      "read_": 1788,
      "3300": 1789,
      "mies": 1790,
      "tk_arrow_": 1791,
      "enter_digit_": 1792,
      "Init": 1793,
      "01": 1794,
      "sand": 1795,
      "sed": 1796,
      "1414": 1797,
      "du": 1798,
      "111": 1799,
      "uptime": 1800,
      "enemies": 1801,
      "_end": 1802,
      "black": 1803,
      "0x0000": 1804,
      "alph": 1805,
      "tower": 1806,
      "undo": 1807,
      "blend_": 1808,
      "61": 1809,
      "port": 1810,
      "ai": 1811,
      "1010": 1812,
      "hud": 1813,
      "circle": 1814,
      "car": 1815,
      "gen": 1816,
      "ive": 1817,
      "rc_": 1818,
      "ym": 1819,
      "2020": 1820,
      "draw_st": 1821,
      "alpha": 1822,
      "218": 1823,
      "_cle": 1824,
      "_cp_done": 1825,
      "startup": 1826,
      "58": 1827,
      "flo": 1828,
      "ghost": 1829,
      "ken": 1830,
      "dest": 1831,
      "6600": 1832,
      "startup_": 1833,
      "each": 1834,
      "tree_": 1835,
      "360": 1836,
      "gle_": 1837,
      "hp": 1838,
      "anim_": 1839,
      "think": 1840,
      "lower": 1841,
      "title_": 1842,
      "herme": 1843,
      "0x2000": 1844,
      "UN": 1845,
      "ight_": 1846,
      "mne": 1847,
      "xi": 1848,
      "height_": 1849,
      "memin": 1850,
      "not_digit": 1851,
      "gene": 1852,
      "cam_": 1853,
      "export": 1854,
      "wande": 1855,
      "It": 1856,
      "ale": 1857,
      "w_done": 1858,
      "arrive": 1859,
      "stop": 1860,
      "1018": 1861,
      "_state": 1862,
      "amera": 1863,
      "_set_": 1864,
      "_scro": 1865,
      "then": 1866,
      "witch": 1867,
      "265": 1868,
      "values": 1869,
      "meminfo": 1870,
      "CK": 1871,
      "_nx": 1872,
      "cva": 1873,
      "p_col": 1874,
      "opera": 1875,
      "_sym": 1876,
      "ris": 1877,
      "l_move": 1878,
      "ticle": 1879,
      "_colo": 1880,
      "sgr_n": 1881,
      "mm_pn": 1882,
      "mc_258": 1883,
      "ccp_": 1884,
      "div_done": 1885,
      "_clr_": 1886,
      "csu": 1887,
      "ypre_chk": 1888,
      "pb_check_utf8": 1889,
      "mc_check_sym": 1890,
      "registers": 1891,
      "xblend_chk_": 1892,
      "menu": 1893,
      "mm_pnt_": 1894,
      "125": 1895,
      "Sto": 1896,
      "aa": 1897,
      "lg": 1898,
      "sh": 1899,
      "y_done": 1900,
      "indi": 1901,
      "804": 1902,
      "5500": 1903,
      "ctc_": 1904,
      "0x00FF00": 1905,
      "http_strip_": 1906,
      "ches": 1907,
      "outer": 1908,
      "Lo": 1909,
      "c_loop": 1910,
      "tal": 1911,
      "_cal": 1912,
      "para": 1913,
      "taken": 1914,
      "1234": 1915,
      "_reset": 1916,
      "abt_": 1917,
      "got": 1918,
      "render_done": 1919,
      "lines_done": 1920,
      "dx_ok": 1921,
      "_chars": 1922,
      "normal_": 1923,
      "BB": 1924,
      "lb": 1925,
      "ua": 1926,
      "t_c": 1927,
      "_c2": 1928,
      "log": 1929,
      "l_next": 1930,
      "801": 1931,
      "it_en": 1932,
      "_par": 1933,
      "_block": 1934,
      "got_": 1935,
      "idth": 1936,
      "_copy_name": 1937,
      "5678": 1938,
      "dfs_": 1939,
      "focus_lo_": 1940,
      "_colors": 1941,
      "blocked": 1942,
      "switch_to_": 1943,
      "carve_": 1944,
      "_cleanup": 1945,
      "_blocked": 1946,
      "_left": 1947,
      "_right": 1948,
      "nb": 1949,
      "sv": 1950,
      "sh_": 1951,
      "_src": 1952,
      "r_ok": 1953,
      "pack": 1954,
      "202": 1955,
      "3366": 1956,
      "draw_tex": 1957,
      "draw_green": 1958,
      "_command": 1959,
      "clear_promp": 1960,
      "_change": 1961,
      "dy_ok": 1962,
      "wc_utoa": 1963,
      "hist_up": 1964,
      "digit_ok": 1965,
      "pat_di_": 1966,
      "left_": 1967,
      "probe_": 1968,
      "_cyan": 1969,
      "rontab": 1970,
      "233": 1971,
      "C_": 1972,
      "PTY": 1973,
      "dw": 1974,
      "ko": 1975,
      "orac": 1976,
      "width": 1977,
      "ent_update": 1978,
      "list_": 1979,
      "ut_d": 1980,
      "init_pattern": 1981,
      "ent_agent_state_": 1982,
      "box": 1983,
      "rh_n": 1984,
      "advance_to_": 1985,
      "emit": 1986,
      "hl_col": 1987,
      "CUR_ROW": 1988,
      "oracle_": 1989,
      "_l": 1990,
      "_text": 1991,
      "bg_": 1992,
      "cy_": 1993,
      "cx_": 1994,
      "ev_": 1995,
      "eis": 1996,
      "gtb": 1997,
      "hwu_": 1998,
      "n_loop": 1999,
      "rm_": 2000,
      "rdec": 2001,
      "sut_": 2002,
      "t3": 2003,
      "red_": 2004,
      "retile_": 2005,
      "inv_": 2006,
      "_sub": 2007,
      "_snow": 2008,
      "_snow_": 2009,
      "_switch": 2010,
      "rain_": 2011,
      "_dots": 2012,
      "no_save": 2013,
      "loop1": 2014,
      "y_pos": 2015,
      "ent_nt_": 2016,
      "s_next": 2017,
      "s_lp": 2018,
      "not_left": 2019,
      "draw_white": 2020,
      "ok_msg": 2021,
      "do_newline": 2022,
      "6655": 2023,
      "blt_": 2024,
      "_ping": 2025,
      "cmd_build": 2026,
      "face_": 2027,
      "strcm": 2028,
      "_replace": 2029,
      "_stone": 2030,
      "n_on": 2031,
      "skip_frame": 2032,
      "_check_done": 2033,
      "byte_loop": 2034,
      "red_chk_": 2035,
      "tail_coun": 2036,
      "_ship": 2037,
      "incsearch": 2038,
      "hl_opcodes": 2039,
      "i_neg": 2040,
      "cross_": 2041,
      "input_sel": 2042,
      "grep_copy_": 2043,
      "parse_pi": 2044,
      "fn_done": 2045,
      "_clamp_": 2046,
      "gm_j": 2047,
      "prb_": 2048,
      "cb_s": 2049,
      "open_": 2050,
      "gd_f": 2051,
      "http_strip": 2052,
      "ent_prog": 2053,
      "url_parse_por": 2054,
      "sin_q": 2055,
      "have_": 2056,
      "hm_check_": 2057,
      "sample_check_": 2058,
      "bge_": 2059,
      "skip_pipe_spaces": 2060,
      "_spaces_inc": 2061,
      "gtbb_": 2062,
      "ay": 2063,
      "zation": 2064,
      "0008": 2065,
      "1515": 2066,
      "vert": 2067,
      "SEND": 2068,
      "_copy_d": 2069,
      "nib": 2070,
      "orange": 2071,
      "wal": 2072,
      "4455": 2073,
      "quare": 2074,
      "388": 2075,
      "sup": 2076,
      "404": 2077,
      "0000000000000000": 2078,
      "ai_ring": 2079,
      "replace": 2080,
      "115": 2081,
      "0x40D": 2082,
      "432": 2083,
      ">>": 2084,
      "ball": 2085,
      "dri": 2086,
      "ins": 2087,
      "ral": 2088,
      "body": 2089,
      "frames": 2090,
      "420": 2091,
      "maining": 2092,
      "ANDI": 2093,
      "rou": 2094,
      "clamp": 2095,
      "117": 2096,
      "okup": 2097,
      "regs": 2098,
      "0x6A": 2099,
      "operation": 2100,
      "walk": 2101,
      "lected": 2102,
      "stan": 2103,
      "paint": 2104,
      "ash": 2105,
      "ach": 2106,
      "PSETI": 2107,
      "PARAM": 2108,
      "dient": 2109,
      "102": 2110,
      "224": 2111,
      "turn": 2112,
      "CSI_PARAM": 2113,
      "call": 2114,
      "igh": 2115,
      "tx": 2116,
      "ints": 2117,
      "demo": 2118,
      "indic": 2119,
      ").": 2120,
      "here": 2121,
      "SUBI": 2122,
      "keyboard": 2123,
      "tiles": 2124,
      "memory": 2125,
      "ME": 2126,
      "push": 2127,
      "vas": 2128,
      "ref": 2129,
      "112": 2130,
      "sis": 2131,
      "gradient": 2132,
      "very": 2133,
      "Bu": 2134,
      "Op": 2135,
      "mal": 2136,
      "round": 2137,
      "adj": 2138,
      "aste": 2139,
      "_ret": 2140,
      "idx": 2141,
      "extra": 2142,
      "Write": 2143,
      "ig": 2144,
      "net": 2145,
      "rement": 2146,
      "lookup": 2147,
      "del": 2148,
      "8800": 2149,
      "0x4E": 2150,
      "TR": 2151,
      "WIN": 2152,
      "auto": 2153,
      "cess": 2154,
      "exit": 2155,
      "86": 2156,
      "et": 2157,
      "001": 2158,
      "alarm": 2159,
      "CL": 2160,
      "rever": 2161,
      "ename": 2162,
      "room": 2163,
      "Read": 2164,
      "cycle": 2165,
      "0xFFFFFFFF": 2166,
      "halt": 2167,
      "bg": 2168,
      "put": 2169,
      "dep": 2170,
      "tain": 2171,
      "win_": 2172,
      "7900": 2173,
      "exec_done": 2174,
      "flat": 2175,
      "SEND_BUF": 2176,
      "ESC": 2177,
      "Tile": 2178,
      "Wor": 2179,
      "cno": 2180,
      "rol": 2181,
      "process": 2182,
      "ratch": 2183,
      "10000": 2184,
      "LIN": 2185,
      "ome": 2186,
      "opi": 2187,
      "trace": 2188,
      "A1": 2189,
      "CE": 2190,
      "SP": 2191,
      "XEL": 2192,
      "_T": 2193,
      "land": 2194,
      "ous": 2195,
      "sys": 2196,
      "STR_BUF": 2197,
      "high": 2198,
      "filename": 2199,
      "used": 2200,
      "_counter": 2201,
      "rule": 2202,
      "CUR_COL": 2203,
      "visited": 2204,
      "PIXEL": 2205,
      "operations": 2206,
      "VE": 2207,
      "snow": 2208,
      "rer": 2209,
      "into": 2210,
      "size": 2211,
      "Te": 2212,
      "saf": 2213,
      "colors": 2214,
      "loading": 2215,
      "ROWS": 2216,
      "mat": 2217,
      "nect": 2218,
      "===": 2219,
      "command": 2220,
      "forw": 2221,
      "via": 2222,
      "zoom": 2223,
      "vo": 2224,
      "last": 2225,
      "live": 2226,
      "....": 2227,
      "row_dirty": 2228,
      "mark_row_dirty": 2229,
      "branch": 2230,
      "Frame": 2231,
      "ami": 2232,
      "fic": 2233,
      "136": 2234,
      "tempo": 2235,
      "generate": 2236,
      "astero": 2237,
      "Phase": 2238,
      "ast": 2239,
      "192": 2240,
      "maze": 2241,
      "negate": 2242,
      "region": 2243,
      "initialize": 2244,
      "safe": 2245,
      "En": 2246,
      "night": 2247,
      "pl": 2248,
      "pty": 2249,
      "who": 2250,
      "neigh": 2251,
      "dots": 2252,
      "2500": 2253,
      "mod": 2254,
      "able": 2255,
      "0xFFB": 2256,
      "contour": 2257,
      "horizon": 2258,
      "TU": 2259,
      "ab_": 2260,
      "ground": 2261,
      "rt_": 2262,
      "0x200": 2263,
      "med": 2264,
      "buf_b": 2265,
      "EX": 2266,
      "_0": 2267,
      "point": 2268,
      "strlen": 2269,
      "backspace": 2270,
      "no_click": 2271,
      "neq": 2272,
      "increment": 2273,
      "0x5000": 2274,
      "Build": 2275,
      "apply": 2276,
      "txt": 2277,
      "A0": 2278,
      "Hel": 2279,
      "If": 2280,
      "vy": 2281,
      "atches": 2282,
      "render_row": 2283,
      "SET": 2284,
      "STATU": 2285,
      "indicator": 2286,
      "Hello": 2287,
      "244": 2288,
      "AS": 2289,
      "Tot": 2290,
      "au": 2291,
      "untain": 2292,
      "RAND": 2293,
      "umn": 2294,
      "weat": 2295,
      "Initiali": 2296,
      "Total": 2297,
      ">=": 2298,
      "ids": 2299,
      "use_": 2300,
      "ancel": 2301,
      "vel": 2302,
      "8080": 2303,
      "usk": 2304,
      "768": 2305,
      "llm": 2306,
      "mc_ret": 2307,
      "dawn": 2308,
      "check_collision": 2309,
      "word": 2310,
      "column": 2311,
      "fet": 2312,
      "lightning": 2313,
      "blocks": 2314,
      "_piece": 2315,
      "59": 2316,
      "watch": 2317,
      "tory": 2318,
      "theme": 2319,
      "olute": 2320,
      "words": 2321,
      "alive": 2322,
      "tooltip": 2323,
      "border": 2324,
      "random": 2325,
      "Load": 2326,
      "opied": 2327,
      "122": 2328,
      "236": 2329,
      "bs": 2330,
      "dusk": 2331,
      "_ctr": 2332,
      "sta": 2333,
      "late": 2334,
      "mountain": 2335,
      "00014": 2336,
      "181": 2337,
      "999": 2338,
      "oft_": 2339,
      "final": 2340,
      "diamond": 2341,
      "absolute": 2342,
      "wander": 2343,
      "tk_ctr": 2344,
      "Opcode": 2345,
      "initializes": 2346,
      "SAR": 2347,
      "o_": 2348,
      "ent_agent_restore": 2349,
      "dsb": 2350,
      "inclu": 2351,
      "year": 2352,
      "ent_agent_restore_": 2353,
      "++": 2354,
      "05": 2355,
      "238": 2356,
      "restart": 2357,
      "teal": 2358,
      "1020": 2359,
      "uname": 2360,
      "250": 2361,
      "line_": 2362,
      "1400": 2363,
      "_play": 2364,
      "to_buf": 2365,
      "above": 2366,
      "whoami": 2367,
      "o_digit": 2368,
      "Y_": 2369,
      "far": 2370,
      "fmt_": 2371,
      "recycle": 2372,
      "ops": 2373,
      "desc": 2374,
      "angle_": 2375,
      "_compute": 2376,
      "ession": 2377,
      "apple": 2378,
      "days": 2379,
      "tile_done": 2380,
      "exec": 2381,
      "print": 2382,
      "Search": 2383,
      "ambi": 2384,
      "hermes_": 2385,
      "asteroids": 2386,
      "neighbor": 2387,
      "EE": 2388,
      "RL": 2389,
      "_agent": 2390,
      "axi": 2391,
      "xblend_": 2392,
      "dor": 2393,
      "_step": 2394,
      "ari": 2395,
      "ded": 2396,
      "child": 2397,
      "ridor": 2398,
      "668": 2399,
      "tab_st": 2400,
      "374": 2401,
      "clear_buf_": 2402,
      "class": 2403,
      "screen_": 2404,
      "turt": 2405,
      "at_player": 2406,
      "source": 2407,
      "items": 2408,
      "footer": 2409,
      "process_byte": 2410,
      "area_agent": 2411,
      "thinking": 2412,
      "wanderer": 2413,
      "_key": 2414,
      "ed_": 2415,
      "imple": 2416,
      "net_": 2417,
      "_cancel": 2418,
      "lets": 2419,
      "level": 2420,
      "d_pos": 2421,
      "deci": 2422,
      "w_frame": 2423,
      "chan": 2424,
      "butt": 2425,
      "sig": 2426,
      "do_move": 2427,
      "play_": 2428,
      "next_tile": 2429,
      "move_done": 2430,
      "move_down": 2431,
      "try_sys": 2432,
      "samp": 2433,
      "_sprites": 2434,
      "0x3000": 2435,
      "floo": 2436,
      "arrived": 2437,
      "button": 2438,
      "214": 2439,
      "_5": 2440,
      "nu": 2441,
      "rr_": 2442,
      "redir": 2443,
      "dir_": 2444,
      "ent_compute": 2445,
      "ced": 2446,
      "not_space": 2447,
      "226": 2448,
      "draw_frame": 2449,
      "line_to_": 2450,
      "le_lp": 2451,
      "190": 2452,
      "skip_redir": 2453,
      "ab_check_": 2454,
      "pb_esc": 2455,
      "_tar": 2456,
      "write_line_to_": 2457,
      "tk_ret": 2458,
      "build_lines": 2459,
      "restore_cursor": 2460,
      "copy_col": 2461,
      "arrow_down": 2462,
      "Row": 2463,
      "ambient": 2464,
      "ent_compute_tar": 2465,
      "write_line_to_buf": 2466,
      "0_": 2467,
      "Mem": 2468,
      "pal": 2469,
      "_session": 2470,
      "ervis": 2471,
      "do_render": 2472,
      "check_enemy_": 2473,
      "ally": 2474,
      "tstep": 2475,
      "conds": 2476,
      "bar_done": 2477,
      "mm_bldg": 2478,
      "ines": 2479,
      "cw_": 2480,
      "cun": 2481,
      "c_clear_": 2482,
      "gr": 2483,
      "gt_": 2484,
      "nz": 2485,
      "ube": 2486,
      "ven": 2487,
      "wi": 2488,
      "t_line": 2489,
      "t_screen_": 2490,
      "recv_": 2491,
      "_cr": 2492,
      "_cube": 2493,
      "_do_clear": 2494,
      "sts_": 2495,
      "alt_screen_": 2496,
      "veal": 2497,
      "ent_do_": 2498,
      "l_mode": 2499,
      "erp": 2500,
      "660": 2501,
      "check_esc": 2502,
      "done_": 2503,
      "try_build": 2504,
      "ctc": 2505,
      "pb_csi_s": 2506,
      "zerogt_": 2507,
      "pb_csi_f": 2508,
      "damp_": 2509,
      "struct_land": 2510,
      "csi_scro": 2511,
      "ccp_col": 2512,
      "cdl_clear": 2513,
      "cdl_clr": 2514,
      "cdl_clr_": 2515,
      "fill1": 2516,
      "fill2": 2517,
      "cil_clear": 2518,
      "cil_clr": 2519,
      "_sine": 2520,
      "fw_dc_": 2521,
      "_create": 2522,
      "erase_": 2523,
      "_shift_loop": 2524,
      "csi_insert_": 2525,
      "csi_delete": 2526,
      "csi_erase_": 2527,
      "sgr_ext38": 2528,
      "sgr_ext48": 2529,
      "tbc_clear_": 2530,
      "bullets": 2531,
      "footstep": 2532,
      "main_0": 2533,
      "cdl_cs": 2534,
      "csr_top": 2535,
      "sgr256_cube": 2536,
      "HIT": 2537,
      "towers": 2538,
      "_color_loop": 2539,
      "ccp_row": 2540,
      "pb_check_utf8_3": 2541,
      "normal_byte": 2542,
      "recycle_star": 2543,
      "decimal": 2544,
      "sample_": 2545,
      "zerogt_4": 2546,
      "380": 2547,
      "612": 2548,
      "AL": 2549,
      "bw": 2550,
      "b_skip": 2551,
      "camera": 2552,
      "g_done": 2553,
      "hints": 2554,
      "iter": 2555,
      "t_next": 2556,
      "rev_": 2557,
      "load_": 2558,
      "d_w": 2559,
      "its": 2560,
      "ont_": 2561,
      "253": 2562,
      "802": 2563,
      "it_it_": 2564,
      "draw_sprite": 2565,
      "187": 2566,
      "123": 2567,
      "planet": 2568,
      "157": 2569,
      "_cols": 2570,
      "ent_agent_move_": 2571,
      "cond": 2572,
      "copy_name": 2573,
      "rans": 2574,
      "dr_scan": 2575,
      "cv_en": 2576,
      "cv_it_": 2577,
      "expor": 2578,
      "expand": 2579,
      "background": 2580,
      "zoom_default": 2581,
      "scan_": 2582,
      "http_rec": 2583,
      "bldg_do": 2584,
      "supervis": 2585,
      "descend": 2586,
      "188": 2587,
      "2000": 2588,
      "_mt": 2589,
      "`,": 2590,
      "c2": 2591,
      "d_skip_": 2592,
      "na": 2593,
      "pk": 2594,
      "enti": 2595,
      "no_str": 2596,
      "dec_": 2597,
      "dim": 2598,
      "right_": 2599,
      "1030": 2600,
      "org": 2601,
      "pad_": 2602,
      "paused": 2603,
      "l_buf": 2604,
      "2266": 2605,
      "draw_re": 2606,
      "draw_time": 2607,
      "draw_status": 2608,
      "exit_": 2609,
      "next_cell": 2610,
      "init_loop": 2611,
      "try_run": 2612,
      "grass_": 2613,
      "entity": 2614,
      "_bar": 2615,
      "big": 2616,
      "_connect": 2617,
      "wu_skip_": 2618,
      "minus": 2619,
      "dy_abs": 2620,
      "dx_abs": 2621,
      "et_edmg": 2622,
      "hex_loop": 2623,
      "path_done": 2624,
      "focus_hi_": 2625,
      "copy_done": 2626,
      "att_scan": 2627,
      "scan_done": 2628,
      "dx_pos": 2629,
      "draw_win2": 2630,
      "draw_win3": 2631,
      "http_recv_": 2632,
      "step2_": 2633,
      "ent_agent_home_move_": 2634,
      "flush": 2635,
      "not_upper": 2636,
      "cep2_": 2637,
      "fixed_": 2638,
      "cep_edmg": 2639,
      "world_y": 2640,
      "hp_bksp": 2641,
      "hp_bksp_": 2642,
      "u2d_skip_": 2643,
      "_corridor": 2644,
      "biome_not_": 2645,
      "101828": 2646,
      "t_cnt": 2647,
      "svc_": 2648,
      "generate_": 2649,
      "num_": 2650,
      "no_stru": 2651,
      "dec_nonzero": 2652,
      "fixed_to_str": 2653,
      "155": 2654,
      "225": 2655,
      "ddy": 2656,
      "eval": 2657,
      "f_done": 2658,
      "gd": 2659,
      "hwu": 2660,
      "l1": 2661,
      "om_": 2662,
      "rw_": 2663,
      "s1": 2664,
      "s2": 2665,
      "v_loop": 2666,
      "v_down": 2667,
      "y_start": 2668,
      "t_lines": 2669,
      "_crontab": 2670,
      "_spawn": 2671,
      "lot": 2672,
      "hel": 2673,
      "drain_": 2674,
      "righ": 2675,
      "draw_blue": 2676,
      "wn_p": 2677,
      "501": 2678,
      "177": 2679,
      "139": 2680,
      "particle": 2681,
      "pat_len": 2682,
      "_checker": 2683,
      "_selected": 2684,
      "render_active": 2685,
      "cip": 2686,
      "_scopy": 2687,
      "that": 2688,
      "_back": 2689,
      "gol_": 2690,
      "down_done": 2691,
      "parse_next_": 2692,
      "parse_arg": 2693,
      "timer_": 2694,
      "dn_rev": 2695,
      "hist_dn": 2696,
      "digit_start": 2697,
      "laye": 2698,
      "rh_scopy": 2699,
      "url_parse_path": 2700,
      "world_x": 2701,
      "create": 2702,
      "56789": 2703,
      "koch": 2704,
      "zoom_set": 2705,
      "2_lp": 2706,
      "235": 2707,
      "_bl": 2708,
      "_wait": 2709,
      "_failed": 2710,
      "_error": 2711,
      "fname": 2712,
      "fwd": 2713,
      "hline": 2714,
      "hx_ok": 2715,
      "i_store": 2716,
      "iscopy": 2717,
      "kb_": 2718,
      "l2_": 2719,
      "mk": 2720,
      "nrow": 2721,
      "pm_": 2722,
      "rdy_": 2723,
      "rdx_": 2724,
      "sx_ok": 2725,
      "snow_": 2726,
      "t2or3": 2727,
      "us_": 2728,
      "vx_pos": 2729,
      "vy_pos": 2730,
      "wh": 2731,
      "w_col": 2732,
      "ychk": 2733,
      "t_store": 2734,
      "t_prompt": 2735,
      "ret_cnt": 2736,
      "_cmp": 2737,
      "_case": 2738,
      "_center": 2739,
      "_click": 2740,
      "_curren": 2741,
      "_copied": 2742,
      "inl": 2743,
      "int_done": 2744,
      "_shell": 2745,
      "_do_search": 2746,
      "no_s": 2747,
      "no_p": 2748,
      "no_change": 2749,
      "w_next": 2750,
      "on_": 2751,
      "y_ok": 2752,
      "y_low": 2753,
      "s_wait": 2754,
      "s_got": 2755,
      "l_to": 2756,
      "l_dec": 2757,
      "2540": 2758,
      "comp_": 2759,
      "not_d": 2760,
      "not_w": 2761,
      "not_zero": 2762,
      "not_add": 2763,
      "not_program": 2764,
      "not_mul": 2765,
      "not_idle": 2766,
      "not_class": 2767,
      "row0": 2768,
      "row1": 2769,
      "si_": 2770,
      "draw_pixel": 2771,
      "draw_input_": 2772,
      "do_blend": 2773,
      "draw_col": 2774,
      "6677": 2775,
      "_pty": 2776,
      "_path": 2777,
      "rend_x": 2778,
      "rend_y": 2779,
      "no_neg": 2780,
      "x_low": 2781,
      "ults": 2782,
      "play_loop": 2783,
      "cmd_not_": 2784,
      "se_ex": 2785,
      "se_type_": 2786,
      "ut_c": 2787,
      "ut_loop": 2788,
      "MODE": 2789,
      "next_y": 2790,
      "st_l2_": 2791,
      "2838": 2792,
      "try_key": 2793,
      "6014": 2794,
      "tabs_": 2795,
      "_rest_l2_": 2796,
      "pat_v_": 2797,
      "pat_df": 2798,
      "pat_cr_": 2799,
      "_skip_space": 2800,
      "_skip_snow": 2801,
      "skip_arg": 2802,
      "sgr_ret": 2803,
      "904": 2804,
      "9090": 2805,
      "_child": 2806,
      "g_fail": 2807,
      "save_scan": 2808,
      "resp": 2809,
      "zero_rest_l2_": 2810,
      "show_running": 2811,
      "try_cm": 2812,
      "pre_t": 2813,
      "check_down": 2814,
      "_confi": 2815,
      "copy_arg": 2816,
      "copy_redi": 2817,
      "wu_snow_": 2818,
      "state_re": 2819,
      "rcopy": 2820,
      "_t50": 2821,
      "_t16": 2822,
      "_t38": 2823,
      "_t48": 2824,
      "_t49": 2825,
      "dy_up": 2826,
      "dy_pos": 2827,
      "_strlen": 2828,
      "hex_alpha": 2829,
      "_copy_lp": 2830,
      "dx_left": 2831,
      "fern": 2832,
      "wave_s": 2833,
      "test3": 2834,
      "test4": 2835,
      "test5": 2836,
      "df_l": 2837,
      "rh_iscopy": 2838,
      "dr_shrink": 2839,
      "fill_row": 2840,
      "grep_have_": 2841,
      "846": 2842,
      "debug_do": 2843,
      "debug_ping": 2844,
      "hex_store": 2845,
      "focus_hex": 2846,
      "dr_inc": 2847,
      "dr_grow": 2848,
      "sp_s": 2849,
      "sp_strlen": 2850,
      "colon_done": 2851,
      "colon_on": 2852,
      "cp_copy_d": 2853,
      "hp_rep": 2854,
      "ent_guard": 2855,
      "brick_": 2856,
      "host_loop": 2857,
      "cb_sc": 2858,
      "rh_re": 2859,
      "nts_rev": 2860,
      "not_p2": 2861,
      "not_p3": 2862,
      "cmd_do": 2863,
      "spawn_failed": 2864,
      "sin_clamp_": 2865,
      "zoom_1": 2866,
      "cp_back": 2867,
      "no_cap": 2868,
      "draw_win1": 2869,
      "http_get_": 2870,
      "cat_write": 2871,
      "pat_diag": 2872,
      "place_type": 2873,
      "sp_f": 2874,
      "found_match": 2875,
      "rev_loop": 2876,
      "redirect_append": 2877,
      "alarm_": 2878,
      "escaped": 2879,
      "circle_": 2880,
      "_do_rain": 2881,
      "left_done": 2882,
      "heal_asm_": 2883,
      "show_mines_": 2884,
      "branch_": 2885,
      "has_": 2886,
      "Round": 2887,
      "sy_ok": 2888,
      "u2d_": 2889,
      "_correct": 2890,
      "clamp_ok": 2891,
      "relu_loop": 2892,
      "not_sub": 2893,
      "add_bias": 2894,
      "copy_pipe_loop": 2895,
      "copy_pipe_cmd": 2896,
      "rh_rscopy": 2897,
      "rh_rrcopy": 2898,
      "debug_regs": 2899,
      "closed_w": 2900,
      "window": 2901,
      "mnem": 2902,
      "_parse_": 2903,
      "retile_w": 2904,
      "strcmp_": 2905,
      "grep_copy_file": 2906,
      "parse_pipe_": 2907,
      "cb_sz": 2908,
      "bge_eq": 2909,
      "gtbb_t": 2910,
      "flood_": 2911,
      "pkt_": 2912,
      "_spawn_failed": 2913,
      "hello": 2914,
      "right_done": 2915,
      "layer2": 2916,
      "_current_prompt": 2917,
      "pat_dfw_": 2918,
      "try_cmd_": 2919,
      "hp_repl_to": 2920,
      "597": 2921,
      "b_save": 2922,
      "dp": 2923,
      "ir": 2924,
      "sb_save": 2925,
      "ust": 2926,
      "3388": 2927,
      "1628": 2928,
      "990": 2929,
      "174": 2930,
      "135": 2931,
      "608": 2932,
      "6040": 2933,
      "1008": 2934,
      "534": 2935,
      "951": 2936,
      "grep_search": 2937,
      "grep_no_match": 2938,
      "0x4000": 2939,
      "bits": 2940,
      "sb_rest": 2941,
      "sep1": 2942,
      "sep2": 2943,
      "sep3": 2944,
      "Enter": 2945,
      "grep_search_pos": 2946,
      "199": 2947,
      "299": 2948,
      "343": 2949,
      "520": 2950,
      "728": 2951,
      "933": 2952,
      "Ap": 2953,
      "1029": 2954,
      "2571": 2955,
      "803": 2956,
      "000000": 2957,
      "661": 2958,
      "1420": 2959,
      "173": 2960,
      "7777": 2961,
      "294": 2962,
      "181818": 2963,
      "specific": 2964,
      "nibble": 2965,
      "277": 2966,
      "4200": 2967,
      "524": 2968,
      "mpa": 2969,
      "bytes": 2970,
      "advance_to_null": 2971,
      "080": 2972,
      "036": 2973,
      "140": 2974,
      "2255": 2975,
      "YS": 2976,
      "trans": 2977,
      "GET": 2978,
      "ometry": 2979,
      "91": 2980,
      "URL": 2981,
      "_hash": 2982,
      "same": 2983,
      "vari": 2984,
      "ated": 2985,
      "scale": 2986,
      "pointer": 2987,
      "bet": 2988,
      "overlap": 2989,
      "LEN": 2990,
      "Geometry": 2991,
      "WPIXEL": 2992,
      "height": 2993,
      "total": 2994,
      "0xFF0000": 2995,
      "ART": 2996,
      "COLOR": 2997,
      "Store": 2998,
      "Sho": 2999
    },
    "merges": [
      [
        "t",
        "_"
      ],
      [
        "n",
        "e"
      ],
      [
        "0",
        "0"
      ],
      [
        "r",
        "1"
      ],
      [
        "r",
        "e"
      ],
      [
        "r",
        "2"
      ],
      [
        "D",
        "I"
      ],
      [
        "=",
        "="
      ],
      [
        "d",
        "o"
      ],
      [
        "L",
        "DI"
      ],
      [
        "_",
        "c"
      ],
      [
        "t",
        "e"
      ],
      [
        "i",
        "n"
      ],
      [
        "e",
        "n"
      ],
      [
        "o",
        "p"
      ],
      [
        "_",
        "s"
      ],
      [
        "l",
        "o"
      ],
      [
        "r",
        "a"
      ],
      [
        "═",
        "═"
      ],
      [
        "_",
        "do"
      ],
      [
        "a",
        "r"
      ],
      [
        "l",
        "e"
      ],
      [
        "h",
        "e"
      ],
      [
        "r",
        "o"
      ],
      [
        "_do",
        "ne"
      ],
      [
        "n",
        "o"
      ],
      [
        "s",
        "t"
      ],
      [
        "s",
        "e"
      ],
      [
        "==",
        "=="
      ],
      [
        "A",
        "D"
      ],
      [
        "lo",
        "op"
      ],
      [
        "─",
        "─"
      ],
      [
        "c",
        "k"
      ],
      [
        "d",
        "_"
      ],
      [
        "d",
        "e"
      ],
      [
        "R",
        "E"
      ],
      [
        "r",
        "_"
      ],
      [
        "S",
        "T"
      ],
      [
        "d",
        "ra"
      ],
      [
        "p",
        "_"
      ],
      [
        "0",
        "x"
      ],
      [
        "ST",
        "O"
      ],
      [
        "STO",
        "RE"
      ],
      [
        "a",
        "l"
      ],
      [
        "a",
        "n"
      ],
      [
        "i",
        "t"
      ],
      [
        "AD",
        "D"
      ],
      [
        "r2",
        "0"
      ],
      [
        "w",
        "_"
      ],
      [
        "v",
        "e"
      ],
      [
        "══",
        "══"
      ],
      [
        "o",
        "n"
      ],
      [
        "r",
        "3"
      ],
      [
        "y",
        "_"
      ],
      [
        "c",
        "h"
      ],
      [
        "d",
        "i"
      ],
      [
        "a",
        "t"
      ],
      [
        "r",
        "i"
      ],
      [
        "1",
        "0"
      ],
      [
        "r",
        "0"
      ],
      [
        "en",
        "t_"
      ],
      [
        "he",
        "ck"
      ],
      [
        "r",
        "4"
      ],
      [
        "s",
        "_"
      ],
      [
        "m",
        "e"
      ],
      [
        "c",
        "e"
      ],
      [
        "t",
        "o"
      ],
      [
        "l",
        "a"
      ],
      [
        "i",
        "l"
      ],
      [
        "r",
        "7"
      ],
      [
        "o",
        "r"
      ],
      [
        "3",
        "0"
      ],
      [
        "u",
        "n"
      ],
      [
        "p",
        "a"
      ],
      [
        "_",
        "loop"
      ],
      [
        "2",
        "0"
      ],
      [
        "l",
        "i"
      ],
      [
        "M",
        "P"
      ],
      [
        "l",
        "_"
      ],
      [
        "====",
        "===="
      ],
      [
        "ne",
        "x"
      ],
      [
        "4",
        "0"
      ],
      [
        "2",
        "5"
      ],
      [
        "c",
        "o"
      ],
      [
        "h",
        "i"
      ],
      [
        "1",
        "1"
      ],
      [
        "c",
        "_"
      ],
      [
        "k",
        "i"
      ],
      [
        "──",
        "──"
      ],
      [
        "no",
        "t_"
      ],
      [
        "b",
        "u"
      ],
      [
        "e",
        "r"
      ],
      [
        "a",
        "te"
      ],
      [
        "3",
        "3"
      ],
      [
        "ro",
        "w"
      ],
      [
        "2",
        "2"
      ],
      [
        "s",
        "i"
      ],
      [
        "heck",
        "_"
      ],
      [
        "dra",
        "w_"
      ],
      [
        "4",
        "4"
      ],
      [
        "m",
        "p"
      ],
      [
        "t",
        "i"
      ],
      [
        "8",
        "0"
      ],
      [
        "00",
        "00"
      ],
      [
        "u",
        "p"
      ],
      [
        "b",
        "_"
      ],
      [
        "s",
        "c"
      ],
      [
        "a",
        "d"
      ],
      [
        "w",
        "n"
      ],
      [
        "o",
        "k"
      ],
      [
        "_c",
        "o"
      ],
      [
        "t",
        "r"
      ],
      [
        "h",
        "o"
      ],
      [
        "-",
        "-"
      ],
      [
        "t",
        "a"
      ],
      [
        "te",
        "r"
      ],
      [
        "a",
        "g"
      ],
      [
        "do",
        "_"
      ],
      [
        "m",
        "_"
      ],
      [
        "════",
        "════"
      ],
      [
        "i",
        "t_"
      ],
      [
        "k",
        "_"
      ],
      [
        "F",
        "F"
      ],
      [
        "in",
        "g"
      ],
      [
        "li",
        "ne"
      ],
      [
        "r",
        "5"
      ],
      [
        "r1",
        "0"
      ],
      [
        "u",
        "r"
      ],
      [
        "m",
        "o"
      ],
      [
        "nex",
        "t"
      ],
      [
        "r",
        "6"
      ],
      [
        "dra",
        "w"
      ],
      [
        "6",
        "6"
      ],
      [
        "C",
        "MP"
      ],
      [
        "g",
        "h"
      ],
      [
        "8",
        "8"
      ],
      [
        "00",
        "0"
      ],
      [
        "b",
        "l"
      ],
      [
        "c",
        "m"
      ],
      [
        "5",
        "0"
      ],
      [
        "1",
        "4"
      ],
      [
        "s",
        "g"
      ],
      [
        "_",
        "p"
      ],
      [
        "u",
        "s"
      ],
      [
        "le",
        "ar"
      ],
      [
        "2",
        "4"
      ],
      [
        "re",
        "n"
      ],
      [
        "L",
        "O"
      ],
      [
        "a",
        "ve"
      ],
      [
        "no",
        "_"
      ],
      [
        "r1",
        "7"
      ],
      [
        "l",
        "p"
      ],
      [
        "ki",
        "p"
      ],
      [
        "v",
        "_"
      ],
      [
        "an",
        "d"
      ],
      [
        "1",
        "8"
      ],
      [
        "e",
        "l"
      ],
      [
        "r1",
        "1"
      ],
      [
        "f",
        "i"
      ],
      [
        "1",
        "2"
      ],
      [
        "1",
        "6"
      ],
      [
        "f",
        "o"
      ],
      [
        "5",
        "5"
      ],
      [
        "a",
        "p"
      ],
      [
        "x",
        "_"
      ],
      [
        "LO",
        "AD"
      ],
      [
        "u",
        "l"
      ],
      [
        "c",
        "heck_"
      ],
      [
        "e",
        "x"
      ],
      [
        "p",
        "la"
      ],
      [
        "r",
        "9"
      ],
      [
        "cm",
        "d_"
      ],
      [
        "r1",
        "2"
      ],
      [
        "a",
        "s"
      ],
      [
        "u",
        "t"
      ],
      [
        "========",
        "========"
      ],
      [
        "f",
        "t"
      ],
      [
        "3",
        "2"
      ],
      [
        "────",
        "────"
      ],
      [
        "do",
        "ne"
      ],
      [
        "op",
        "y"
      ],
      [
        "bu",
        "f"
      ],
      [
        "r1",
        "8"
      ],
      [
        "se",
        "_"
      ],
      [
        "ren",
        "de"
      ],
      [
        "s",
        "s"
      ],
      [
        "g",
        "re"
      ],
      [
        "f",
        "a"
      ],
      [
        "9",
        "9"
      ],
      [
        "p",
        "e"
      ],
      [
        "1",
        "7"
      ],
      [
        "ri",
        "te"
      ],
      [
        "L",
        "L"
      ],
      [
        "gh",
        "t"
      ],
      [
        "_s",
        "t"
      ],
      [
        "J",
        "MP"
      ],
      [
        "p",
        "b"
      ],
      [
        "1",
        "3"
      ],
      [
        "u",
        "t_"
      ],
      [
        "r2",
        "1"
      ],
      [
        "ki",
        "p_"
      ],
      [
        "1",
        "5"
      ],
      [
        "M",
        "O"
      ],
      [
        "en",
        "d"
      ],
      [
        "i",
        "s"
      ],
      [
        "p",
        "o"
      ],
      [
        "g",
        "e"
      ],
      [
        "p",
        "i"
      ],
      [
        "_c",
        "heck_"
      ],
      [
        "ag",
        "ent_"
      ],
      [
        "nex",
        "t_"
      ],
      [
        "mo",
        "ve"
      ],
      [
        "in",
        "it_"
      ],
      [
        "p",
        "ar"
      ],
      [
        "_co",
        "l"
      ],
      [
        "r1",
        "4"
      ],
      [
        "r1",
        "5"
      ],
      [
        "z",
        "e"
      ],
      [
        "st",
        "r"
      ],
      [
        "di",
        "g"
      ],
      [
        "r2",
        "2"
      ],
      [
        "t",
        "y"
      ],
      [
        "ch",
        "k_"
      ],
      [
        "k",
        "e"
      ],
      [
        "s",
        "t_"
      ],
      [
        "2",
        "8"
      ],
      [
        "op",
        "y_"
      ],
      [
        "a",
        "me"
      ],
      [
        "C",
        "A"
      ],
      [
        "tr",
        "y_"
      ],
      [
        "ur",
        "s"
      ],
      [
        "R",
        "A"
      ],
      [
        "6",
        "0"
      ],
      [
        "p",
        "ro"
      ],
      [
        "7",
        "8"
      ],
      [
        "CA",
        "LL"
      ],
      [
        "le",
        "ft"
      ],
      [
        "g",
        "ra"
      ],
      [
        "e",
        "d"
      ],
      [
        "MO",
        "V"
      ],
      [
        "ta",
        "b"
      ],
      [
        "ent_",
        "agent_"
      ],
      [
        "_",
        "re"
      ],
      [
        "_c",
        "si"
      ],
      [
        "d",
        "ate"
      ],
      [
        "t",
        "he"
      ],
      [
        "c",
        "t"
      ],
      [
        "w",
        "rite"
      ],
      [
        "le",
        "_"
      ],
      [
        "b",
        "o"
      ],
      [
        "1",
        "9"
      ],
      [
        "s",
        "ho"
      ],
      [
        "st",
        "o"
      ],
      [
        "b",
        "y"
      ],
      [
        "ar",
        "t"
      ],
      [
        "e",
        "s"
      ],
      [
        "m",
        "a"
      ],
      [
        "1",
        "00"
      ],
      [
        "════════",
        "════════"
      ],
      [
        "en",
        "t"
      ],
      [
        "c",
        "t_"
      ],
      [
        "r1",
        "3"
      ],
      [
        "_s",
        "to"
      ],
      [
        "n",
        "_"
      ],
      [
        "pa",
        "t_"
      ],
      [
        "_s",
        "kip"
      ],
      [
        "ri",
        "ght"
      ],
      [
        "s",
        "kip_"
      ],
      [
        "pb",
        "_csi"
      ],
      [
        "sg",
        "r_"
      ],
      [
        "al",
        "l"
      ],
      [
        "_c",
        "heck"
      ],
      [
        "CMP",
        "I"
      ],
      [
        "ap",
        "p"
      ],
      [
        "4",
        "3"
      ],
      [
        "lo",
        "r"
      ],
      [
        "f",
        "il"
      ],
      [
        "J",
        "Z"
      ],
      [
        "c",
        "lear"
      ],
      [
        "_do",
        "wn"
      ],
      [
        "_s",
        "e"
      ],
      [
        "pa",
        "ce"
      ],
      [
        "_sto",
        "re"
      ],
      [
        "9",
        "0"
      ],
      [
        "25",
        "6"
      ],
      [
        "_c",
        "lear"
      ],
      [
        "u",
        "e"
      ],
      [
        "_",
        "lp"
      ],
      [
        "ve",
        "r"
      ],
      [
        "3",
        "8"
      ],
      [
        "w",
        "a"
      ],
      [
        "c",
        "u"
      ],
      [
        "7",
        "6"
      ],
      [
        "_c",
        "h"
      ],
      [
        "en",
        "d_"
      ],
      [
        "4",
        "8"
      ],
      [
        "J",
        "N"
      ],
      [
        "JN",
        "Z"
      ],
      [
        "sto",
        "re"
      ],
      [
        "_c",
        "opy"
      ],
      [
        "m",
        "i"
      ],
      [
        "rende",
        "r_"
      ],
      [
        "l",
        "l"
      ],
      [
        "in",
        "p"
      ],
      [
        "c",
        "i"
      ],
      [
        "_s",
        "c"
      ],
      [
        "by",
        "te"
      ],
      [
        "t",
        "h"
      ],
      [
        "g",
        "_"
      ],
      [
        "t_",
        "done"
      ],
      [
        "i",
        "on"
      ],
      [
        "te",
        "x"
      ],
      [
        "a",
        "se"
      ],
      [
        "s",
        "ave"
      ],
      [
        "7",
        "7"
      ],
      [
        "_",
        "b"
      ],
      [
        "bu",
        "il"
      ],
      [
        "7",
        "0"
      ],
      [
        "R",
        "O"
      ],
      [
        "ra",
        "me"
      ],
      [
        "m",
        "sg"
      ],
      [
        "S",
        "H"
      ],
      [
        "re",
        "s"
      ],
      [
        "re",
        "en"
      ],
      [
        "ze",
        "ro"
      ],
      [
        "s",
        "kip"
      ],
      [
        "fa",
        "il"
      ],
      [
        "2",
        "00"
      ],
      [
        "t",
        "s"
      ],
      [
        "a",
        "b"
      ],
      [
        "re",
        "d"
      ],
      [
        "r",
        "8"
      ],
      [
        "m",
        "c_"
      ],
      [
        "ne",
        "g"
      ],
      [
        "5",
        "3"
      ],
      [
        "r1",
        "6"
      ],
      [
        "re",
        "t"
      ],
      [
        "h",
        "_"
      ],
      [
        "r2",
        "5"
      ],
      [
        "p",
        "at"
      ],
      [
        "B",
        "U"
      ],
      [
        "f",
        "or"
      ],
      [
        "c",
        "al"
      ],
      [
        "t",
        "t"
      ],
      [
        "o",
        "r_"
      ],
      [
        "c",
        "on"
      ],
      [
        "ta",
        "il"
      ],
      [
        "f",
        "rame"
      ],
      [
        "po",
        "s"
      ],
      [
        "c",
        "d"
      ],
      [
        "dig",
        "it"
      ],
      [
        "w",
        "in"
      ],
      [
        "pb_csi",
        "_"
      ],
      [
        "b",
        "ar"
      ],
      [
        "3",
        "7"
      ],
      [
        "T",
        "E"
      ],
      [
        "S",
        "E"
      ],
      [
        "d",
        "a"
      ],
      [
        "sho",
        "w_"
      ],
      [
        "d",
        "s"
      ],
      [
        "tr",
        "y"
      ],
      [
        "r",
        "un"
      ],
      [
        "BU",
        "F"
      ],
      [
        "se",
        "t_"
      ],
      [
        "3",
        "5"
      ],
      [
        "b",
        "i"
      ],
      [
        "m",
        "m_"
      ],
      [
        "p",
        "re"
      ],
      [
        "str",
        "u"
      ],
      [
        "n",
        "t"
      ],
      [
        "_s",
        "hi"
      ],
      [
        "R",
        "_"
      ],
      [
        "S",
        "U"
      ],
      [
        "0x",
        "FF"
      ],
      [
        "O",
        "P"
      ],
      [
        "S",
        "C"
      ],
      [
        "AD",
        "DI"
      ],
      [
        "pla",
        "y"
      ],
      [
        "c",
        "heck"
      ],
      [
        "w",
        "it"
      ],
      [
        "par",
        "se"
      ],
      [
        "SU",
        "B"
      ],
      [
        "p",
        "er"
      ],
      [
        "lo",
        "w"
      ],
      [
        "di",
        "r"
      ],
      [
        "tex",
        "t"
      ],
      [
        "i",
        "m"
      ],
      [
        "ar",
        "ch"
      ],
      [
        "up",
        "date"
      ],
      [
        "g",
        "o"
      ],
      [
        "ag",
        "e"
      ],
      [
        "h",
        "tt"
      ],
      [
        "_c",
        "on"
      ],
      [
        "c",
        "opy_"
      ],
      [
        "────────",
        "────────"
      ],
      [
        "ke",
        "y"
      ],
      [
        "2",
        "6"
      ],
      [
        "w",
        "ate"
      ],
      [
        "gre",
        "en"
      ],
      [
        "urs",
        "or"
      ],
      [
        "--",
        "--"
      ],
      [
        "co",
        "de"
      ],
      [
        "p",
        "b_"
      ],
      [
        "L",
        "T"
      ],
      [
        "v",
        "i"
      ],
      [
        "RA",
        "M"
      ],
      [
        "b",
        "t"
      ],
      [
        "stru",
        "ct_"
      ],
      [
        "_s",
        "pace"
      ],
      [
        "in",
        "c"
      ],
      [
        "o",
        "f"
      ],
      [
        "i",
        "s_"
      ],
      [
        "ad",
        "d"
      ],
      [
        "ce",
        "_"
      ],
      [
        "rende",
        "r"
      ],
      [
        "3",
        "4"
      ],
      [
        "c",
        "si"
      ],
      [
        "st",
        "art"
      ],
      [
        "mc_",
        "25"
      ],
      [
        "line",
        "s"
      ],
      [
        "o",
        "o"
      ],
      [
        "in",
        "_"
      ],
      [
        "un",
        "t"
      ],
      [
        "pa",
        "wn"
      ],
      [
        "de",
        "bu"
      ],
      [
        "b",
        "ri"
      ],
      [
        "r2",
        "3"
      ],
      [
        "o",
        "ut"
      ],
      [
        "w",
        "u"
      ],
      [
        "st",
        "ate"
      ],
      [
        "r",
        "c"
      ],
      [
        "b",
        "e"
      ],
      [
        "q",
        "u"
      ],
      [
        "a",
        "f"
      ],
      [
        "p",
        "v_"
      ],
      [
        "7",
        "4"
      ],
      [
        "C",
        "O"
      ],
      [
        "o",
        "l"
      ],
      [
        "se",
        "t"
      ],
      [
        "r1",
        "9"
      ],
      [
        "3",
        "6"
      ],
      [
        "m",
        "in"
      ],
      [
        "f",
        "in"
      ],
      [
        "x",
        "el"
      ],
      [
        "c",
        "ti"
      ],
      [
        "_c",
        "m"
      ],
      [
        "9",
        "5"
      ],
      [
        "_",
        "t"
      ],
      [
        "m",
        "on"
      ],
      [
        "N",
        "D"
      ],
      [
        "t_",
        "loop"
      ],
      [
        "mp",
        "le"
      ],
      [
        "us",
        "age"
      ],
      [
        "d",
        "y_"
      ],
      [
        "ad",
        "v"
      ],
      [
        "hi",
        "_"
      ],
      [
        "r3",
        "1"
      ],
      [
        "c",
        "c"
      ],
      [
        "clear",
        "_"
      ],
      [
        "do",
        "wn"
      ],
      [
        "ul",
        "l"
      ],
      [
        "un",
        "d"
      ],
      [
        "te",
        "r_"
      ],
      [
        "2",
        "1"
      ],
      [
        "en",
        "ter"
      ],
      [
        ".",
        "."
      ],
      [
        "u",
        "m"
      ],
      [
        "256",
        "_"
      ],
      [
        "u",
        "te"
      ],
      [
        "_s",
        "tr"
      ],
      [
        "di",
        "v"
      ],
      [
        "n",
        "ame"
      ],
      [
        "4",
        "2"
      ],
      [
        "he",
        "x_"
      ],
      [
        "co",
        "lor"
      ],
      [
        "c",
        "la"
      ],
      [
        "e",
        "mp"
      ],
      [
        "re",
        "g"
      ],
      [
        "X",
        "T"
      ],
      [
        "h",
        "l_"
      ],
      [
        "sc",
        "reen"
      ],
      [
        "i",
        "d"
      ],
      [
        "_c",
        "opy_"
      ],
      [
        "ne",
        "w"
      ],
      [
        "i",
        "_"
      ],
      [
        "me",
        "_"
      ],
      [
        "wate",
        "r"
      ],
      [
        "sc",
        "ro"
      ],
      [
        "5",
        "6"
      ],
      [
        "urs",
        "or_"
      ],
      [
        "_",
        "x"
      ],
      [
        "fi",
        "ne"
      ],
      [
        "de",
        "c"
      ],
      [
        "_c",
        "l"
      ],
      [
        "at",
        "ch"
      ],
      [
        "a",
        "d_"
      ],
      [
        "at",
        "u"
      ],
      [
        "s",
        "256_"
      ],
      [
        "3",
        "9"
      ],
      [
        "ar",
        "d"
      ],
      [
        "P",
        "OP"
      ],
      [
        "pi",
        "xel"
      ],
      [
        "emp",
        "ty"
      ],
      [
        "5",
        "00"
      ],
      [
        "d",
        "x_"
      ],
      [
        "bl",
        "ue"
      ],
      [
        "7",
        "9"
      ],
      [
        "r",
        "m"
      ],
      [
        "c",
        "l"
      ],
      [
        "par",
        "se_"
      ],
      [
        "2",
        "40"
      ],
      [
        "ch",
        "k"
      ],
      [
        "v",
        "is"
      ],
      [
        "ar",
        "g"
      ],
      [
        "to",
        "_"
      ],
      [
        "write",
        "_"
      ],
      [
        "o",
        "s"
      ],
      [
        "ti",
        "le"
      ],
      [
        "ro",
        "w_"
      ],
      [
        "T",
        "I"
      ],
      [
        "ra",
        "n"
      ],
      [
        "f",
        "er"
      ],
      [
        "w",
        "ave"
      ],
      [
        "de",
        "fine"
      ],
      [
        "P",
        "U"
      ],
      [
        "a",
        "ck"
      ],
      [
        "ul",
        "t"
      ],
      [
        "80",
        "8"
      ],
      [
        "_cm",
        "d"
      ],
      [
        "cd",
        "l"
      ],
      [
        "s",
        "pawn"
      ],
      [
        "w",
        "or"
      ],
      [
        "c",
        "a"
      ],
      [
        "n",
        "x"
      ],
      [
        "t",
        "in"
      ],
      [
        "buil",
        "d"
      ],
      [
        "t",
        "k_"
      ],
      [
        "e",
        "t_"
      ],
      [
        "ti",
        "me"
      ],
      [
        "4",
        "9"
      ],
      [
        "s",
        "s_"
      ],
      [
        "bl",
        "d"
      ],
      [
        "c",
        "ro"
      ],
      [
        "re",
        "ad"
      ],
      [
        "PU",
        "SH"
      ],
      [
        "te",
        "p"
      ],
      [
        "w",
        "c_"
      ],
      [
        "cmd_",
        "is_"
      ],
      [
        "bt",
        "n_"
      ],
      [
        "1",
        "000"
      ],
      [
        "TE",
        "XT"
      ],
      [
        "ex",
        "e"
      ],
      [
        "an",
        "im"
      ],
      [
        "mo",
        "de"
      ],
      [
        "U",
        "L"
      ],
      [
        "ke",
        "y_"
      ],
      [
        "at",
        "us"
      ],
      [
        "C",
        "T"
      ],
      [
        "M",
        "UL"
      ],
      [
        "inp",
        "ut"
      ],
      [
        "i",
        "le"
      ],
      [
        "te",
        "st"
      ],
      [
        "gh",
        "t_"
      ],
      [
        "B",
        "LT"
      ],
      [
        "inp",
        "ut_"
      ],
      [
        "3",
        "00"
      ],
      [
        "di",
        "s"
      ],
      [
        "fil",
        "l"
      ],
      [
        "d",
        "n"
      ],
      [
        "do",
        "_s"
      ],
      [
        "y_",
        "loop"
      ],
      [
        "move",
        "_"
      ],
      [
        "te",
        "d"
      ],
      [
        "save",
        "_"
      ],
      [
        "d",
        "f"
      ],
      [
        "r",
        "h_"
      ],
      [
        "wa",
        "it"
      ],
      [
        "htt",
        "p"
      ],
      [
        "_",
        "next"
      ],
      [
        "v",
        "al"
      ],
      [
        "d",
        "r"
      ],
      [
        "fil",
        "l_"
      ],
      [
        "hi",
        "st_"
      ],
      [
        "d",
        "s_"
      ],
      [
        "e",
        "di"
      ],
      [
        "gre",
        "p"
      ],
      [
        "6",
        "4"
      ],
      [
        "gre",
        "p_"
      ],
      [
        "mp",
        "ute"
      ],
      [
        "7",
        "5"
      ],
      [
        "e",
        "sc"
      ],
      [
        "v",
        "a"
      ],
      [
        "2",
        "9"
      ],
      [
        "app",
        "end_"
      ],
      [
        "pa",
        "ss"
      ],
      [
        "7",
        "80"
      ],
      [
        "fi",
        "le"
      ],
      [
        "8",
        "4"
      ],
      [
        "debu",
        "g"
      ],
      [
        "G",
        "E"
      ],
      [
        "pla",
        "ce"
      ],
      [
        "m",
        "c"
      ],
      [
        "ma",
        "in"
      ],
      [
        "he",
        "x"
      ],
      [
        "mp",
        "t"
      ],
      [
        "pat",
        "h"
      ],
      [
        "_p",
        "ro"
      ],
      [
        "_st",
        "art"
      ],
      [
        "st",
        "r_"
      ],
      [
        "at",
        "ion"
      ],
      [
        "================",
        "================"
      ],
      [
        "se",
        "r"
      ],
      [
        "5",
        "10"
      ],
      [
        "buf",
        "fer"
      ],
      [
        "fo",
        "cu"
      ],
      [
        "0x",
        "4"
      ],
      [
        "0000",
        "0000"
      ],
      [
        "focu",
        "s_"
      ],
      [
        "c",
        "v_"
      ],
      [
        "new",
        "line"
      ],
      [
        "d",
        "y"
      ],
      [
        "s",
        "_done"
      ],
      [
        "_p",
        "os"
      ],
      [
        "m",
        "atch"
      ],
      [
        "_s",
        "kip_"
      ],
      [
        "lo",
        "ck"
      ],
      [
        "edi",
        "t_"
      ],
      [
        "1",
        "10"
      ],
      [
        "0",
        "30"
      ],
      [
        "0",
        "40"
      ],
      [
        "3",
        "1"
      ],
      [
        "RE",
        "CT"
      ],
      [
        "parse",
        "_p"
      ],
      [
        "d",
        "r_"
      ],
      [
        "w",
        "hi"
      ],
      [
        "7",
        "00"
      ],
      [
        "h",
        "y"
      ],
      [
        "wit",
        "h"
      ],
      [
        "in",
        "it"
      ],
      [
        "per",
        "vis"
      ],
      [
        "hy",
        "pervis"
      ],
      [
        "o",
        "ver"
      ],
      [
        "ch",
        "ar"
      ],
      [
        "dig",
        "it_"
      ],
      [
        "la",
        "b"
      ],
      [
        "_co",
        "lor"
      ],
      [
        "6",
        "9"
      ],
      [
        "RECT",
        "F"
      ],
      [
        "s",
        "p"
      ],
      [
        "================================",
        "========"
      ],
      [
        "d",
        "p_"
      ],
      [
        "lab",
        "el"
      ],
      [
        "la",
        "y"
      ],
      [
        "0",
        "8"
      ],
      [
        "co",
        "lo"
      ],
      [
        "t",
        "it"
      ],
      [
        "6",
        "5"
      ],
      [
        "pe",
        "_"
      ],
      [
        "co",
        "l"
      ],
      [
        "_sc",
        "an"
      ],
      [
        "buil",
        "d_"
      ],
      [
        "c",
        "p"
      ],
      [
        "er",
        "r"
      ],
      [
        "D",
        "E"
      ],
      [
        "h",
        "p_"
      ],
      [
        "m",
        "p_"
      ],
      [
        "_se",
        "arch"
      ],
      [
        "or",
        "y"
      ],
      [
        "a",
        "i_"
      ],
      [
        "RE",
        "T"
      ],
      [
        "ent_",
        "g"
      ],
      [
        "li",
        "ck"
      ],
      [
        "CO",
        "L"
      ],
      [
        "ST",
        "RO"
      ],
      [
        "l",
        "l_"
      ],
      [
        "f",
        "n"
      ],
      [
        "l",
        "en"
      ],
      [
        "adv",
        "an"
      ],
      [
        "u",
        "b"
      ],
      [
        "ar",
        "k"
      ],
      [
        "c",
        "s"
      ],
      [
        "c",
        "_done"
      ],
      [
        "gra",
        "m"
      ],
      [
        "4",
        "1"
      ],
      [
        "2",
        "3"
      ],
      [
        "re",
        "store"
      ],
      [
        "w",
        "all"
      ],
      [
        "r",
        "st"
      ],
      [
        "u",
        "se"
      ],
      [
        "4",
        "5"
      ],
      [
        "ex",
        "p"
      ],
      [
        "========================================",
        "="
      ],
      [
        "ge",
        "t_"
      ],
      [
        "whi",
        "te"
      ],
      [
        "f",
        "ro"
      ],
      [
        "bi",
        "o"
      ],
      [
        "n",
        "ing"
      ],
      [
        "════════════════",
        "════════════════"
      ],
      [
        "w",
        "ra"
      ],
      [
        "z",
        "oo"
      ],
      [
        "h",
        "u"
      ],
      [
        "b",
        "ack"
      ],
      [
        "in",
        "k"
      ],
      [
        "b",
        "it"
      ],
      [
        "c",
        "ursor"
      ],
      [
        "7",
        "2"
      ],
      [
        "fro",
        "m"
      ],
      [
        "B",
        "GE"
      ],
      [
        "R",
        "e"
      ],
      [
        "2",
        "_"
      ],
      [
        "c",
        "il"
      ],
      [
        "x",
        "_loop"
      ],
      [
        "_c",
        "ursor_"
      ],
      [
        "t",
        "op"
      ],
      [
        "next_",
        "row"
      ],
      [
        "c",
        "le"
      ],
      [
        "st",
        "ar"
      ],
      [
        "r_",
        "loop"
      ],
      [
        "al",
        "_"
      ],
      [
        "I",
        "N"
      ],
      [
        "no",
        "t"
      ],
      [
        "si",
        "on"
      ],
      [
        "fa",
        "ile"
      ],
      [
        "_ch",
        "ar"
      ],
      [
        "p",
        "h"
      ],
      [
        "25",
        "5"
      ],
      [
        "_shi",
        "ft"
      ],
      [
        "scro",
        "ll"
      ],
      [
        "5",
        "30"
      ],
      [
        "c",
        "y"
      ],
      [
        "c",
        "opy"
      ],
      [
        "_c",
        "la"
      ],
      [
        "st",
        "ri"
      ],
      [
        "out",
        "p"
      ],
      [
        "ur",
        "l_"
      ],
      [
        "c",
        "n"
      ],
      [
        "_s",
        "ave"
      ],
      [
        "ch",
        "_"
      ],
      [
        "pi",
        "pe"
      ],
      [
        "y",
        "s"
      ],
      [
        "g",
        "m_"
      ],
      [
        "se",
        "l_"
      ],
      [
        "s",
        "b_"
      ],
      [
        "s",
        "a"
      ],
      [
        "O",
        "R"
      ],
      [
        "g",
        "le"
      ],
      [
        "0",
        "20"
      ],
      [
        "_",
        "BUF"
      ],
      [
        "it",
        "ion"
      ],
      [
        "ex",
        "t"
      ],
      [
        "12",
        "8"
      ],
      [
        "FF",
        "FF"
      ],
      [
        "h",
        "and"
      ],
      [
        "ter",
        "n"
      ],
      [
        "fo",
        "und"
      ],
      [
        "1",
        "20"
      ],
      [
        "n",
        "um"
      ],
      [
        "p",
        "on"
      ],
      [
        "gra",
        "ss"
      ],
      [
        "17",
        "0"
      ],
      [
        "4",
        "10"
      ],
      [
        "y",
        "el"
      ],
      [
        "_s",
        "i"
      ],
      [
        "4",
        "18"
      ],
      [
        "4",
        "28"
      ],
      [
        "4",
        "30"
      ],
      [
        "p",
        "s"
      ],
      [
        "lo",
        "se"
      ],
      [
        "m",
        "m"
      ],
      [
        "--",
        "-"
      ],
      [
        "g",
        "ame"
      ],
      [
        "bl",
        "end"
      ],
      [
        "C",
        "H"
      ],
      [
        "L",
        "E"
      ],
      [
        "bri",
        "ck"
      ],
      [
        "8",
        "00"
      ],
      [
        "G",
        "e"
      ],
      [
        "d_",
        "loop"
      ],
      [
        "d",
        "_done"
      ],
      [
        "0x",
        "6"
      ],
      [
        "p",
        "r"
      ],
      [
        "ent_",
        "render_"
      ],
      [
        "ti",
        "le_"
      ],
      [
        "fi",
        "rst"
      ],
      [
        "la",
        "va"
      ],
      [
        "ho",
        "st_"
      ],
      [
        "af",
        "ter"
      ],
      [
        "faile",
        "d"
      ],
      [
        "at",
        "t_"
      ],
      [
        "i",
        "m_"
      ],
      [
        "33",
        "33"
      ],
      [
        "fin",
        "d_"
      ],
      [
        "r2",
        "6"
      ],
      [
        "al",
        "i"
      ],
      [
        "_se",
        "t"
      ],
      [
        "a",
        "cti"
      ],
      [
        "c",
        "b"
      ],
      [
        "9",
        "7"
      ],
      [
        "qu",
        "it"
      ],
      [
        "co",
        "mpute"
      ],
      [
        "f",
        "w_"
      ],
      [
        "mm_",
        "ent_"
      ],
      [
        "lo",
        "ad"
      ],
      [
        "r",
        "h"
      ],
      [
        "nt",
        "s_"
      ],
      [
        "_",
        "msg"
      ],
      [
        "n",
        "ull"
      ],
      [
        "not_",
        "p"
      ],
      [
        "8",
        "5"
      ],
      [
        "A",
        "ND"
      ],
      [
        "7",
        "3"
      ],
      [
        "11",
        "4"
      ],
      [
        "3",
        "10"
      ],
      [
        "4",
        "7"
      ],
      [
        "pro",
        "gram"
      ],
      [
        "7",
        "1"
      ],
      [
        "cm",
        "d"
      ],
      [
        "en",
        "ter_"
      ],
      [
        "22",
        "22"
      ],
      [
        "yel",
        "low"
      ],
      [
        "6",
        "00"
      ],
      [
        "co",
        "un"
      ],
      [
        "dis",
        "play"
      ],
      [
        "4",
        "33"
      ],
      [
        "6",
        "24"
      ],
      [
        "R",
        "I"
      ],
      [
        "4",
        "24"
      ],
      [
        "a",
        "re"
      ],
      [
        "or",
        "t"
      ],
      [
        "9",
        "3"
      ],
      [
        "r2",
        "4"
      ],
      [
        "de",
        "r"
      ],
      [
        "_c",
        "ursor"
      ],
      [
        "f",
        "e"
      ],
      [
        "44",
        "44"
      ],
      [
        "app",
        "end"
      ],
      [
        "h",
        "as"
      ],
      [
        "p",
        "_done"
      ],
      [
        "ch",
        "o"
      ],
      [
        "d",
        "c_"
      ],
      [
        "d",
        "ark"
      ],
      [
        "re",
        "set_"
      ],
      [
        "l",
        "s"
      ],
      [
        "csi",
        "_cursor_"
      ],
      [
        "a",
        "mon"
      ],
      [
        "no",
        "n"
      ],
      [
        "s",
        "pace"
      ],
      [
        "in",
        "de"
      ],
      [
        "_s",
        "p"
      ],
      [
        "es",
        "c_"
      ],
      [
        "sgr_",
        "bri"
      ],
      [
        "sgr_bri",
        "ght_"
      ],
      [
        "di",
        "amon"
      ],
      [
        "hi",
        "st"
      ],
      [
        "spawn",
        "_"
      ],
      [
        "_c",
        "re"
      ],
      [
        "b",
        "ase"
      ],
      [
        "re",
        "di"
      ],
      [
        "cal",
        "c_"
      ],
      [
        "----",
        "----"
      ],
      [
        "a",
        "sc"
      ],
      [
        "_st",
        "atus"
      ],
      [
        "tit",
        "le"
      ],
      [
        "_",
        "y"
      ],
      [
        "_",
        "ok"
      ],
      [
        "anim",
        "al"
      ],
      [
        "_",
        "fail"
      ],
      [
        "c",
        "b_"
      ],
      [
        "_co",
        "unt"
      ],
      [
        "atu",
        "s_"
      ],
      [
        "inde",
        "x"
      ],
      [
        "P",
        "SE"
      ],
      [
        "k",
        "no"
      ],
      [
        "m",
        "t"
      ],
      [
        "he",
        "ad_"
      ],
      [
        "s",
        "in"
      ],
      [
        "in",
        "t"
      ],
      [
        "zoo",
        "m_"
      ],
      [
        "b",
        "er"
      ],
      [
        "ent_agent_",
        "ho"
      ],
      [
        "m",
        "ar"
      ],
      [
        "_s",
        "ho"
      ],
      [
        "_con",
        "te"
      ],
      [
        "e",
        "ne"
      ],
      [
        "sho",
        "w"
      ],
      [
        "kno",
        "wn"
      ],
      [
        "1",
        "50"
      ],
      [
        "c",
        "p_"
      ],
      [
        "m",
        "k_"
      ],
      [
        "s",
        "n_"
      ],
      [
        "_c",
        "1"
      ],
      [
        "ra",
        "in"
      ],
      [
        "pv_",
        "op"
      ],
      [
        "2",
        "20"
      ],
      [
        "r2",
        "7"
      ],
      [
        "5",
        "4"
      ],
      [
        "row",
        "s"
      ],
      [
        "m",
        "ul"
      ],
      [
        "O",
        "N"
      ],
      [
        "i",
        "f"
      ],
      [
        "g",
        "ri"
      ],
      [
        "5",
        "33"
      ],
      [
        "dra",
        "g"
      ],
      [
        "do_",
        "re"
      ],
      [
        "8",
        "3"
      ],
      [
        "se",
        "l"
      ],
      [
        "O",
        "S"
      ],
      [
        "f",
        "un"
      ],
      [
        "0x",
        "0"
      ],
      [
        "co",
        "unt"
      ],
      [
        "0x",
        "00"
      ],
      [
        "of",
        "f"
      ],
      [
        "op",
        "code"
      ],
      [
        "res",
        "ult"
      ],
      [
        "se",
        "m"
      ],
      [
        "sc",
        "an"
      ],
      [
        "ab",
        "s"
      ],
      [
        "pat",
        "tern"
      ],
      [
        "r2",
        "8"
      ],
      [
        "_",
        "3"
      ],
      [
        "non",
        "zero"
      ],
      [
        "8",
        "1"
      ],
      [
        "co",
        "re"
      ],
      [
        "11",
        "6"
      ],
      [
        "un",
        "known"
      ],
      [
        "pro",
        "ce"
      ],
      [
        "e",
        "q"
      ],
      [
        "_co",
        "un"
      ],
      [
        "_sc",
        "reen"
      ],
      [
        "bld",
        "g_"
      ],
      [
        "op",
        "en"
      ],
      [
        "A",
        "R"
      ],
      [
        "main",
        "_loop"
      ],
      [
        "_pro",
        "mpt"
      ],
      [
        "cti",
        "on"
      ],
      [
        "no",
        "_c"
      ],
      [
        "e",
        "ra"
      ],
      [
        "m",
        "ent"
      ],
      [
        "10",
        "1"
      ],
      [
        "pi",
        "ck"
      ],
      [
        "acti",
        "ve"
      ],
      [
        "pos",
        "ition"
      ],
      [
        "as",
        "sem"
      ],
      [
        "A",
        "N"
      ],
      [
        "h",
        "it"
      ],
      [
        "to",
        "ol"
      ],
      [
        "li",
        "ght"
      ],
      [
        "cro",
        "ss"
      ],
      [
        "bo",
        "t"
      ],
      [
        "pre",
        "v_"
      ],
      [
        "pb_",
        "esc_"
      ],
      [
        "w",
        "d"
      ],
      [
        "re",
        "ct_"
      ],
      [
        "mc",
        "_check_"
      ],
      [
        "tool",
        "ti"
      ],
      [
        "p",
        "n"
      ],
      [
        "S",
        "I"
      ],
      [
        "b",
        "_loop"
      ],
      [
        "d",
        "x"
      ],
      [
        "u",
        "p_"
      ],
      [
        "us",
        "h"
      ],
      [
        "l",
        "y"
      ],
      [
        "l",
        "p_"
      ],
      [
        "ne",
        "r"
      ],
      [
        "draw_",
        "win"
      ],
      [
        "htt",
        "p_"
      ],
      [
        "asc",
        "i"
      ],
      [
        "6",
        "8"
      ],
      [
        "0",
        "3"
      ],
      [
        "cal",
        "l_"
      ],
      [
        "_shi",
        "f"
      ],
      [
        "il",
        "l"
      ],
      [
        "b",
        "lock"
      ],
      [
        "88",
        "88"
      ],
      [
        "buf",
        "_"
      ],
      [
        "update",
        "_"
      ],
      [
        "T",
        "he"
      ],
      [
        "i",
        "ce"
      ],
      [
        "ra",
        "w"
      ],
      [
        ")",
        ","
      ],
      [
        "w",
        "e"
      ],
      [
        "store",
        "_"
      ],
      [
        "_copy",
        "_done"
      ],
      [
        "d",
        "t_"
      ],
      [
        "o",
        "t"
      ],
      [
        "s",
        "tep"
      ],
      [
        "se",
        "arch"
      ],
      [
        "ca",
        "t_"
      ],
      [
        "ent_agent_ho",
        "me_"
      ],
      [
        "F",
        "RAM"
      ],
      [
        "g",
        "d_"
      ],
      [
        "w",
        "oo"
      ],
      [
        "pat_",
        "di"
      ],
      [
        "no",
        "w"
      ],
      [
        "run",
        "ning"
      ],
      [
        "advan",
        "ce_"
      ],
      [
        "5",
        "2"
      ],
      [
        "6",
        "7"
      ],
      [
        "c",
        "ted"
      ],
      [
        "t",
        "not"
      ],
      [
        "st",
        "atus_"
      ],
      [
        "chk_",
        "p"
      ],
      [
        "wu",
        "_"
      ],
      [
        "chk",
        "_s"
      ],
      [
        "bio",
        "me"
      ],
      [
        "FRAM",
        "E"
      ],
      [
        "t",
        "ur"
      ],
      [
        "mi",
        "ne"
      ],
      [
        "mm",
        "and"
      ],
      [
        "p",
        "x"
      ],
      [
        "D",
        "raw"
      ],
      [
        "s",
        "k"
      ],
      [
        "hi",
        "s"
      ],
      [
        "C",
        "heck"
      ],
      [
        "COL",
        "S"
      ],
      [
        "C",
        "U"
      ],
      [
        "o",
        "ne"
      ],
      [
        "u",
        "to"
      ],
      [
        "0x",
        "F"
      ],
      [
        "dir",
        "ty"
      ],
      [
        "1",
        "30"
      ],
      [
        "e",
        "ce"
      ],
      [
        "I",
        "n"
      ],
      [
        "T",
        "CH"
      ],
      [
        "0",
        "50"
      ],
      [
        "9",
        "6"
      ],
      [
        "bld",
        "g"
      ],
      [
        "re",
        "st"
      ],
      [
        "il",
        "d"
      ],
      [
        "num",
        "ber"
      ],
      [
        "i",
        "ght"
      ],
      [
        "id",
        "le"
      ],
      [
        "8",
        "2"
      ],
      [
        "f",
        "l"
      ],
      [
        "RO",
        "W"
      ],
      [
        "m",
        "ag"
      ],
      [
        "p",
        "op"
      ],
      [
        "====",
        "="
      ],
      [
        "0000",
        "000"
      ],
      [
        "ur",
        "ren"
      ],
      [
        "no",
        "rm"
      ],
      [
        "digit",
        "s"
      ],
      [
        "4",
        "00"
      ],
      [
        "con",
        "to"
      ],
      [
        "11",
        "11"
      ],
      [
        "5",
        "50"
      ],
      [
        "at",
        "h"
      ],
      [
        "ter",
        "min"
      ],
      [
        "tin",
        "ue"
      ],
      [
        "e",
        "cho"
      ],
      [
        "res",
        "pon"
      ],
      [
        "────────────────",
        "────────────────"
      ],
      [
        "55",
        "55"
      ],
      [
        "e",
        "r_"
      ],
      [
        "f",
        "ull"
      ],
      [
        "re",
        "e"
      ],
      [
        "e",
        "a"
      ],
      [
        "i",
        "ali"
      ],
      [
        "D",
        "RA"
      ],
      [
        "e",
        "m"
      ],
      [
        "l",
        "u"
      ],
      [
        "play",
        "er"
      ],
      [
        "N",
        "E"
      ],
      [
        "ro",
        "r"
      ],
      [
        "cd",
        "c"
      ],
      [
        "_con",
        "tinue"
      ],
      [
        "_sp",
        "rite"
      ],
      [
        "hist",
        "ory"
      ],
      [
        "2",
        "7"
      ],
      [
        "r",
        "w"
      ],
      [
        "bl",
        "y"
      ],
      [
        "RA",
        "TCH"
      ],
      [
        "SC",
        "RATCH"
      ],
      [
        "_cl",
        "r"
      ],
      [
        "9",
        "2"
      ],
      [
        "_s",
        "h"
      ],
      [
        "lo",
        "se_"
      ],
      [
        "ti",
        "on"
      ],
      [
        "66",
        "66"
      ],
      [
        "csi",
        "_"
      ],
      [
        "C",
        "C"
      ],
      [
        "C",
        "o"
      ],
      [
        "go",
        "to"
      ],
      [
        "u",
        "ard"
      ],
      [
        "ar",
        "d_"
      ],
      [
        "an",
        "gle"
      ],
      [
        "_cre",
        "atu"
      ],
      [
        "8",
        "9"
      ],
      [
        "tail",
        "_"
      ],
      [
        "is",
        "ter"
      ],
      [
        "_ch",
        "k"
      ],
      [
        "div",
        "_loop"
      ],
      [
        "hypervis",
        "or_"
      ],
      [
        "P",
        "A"
      ],
      [
        "c",
        "c_"
      ],
      [
        "r",
        "l"
      ],
      [
        "d_",
        "ok"
      ],
      [
        "ri",
        "es"
      ],
      [
        "wa",
        "it_"
      ],
      [
        "7",
        "40"
      ],
      [
        "x",
        "_done"
      ],
      [
        "pla",
        "ce_"
      ],
      [
        "_ch",
        "k_"
      ],
      [
        "_space",
        "s"
      ],
      [
        "_st",
        "ri"
      ],
      [
        "pb",
        "t_"
      ],
      [
        "http",
        "_stri"
      ],
      [
        "assem",
        "bly"
      ],
      [
        "_",
        "up"
      ],
      [
        "c",
        "s_"
      ],
      [
        "s",
        "p_"
      ],
      [
        "w",
        "c"
      ],
      [
        "he",
        "lp"
      ],
      [
        "p_",
        "loop"
      ],
      [
        "un",
        "d_"
      ],
      [
        "not_",
        "up"
      ],
      [
        "er",
        "ror"
      ],
      [
        "fo",
        "und_"
      ],
      [
        "cla",
        "im_"
      ],
      [
        "c",
        "r_"
      ],
      [
        "ent_",
        "pro"
      ],
      [
        "_conte",
        "nt"
      ],
      [
        "woo",
        "d"
      ],
      [
        "d",
        "t"
      ],
      [
        "h",
        "l"
      ],
      [
        "w",
        "s"
      ],
      [
        "re",
        "v"
      ],
      [
        "di",
        "f"
      ],
      [
        "ci",
        "p_"
      ],
      [
        "af",
        "ter_"
      ],
      [
        "outp",
        "ut"
      ],
      [
        "url_",
        "parse_p"
      ],
      [
        "a",
        "agent_"
      ],
      [
        "b",
        "p_"
      ],
      [
        "l",
        "d"
      ],
      [
        "o",
        "r3"
      ],
      [
        "t",
        "ra"
      ],
      [
        "ent_",
        "aagent_"
      ],
      [
        "ti",
        "ps"
      ],
      [
        "x_",
        "ok"
      ],
      [
        "run",
        "_"
      ],
      [
        "usage",
        "_msg"
      ],
      [
        "hl_",
        "tips"
      ],
      [
        "redi",
        "rect_"
      ],
      [
        "DRA",
        "W"
      ],
      [
        "e",
        "w"
      ],
      [
        "44",
        "22"
      ],
      [
        "ty",
        "pe"
      ],
      [
        "se",
        "p"
      ],
      [
        "at",
        "a"
      ],
      [
        "te",
        "n"
      ],
      [
        "ra",
        "te"
      ],
      [
        "5",
        "40"
      ],
      [
        "8",
        "7"
      ],
      [
        "00",
        "44"
      ],
      [
        "0xFF",
        "FFFF"
      ],
      [
        "_re",
        "g"
      ],
      [
        "TI",
        "ON"
      ],
      [
        "-",
        ">"
      ],
      [
        "it",
        "y"
      ],
      [
        "ra",
        "t"
      ],
      [
        "he",
        "r"
      ],
      [
        "r",
        "u"
      ],
      [
        "m",
        "s"
      ],
      [
        "b",
        "le"
      ],
      [
        "c",
        "us"
      ],
      [
        "0x",
        "2"
      ],
      [
        "fa",
        "ult"
      ],
      [
        "mar",
        "k_"
      ],
      [
        "CU",
        "R_"
      ],
      [
        "tab",
        "le"
      ],
      [
        "scro",
        "ll_"
      ],
      [
        "6",
        "3"
      ],
      [
        "al",
        "ar"
      ],
      [
        "s",
        "wit"
      ],
      [
        "b",
        "or"
      ],
      [
        "re",
        "c"
      ],
      [
        "ta",
        "b_"
      ],
      [
        "c",
        "r"
      ],
      [
        "w",
        "an"
      ],
      [
        "hypervis",
        "or"
      ],
      [
        "s",
        "in_"
      ],
      [
        "ph",
        "ase"
      ],
      [
        "S",
        "e"
      ],
      [
        "DE",
        "SC"
      ],
      [
        "stri",
        "pe"
      ],
      [
        "DRAW",
        "TEXT"
      ],
      [
        "li",
        "sion"
      ],
      [
        "SH",
        "R"
      ],
      [
        "RI",
        "P"
      ],
      [
        "i",
        "b"
      ],
      [
        "t",
        "ree"
      ],
      [
        "he",
        "ad"
      ],
      [
        "DESC",
        "RIP"
      ],
      [
        "DESCRIP",
        "TION"
      ],
      [
        "c",
        "ursor_"
      ],
      [
        "d",
        "ata"
      ],
      [
        "as",
        "m"
      ],
      [
        "esc",
        "ap"
      ],
      [
        "s",
        "q"
      ],
      [
        "to",
        "_str"
      ],
      [
        "la",
        "p"
      ],
      [
        "has",
        "h"
      ],
      [
        "4",
        "6"
      ],
      [
        "d",
        "b"
      ],
      [
        "══",
        "═"
      ],
      [
        "ce",
        "l"
      ],
      [
        "ce",
        "p"
      ],
      [
        "Ge",
        "OS"
      ],
      [
        "P",
        "_"
      ],
      [
        "9",
        "4"
      ],
      [
        "_",
        "2"
      ],
      [
        "h",
        "ave"
      ],
      [
        "de",
        "fault"
      ],
      [
        "ds",
        "b_"
      ],
      [
        "vi",
        "ew"
      ],
      [
        "c",
        "an"
      ],
      [
        "s",
        "pe"
      ],
      [
        "ent",
        "ries"
      ],
      [
        "debu",
        "g_"
      ],
      [
        "0",
        "2"
      ],
      [
        "s",
        "core"
      ],
      [
        "hand",
        "le_"
      ],
      [
        "h",
        "m"
      ],
      [
        "ci",
        "rc"
      ],
      [
        "sa",
        "mple"
      ],
      [
        "asci",
        "i"
      ],
      [
        "c",
        "lick"
      ],
      [
        "y",
        "pre"
      ],
      [
        "ne",
        "w_"
      ],
      [
        "pb",
        "_check_"
      ],
      [
        "bo",
        "ard"
      ],
      [
        "name",
        "_done"
      ],
      [
        "sk",
        "y_"
      ],
      [
        "bot",
        "to"
      ],
      [
        "a",
        "t_"
      ],
      [
        "n",
        "_done"
      ],
      [
        "str",
        "ing"
      ],
      [
        "mc",
        "_check"
      ],
      [
        "A",
        "A"
      ],
      [
        "T",
        "his"
      ],
      [
        "s",
        "o"
      ],
      [
        "re",
        "set"
      ],
      [
        "PSE",
        "T"
      ],
      [
        "k",
        "ill"
      ],
      [
        "sgr_",
        "ext"
      ],
      [
        "respon",
        "se"
      ],
      [
        "_creatu",
        "re"
      ],
      [
        "c",
        "he"
      ],
      [
        "m",
        "y_"
      ],
      [
        "FF",
        "00"
      ],
      [
        "99",
        "99"
      ],
      [
        "_",
        "label"
      ],
      [
        "d",
        "n_"
      ],
      [
        "f",
        "la"
      ],
      [
        "m",
        "g"
      ],
      [
        "v",
        "_done"
      ],
      [
        "l_",
        "ok"
      ],
      [
        "_clear",
        "_"
      ],
      [
        "colo",
        "r_"
      ],
      [
        "_cla",
        "mp"
      ],
      [
        "11",
        "00"
      ],
      [
        "ct",
        "s_"
      ],
      [
        "bo",
        "un"
      ],
      [
        "K",
        "E"
      ],
      [
        "exe",
        "cu"
      ],
      [
        "df",
        "_b"
      ],
      [
        "0",
        "6"
      ],
      [
        "d_",
        "x"
      ],
      [
        "════",
        "═══"
      ],
      [
        "fi",
        "x"
      ],
      [
        "state",
        "_"
      ],
      [
        "_",
        "pass"
      ],
      [
        "i",
        "te"
      ],
      [
        "t",
        "b"
      ],
      [
        "_c",
        "p"
      ],
      [
        "_do",
        "_"
      ],
      [
        "ar",
        "row"
      ],
      [
        "he",
        "lp_"
      ],
      [
        "ro",
        "t_"
      ],
      [
        "d_",
        "y"
      ],
      [
        "ce",
        "ll"
      ],
      [
        "draw_",
        "h"
      ],
      [
        "draw_",
        "v"
      ],
      [
        "_shif",
        "t_done"
      ],
      [
        "9",
        "00"
      ],
      [
        "ce",
        "p_"
      ],
      [
        "════════",
        "═══════"
      ],
      [
        "hu",
        "d_"
      ],
      [
        "F",
        "I"
      ],
      [
        "_",
        "tab"
      ],
      [
        "_s",
        "end_"
      ],
      [
        "le",
        "f"
      ],
      [
        "reg",
        "ister"
      ],
      [
        "http",
        "_send_"
      ],
      [
        "ent_g",
        "host_"
      ],
      [
        "d",
        "b_"
      ],
      [
        "in",
        "t_"
      ],
      [
        "wra",
        "p_"
      ],
      [
        "coun",
        "ter"
      ],
      [
        "_sho",
        "w"
      ],
      [
        "fun",
        "c_"
      ],
      [
        "dt",
        "b_"
      ],
      [
        "2",
        "or3"
      ],
      [
        "he",
        "al_"
      ],
      [
        "no",
        "w_"
      ],
      [
        "ent_",
        "ai_"
      ],
      [
        "ent_",
        "toolti"
      ],
      [
        "pa",
        "ss_"
      ],
      [
        "no_",
        "match"
      ],
      [
        "show_",
        "mine"
      ],
      [
        "hi_",
        "ok"
      ],
      [
        "dx_",
        "neg"
      ],
      [
        "cl",
        "r_"
      ],
      [
        "nx",
        "t_"
      ],
      [
        "_si",
        "mple"
      ],
      [
        "pv_op",
        "_"
      ],
      [
        "ent_toolti",
        "p_"
      ],
      [
        "0x",
        "1"
      ],
      [
        "tail",
        "_skip_"
      ],
      [
        "dr",
        "op"
      ],
      [
        "sb_",
        "fn"
      ],
      [
        "A",
        "LT"
      ],
      [
        "8",
        "000"
      ],
      [
        "M",
        "A"
      ],
      [
        "KE",
        "Y"
      ],
      [
        "5",
        "32"
      ],
      [
        "6",
        "90"
      ],
      [
        "9",
        "20"
      ],
      [
        "t",
        "ri"
      ],
      [
        "33",
        "22"
      ],
      [
        "18",
        "18"
      ],
      [
        "i",
        "c"
      ],
      [
        "r2",
        "9"
      ],
      [
        "_",
        "1"
      ],
      [
        "0",
        "808"
      ],
      [
        "0x",
        "7"
      ],
      [
        "al",
        "l_"
      ],
      [
        "6",
        "2"
      ],
      [
        "ed",
        "it"
      ],
      [
        "en",
        "try"
      ],
      [
        "B",
        "A"
      ],
      [
        "G",
        "_"
      ],
      [
        "re",
        "ct"
      ],
      [
        "SH",
        "L"
      ],
      [
        "add",
        "r"
      ],
      [
        "gri",
        "d"
      ],
      [
        "SI",
        "_"
      ],
      [
        "fo",
        "cus"
      ],
      [
        "ra",
        "c"
      ],
      [
        "b",
        "ran"
      ],
      [
        "st",
        "s"
      ],
      [
        "dra",
        "in"
      ],
      [
        "0x",
        "5"
      ],
      [
        "to",
        "g"
      ],
      [
        "en",
        "dif"
      ],
      [
        "el",
        "se_"
      ],
      [
        "A",
        "I"
      ],
      [
        "star",
        "t_"
      ],
      [
        "vi",
        "si"
      ],
      [
        "wall",
        "s"
      ],
      [
        "ed",
        "ge"
      ],
      [
        "me",
        "m"
      ],
      [
        "════════════════",
        "═══════════════"
      ],
      [
        "mon",
        "th"
      ],
      [
        "════════════════════════════════",
        "═══════════════════════════════"
      ],
      [
        "wra",
        "p"
      ],
      [
        "c",
        "urren"
      ],
      [
        "y",
        "es"
      ],
      [
        "mo",
        "use"
      ],
      [
        "_col",
        "lision"
      ],
      [
        "9",
        "8"
      ],
      [
        "P",
        "I"
      ],
      [
        "_",
        "to_"
      ],
      [
        "in",
        "ser"
      ],
      [
        "D",
        "e"
      ],
      [
        "h",
        "al"
      ],
      [
        "o",
        "sc"
      ],
      [
        "ge",
        "t"
      ],
      [
        "bi",
        "as"
      ],
      [
        "C",
        "on"
      ],
      [
        "24",
        "5"
      ],
      [
        "H",
        "ALT"
      ],
      [
        "T",
        "Y"
      ],
      [
        "ar",
        "row_"
      ],
      [
        "bu",
        "l"
      ],
      [
        "mi",
        "d"
      ],
      [
        "read",
        "y"
      ],
      [
        "termin",
        "ate"
      ],
      [
        "E",
        "R"
      ],
      [
        "10",
        "5"
      ],
      [
        "la",
        "ck"
      ],
      [
        "parse",
        "_done"
      ],
      [
        "h",
        "a"
      ],
      [
        "10",
        "4"
      ],
      [
        "draw",
        "_s"
      ],
      [
        "5",
        "1"
      ],
      [
        "b",
        "_done"
      ],
      [
        "_s",
        "ys"
      ],
      [
        "bt",
        "n"
      ],
      [
        "clear_",
        "buf"
      ],
      [
        "s",
        "ma"
      ],
      [
        "s",
        "end_"
      ],
      [
        "u",
        "r_"
      ],
      [
        "fo",
        "o"
      ],
      [
        "sto",
        "ne"
      ],
      [
        "cu",
        "r_"
      ],
      [
        "check",
        "_s"
      ],
      [
        "proce",
        "ss_"
      ],
      [
        "S",
        "_"
      ],
      [
        "c",
        "lose_"
      ],
      [
        "x",
        "blend"
      ],
      [
        "_c",
        "lose"
      ],
      [
        "ch",
        "a"
      ],
      [
        "30",
        "30"
      ],
      [
        "ho",
        "st"
      ],
      [
        "ro",
        "t"
      ],
      [
        "us",
        "ing"
      ],
      [
        "pla",
        "sma"
      ],
      [
        "mi",
        "x"
      ],
      [
        "play",
        "er_"
      ],
      [
        "_cl",
        "r_loop"
      ],
      [
        "val",
        "u"
      ],
      [
        "_sh",
        "r"
      ],
      [
        "R",
        "o"
      ],
      [
        "m",
        "t_"
      ],
      [
        "0x",
        "40"
      ],
      [
        "r3",
        "0"
      ],
      [
        "at",
        "or"
      ],
      [
        "ki",
        "ck"
      ],
      [
        "pro",
        "be"
      ],
      [
        "ma",
        "in_"
      ],
      [
        "ene",
        "my_"
      ],
      [
        "botto",
        "m"
      ],
      [
        "c",
        "l_"
      ],
      [
        "f",
        "8"
      ],
      [
        "p",
        "an"
      ],
      [
        "r",
        "r"
      ],
      [
        "s",
        "d_"
      ],
      [
        "ne",
        "l"
      ],
      [
        "in",
        "ner"
      ],
      [
        "0x",
        "780"
      ],
      [
        "ut",
        "f8"
      ],
      [
        "ci",
        "c"
      ],
      [
        "cdl",
        "_c"
      ],
      [
        "cs",
        "r_"
      ],
      [
        "conto",
        "ur_"
      ],
      [
        "curren",
        "t"
      ],
      [
        "inser",
        "t_"
      ],
      [
        "g",
        "uard"
      ],
      [
        "m",
        "ap"
      ],
      [
        "an",
        "d_"
      ],
      [
        "next_",
        "line"
      ],
      [
        "find_",
        "end"
      ],
      [
        "d",
        "c"
      ],
      [
        "s",
        "d"
      ],
      [
        "s",
        "y_"
      ],
      [
        "he",
        "al"
      ],
      [
        "10",
        "8"
      ],
      [
        "44",
        "66"
      ],
      [
        "ty",
        "pe_"
      ],
      [
        "fin",
        "d"
      ],
      [
        "tin",
        "t_"
      ],
      [
        "ve",
        "_"
      ],
      [
        "pro",
        "mpt"
      ],
      [
        "outp",
        "ut_"
      ],
      [
        "b",
        "k"
      ],
      [
        "d",
        "da"
      ],
      [
        "t",
        "c_"
      ],
      [
        "w",
        "l"
      ],
      [
        "w",
        "r"
      ],
      [
        "lo",
        "_"
      ],
      [
        "an",
        "up"
      ],
      [
        "16",
        "2"
      ],
      [
        "as",
        "m_"
      ],
      [
        "_st",
        "ar"
      ],
      [
        "gra",
        "v_"
      ],
      [
        "ed",
        "mg"
      ],
      [
        "wor",
        "l"
      ],
      [
        "do_s",
        "ho"
      ],
      [
        "init",
        "iali"
      ],
      [
        "hp_",
        "bk"
      ],
      [
        "stri",
        "pe_"
      ],
      [
        "swit",
        "ch_"
      ],
      [
        "cts_",
        "tab"
      ],
      [
        "tc_",
        "pick"
      ],
      [
        "E",
        "L"
      ],
      [
        "f",
        "w"
      ],
      [
        "_c",
        "y"
      ],
      [
        "_c",
        "at"
      ],
      [
        "_pro",
        "mp"
      ],
      [
        "hand",
        "le"
      ],
      [
        "m",
        "v_"
      ],
      [
        "p",
        "v"
      ],
      [
        "s",
        "u"
      ],
      [
        "s",
        "w_"
      ],
      [
        "u",
        "2"
      ],
      [
        "w",
        "d_"
      ],
      [
        "_c",
        "or"
      ],
      [
        "_s",
        "and"
      ],
      [
        "10",
        "3"
      ],
      [
        "not_",
        "down"
      ],
      [
        "si",
        "de"
      ],
      [
        "line",
        "_loop"
      ],
      [
        "_re",
        "v"
      ],
      [
        "dir",
        "t"
      ],
      [
        "cla",
        "mp_"
      ],
      [
        "row_",
        "loop"
      ],
      [
        "uto",
        "a"
      ],
      [
        "g",
        "row"
      ],
      [
        "i",
        "c_"
      ],
      [
        "r",
        "y"
      ],
      [
        "u",
        "c_"
      ],
      [
        "u",
        "b_"
      ],
      [
        "u",
        "ard_"
      ],
      [
        "_do",
        "t"
      ],
      [
        "r_",
        "msg"
      ],
      [
        "ent_",
        "animal"
      ],
      [
        "er",
        "r_msg"
      ],
      [
        "22",
        "88"
      ],
      [
        "ag",
        "ent"
      ],
      [
        "MO",
        "D"
      ],
      [
        "st_",
        "done"
      ],
      [
        "wate",
        "r_"
      ],
      [
        "ent_g",
        "uard_"
      ],
      [
        "cy",
        "an"
      ],
      [
        "are",
        "a"
      ],
      [
        "3",
        "40"
      ],
      [
        "b",
        "ge"
      ],
      [
        "d",
        "g_"
      ],
      [
        "i",
        "b_"
      ],
      [
        "n",
        "t_"
      ],
      [
        "n",
        "b_"
      ],
      [
        "x",
        "_pos"
      ],
      [
        "re",
        "lu"
      ],
      [
        "ra",
        "t_"
      ],
      [
        "not_",
        "s"
      ],
      [
        "not_",
        "sel"
      ],
      [
        "0000",
        "0"
      ],
      [
        "sc",
        "opy"
      ],
      [
        "ad",
        "d_"
      ],
      [
        "ex",
        "p_"
      ],
      [
        "cmd_",
        "is"
      ],
      [
        "po",
        "s_"
      ],
      [
        "skip_",
        "pipe"
      ],
      [
        "ab",
        "s_"
      ],
      [
        "copy_",
        "pipe"
      ],
      [
        "_space",
        "s_"
      ],
      [
        "dy_",
        "neg"
      ],
      [
        "parse_",
        "redirect_"
      ],
      [
        "exe",
        "c_"
      ],
      [
        "rh_",
        "r"
      ],
      [
        "debug",
        "_reg"
      ],
      [
        "mm_ent_",
        "not_"
      ],
      [
        "diamon",
        "d_"
      ],
      [
        "call_",
        "fill_"
      ],
      [
        "px",
        "l_"
      ],
      [
        "_shr",
        "ink"
      ],
      [
        "n",
        "l"
      ],
      [
        "ST",
        "A"
      ],
      [
        "date",
        "_"
      ],
      [
        "c",
        "enter"
      ],
      [
        "do",
        "t"
      ],
      [
        "in",
        "ter"
      ],
      [
        "le",
        "t"
      ],
      [
        "ro",
        "n"
      ],
      [
        "si",
        "mple"
      ],
      [
        "char",
        "s"
      ],
      [
        "advan",
        "ce"
      ],
      [
        "c",
        "cu"
      ],
      [
        "40",
        "40"
      ],
      [
        "da",
        "y"
      ],
      [
        "val",
        "ue"
      ],
      [
        "ri",
        "z"
      ],
      [
        "the",
        "r"
      ],
      [
        "ma",
        "x"
      ],
      [
        "fla",
        "g"
      ],
      [
        "o",
        "m"
      ],
      [
        "00",
        "22"
      ],
      [
        "an",
        "ge"
      ],
      [
        "pi",
        "ece"
      ],
      [
        "c",
        "lose"
      ],
      [
        "d",
        "d"
      ],
      [
        "se",
        "s"
      ],
      [
        "P",
        "ro"
      ],
      [
        "c",
        "re"
      ],
      [
        "he",
        "ll"
      ],
      [
        "12",
        "7"
      ],
      [
        "R_",
        "BUF"
      ],
      [
        "ran",
        "ge"
      ],
      [
        "a",
        "m"
      ],
      [
        "re",
        "ss"
      ],
      [
        "opcode",
        "s"
      ],
      [
        "execu",
        "te"
      ],
      [
        "FI",
        "LL"
      ],
      [
        "li",
        "st"
      ],
      [
        "C",
        "lear"
      ],
      [
        "sg",
        "r25"
      ],
      [
        "--------",
        "--------"
      ],
      [
        "sgr25",
        "6"
      ],
      [
        "I",
        "KEY"
      ],
      [
        "X",
        "X"
      ],
      [
        "t",
        "w"
      ],
      [
        "st",
        "atus"
      ],
      [
        "BA",
        "SE"
      ],
      [
        "0x",
        "78"
      ],
      [
        "ho",
        "riz"
      ],
      [
        "s",
        "n"
      ],
      [
        "no_",
        "key"
      ],
      [
        "bio",
        "me_"
      ],
      [
        "le",
        "te"
      ],
      [
        "_p",
        "i"
      ],
      [
        "win",
        "do"
      ],
      [
        "boun",
        "ce"
      ],
      [
        "v",
        "ol"
      ],
      [
        "DI",
        "V"
      ],
      [
        "p",
        "ing"
      ],
      [
        "in",
        "fo"
      ],
      [
        "ex",
        "i"
      ],
      [
        ")",
        ":"
      ],
      [
        "w",
        "er"
      ],
      [
        "y",
        "e"
      ],
      [
        "append_",
        "byte"
      ],
      [
        "off",
        "set"
      ],
      [
        "r",
        "ing"
      ],
      [
        "s",
        "hi"
      ],
      [
        "get_",
        "tab_"
      ],
      [
        "h",
        "ase"
      ],
      [
        "16",
        "0"
      ],
      [
        "_check_",
        "result"
      ],
      [
        "pixel",
        "s"
      ],
      [
        "escap",
        "e"
      ],
      [
        "tog",
        "gle"
      ],
      [
        "r",
        "t"
      ],
      [
        "in",
        "side"
      ],
      [
        "S",
        "t"
      ],
      [
        "re",
        "load"
      ],
      [
        "en",
        "ta"
      ],
      [
        "0x",
        "3"
      ],
      [
        "ri",
        "ve"
      ],
      [
        "ur",
        "ce"
      ],
      [
        "over",
        "lay"
      ],
      [
        "re",
        "p"
      ],
      [
        "game",
        "_"
      ],
      [
        "D",
        "_"
      ],
      [
        "X",
        "OR"
      ],
      [
        "o",
        "ther"
      ],
      [
        "u",
        "32"
      ],
      [
        "it",
        "s_"
      ],
      [
        "pb_",
        "ret"
      ],
      [
        "CO",
        "LO"
      ],
      [
        "norm",
        "al"
      ],
      [
        "game_",
        "over"
      ],
      [
        "A",
        "B"
      ],
      [
        "H",
        "I"
      ],
      [
        "o",
        "u"
      ],
      [
        "te",
        "mp"
      ],
      [
        "de",
        "ad"
      ],
      [
        "0",
        "4"
      ],
      [
        "C",
        "SI_"
      ],
      [
        "c",
        "ase"
      ],
      [
        "t",
        "k"
      ],
      [
        "fo",
        "rest"
      ],
      [
        "2",
        "30"
      ],
      [
        "M",
        "_"
      ],
      [
        "c",
        "or"
      ],
      [
        "ne",
        "cted"
      ],
      [
        "0x",
        "30"
      ],
      [
        "mag",
        "enta"
      ],
      [
        "spe",
        "ci"
      ],
      [
        "E",
        "N"
      ],
      [
        "de",
        "lete"
      ],
      [
        "ce",
        "s"
      ],
      [
        "wor",
        "d_"
      ],
      [
        "base",
        "d"
      ],
      [
        "44",
        "00"
      ],
      [
        "cal",
        "c"
      ],
      [
        "add",
        "ress"
      ],
      [
        "ran",
        "do"
      ],
      [
        "a",
        "bo"
      ],
      [
        "i",
        "ne"
      ],
      [
        "m",
        "en"
      ],
      [
        "re",
        "ad_"
      ],
      [
        "33",
        "00"
      ],
      [
        "mi",
        "es"
      ],
      [
        "tk_",
        "arrow_"
      ],
      [
        "enter_",
        "digit_"
      ],
      [
        "In",
        "it"
      ],
      [
        "0",
        "1"
      ],
      [
        "s",
        "and"
      ],
      [
        "se",
        "d"
      ],
      [
        "14",
        "14"
      ],
      [
        "d",
        "u"
      ],
      [
        "11",
        "1"
      ],
      [
        "up",
        "time"
      ],
      [
        "ene",
        "mies"
      ],
      [
        "_",
        "end"
      ],
      [
        "b",
        "lack"
      ],
      [
        "0x",
        "0000"
      ],
      [
        "al",
        "ph"
      ],
      [
        "to",
        "wer"
      ],
      [
        "un",
        "do"
      ],
      [
        "bl",
        "end_"
      ],
      [
        "6",
        "1"
      ],
      [
        "p",
        "ort"
      ],
      [
        "a",
        "i"
      ],
      [
        "10",
        "10"
      ],
      [
        "hu",
        "d"
      ],
      [
        "circ",
        "le"
      ],
      [
        "c",
        "ar"
      ],
      [
        "g",
        "en"
      ],
      [
        "i",
        "ve"
      ],
      [
        "r",
        "c_"
      ],
      [
        "y",
        "m"
      ],
      [
        "20",
        "20"
      ],
      [
        "draw",
        "_st"
      ],
      [
        "alph",
        "a"
      ],
      [
        "2",
        "18"
      ],
      [
        "_c",
        "le"
      ],
      [
        "_c",
        "p_done"
      ],
      [
        "start",
        "up"
      ],
      [
        "5",
        "8"
      ],
      [
        "f",
        "lo"
      ],
      [
        "g",
        "host"
      ],
      [
        "k",
        "en"
      ],
      [
        "de",
        "st"
      ],
      [
        "66",
        "00"
      ],
      [
        "start",
        "up_"
      ],
      [
        "ea",
        "ch"
      ],
      [
        "tree",
        "_"
      ],
      [
        "3",
        "60"
      ],
      [
        "g",
        "le_"
      ],
      [
        "h",
        "p"
      ],
      [
        "an",
        "im_"
      ],
      [
        "th",
        "ink"
      ],
      [
        "low",
        "er"
      ],
      [
        "tit",
        "le_"
      ],
      [
        "her",
        "me"
      ],
      [
        "0x2",
        "000"
      ],
      [
        "U",
        "N"
      ],
      [
        "i",
        "ght_"
      ],
      [
        "m",
        "ne"
      ],
      [
        "x",
        "i"
      ],
      [
        "he",
        "ight_"
      ],
      [
        "me",
        "min"
      ],
      [
        "not_",
        "digit"
      ],
      [
        "ge",
        "ne"
      ],
      [
        "ca",
        "m_"
      ],
      [
        "exp",
        "ort"
      ],
      [
        "wan",
        "de"
      ],
      [
        "I",
        "t"
      ],
      [
        "a",
        "le"
      ],
      [
        "w",
        "_done"
      ],
      [
        "ar",
        "rive"
      ],
      [
        "st",
        "op"
      ],
      [
        "10",
        "18"
      ],
      [
        "_st",
        "ate"
      ],
      [
        "ame",
        "ra"
      ],
      [
        "_se",
        "t_"
      ],
      [
        "_sc",
        "ro"
      ],
      [
        "th",
        "en"
      ],
      [
        "wit",
        "ch"
      ],
      [
        "26",
        "5"
      ],
      [
        "valu",
        "es"
      ],
      [
        "memin",
        "fo"
      ],
      [
        "C",
        "K"
      ],
      [
        "_",
        "nx"
      ],
      [
        "c",
        "va"
      ],
      [
        "p",
        "_col"
      ],
      [
        "op",
        "era"
      ],
      [
        "_s",
        "ym"
      ],
      [
        "ri",
        "s"
      ],
      [
        "l_",
        "move"
      ],
      [
        "ti",
        "cle"
      ],
      [
        "_co",
        "lo"
      ],
      [
        "sgr_",
        "n"
      ],
      [
        "mm_",
        "pn"
      ],
      [
        "mc_25",
        "8"
      ],
      [
        "cc",
        "p_"
      ],
      [
        "div",
        "_done"
      ],
      [
        "_cl",
        "r_"
      ],
      [
        "cs",
        "u"
      ],
      [
        "ypre",
        "_chk"
      ],
      [
        "pb_check_",
        "utf8"
      ],
      [
        "mc_check",
        "_sym"
      ],
      [
        "register",
        "s"
      ],
      [
        "xblend",
        "_chk_"
      ],
      [
        "men",
        "u"
      ],
      [
        "mm_pn",
        "t_"
      ],
      [
        "1",
        "25"
      ],
      [
        "S",
        "to"
      ],
      [
        "a",
        "a"
      ],
      [
        "l",
        "g"
      ],
      [
        "s",
        "h"
      ],
      [
        "y",
        "_done"
      ],
      [
        "in",
        "di"
      ],
      [
        "80",
        "4"
      ],
      [
        "55",
        "00"
      ],
      [
        "ct",
        "c_"
      ],
      [
        "0x00",
        "FF00"
      ],
      [
        "http_stri",
        "p_"
      ],
      [
        "che",
        "s"
      ],
      [
        "ou",
        "ter"
      ],
      [
        "L",
        "o"
      ],
      [
        "c",
        "_loop"
      ],
      [
        "t",
        "al"
      ],
      [
        "_c",
        "al"
      ],
      [
        "pa",
        "ra"
      ],
      [
        "ta",
        "ken"
      ],
      [
        "12",
        "34"
      ],
      [
        "_re",
        "set"
      ],
      [
        "ab",
        "t_"
      ],
      [
        "go",
        "t"
      ],
      [
        "render",
        "_done"
      ],
      [
        "lines",
        "_done"
      ],
      [
        "dx_",
        "ok"
      ],
      [
        "_char",
        "s"
      ],
      [
        "norm",
        "al_"
      ],
      [
        "B",
        "B"
      ],
      [
        "l",
        "b"
      ],
      [
        "u",
        "a"
      ],
      [
        "t_",
        "c"
      ],
      [
        "_c",
        "2"
      ],
      [
        "lo",
        "g"
      ],
      [
        "l_",
        "next"
      ],
      [
        "80",
        "1"
      ],
      [
        "it_",
        "en"
      ],
      [
        "_p",
        "ar"
      ],
      [
        "_b",
        "lock"
      ],
      [
        "go",
        "t_"
      ],
      [
        "id",
        "th"
      ],
      [
        "_copy_",
        "name"
      ],
      [
        "56",
        "78"
      ],
      [
        "df",
        "s_"
      ],
      [
        "focus_",
        "lo_"
      ],
      [
        "_color",
        "s"
      ],
      [
        "block",
        "ed"
      ],
      [
        "switch_",
        "to_"
      ],
      [
        "car",
        "ve_"
      ],
      [
        "_cle",
        "anup"
      ],
      [
        "_block",
        "ed"
      ],
      [
        "_",
        "left"
      ],
      [
        "_",
        "right"
      ],
      [
        "n",
        "b"
      ],
      [
        "s",
        "v"
      ],
      [
        "s",
        "h_"
      ],
      [
        "_s",
        "rc"
      ],
      [
        "r_",
        "ok"
      ],
      [
        "pa",
        "ck"
      ],
      [
        "20",
        "2"
      ],
      [
        "33",
        "66"
      ],
      [
        "draw_",
        "tex"
      ],
      [
        "draw_",
        "green"
      ],
      [
        "_co",
        "mmand"
      ],
      [
        "clear",
        "_promp"
      ],
      [
        "_ch",
        "ange"
      ],
      [
        "dy_",
        "ok"
      ],
      [
        "wc_",
        "utoa"
      ],
      [
        "hist_",
        "up"
      ],
      [
        "digit_",
        "ok"
      ],
      [
        "pat_di",
        "_"
      ],
      [
        "lef",
        "t_"
      ],
      [
        "probe",
        "_"
      ],
      [
        "_cy",
        "an"
      ],
      [
        "ron",
        "tab"
      ],
      [
        "2",
        "33"
      ],
      [
        "C",
        "_"
      ],
      [
        "P",
        "TY"
      ],
      [
        "d",
        "w"
      ],
      [
        "k",
        "o"
      ],
      [
        "o",
        "rac"
      ],
      [
        "w",
        "idth"
      ],
      [
        "ent_",
        "update"
      ],
      [
        "li",
        "st_"
      ],
      [
        "ut_",
        "d"
      ],
      [
        "init_",
        "pattern"
      ],
      [
        "ent_agent_",
        "state_"
      ],
      [
        "bo",
        "x"
      ],
      [
        "rh_",
        "n"
      ],
      [
        "advance_",
        "to_"
      ],
      [
        "em",
        "it"
      ],
      [
        "hl",
        "_col"
      ],
      [
        "CUR_",
        "ROW"
      ],
      [
        "orac",
        "le_"
      ],
      [
        "_",
        "l"
      ],
      [
        "_",
        "text"
      ],
      [
        "b",
        "g_"
      ],
      [
        "c",
        "y_"
      ],
      [
        "c",
        "x_"
      ],
      [
        "e",
        "v_"
      ],
      [
        "e",
        "is"
      ],
      [
        "g",
        "tb"
      ],
      [
        "h",
        "wu_"
      ],
      [
        "n",
        "_loop"
      ],
      [
        "r",
        "m_"
      ],
      [
        "r",
        "dec"
      ],
      [
        "s",
        "ut_"
      ],
      [
        "t",
        "3"
      ],
      [
        "re",
        "d_"
      ],
      [
        "re",
        "tile_"
      ],
      [
        "in",
        "v_"
      ],
      [
        "_s",
        "ub"
      ],
      [
        "_s",
        "now"
      ],
      [
        "_s",
        "now_"
      ],
      [
        "_s",
        "witch"
      ],
      [
        "ra",
        "in_"
      ],
      [
        "_do",
        "ts"
      ],
      [
        "no",
        "_save"
      ],
      [
        "loop",
        "1"
      ],
      [
        "y_",
        "pos"
      ],
      [
        "ent_",
        "nt_"
      ],
      [
        "s_",
        "next"
      ],
      [
        "s_",
        "lp"
      ],
      [
        "not_",
        "left"
      ],
      [
        "draw_",
        "white"
      ],
      [
        "ok",
        "_msg"
      ],
      [
        "do_",
        "newline"
      ],
      [
        "66",
        "55"
      ],
      [
        "bl",
        "t_"
      ],
      [
        "_p",
        "ing"
      ],
      [
        "cmd_",
        "build"
      ],
      [
        "fa",
        "ce_"
      ],
      [
        "str",
        "cm"
      ],
      [
        "_re",
        "place"
      ],
      [
        "_sto",
        "ne"
      ],
      [
        "n_",
        "on"
      ],
      [
        "skip_",
        "frame"
      ],
      [
        "_check",
        "_done"
      ],
      [
        "byte",
        "_loop"
      ],
      [
        "red",
        "_chk_"
      ],
      [
        "tail",
        "_coun"
      ],
      [
        "_shi",
        "p"
      ],
      [
        "inc",
        "search"
      ],
      [
        "hl_",
        "opcodes"
      ],
      [
        "i_",
        "neg"
      ],
      [
        "cro",
        "ss_"
      ],
      [
        "input_",
        "sel"
      ],
      [
        "grep",
        "_copy_"
      ],
      [
        "parse_p",
        "i"
      ],
      [
        "fn",
        "_done"
      ],
      [
        "_cla",
        "mp_"
      ],
      [
        "gm_",
        "j"
      ],
      [
        "pr",
        "b_"
      ],
      [
        "cb",
        "_s"
      ],
      [
        "open",
        "_"
      ],
      [
        "gd_",
        "f"
      ],
      [
        "http_stri",
        "p"
      ],
      [
        "ent_pro",
        "g"
      ],
      [
        "url_parse_p",
        "or"
      ],
      [
        "sin_",
        "q"
      ],
      [
        "have",
        "_"
      ],
      [
        "hm",
        "_check_"
      ],
      [
        "sample",
        "_check_"
      ],
      [
        "bge",
        "_"
      ],
      [
        "skip_pipe",
        "_spaces"
      ],
      [
        "_spaces_",
        "inc"
      ],
      [
        "gtb",
        "b_"
      ],
      [
        "a",
        "y"
      ],
      [
        "z",
        "ation"
      ],
      [
        "000",
        "8"
      ],
      [
        "15",
        "15"
      ],
      [
        "ver",
        "t"
      ],
      [
        "SE",
        "ND"
      ],
      [
        "_copy_",
        "d"
      ],
      [
        "n",
        "ib"
      ],
      [
        "o",
        "range"
      ],
      [
        "w",
        "al"
      ],
      [
        "44",
        "55"
      ],
      [
        "qu",
        "are"
      ],
      [
        "3",
        "88"
      ],
      [
        "s",
        "up"
      ],
      [
        "40",
        "4"
      ],
      [
        "00000000",
        "00000000"
      ],
      [
        "ai_",
        "ring"
      ],
      [
        "re",
        "place"
      ],
      [
        "11",
        "5"
      ],
      [
        "0x40",
        "D"
      ],
      [
        "4",
        "32"
      ],
      [
        ">",
        ">"
      ],
      [
        "b",
        "all"
      ],
      [
        "d",
        "ri"
      ],
      [
        "in",
        "s"
      ],
      [
        "ra",
        "l"
      ],
      [
        "bo",
        "dy"
      ],
      [
        "frame",
        "s"
      ],
      [
        "4",
        "20"
      ],
      [
        "main",
        "ing"
      ],
      [
        "AN",
        "DI"
      ],
      [
        "ro",
        "u"
      ],
      [
        "cla",
        "mp"
      ],
      [
        "11",
        "7"
      ],
      [
        "ok",
        "up"
      ],
      [
        "reg",
        "s"
      ],
      [
        "0x6",
        "A"
      ],
      [
        "opera",
        "tion"
      ],
      [
        "wal",
        "k"
      ],
      [
        "le",
        "cted"
      ],
      [
        "st",
        "an"
      ],
      [
        "pa",
        "int"
      ],
      [
        "as",
        "h"
      ],
      [
        "a",
        "ch"
      ],
      [
        "PSE",
        "TI"
      ],
      [
        "PA",
        "RAM"
      ],
      [
        "di",
        "ent"
      ],
      [
        "10",
        "2"
      ],
      [
        "22",
        "4"
      ],
      [
        "tur",
        "n"
      ],
      [
        "CSI_",
        "PARAM"
      ],
      [
        "c",
        "all"
      ],
      [
        "i",
        "gh"
      ],
      [
        "t",
        "x"
      ],
      [
        "in",
        "ts"
      ],
      [
        "de",
        "mo"
      ],
      [
        "indi",
        "c"
      ],
      [
        ")",
        "."
      ],
      [
        "he",
        "re"
      ],
      [
        "SUB",
        "I"
      ],
      [
        "key",
        "board"
      ],
      [
        "tile",
        "s"
      ],
      [
        "mem",
        "ory"
      ],
      [
        "M",
        "E"
      ],
      [
        "p",
        "ush"
      ],
      [
        "v",
        "as"
      ],
      [
        "re",
        "f"
      ],
      [
        "11",
        "2"
      ],
      [
        "si",
        "s"
      ],
      [
        "gra",
        "dient"
      ],
      [
        "ver",
        "y"
      ],
      [
        "B",
        "u"
      ],
      [
        "O",
        "p"
      ],
      [
        "m",
        "al"
      ],
      [
        "ro",
        "und"
      ],
      [
        "ad",
        "j"
      ],
      [
        "as",
        "te"
      ],
      [
        "_re",
        "t"
      ],
      [
        "id",
        "x"
      ],
      [
        "ext",
        "ra"
      ],
      [
        "W",
        "rite"
      ],
      [
        "i",
        "g"
      ],
      [
        "ne",
        "t"
      ],
      [
        "re",
        "ment"
      ],
      [
        "lo",
        "okup"
      ],
      [
        "de",
        "l"
      ],
      [
        "88",
        "00"
      ],
      [
        "0x4",
        "E"
      ],
      [
        "T",
        "R"
      ],
      [
        "W",
        "IN"
      ],
      [
        "a",
        "uto"
      ],
      [
        "ce",
        "ss"
      ],
      [
        "ex",
        "it"
      ],
      [
        "8",
        "6"
      ],
      [
        "e",
        "t"
      ],
      [
        "00",
        "1"
      ],
      [
        "alar",
        "m"
      ],
      [
        "C",
        "L"
      ],
      [
        "re",
        "ver"
      ],
      [
        "en",
        "ame"
      ],
      [
        "ro",
        "om"
      ],
      [
        "Re",
        "ad"
      ],
      [
        "cy",
        "cle"
      ],
      [
        "0xFFFFFF",
        "FF"
      ],
      [
        "hal",
        "t"
      ],
      [
        "b",
        "g"
      ],
      [
        "p",
        "ut"
      ],
      [
        "de",
        "p"
      ],
      [
        "ta",
        "in"
      ],
      [
        "win",
        "_"
      ],
      [
        "79",
        "00"
      ],
      [
        "exe",
        "c_done"
      ],
      [
        "fl",
        "at"
      ],
      [
        "SEND",
        "_BUF"
      ],
      [
        "E",
        "SC"
      ],
      [
        "T",
        "ile"
      ],
      [
        "W",
        "or"
      ],
      [
        "c",
        "no"
      ],
      [
        "ro",
        "l"
      ],
      [
        "proce",
        "ss"
      ],
      [
        "rat",
        "ch"
      ],
      [
        "1",
        "0000"
      ],
      [
        "L",
        "IN"
      ],
      [
        "o",
        "me"
      ],
      [
        "op",
        "i"
      ],
      [
        "tra",
        "ce"
      ],
      [
        "A",
        "1"
      ],
      [
        "C",
        "E"
      ],
      [
        "S",
        "P"
      ],
      [
        "X",
        "EL"
      ],
      [
        "_",
        "T"
      ],
      [
        "l",
        "and"
      ],
      [
        "o",
        "us"
      ],
      [
        "s",
        "ys"
      ],
      [
        "ST",
        "R_BUF"
      ],
      [
        "hi",
        "gh"
      ],
      [
        "fil",
        "ename"
      ],
      [
        "use",
        "d"
      ],
      [
        "_coun",
        "ter"
      ],
      [
        "ru",
        "le"
      ],
      [
        "CUR_",
        "COL"
      ],
      [
        "visi",
        "ted"
      ],
      [
        "PI",
        "XEL"
      ],
      [
        "operation",
        "s"
      ],
      [
        "V",
        "E"
      ],
      [
        "s",
        "now"
      ],
      [
        "re",
        "r"
      ],
      [
        "in",
        "to"
      ],
      [
        "si",
        "ze"
      ],
      [
        "T",
        "e"
      ],
      [
        "s",
        "af"
      ],
      [
        "color",
        "s"
      ],
      [
        "load",
        "ing"
      ],
      [
        "ROW",
        "S"
      ],
      [
        "m",
        "at"
      ],
      [
        "ne",
        "ct"
      ],
      [
        "==",
        "="
      ],
      [
        "co",
        "mmand"
      ],
      [
        "for",
        "w"
      ],
      [
        "vi",
        "a"
      ],
      [
        "zoo",
        "m"
      ],
      [
        "v",
        "o"
      ],
      [
        "la",
        "st"
      ],
      [
        "li",
        "ve"
      ],
      [
        "..",
        ".."
      ],
      [
        "row_",
        "dirty"
      ],
      [
        "mark_",
        "row_dirty"
      ],
      [
        "bran",
        "ch"
      ],
      [
        "F",
        "rame"
      ],
      [
        "a",
        "mi"
      ],
      [
        "fi",
        "c"
      ],
      [
        "13",
        "6"
      ],
      [
        "temp",
        "o"
      ],
      [
        "gene",
        "rate"
      ],
      [
        "aste",
        "ro"
      ],
      [
        "P",
        "hase"
      ],
      [
        "a",
        "st"
      ],
      [
        "19",
        "2"
      ],
      [
        "ma",
        "ze"
      ],
      [
        "neg",
        "ate"
      ],
      [
        "reg",
        "ion"
      ],
      [
        "initiali",
        "ze"
      ],
      [
        "saf",
        "e"
      ],
      [
        "E",
        "n"
      ],
      [
        "n",
        "ight"
      ],
      [
        "p",
        "l"
      ],
      [
        "p",
        "ty"
      ],
      [
        "w",
        "ho"
      ],
      [
        "ne",
        "igh"
      ],
      [
        "do",
        "ts"
      ],
      [
        "25",
        "00"
      ],
      [
        "mo",
        "d"
      ],
      [
        "ab",
        "le"
      ],
      [
        "0xFF",
        "B"
      ],
      [
        "conto",
        "ur"
      ],
      [
        "horiz",
        "on"
      ],
      [
        "T",
        "U"
      ],
      [
        "a",
        "b_"
      ],
      [
        "g",
        "round"
      ],
      [
        "r",
        "t_"
      ],
      [
        "0x",
        "200"
      ],
      [
        "me",
        "d"
      ],
      [
        "buf",
        "_b"
      ],
      [
        "E",
        "X"
      ],
      [
        "_",
        "0"
      ],
      [
        "po",
        "int"
      ],
      [
        "str",
        "len"
      ],
      [
        "back",
        "space"
      ],
      [
        "no_c",
        "lick"
      ],
      [
        "ne",
        "q"
      ],
      [
        "inc",
        "rement"
      ],
      [
        "0x5",
        "000"
      ],
      [
        "Bu",
        "ild"
      ],
      [
        "app",
        "ly"
      ],
      [
        "tx",
        "t"
      ],
      [
        "A",
        "0"
      ],
      [
        "H",
        "el"
      ],
      [
        "I",
        "f"
      ],
      [
        "v",
        "y"
      ],
      [
        "at",
        "ches"
      ],
      [
        "render_",
        "row"
      ],
      [
        "SE",
        "T"
      ],
      [
        "STA",
        "TU"
      ],
      [
        "indic",
        "ator"
      ],
      [
        "Hel",
        "lo"
      ],
      [
        "2",
        "44"
      ],
      [
        "A",
        "S"
      ],
      [
        "T",
        "ot"
      ],
      [
        "a",
        "u"
      ],
      [
        "un",
        "tain"
      ],
      [
        "RA",
        "ND"
      ],
      [
        "um",
        "n"
      ],
      [
        "we",
        "at"
      ],
      [
        "Init",
        "iali"
      ],
      [
        "Tot",
        "al"
      ],
      [
        ">",
        "="
      ],
      [
        "i",
        "ds"
      ],
      [
        "u",
        "se_"
      ],
      [
        "an",
        "cel"
      ],
      [
        "ve",
        "l"
      ],
      [
        "80",
        "80"
      ],
      [
        "us",
        "k"
      ],
      [
        "76",
        "8"
      ],
      [
        "ll",
        "m"
      ],
      [
        "mc_",
        "ret"
      ],
      [
        "da",
        "wn"
      ],
      [
        "check",
        "_collision"
      ],
      [
        "wor",
        "d"
      ],
      [
        "col",
        "umn"
      ],
      [
        "fe",
        "t"
      ],
      [
        "light",
        "ning"
      ],
      [
        "block",
        "s"
      ],
      [
        "_pi",
        "ece"
      ],
      [
        "5",
        "9"
      ],
      [
        "w",
        "atch"
      ],
      [
        "to",
        "ry"
      ],
      [
        "the",
        "me"
      ],
      [
        "ol",
        "ute"
      ],
      [
        "wor",
        "ds"
      ],
      [
        "ali",
        "ve"
      ],
      [
        "toolti",
        "p"
      ],
      [
        "bor",
        "der"
      ],
      [
        "rando",
        "m"
      ],
      [
        "Lo",
        "ad"
      ],
      [
        "opi",
        "ed"
      ],
      [
        "1",
        "22"
      ],
      [
        "2",
        "36"
      ],
      [
        "b",
        "s"
      ],
      [
        "d",
        "usk"
      ],
      [
        "_c",
        "tr"
      ],
      [
        "st",
        "a"
      ],
      [
        "la",
        "te"
      ],
      [
        "mo",
        "untain"
      ],
      [
        "000",
        "14"
      ],
      [
        "18",
        "1"
      ],
      [
        "99",
        "9"
      ],
      [
        "of",
        "t_"
      ],
      [
        "fin",
        "al"
      ],
      [
        "diamon",
        "d"
      ],
      [
        "abs",
        "olute"
      ],
      [
        "wan",
        "der"
      ],
      [
        "tk",
        "_ctr"
      ],
      [
        "Op",
        "code"
      ],
      [
        "initialize",
        "s"
      ],
      [
        "S",
        "AR"
      ],
      [
        "o",
        "_"
      ],
      [
        "ent_agent_",
        "restore"
      ],
      [
        "ds",
        "b"
      ],
      [
        "inc",
        "lu"
      ],
      [
        "ye",
        "ar"
      ],
      [
        "ent_agent_restore",
        "_"
      ],
      [
        "+",
        "+"
      ],
      [
        "0",
        "5"
      ],
      [
        "2",
        "38"
      ],
      [
        "re",
        "start"
      ],
      [
        "te",
        "al"
      ],
      [
        "10",
        "20"
      ],
      [
        "un",
        "ame"
      ],
      [
        "25",
        "0"
      ],
      [
        "line",
        "_"
      ],
      [
        "14",
        "00"
      ],
      [
        "_p",
        "lay"
      ],
      [
        "to_",
        "buf"
      ],
      [
        "abo",
        "ve"
      ],
      [
        "who",
        "ami"
      ],
      [
        "o_",
        "digit"
      ],
      [
        "Y",
        "_"
      ],
      [
        "f",
        "ar"
      ],
      [
        "f",
        "mt_"
      ],
      [
        "re",
        "cycle"
      ],
      [
        "op",
        "s"
      ],
      [
        "de",
        "sc"
      ],
      [
        "an",
        "gle_"
      ],
      [
        "_co",
        "mpute"
      ],
      [
        "es",
        "sion"
      ],
      [
        "app",
        "le"
      ],
      [
        "da",
        "ys"
      ],
      [
        "tile",
        "_done"
      ],
      [
        "exe",
        "c"
      ],
      [
        "pr",
        "int"
      ],
      [
        "Se",
        "arch"
      ],
      [
        "am",
        "bi"
      ],
      [
        "herme",
        "s_"
      ],
      [
        "astero",
        "ids"
      ],
      [
        "neigh",
        "bor"
      ],
      [
        "E",
        "E"
      ],
      [
        "R",
        "L"
      ],
      [
        "_",
        "agent"
      ],
      [
        "a",
        "xi"
      ],
      [
        "x",
        "blend_"
      ],
      [
        "do",
        "r"
      ],
      [
        "_s",
        "tep"
      ],
      [
        "ar",
        "i"
      ],
      [
        "de",
        "d"
      ],
      [
        "ch",
        "ild"
      ],
      [
        "ri",
        "dor"
      ],
      [
        "66",
        "8"
      ],
      [
        "tab",
        "_st"
      ],
      [
        "37",
        "4"
      ],
      [
        "clear_",
        "buf_"
      ],
      [
        "cla",
        "ss"
      ],
      [
        "screen",
        "_"
      ],
      [
        "tur",
        "t"
      ],
      [
        "at_",
        "player"
      ],
      [
        "so",
        "urce"
      ],
      [
        "ite",
        "ms"
      ],
      [
        "foo",
        "ter"
      ],
      [
        "process_",
        "byte"
      ],
      [
        "area",
        "_agent"
      ],
      [
        "think",
        "ing"
      ],
      [
        "wande",
        "rer"
      ],
      [
        "_",
        "key"
      ],
      [
        "e",
        "d_"
      ],
      [
        "i",
        "mple"
      ],
      [
        "ne",
        "t_"
      ],
      [
        "_c",
        "ancel"
      ],
      [
        "le",
        "ts"
      ],
      [
        "le",
        "vel"
      ],
      [
        "d_",
        "pos"
      ],
      [
        "de",
        "ci"
      ],
      [
        "w_",
        "frame"
      ],
      [
        "ch",
        "an"
      ],
      [
        "bu",
        "tt"
      ],
      [
        "si",
        "g"
      ],
      [
        "do_",
        "move"
      ],
      [
        "pla",
        "y_"
      ],
      [
        "next_",
        "tile"
      ],
      [
        "move",
        "_done"
      ],
      [
        "move",
        "_down"
      ],
      [
        "try",
        "_sys"
      ],
      [
        "sa",
        "mp"
      ],
      [
        "_sprite",
        "s"
      ],
      [
        "0x3",
        "000"
      ],
      [
        "flo",
        "o"
      ],
      [
        "arrive",
        "d"
      ],
      [
        "butt",
        "on"
      ],
      [
        "2",
        "14"
      ],
      [
        "_",
        "5"
      ],
      [
        "n",
        "u"
      ],
      [
        "r",
        "r_"
      ],
      [
        "re",
        "dir"
      ],
      [
        "di",
        "r_"
      ],
      [
        "ent_",
        "compute"
      ],
      [
        "ce",
        "d"
      ],
      [
        "not_",
        "space"
      ],
      [
        "22",
        "6"
      ],
      [
        "draw_",
        "frame"
      ],
      [
        "line",
        "_to_"
      ],
      [
        "le_",
        "lp"
      ],
      [
        "19",
        "0"
      ],
      [
        "skip_",
        "redir"
      ],
      [
        "ab",
        "_check_"
      ],
      [
        "pb_",
        "esc"
      ],
      [
        "_t",
        "ar"
      ],
      [
        "write_",
        "line_to_"
      ],
      [
        "tk_",
        "ret"
      ],
      [
        "build_",
        "lines"
      ],
      [
        "restore",
        "_cursor"
      ],
      [
        "copy",
        "_col"
      ],
      [
        "arrow",
        "_down"
      ],
      [
        "Ro",
        "w"
      ],
      [
        "ambi",
        "ent"
      ],
      [
        "ent_compute",
        "_tar"
      ],
      [
        "write_line_to_",
        "buf"
      ],
      [
        "0",
        "_"
      ],
      [
        "M",
        "em"
      ],
      [
        "p",
        "al"
      ],
      [
        "_s",
        "ession"
      ],
      [
        "er",
        "vis"
      ],
      [
        "do_",
        "render"
      ],
      [
        "check_",
        "enemy_"
      ],
      [
        "all",
        "y"
      ],
      [
        "ts",
        "tep"
      ],
      [
        "con",
        "ds"
      ],
      [
        "bar",
        "_done"
      ],
      [
        "mm_",
        "bldg"
      ],
      [
        "ine",
        "s"
      ],
      [
        "c",
        "w_"
      ],
      [
        "c",
        "un"
      ],
      [
        "c",
        "_clear_"
      ],
      [
        "g",
        "r"
      ],
      [
        "g",
        "t_"
      ],
      [
        "n",
        "z"
      ],
      [
        "u",
        "be"
      ],
      [
        "v",
        "en"
      ],
      [
        "w",
        "i"
      ],
      [
        "t_",
        "line"
      ],
      [
        "t_",
        "screen_"
      ],
      [
        "re",
        "cv_"
      ],
      [
        "_c",
        "r"
      ],
      [
        "_c",
        "ube"
      ],
      [
        "_do",
        "_clear"
      ],
      [
        "st",
        "s_"
      ],
      [
        "al",
        "t_screen_"
      ],
      [
        "ve",
        "al"
      ],
      [
        "ent_",
        "do_"
      ],
      [
        "l_",
        "mode"
      ],
      [
        "er",
        "p"
      ],
      [
        "66",
        "0"
      ],
      [
        "check_",
        "esc"
      ],
      [
        "done",
        "_"
      ],
      [
        "try_",
        "build"
      ],
      [
        "ct",
        "c"
      ],
      [
        "pb_csi",
        "_s"
      ],
      [
        "zero",
        "gt_"
      ],
      [
        "pb_csi_",
        "f"
      ],
      [
        "da",
        "mp_"
      ],
      [
        "struct_",
        "land"
      ],
      [
        "csi",
        "_scro"
      ],
      [
        "cc",
        "p_col"
      ],
      [
        "cdl",
        "_clear"
      ],
      [
        "cdl",
        "_clr"
      ],
      [
        "cdl",
        "_clr_"
      ],
      [
        "fill",
        "1"
      ],
      [
        "fill",
        "2"
      ],
      [
        "cil",
        "_clear"
      ],
      [
        "cil",
        "_clr"
      ],
      [
        "_si",
        "ne"
      ],
      [
        "fw_",
        "dc_"
      ],
      [
        "_cre",
        "ate"
      ],
      [
        "era",
        "se_"
      ],
      [
        "_shif",
        "t_loop"
      ],
      [
        "csi_",
        "insert_"
      ],
      [
        "csi_",
        "delete"
      ],
      [
        "csi_",
        "erase_"
      ],
      [
        "sgr_ext",
        "38"
      ],
      [
        "sgr_ext",
        "48"
      ],
      [
        "tb",
        "c_clear_"
      ],
      [
        "bul",
        "lets"
      ],
      [
        "foo",
        "tstep"
      ],
      [
        "main_",
        "0"
      ],
      [
        "cdl_c",
        "s"
      ],
      [
        "csr_",
        "top"
      ],
      [
        "sgr256",
        "_cube"
      ],
      [
        "HI",
        "T"
      ],
      [
        "tower",
        "s"
      ],
      [
        "_colo",
        "r_loop"
      ],
      [
        "ccp_",
        "row"
      ],
      [
        "pb_check_utf8",
        "_3"
      ],
      [
        "normal_",
        "byte"
      ],
      [
        "recycle",
        "_star"
      ],
      [
        "deci",
        "mal"
      ],
      [
        "samp",
        "le_"
      ],
      [
        "zerogt_",
        "4"
      ],
      [
        "3",
        "80"
      ],
      [
        "6",
        "12"
      ],
      [
        "A",
        "L"
      ],
      [
        "b",
        "w"
      ],
      [
        "b",
        "_skip"
      ],
      [
        "c",
        "amera"
      ],
      [
        "g",
        "_done"
      ],
      [
        "h",
        "ints"
      ],
      [
        "i",
        "ter"
      ],
      [
        "t_",
        "next"
      ],
      [
        "re",
        "v_"
      ],
      [
        "lo",
        "ad_"
      ],
      [
        "d_",
        "w"
      ],
      [
        "it",
        "s"
      ],
      [
        "on",
        "t_"
      ],
      [
        "25",
        "3"
      ],
      [
        "80",
        "2"
      ],
      [
        "it_",
        "it_"
      ],
      [
        "draw",
        "_sprite"
      ],
      [
        "18",
        "7"
      ],
      [
        "12",
        "3"
      ],
      [
        "pla",
        "net"
      ],
      [
        "15",
        "7"
      ],
      [
        "_col",
        "s"
      ],
      [
        "ent_agent_",
        "move_"
      ],
      [
        "con",
        "d"
      ],
      [
        "copy_",
        "name"
      ],
      [
        "ran",
        "s"
      ],
      [
        "dr",
        "_scan"
      ],
      [
        "cv_",
        "en"
      ],
      [
        "cv_",
        "it_"
      ],
      [
        "exp",
        "or"
      ],
      [
        "exp",
        "and"
      ],
      [
        "back",
        "ground"
      ],
      [
        "zoom_",
        "default"
      ],
      [
        "scan",
        "_"
      ],
      [
        "http_",
        "rec"
      ],
      [
        "bldg",
        "_do"
      ],
      [
        "sup",
        "ervis"
      ],
      [
        "desc",
        "end"
      ],
      [
        "1",
        "88"
      ],
      [
        "2",
        "000"
      ],
      [
        "_",
        "mt"
      ],
      [
        "`",
        ","
      ],
      [
        "c",
        "2"
      ],
      [
        "d",
        "_skip_"
      ],
      [
        "n",
        "a"
      ],
      [
        "p",
        "k"
      ],
      [
        "en",
        "ti"
      ],
      [
        "no",
        "_str"
      ],
      [
        "de",
        "c_"
      ],
      [
        "di",
        "m"
      ],
      [
        "ri",
        "ght_"
      ],
      [
        "10",
        "30"
      ],
      [
        "or",
        "g"
      ],
      [
        "pa",
        "d_"
      ],
      [
        "pa",
        "used"
      ],
      [
        "l_",
        "buf"
      ],
      [
        "22",
        "66"
      ],
      [
        "draw_",
        "re"
      ],
      [
        "draw_",
        "time"
      ],
      [
        "draw",
        "_status"
      ],
      [
        "ex",
        "it_"
      ],
      [
        "next_",
        "cell"
      ],
      [
        "init_",
        "loop"
      ],
      [
        "try_",
        "run"
      ],
      [
        "gra",
        "ss_"
      ],
      [
        "ent",
        "ity"
      ],
      [
        "_b",
        "ar"
      ],
      [
        "bi",
        "g"
      ],
      [
        "_con",
        "nect"
      ],
      [
        "wu",
        "_skip_"
      ],
      [
        "min",
        "us"
      ],
      [
        "dy_",
        "abs"
      ],
      [
        "dx_",
        "abs"
      ],
      [
        "et_",
        "edmg"
      ],
      [
        "hex",
        "_loop"
      ],
      [
        "path",
        "_done"
      ],
      [
        "focus_",
        "hi_"
      ],
      [
        "copy",
        "_done"
      ],
      [
        "att_",
        "scan"
      ],
      [
        "scan",
        "_done"
      ],
      [
        "dx",
        "_pos"
      ],
      [
        "draw_win",
        "2"
      ],
      [
        "draw_win",
        "3"
      ],
      [
        "http_",
        "recv_"
      ],
      [
        "step",
        "2_"
      ],
      [
        "ent_agent_home_",
        "move_"
      ],
      [
        "fl",
        "ush"
      ],
      [
        "not_up",
        "per"
      ],
      [
        "cep",
        "2_"
      ],
      [
        "fix",
        "ed_"
      ],
      [
        "cep_",
        "edmg"
      ],
      [
        "worl",
        "d_y"
      ],
      [
        "hp_bk",
        "sp"
      ],
      [
        "hp_bk",
        "sp_"
      ],
      [
        "u2",
        "d_skip_"
      ],
      [
        "_cor",
        "ridor"
      ],
      [
        "biome_",
        "not_"
      ],
      [
        "1018",
        "28"
      ],
      [
        "t_c",
        "nt"
      ],
      [
        "sv",
        "c_"
      ],
      [
        "generate",
        "_"
      ],
      [
        "nu",
        "m_"
      ],
      [
        "no_str",
        "u"
      ],
      [
        "dec_",
        "nonzero"
      ],
      [
        "fixed_",
        "to_str"
      ],
      [
        "1",
        "55"
      ],
      [
        "2",
        "25"
      ],
      [
        "d",
        "dy"
      ],
      [
        "e",
        "val"
      ],
      [
        "f",
        "_done"
      ],
      [
        "g",
        "d"
      ],
      [
        "h",
        "wu"
      ],
      [
        "l",
        "1"
      ],
      [
        "o",
        "m_"
      ],
      [
        "r",
        "w_"
      ],
      [
        "s",
        "1"
      ],
      [
        "s",
        "2"
      ],
      [
        "v",
        "_loop"
      ],
      [
        "v",
        "_down"
      ],
      [
        "y",
        "_start"
      ],
      [
        "t_",
        "lines"
      ],
      [
        "_c",
        "rontab"
      ],
      [
        "_s",
        "pawn"
      ],
      [
        "lo",
        "t"
      ],
      [
        "he",
        "l"
      ],
      [
        "dra",
        "in_"
      ],
      [
        "ri",
        "gh"
      ],
      [
        "draw_",
        "blue"
      ],
      [
        "wn",
        "_p"
      ],
      [
        "50",
        "1"
      ],
      [
        "17",
        "7"
      ],
      [
        "13",
        "9"
      ],
      [
        "par",
        "ticle"
      ],
      [
        "pat_",
        "len"
      ],
      [
        "_check",
        "er"
      ],
      [
        "_se",
        "lected"
      ],
      [
        "render_",
        "active"
      ],
      [
        "ci",
        "p"
      ],
      [
        "_sc",
        "opy"
      ],
      [
        "th",
        "at"
      ],
      [
        "_b",
        "ack"
      ],
      [
        "go",
        "l_"
      ],
      [
        "down",
        "_done"
      ],
      [
        "parse_",
        "next_"
      ],
      [
        "parse_",
        "arg"
      ],
      [
        "time",
        "r_"
      ],
      [
        "dn",
        "_rev"
      ],
      [
        "hist_",
        "dn"
      ],
      [
        "digit_",
        "start"
      ],
      [
        "lay",
        "e"
      ],
      [
        "rh",
        "_scopy"
      ],
      [
        "url_parse_p",
        "ath"
      ],
      [
        "worl",
        "d_x"
      ],
      [
        "cre",
        "ate"
      ],
      [
        "5678",
        "9"
      ],
      [
        "ko",
        "ch"
      ],
      [
        "zoom",
        "_set"
      ],
      [
        "2",
        "_lp"
      ],
      [
        "2",
        "35"
      ],
      [
        "_",
        "bl"
      ],
      [
        "_",
        "wait"
      ],
      [
        "_",
        "failed"
      ],
      [
        "_",
        "error"
      ],
      [
        "f",
        "name"
      ],
      [
        "f",
        "wd"
      ],
      [
        "h",
        "line"
      ],
      [
        "h",
        "x_ok"
      ],
      [
        "i",
        "_store"
      ],
      [
        "i",
        "scopy"
      ],
      [
        "k",
        "b_"
      ],
      [
        "l",
        "2_"
      ],
      [
        "m",
        "k"
      ],
      [
        "n",
        "row"
      ],
      [
        "p",
        "m_"
      ],
      [
        "r",
        "dy_"
      ],
      [
        "r",
        "dx_"
      ],
      [
        "s",
        "x_ok"
      ],
      [
        "s",
        "now_"
      ],
      [
        "t",
        "2or3"
      ],
      [
        "u",
        "s_"
      ],
      [
        "v",
        "x_pos"
      ],
      [
        "v",
        "y_pos"
      ],
      [
        "w",
        "h"
      ],
      [
        "w",
        "_col"
      ],
      [
        "y",
        "chk"
      ],
      [
        "t_",
        "store"
      ],
      [
        "t_",
        "prompt"
      ],
      [
        "re",
        "t_cnt"
      ],
      [
        "_c",
        "mp"
      ],
      [
        "_c",
        "ase"
      ],
      [
        "_c",
        "enter"
      ],
      [
        "_c",
        "lick"
      ],
      [
        "_c",
        "urren"
      ],
      [
        "_c",
        "opied"
      ],
      [
        "in",
        "l"
      ],
      [
        "in",
        "t_done"
      ],
      [
        "_s",
        "hell"
      ],
      [
        "_do",
        "_search"
      ],
      [
        "no",
        "_s"
      ],
      [
        "no",
        "_p"
      ],
      [
        "no",
        "_change"
      ],
      [
        "w_",
        "next"
      ],
      [
        "on",
        "_"
      ],
      [
        "y_",
        "ok"
      ],
      [
        "y_",
        "low"
      ],
      [
        "s_",
        "wait"
      ],
      [
        "s_",
        "got"
      ],
      [
        "l_",
        "to"
      ],
      [
        "l_",
        "dec"
      ],
      [
        "25",
        "40"
      ],
      [
        "co",
        "mp_"
      ],
      [
        "not_",
        "d"
      ],
      [
        "not_",
        "w"
      ],
      [
        "not_",
        "zero"
      ],
      [
        "not_",
        "add"
      ],
      [
        "not_",
        "program"
      ],
      [
        "not_",
        "mul"
      ],
      [
        "not_",
        "idle"
      ],
      [
        "not_",
        "class"
      ],
      [
        "row",
        "0"
      ],
      [
        "row",
        "1"
      ],
      [
        "si",
        "_"
      ],
      [
        "draw_",
        "pixel"
      ],
      [
        "draw_",
        "input_"
      ],
      [
        "do_",
        "blend"
      ],
      [
        "draw",
        "_col"
      ],
      [
        "66",
        "77"
      ],
      [
        "_p",
        "ty"
      ],
      [
        "_p",
        "ath"
      ],
      [
        "ren",
        "d_x"
      ],
      [
        "ren",
        "d_y"
      ],
      [
        "no_",
        "neg"
      ],
      [
        "x_",
        "low"
      ],
      [
        "ul",
        "ts"
      ],
      [
        "pla",
        "y_loop"
      ],
      [
        "cmd_",
        "not_"
      ],
      [
        "se_",
        "ex"
      ],
      [
        "se_",
        "type_"
      ],
      [
        "ut_",
        "c"
      ],
      [
        "ut_",
        "loop"
      ],
      [
        "MO",
        "DE"
      ],
      [
        "next_",
        "y"
      ],
      [
        "st_",
        "l2_"
      ],
      [
        "28",
        "38"
      ],
      [
        "try_",
        "key"
      ],
      [
        "60",
        "14"
      ],
      [
        "tab",
        "s_"
      ],
      [
        "_re",
        "st_l2_"
      ],
      [
        "pat_",
        "v_"
      ],
      [
        "pat_",
        "df"
      ],
      [
        "pat_",
        "cr_"
      ],
      [
        "_skip",
        "_space"
      ],
      [
        "_skip",
        "_snow"
      ],
      [
        "skip_",
        "arg"
      ],
      [
        "sgr_",
        "ret"
      ],
      [
        "90",
        "4"
      ],
      [
        "90",
        "90"
      ],
      [
        "_ch",
        "ild"
      ],
      [
        "g_",
        "fail"
      ],
      [
        "save",
        "_scan"
      ],
      [
        "res",
        "p"
      ],
      [
        "zero",
        "_rest_l2_"
      ],
      [
        "show_",
        "running"
      ],
      [
        "try",
        "_cm"
      ],
      [
        "pre",
        "_t"
      ],
      [
        "check",
        "_down"
      ],
      [
        "_con",
        "fi"
      ],
      [
        "copy_",
        "arg"
      ],
      [
        "copy_",
        "redi"
      ],
      [
        "wu",
        "_snow_"
      ],
      [
        "state",
        "_re"
      ],
      [
        "rc",
        "opy"
      ],
      [
        "_t",
        "50"
      ],
      [
        "_t",
        "16"
      ],
      [
        "_t",
        "38"
      ],
      [
        "_t",
        "48"
      ],
      [
        "_t",
        "49"
      ],
      [
        "dy_",
        "up"
      ],
      [
        "dy_",
        "pos"
      ],
      [
        "_str",
        "len"
      ],
      [
        "hex_",
        "alpha"
      ],
      [
        "_copy_",
        "lp"
      ],
      [
        "dx_",
        "left"
      ],
      [
        "fer",
        "n"
      ],
      [
        "wave",
        "_s"
      ],
      [
        "test",
        "3"
      ],
      [
        "test",
        "4"
      ],
      [
        "test",
        "5"
      ],
      [
        "df",
        "_l"
      ],
      [
        "rh_",
        "iscopy"
      ],
      [
        "dr",
        "_shrink"
      ],
      [
        "fill_",
        "row"
      ],
      [
        "grep_",
        "have_"
      ],
      [
        "84",
        "6"
      ],
      [
        "debug",
        "_do"
      ],
      [
        "debug",
        "_ping"
      ],
      [
        "hex",
        "_store"
      ],
      [
        "focus_",
        "hex"
      ],
      [
        "dr_",
        "inc"
      ],
      [
        "dr_",
        "grow"
      ],
      [
        "sp",
        "_s"
      ],
      [
        "sp",
        "_strlen"
      ],
      [
        "colo",
        "n_done"
      ],
      [
        "colo",
        "n_on"
      ],
      [
        "cp",
        "_copy_d"
      ],
      [
        "hp_",
        "rep"
      ],
      [
        "ent_g",
        "uard"
      ],
      [
        "brick",
        "_"
      ],
      [
        "host_",
        "loop"
      ],
      [
        "cb",
        "_sc"
      ],
      [
        "rh",
        "_re"
      ],
      [
        "nts_",
        "rev"
      ],
      [
        "not_p",
        "2"
      ],
      [
        "not_p",
        "3"
      ],
      [
        "cmd",
        "_do"
      ],
      [
        "spawn_",
        "failed"
      ],
      [
        "sin",
        "_clamp_"
      ],
      [
        "zoom_",
        "1"
      ],
      [
        "cp_",
        "back"
      ],
      [
        "no_c",
        "ap"
      ],
      [
        "draw_win",
        "1"
      ],
      [
        "http_",
        "get_"
      ],
      [
        "cat_",
        "write"
      ],
      [
        "pat_di",
        "ag"
      ],
      [
        "place_",
        "type"
      ],
      [
        "sp_",
        "f"
      ],
      [
        "found_",
        "match"
      ],
      [
        "rev",
        "_loop"
      ],
      [
        "redirect_",
        "append"
      ],
      [
        "alar",
        "m_"
      ],
      [
        "escap",
        "ed"
      ],
      [
        "circ",
        "le_"
      ],
      [
        "_do_",
        "rain"
      ],
      [
        "lef",
        "t_done"
      ],
      [
        "heal_",
        "asm_"
      ],
      [
        "show_mine",
        "s_"
      ],
      [
        "bran",
        "ch_"
      ],
      [
        "ha",
        "s_"
      ],
      [
        "Ro",
        "und"
      ],
      [
        "sy_",
        "ok"
      ],
      [
        "u2",
        "d_"
      ],
      [
        "_cor",
        "rect"
      ],
      [
        "clamp_",
        "ok"
      ],
      [
        "relu",
        "_loop"
      ],
      [
        "not_s",
        "ub"
      ],
      [
        "add_",
        "bias"
      ],
      [
        "copy_pipe",
        "_loop"
      ],
      [
        "copy_pipe",
        "_cmd"
      ],
      [
        "rh_r",
        "scopy"
      ],
      [
        "rh_r",
        "rcopy"
      ],
      [
        "debug_reg",
        "s"
      ],
      [
        "close",
        "d_w"
      ],
      [
        "windo",
        "w"
      ],
      [
        "mne",
        "m"
      ],
      [
        "_par",
        "se_"
      ],
      [
        "retile_",
        "w"
      ],
      [
        "strcm",
        "p_"
      ],
      [
        "grep_copy_",
        "file"
      ],
      [
        "parse_pi",
        "pe_"
      ],
      [
        "cb_s",
        "z"
      ],
      [
        "bge_",
        "eq"
      ],
      [
        "gtbb_",
        "t"
      ],
      [
        "floo",
        "d_"
      ],
      [
        "pk",
        "t_"
      ],
      [
        "_spawn",
        "_failed"
      ],
      [
        "hel",
        "lo"
      ],
      [
        "righ",
        "t_done"
      ],
      [
        "laye",
        "r2"
      ],
      [
        "_curren",
        "t_prompt"
      ],
      [
        "pat_df",
        "w_"
      ],
      [
        "try_cm",
        "d_"
      ],
      [
        "hp_rep",
        "l_to"
      ],
      [
        "5",
        "97"
      ],
      [
        "b",
        "_save"
      ],
      [
        "d",
        "p"
      ],
      [
        "i",
        "r"
      ],
      [
        "s",
        "b_save"
      ],
      [
        "u",
        "st"
      ],
      [
        "33",
        "88"
      ],
      [
        "16",
        "28"
      ],
      [
        "99",
        "0"
      ],
      [
        "17",
        "4"
      ],
      [
        "13",
        "5"
      ],
      [
        "60",
        "8"
      ],
      [
        "60",
        "40"
      ],
      [
        "100",
        "8"
      ],
      [
        "53",
        "4"
      ],
      [
        "95",
        "1"
      ],
      [
        "grep",
        "_search"
      ],
      [
        "grep_",
        "no_match"
      ],
      [
        "0x4",
        "000"
      ],
      [
        "bit",
        "s"
      ],
      [
        "sb_",
        "rest"
      ],
      [
        "sep",
        "1"
      ],
      [
        "sep",
        "2"
      ],
      [
        "sep",
        "3"
      ],
      [
        "En",
        "ter"
      ],
      [
        "grep_search",
        "_pos"
      ],
      [
        "1",
        "99"
      ],
      [
        "2",
        "99"
      ],
      [
        "3",
        "43"
      ],
      [
        "5",
        "20"
      ],
      [
        "7",
        "28"
      ],
      [
        "9",
        "33"
      ],
      [
        "A",
        "p"
      ],
      [
        "10",
        "29"
      ],
      [
        "25",
        "71"
      ],
      [
        "80",
        "3"
      ],
      [
        "0000",
        "00"
      ],
      [
        "66",
        "1"
      ],
      [
        "14",
        "20"
      ],
      [
        "17",
        "3"
      ],
      [
        "77",
        "77"
      ],
      [
        "29",
        "4"
      ],
      [
        "1818",
        "18"
      ],
      [
        "speci",
        "fic"
      ],
      [
        "nib",
        "ble"
      ],
      [
        "2",
        "77"
      ],
      [
        "4",
        "200"
      ],
      [
        "5",
        "24"
      ],
      [
        "m",
        "pa"
      ],
      [
        "byte",
        "s"
      ],
      [
        "advance_to_",
        "null"
      ],
      [
        "0",
        "80"
      ],
      [
        "0",
        "36"
      ],
      [
        "1",
        "40"
      ],
      [
        "2",
        "255"
      ],
      [
        "Y",
        "S"
      ],
      [
        "t",
        "rans"
      ],
      [
        "GE",
        "T"
      ],
      [
        "ome",
        "try"
      ],
      [
        "9",
        "1"
      ],
      [
        "U",
        "RL"
      ],
      [
        "_",
        "hash"
      ],
      [
        "s",
        "ame"
      ],
      [
        "v",
        "ari"
      ],
      [
        "ate",
        "d"
      ],
      [
        "sc",
        "ale"
      ],
      [
        "po",
        "inter"
      ],
      [
        "be",
        "t"
      ],
      [
        "over",
        "lap"
      ],
      [
        "LE",
        "N"
      ],
      [
        "Ge",
        "ometry"
      ],
      [
        "W",
        "PIXEL"
      ],
      [
        "he",
        "ight"
      ],
      [
        "to",
        "tal"
      ],
      [
        "0xFF",
        "0000"
      ],
      [
        "AR",
        "T"
      ],
      [
        "COLO",
        "R"
      ],
      [
        "Sto",
        "re"
      ],
      [
        "S",
        "ho"
      ]
    ]
  }
}